{
  "version": "1.0",
  "truncation": null,
  "padding": null,
  "added_tokens": [
    {
      "id": 0,
      "content": "[PAD]",
      "single_word": false,
      "lstrip": false,
      "rstrip": false,
      "normalized": false,
      "special": true
    },
    {
      "id": 1,
      "content": "[UNK]",
      "single_word": false,
      "lstrip": false,
      "rstrip": false,
      "normalized": false,
      "special": true
    },
    {
      "id": 2,
      "content": "[CLS]",
      "single_word": false,
      "lstrip": false,
      "rstrip": false,
      "normalized": false,
      "special": true
    },
    {
      "id": 3,
      "content": "[SEP]",
      "single_word": false,
      "lstrip": false,
      "rstrip": false,
      "normalized": false,
      "special": true
    }
  ],
  "normalizer": {
    "type": "BertNormalizer",
    "clean_text": false,
    "handle_chinese_chars": true,
    "strip_accents": null,
    "lowercase": true
  },
  "pre_tokenizer": {
    "type": "WhitespaceSplit"
  },
  "post_processor": {
    "type": "BertProcessing",
    "sep": [
      "[CLS]",
      2
    ],
    "cls": [
      "[SEP]",
      3
    ]
  },
  "decoder": {
    "type": "WordPiece",
    "prefix": "##",
    "cleanup": true
  },
  "model": {
    "type": "WordPiece",
    "unk_token": "[UNK]",
    "continuing_subword_prefix": "##",
    "max_input_chars_per_word": 100,
    "vocab": {
      "[PAD]": 0,
      "[UNK]": 1,
      "[CLS]": 2,
      "[SEP]": 3,
      "\u0001": 4,
      "\u0005": 5,
      "\u0006": 6,
      "\u0007": 7,
      "!": 8,
      "\"": 9,
      "#": 10,
      "$": 11,
      "%": 12,
      "&": 13,
      "'": 14,
      "(": 15,
      ")": 16,
      "*": 17,
      "+": 18,
      ",": 19,
      "-": 20,
      ".": 21,
      "/": 22,
      "0": 23,
      "1": 24,
      "2": 25,
      "3": 26,
      "4": 27,
      "5": 28,
      "6": 29,
      "7": 30,
      "8": 31,
      "9": 32,
      ":": 33,
      ";": 34,
      "<": 35,
      "=": 36,
      ">": 37,
      "?": 38,
      "@": 39,
      "[": 40,
      "\\": 41,
      "]": 42,
      "^": 43,
      "_": 44,
      "`": 45,
      "a": 46,
      "b": 47,
      "c": 48,
      "d": 49,
      "e": 50,
      "f": 51,
      "g": 52,
      "h": 53,
      "i": 54,
      "j": 55,
      "k": 56,
      "l": 57,
      "m": 58,
      "n": 59,
      "o": 60,
      "p": 61,
      "q": 62,
      "r": 63,
      "s": 64,
      "t": 65,
      "u": 66,
      "v": 67,
      "w": 68,
      "x": 69,
      "y": 70,
      "z": 71,
      "{": 72,
      "|": 73,
      "}": 74,
      "~": 75,
      "ð": 76,
      "׋": 77,
      "の": 78,
      "上": 79,
      "分": 80,
      "数": 81,
      "止": 82,
      "点": 83,
      "線": 84,
      "防": 85,
      "##a": 86,
      "##x": 87,
      "##_": 88,
      "##t": 89,
      "##e": 90,
      "##f": 91,
      "##i": 92,
      "##n": 93,
      "##o": 94,
      "##w": 95,
      "##m": 96,
      "##d": 97,
      "##6": 98,
      "##4": 99,
      "##9": 100,
      "##8": 101,
      "##r": 102,
      "##s": 103,
      "##2": 104,
      "##5": 105,
      "##v": 106,
      "##l": 107,
      "##u": 108,
      "##p": 109,
      "##c": 110,
      "##0": 111,
      "##7": 112,
      "##b": 113,
      "##y": 114,
      "##g": 115,
      "##k": 116,
      "##1": 117,
      "##h": 118,
      "##%": 119,
      "##3": 120,
      "##z": 121,
      "##[": 122,
      "##-": 123,
      "##]": 124,
      "##.": 125,
      "##j": 126,
      "##\\": 127,
      "##!": 128,
      "##*": 129,
      "##q": 130,
      "##=": 131,
      "##<": 132,
      "##:": 133,
      "##+": 134,
      "##;": 135,
      "##(": 136,
      "##)": 137,
      "###": 138,
      "##ð": 139,
      "##,": 140,
      "##^": 141,
      "##|": 142,
      "##$": 143,
      "##'": 144,
      "##?": 145,
      "##>": 146,
      "##\"": 147,
      "##/": 148,
      "##~": 149,
      "##\u0001": 150,
      "##\u0006": 151,
      "##`": 152,
      "##&": 153,
      "##@": 154,
      "##\u0007": 155,
      "##{": 156,
      "##\u0005": 157,
      "##nt": 158,
      "int": 159,
      "++": 160,
      "##or": 161,
      "##\\n": 162,
      "##in": 163,
      "##et": 164,
      "if": 165,
      "for": 166,
      "##1\\n": 167,
      "##1\\n-": 168,
      "##1\\n-1\\n-": 169,
      "##00": 170,
      "ret": 171,
      "##ur": 172,
      "##urn": 173,
      "return": 174,
      "##on": 175,
      "ma": 176,
      "in": 177,
      "##ong": 178,
      "long": 179,
      "st": 180,
      "##de": 181,
      "%d": 182,
      "//": 183,
      "##an": 184,
      "##ll": 185,
      "##le": 186,
      "==": 187,
      "##1\\n-1\\n-1\\n-1\\n-": 188,
      "->": 189,
      "sc": 190,
      "##ar": 191,
      "##anf": 192,
      "scanf": 193,
      "pr": 194,
      "##se": 195,
      "##int": 196,
      "##lu": 197,
      "##ns": 198,
      "inc": 199,
      "##lude": 200,
      "include": 201,
      "##ef": 202,
      "ans": 203,
      "##.h": 204,
      "##st": 205,
      "print": 206,
      "##id": 207,
      "printf": 208,
      "std": 209,
      "##har": 210,
      "##mp": 211,
      "##ue": 212,
      "##iz": 213,
      "main": 214,
      "<=": 215,
      "##hi": 216,
      "vo": 217,
      "##ine": 218,
      "void": 219,
      "##ize": 220,
      "def": 221,
      "##ou": 222,
      "##lse": 223,
      "else": 224,
      "&&": 225,
      "whi": 226,
      "while": 227,
      "+=": 228,
      "min": 229,
      "define": 230,
      "##1\\n-1\\n-1\\n-1\\n-1\\n-1\\n-1\\n-1\\n-": 231,
      "--": 232,
      "##0000": 233,
      "str": 234,
      "char": 235,
      "max": 236,
      "ll": 237,
      "size": 238,
      "##%d": 239,
      "dp": 240,
      "que": 241,
      "##ble": 242,
      "##ea": 243,
      "##um": 244,
      "co": 245,
      "10": 246,
      "dou": 247,
      "double": 248,
      "##io": 249,
      "stdio": 250,
      "stdio.h": 251,
      "no": 252,
      "##of": 253,
      "re": 254,
      ">=": 255,
      "##ct": 256,
      "<<": 257,
      "##al": 258,
      "sizeof": 259,
      "id": 260,
      "to": 261,
      "##pe": 262,
      "mo": 263,
      "##ig": 264,
      "##10": 265,
      "!=": 266,
      "po": 267,
      "con": 268,
      "##oc": 269,
      "##ma": 270,
      "mod": 271,
      "const": 272,
      "##ed": 273,
      "##it": 274,
      "##ut": 275,
      "%d\\n": 276,
      "##at": 277,
      "##ype": 278,
      "di": 279,
      "##er": 280,
      "##em": 281,
      "##1\\n-1\\n-1\\n-1\\n-1\\n-1\\n-1\\n-1\\n-1\\n-1\\n-1\\n-1\\n-1\\n-1\\n-1\\n-1\\n-": 282,
      "100": 283,
      "pp": 284,
      "##max": 285,
      "||": 286,
      "sll": 287,
      "##sh": 288,
      "%d%d": 289,
      "##lld": 290,
      "mem": 291,
      "ull": 292,
      "type": 293,
      "put": 294,
      "##ort": 295,
      "get": 296,
      "##ex": 297,
      "##def": 298,
      "##en": 299,
      "##ge": 300,
      "##igh": 301,
      "cnt": 302,
      "##ight": 303,
      "##ing": 304,
      "##uct": 305,
      "##rea": 306,
      "##char": 307,
      "qs": 308,
      "sz": 309,
      "typedef": 310,
      "struct": 311,
      "%lld": 312,
      "ha": 313,
      "10000": 314,
      "##ot": 315,
      "cmp": 316,
      "lef": 317,
      "##su": 318,
      "##bl": 319,
      "hash": 320,
      "left": 321,
      "##set": 322,
      "brea": 323,
      "##li": 324,
      "break": 325,
      "hi": 326,
      "##_t": 327,
      "right": 328,
      "##ai": 329,
      "##eg": 330,
      "##un": 331,
      "puts": 332,
      "tbl": 333,
      "##ap": 334,
      "##re": 335,
      "##uf": 336,
      "en": 337,
      "cont": 338,
      "##lloc": 339,
      "##inue": 340,
      "continue": 341,
      "##32": 342,
      "node": 343,
      "rep": 344,
      "li": 345,
      "now": 346,
      "##010": 347,
      "##ext": 348,
      "##_n": 349,
      "##ow": 350,
      "tmp": 351,
      "next": 352,
      "p1": 353,
      "memset": 354,
      "par": 355,
      "##b.h": 356,
      "stdli": 357,
      "stdlib.h": 358,
      "getchar": 359,
      "##ent": 360,
      "string": 361,
      "-=": 362,
      "##co": 363,
      "fl": 364,
      "##1\\n-1\\n-1\\n-1\\n-1\\n-1\\n-1\\n-1\\n-1\\n-1\\n-1\\n-1\\n-1\\n-1\\n-1\\n-1\\n-1\\n-1\\n-1\\n-1\\n-1\\n-1\\n-1\\n-1\\n-1\\n-1\\n-1\\n-1\\n-1\\n-1\\n-1\\n-1\\n-": 365,
      "##cmp": 366,
      "gc": 367,
      "##ro": 368,
      "##ck": 369,
      "##ock": 370,
      "##ld": 371,
      "sum": 372,
      "dist": 373,
      "##bs": 374,
      "top": 375,
      "buf": 376,
      "##eap": 377,
      "dat": 378,
      "len": 379,
      "0x": 380,
      "##ag": 381,
      "##lock": 382,
      "string.h": 383,
      "ep": 384,
      "pos": 385,
      "##ree": 386,
      "p2": 387,
      "fa": 388,
      "pre": 389,
      "ad": 390,
      "%s": 391,
      "val": 392,
      "inf": 393,
      "##_un": 394,
      "ed": 395,
      "map": 396,
      "malloc": 397,
      "edge": 398,
      "##me": 399,
      "##_v": 400,
      "end": 401,
      "##locked": 402,
      "##_unlocked": 403,
      ">>": 404,
      "ro": 405,
      "##64": 406,
      "##_s": 407,
      "num": 408,
      "tp": 409,
      "y1": 410,
      "qsize": 411,
      "te": 412,
      "##cnt": 413,
      "getchar_unlocked": 414,
      "ch": 415,
      "##wll": 416,
      "##comp": 417,
      "##ve": 418,
      "x1": 419,
      "n_": 420,
      "##if": 421,
      "##ret": 422,
      "##ch": 423,
      "##fs": 424,
      "##lt": 425,
      "y2": 426,
      "qt": 427,
      "##len": 428,
      "##sub": 429,
      "##min": 430,
      "cmpret": 431,
      "seg": 432,
      "x2": 433,
      "qsort": 434,
      "##ey": 435,
      "##ount": 436,
      "##ull": 437,
      "##th": 438,
      "##ce": 439,
      "*=": 440,
      "data": 441,
      "%d%d%d": 442,
      "parent": 443,
      "root": 444,
      "##ase": 445,
      "cap": 446,
      "##alc": 447,
      "100010": 448,
      "de": 449,
      "ta": 450,
      "0xf": 451,
      "20": 452,
      "bit": 453,
      "##ol": 454,
      "key": 455,
      "%lld\\n": 456,
      "##ul": 457,
      "##_num": 458,
      "null": 459,
      "##sult": 460,
      "lim": 461,
      "##ss": 462,
      "mi": 463,
      "1e": 464,
      "res": 465,
      "cc": 466,
      "##99": 467,
      "flag": 468,
      "ne": 469,
      "200": 470,
      "##ead": 471,
      "##seg": 472,
      "hwll": 473,
      "prev": 474,
      "n_max": 475,
      "##ind": 476,
      "result": 477,
      "*/": 478,
      "/*": 479,
      "tree": 480,
      "##lf": 481,
      "heap": 482,
      "##ate": 483,
      "dfs": 484,
      "mk": 485,
      "nt": 486,
      "se": 487,
      "un": 488,
      "##_h": 489,
      "do": 490,
      "##32_t": 491,
      "##ank": 492,
      "##get": 493,
      "calc": 494,
      "##1\\n-1\\n-1\\n-1\\n-1\\n-1\\n-1\\n-1\\n-1\\n-1\\n-1\\n-1\\n-1\\n-1\\n-1\\n-1\\n-1\\n-1\\n-1\\n-1\\n-1\\n-1\\n-1\\n-1\\n-1\\n-1\\n-1\\n-1\\n-1\\n-1\\n-1\\n-1\\n-1\\n-1\\n-1\\n-1\\n-1\\n-1\\n-1\\n-1\\n-1\\n-1\\n-1\\n-1\\n-1\\n-1\\n-1\\n-1\\n-1\\n-1\\n-1\\n-1\\n-1\\n-1\\n-1\\n-1\\n-1\\n-1\\n-1\\n-1\\n-1\\n-1\\n-1\\n-1\\n-": 495,
      "20000": 496,
      "fact": 497,
      "s2": 498,
      "up": 499,
      "s1": 500,
      "int32_t": 501,
      "us": 502,
      "nc": 503,
      "cost": 504,
      "add": 505,
      "count": 506,
      "ye": 507,
      "is": 508,
      "##and": 509,
      "temp": 510,
      "##ff": 511,
      "##up": 512,
      "##po": 513,
      "##rt": 514,
      "inv": 515,
      "pow": 516,
      "%=": 517,
      "##ra": 518,
      "12": 519,
      "##edge": 520,
      "lseg": 521,
      "tr": 522,
      "yes": 523,
      "##air": 524,
      "##ack": 525,
      "##ert": 526,
      "\\n": 527,
      "##ode": 528,
      "beg": 529,
      "xx": 530,
      "idx": 531,
      "##ertex": 532,
      "ar": 533,
      "fi": 534,
      "##_edge": 535,
      "i32": 536,
      "ln": 537,
      "abs": 538,
      "fget": 539,
      "##siz": 540,
      "strcmp": 541,
      "memo": 542,
      "head": 543,
      "line": 544,
      "ii": 545,
      "##ame": 546,
      "##fn": 547,
      "eps": 548,
      "using": 549,
      "sw": 550,
      "stdin": 551,
      "##ortfn": 552,
      "fgets": 553,
      "ab": 554,
      "ex": 555,
      "rr": 556,
      "##ad": 557,
      "##lr": 558,
      "at": 559,
      "##_in": 560,
      "##art": 561,
      "deflr": 562,
      "begcmp": 563,
      "gr": 564,
      "##_heap": 565,
      "r2": 566,
      "la": 567,
      "%ld": 568,
      "nr": 569,
      "ss": 570,
      "list": 571,
      "100000000": 572,
      "##%lld": 573,
      "uf": 574,
      "##24": 575,
      "30": 576,
      "1000": 577,
      "new": 578,
      "putchar": 579,
      "ki": 580,
      "50": 581,
      "pi": 582,
      "##ime": 583,
      "start": 584,
      "##ign": 585,
      "ff": 586,
      "##ail": 587,
      "11": 588,
      "yy": 589,
      "pair": 590,
      "##_node": 591,
      "##py": 592,
      "c2": 593,
      "dy": 594,
      "gcd": 595,
      "adj": 596,
      "fro": 597,
      "use": 598,
      "##out": 599,
      "dx": 600,
      "##ion": 601,
      "##num": 602,
      "##th.h": 603,
      "math.h": 604,
      "hashsiz": 605,
      "##ify": 606,
      "16": 607,
      "sd": 608,
      "min_heap": 609,
      "n2": 610,
      "##eck": 611,
      "##cc": 612,
      "lo": 613,
      "enq": 614,
      "eq": 615,
      "##_vertex": 616,
      "base": 617,
      "comp": 618,
      "##aph": 619,
      "check": 620,
      "##000": 621,
      "modul": 622,
      "nowv": 623,
      "sa": 624,
      "##vl": 625,
      "##cpy": 626,
      "ob": 627,
      "%.": 628,
      "##ross": 629,
      "nx": 630,
      "tail": 631,
      "##sum": 632,
      "ca": 633,
      "find": 634,
      "md": 635,
      "r1": 636,
      "32": 637,
      "^=": 638,
      "k2": 639,
      "##igned": 640,
      "sh": 641,
      "strlen": 642,
      "cross": 643,
      "##_p": 644,
      "from": 645,
      "mv": 646,
      "mid": 647,
      "pc": 648,
      "rank": 649,
      "stack": 650,
      "##ic": 651,
      "used": 652,
      "sort": 653,
      "min_heapify": 654,
      "vsub": 655,
      "|=": 656,
      "##_sub": 657,
      "modulo": 658,
      "hy": 659,
      "ko": 660,
      "dd": 661,
      "##type": 662,
      "bo": 663,
      "int64": 664,
      "endif": 665,
      "deq": 666,
      "sin": 667,
      "sol": 668,
      "##date": 669,
      "solve": 670,
      "99": 671,
      "exit": 672,
      "set": 673,
      "101": 674,
      "obj": 675,
      "bp": 676,
      "##is": 677,
      "##ak": 678,
      "##_f": 679,
      "##sortfn": 680,
      "##end": 681,
      "calloc": 682,
      "com": 683,
      "pu": 684,
      "t2": 685,
      "##no": 686,
      "##act": 687,
      "15": 688,
      "25": 689,
      "go": 690,
      "fabs": 691,
      "##_inv": 692,
      "aa": 693,
      "a2": 694,
      "mat": 695,
      "dir": 696,
      "##sert": 697,
      "tree_vertex": 698,
      "##1\\n-1\\n-1\\n-1\\n-1\\n-1\\n-1\\n-1\\n-1\\n-1\\n-1\\n-1\\n-1\\n-1\\n-1\\n-1\\n-1\\n-1\\n-1\\n-1\\n-1\\n-1\\n-1\\n-1\\n-1\\n-1\\n-1\\n-1\\n-1\\n-1\\n-1\\n-1\\n-1\\n-1\\n-1\\n-1\\n-1\\n-1\\n-1\\n-1\\n-1\\n-1\\n-1\\n-1\\n-1\\n-1\\n-1\\n-1\\n-1\\n-1\\n-1\\n-1\\n-1\\n-1\\n-1\\n-1\\n-1\\n-1\\n-1\\n-1\\n-1\\n-1\\n-1\\n-1\\n-1\\n-1\\n-1\\n-1\\n-1\\n-1\\n-1\\n-1\\n-1\\n-1\\n-1\\n-1\\n-1\\n-1\\n-1\\n-1\\n-1\\n-1\\n-1\\n-1\\n-1\\n-1\\n-1\\n-1\\n-1\\n-1\\n-1\\n-1\\n-1\\n-1\\n-1\\n-1\\n-1\\n-1\\n-1\\n-1\\n-1\\n-1\\n-1\\n-1\\n-1\\n-1\\n-1\\n-1\\n-1\\n-1\\n-1\\n-1\\n-1\\n-1\\n-1\\n-1\\n-1\\n-1\\n-1\\n-1\\n-1\\n-1\\n-1\\n-1\\n-1\\n-1\\n-1\\n-1\\n-": 699,
      "##ok": 700,
      "ph": 701,
      "1000000007": 702,
      "goal": 703,
      "40": 704,
      "sr": 705,
      "hwllc": 706,
      "a1": 707,
      "or": 708,
      "op": 709,
      "tm": 710,
      "##_a": 711,
      "graph": 712,
      "13": 713,
      "26": 714,
      "k1": 715,
      "pt": 716,
      "uns": 717,
      "##53": 718,
      "##14": 719,
      "v_s": 720,
      "1e9": 721,
      "ny": 722,
      "memcpy": 723,
      "cr": 724,
      "py": 725,
      "##_r": 726,
      "unsigned": 727,
      "##_c": 728,
      "##fl": 729,
      "push": 730,
      "chi": 731,
      "rb": 732,
      "insert": 733,
      "##%d%d": 734,
      "200010": 735,
      "add_edge": 736,
      "qmax": 737,
      "vs": 738,
      "vis": 739,
      "##di": 740,
      "lsegn": 741,
      "110": 742,
      "51": 743,
      "60": 744,
      "su": 745,
      "dis": 746,
      "%lld%lld": 747,
      "100000": 748,
      "bs": 749,
      "d1": 750,
      "sq": 751,
      "ok": 752,
      "stdout": 753,
      "pol": 754,
      "getint": 755,
      "##ial": 756,
      "free": 757,
      "update": 758,
      "ve": 759,
      "##one": 760,
      "102": 761,
      "1010": 762,
      "##%s": 763,
      "##_val": 764,
      "name": 765,
      "##our": 766,
      "999": 767,
      "px": 768,
      "##33": 769,
      "case": 770,
      "out": 771,
      "t1": 772,
      "17": 773,
      "##eight": 774,
      "100001": 775,
      "##erse": 776,
      "got": 777,
      "lc": 778,
      "##mul": 779,
      "p0": 780,
      "##_scc": 781,
      "hand": 782,
      "##ab": 783,
      "##od": 784,
      "gets": 785,
      "it": 786,
      "rbt": 787,
      "goto": 788,
      "500": 789,
      "##ri": 790,
      "##%lf": 791,
      "300": 792,
      "ac": 793,
      "db": 794,
      "ns": 795,
      "##ry": 796,
      "linell": 797,
      "sqrt": 798,
      "poly": 799,
      "##arch": 800,
      "##ui": 801,
      "hashend": 802,
      "rbt_node": 803,
      "dep": 804,
      "##fact": 805,
      "##us": 806,
      "##point": 807,
      "##eve": 808,
      "##jk": 809,
      "point": 810,
      "visit": 811,
      "swap": 812,
      "d2": 813,
      "low": 814,
      "##cs": 815,
      "##ya": 816,
      "##add": 817,
      "%lf": 818,
      "time": 819,
      "##sz": 820,
      "##55": 821,
      "##atic": 822,
      "atai": 823,
      "cm": 824,
      "##_l": 825,
      "##.0": 826,
      "phwll": 827,
      "sour": 828,
      "##15": 829,
      "static": 830,
      "##ard": 831,
      "##ite": 832,
      "##csj": 833,
      "source": 834,
      "vd": 835,
      "##der": 836,
      "##lush": 837,
      "dijk": 838,
      "##root": 839,
      "##ckj": 840,
      "sy": 841,
      "##88": 842,
      "##ke": 843,
      "col": 844,
      "fflush": 845,
      "31": 846,
      "xy": 847,
      "##own": 848,
      "comb": 849,
      "leve": 850,
      "np": 851,
      "##_b": 852,
      "short": 853,
      "sink": 854,
      "##_avl": 855,
      "level": 856,
      "an": 857,
      "##gc": 858,
      "##ange": 859,
      "##ore": 860,
      "union": 861,
      "##pos": 862,
      "power": 863,
      "i2": 864,
      "i64": 865,
      "va": 866,
      "##bo": 867,
      "##ero": 868,
      "sec": 869,
      "run": 870,
      "init": 871,
      "1001": 872,
      "visited": 873,
      "th": 874,
      "div": 875,
      "queue": 876,
      "c1": 877,
      "##stra": 878,
      "%d%d%d%d": 879,
      "factor": 880,
      "bb": 881,
      "mx": 882,
      "on": 883,
      "##f\\n": 884,
      "105": 885,
      "##per": 886,
      "22": 887,
      "oya": 888,
      "##pow": 889,
      "rev": 890,
      "##unc": 891,
      "##dist": 892,
      "18": 893,
      "avl": 894,
      "tx": 895,
      "##_root": 896,
      "##ctor": 897,
      "dijkstra": 898,
      "m2": 899,
      "##be": 900,
      "##*d": 901,
      "min_": 902,
      "search": 903,
      "%c": 904,
      "pa": 905,
      "sp": 906,
      "##43": 907,
      "##rst": 908,
      "##288": 909,
      "##1010": 910,
      "sorted": 911,
      "last": 912,
      "hyp": 913,
      "524": 914,
      "ax": 915,
      "bui": 916,
      "p3": 917,
      "##19": 918,
      "query": 919,
      "100005": 920,
      "##cost": 921,
      "prevv": 922,
      "bool": 923,
      "done": 924,
      "nv": 925,
      "ng": 926,
      "tt": 927,
      "##are": 928,
      "##aku": 929,
      "ay": 930,
      "cl": 931,
      "fr": 932,
      "old": 933,
      "sx": 934,
      "compare": 935,
      "524288": 936,
      "21": 937,
      "tup": 938,
      "##put": 939,
      "flow": 940,
      "wi": 941,
      "##_m": 942,
      "##op": 943,
      "##ond": 944,
      "##abcomp": 945,
      "second": 946,
      "hypot": 947,
      "ps": 948,
      "make": 949,
      "prime": 950,
      "nn": 951,
      "vcnt": 952,
      "##79": 953,
      "##lf\\n": 954,
      "uni": 955,
      "##_rank": 956,
      "bc": 957,
      "ecnt": 958,
      "lin": 959,
      "zero": 960,
      "##orm": 961,
      "nowe": 962,
      "1e-": 963,
      "ln1": 964,
      "es": 965,
      "m1": 966,
      "vmax": 967,
      "##all": 968,
      "unite": 969,
      "first": 970,
      "##flow": 971,
      "48": 972,
      "b2": 973,
      "ins": 974,
      "near": 975,
      "b1": 976,
      "h2": 977,
      "ub": 978,
      "##count": 979,
      "##calc": 980,
      "##18": 981,
      "arr": 982,
      "dp2": 983,
      "200001": 984,
      "vector": 985,
      "read": 986,
      "##ible": 987,
      "##val": 988,
      "##str": 989,
      "##igit": 990,
      ">>=": 991,
      "##1\\n-1\\n-1\\n-1\\n-1\\n-1\\n-1\\n-1\\n-1\\n-1\\n-1\\n-1\\n-1\\n-1\\n-1\\n-1\\n-1\\n-1\\n-1\\n-1\\n-1\\n-1\\n-1\\n-1\\n-1\\n-1\\n-1\\n-1\\n-1\\n-1\\n-1\\n-1\\n-1\\n-1\\n-1\\n-1\\n-1\\n-1\\n-1\\n-1\\n-1\\n-1\\n-1\\n-1\\n-1\\n-1\\n-1\\n-1\\n-1\\n-1\\n-1\\n-1\\n-1\\n-1\\n-1\\n-1\\n-1\\n-1\\n-1\\n-1\\n-1\\n-1\\n-1\\n-1\\n-1\\n-1\\n-1\\n-1\\n-1\\n-1\\n-1\\n-1\\n-1\\n-1\\n-1\\n-1\\n-1\\n-1\\n-1\\n-1\\n-1\\n-1\\n-1\\n-1\\n-1\\n-1\\n-1\\n-1\\n-1\\n-1\\n-1\\n-1\\n-1\\n-1\\n-1\\n-1\\n-1\\n-1\\n-1\\n-1\\n-1\\n-1\\n-1\\n-1\\n-1\\n-1\\n-1\\n-1\\n-1\\n-1\\n-1\\n-1\\n-1\\n-1\\n-1\\n-1\\n-1\\n-1\\n-1\\n-1\\n-1\\n-1\\n-1\\n-1\\n-1\\n-1\\n-1\\n-1\\n-1\\n-1\\n-1\\n-1\\n-1\\n-1\\n-1\\n-1\\n-1\\n-1\\n-1\\n-1\\n-1\\n-1\\n-1\\n-1\\n-1\\n-1\\n-1\\n-1\\n-1\\n-1\\n-1\\n-1\\n-1\\n-1\\n-1\\n-1\\n-1\\n-1\\n-1\\n-1\\n-1\\n-1\\n-1\\n-1\\n-1\\n-1\\n-1\\n-1\\n-1\\n-1\\n-1\\n-1\\n-1\\n-1\\n-1\\n-1\\n-1\\n-1\\n-1\\n-1\\n-1\\n-1\\n-1\\n-1\\n-1\\n-1\\n-1\\n-1\\n-1\\n-1\\n-1\\n-1\\n-1\\n-1\\n-1\\n-1\\n-1\\n-1\\n-1\\n-1\\n-1\\n-1\\n-1\\n-1\\n-1\\n-1\\n-1\\n-1\\n-1\\n-1\\n-1\\n-1\\n-1\\n-1\\n-1\\n-1\\n-1\\n-1\\n-1\\n-1\\n-1\\n-1\\n-1\\n-1\\n-1\\n-1\\n-1\\n-1\\n-1\\n-1\\n-1\\n-1\\n-1\\n-1\\n-1\\n-1\\n-1\\n-1\\n-1\\n-1\\n-1\\n-1\\n-1\\n-1\\n-1\\n-1\\n-1\\n-1\\n-1\\n-1\\n-1\\n-1\\n-1\\n-1\\n-1\\n-1\\n-": 992,
      "ap": 993,
      "jj": 994,
      "n1": 995,
      "##est": 996,
      "1002": 997,
      "##ersect": 998,
      "phwllabcomp": 999,
      "cur": 1000,
      "od": 1001,
      "vr": 1002,
      "##ka": 1003,
      "##ity": 1004,
      "al": 1005,
      "ce": 1006,
      "deg": 1007,
      "var": 1008,
      "##%ld": 1009,
      "##eta": 1010,
      "ccw": 1011,
      "##ray": 1012,
      "array": 1013,
      "match": 1014,
      "ban": 1015,
      "u_rank": 1016,
      "##_max": 1017,
      "##tent": 1018,
      "##92": 1019,
      "pri": 1020,
      "potent": 1021,
      "200000000": 1022,
      "sub": 1023,
      "##gcd": 1024,
      "potential": 1025,
      "52": 1026,
      "pat": 1027,
      "row": 1028,
      "x0": 1029,
      "100002": 1030,
      "##_tree": 1031,
      "ln2": 1032,
      "sorted_v": 1033,
      "h1": 1034,
      "qu": 1035,
      "##sk": 1036,
      "now_scc": 1037,
      "dt": 1038,
      "ft": 1039,
      "mer": 1040,
      "r_": 1041,
      "tate": 1042,
      "##cr": 1043,
      "##ance": 1044,
      "merge": 1045,
      "##_dist": 1046,
      "##que": 1047,
      "##_to": 1048,
      "##ffff": 1049,
      "53": 1050,
      "func": 1051,
      "ver": 1052,
      "##_uf": 1053,
      "##48": 1054,
      "scc": 1055,
      "##lus": 1056,
      "dp1": 1057,
      "rec": 1058,
      "depth": 1059,
      "30000": 1060,
      "bl": 1061,
      "by": 1062,
      "pq": 1063,
      "ty": 1064,
      "##76": 1065,
      "max_": 1066,
      "invfact": 1067,
      "998": 1068,
      "14": 1069,
      "hh": 1070,
      "vertex": 1071,
      "##ver": 1072,
      "intersect": 1073,
      "##ord": 1074,
      "lln": 1075,
      "cp": 1076,
      "l2": 1077,
      "ud": 1078,
      "##oi": 1079,
      "##weight": 1080,
      "pom": 1081,
      "##rev": 1082,
      "%*d": 1083,
      "-1": 1084,
      "bx": 1085,
      "nm": 1086,
      "##il": 1087,
      "##nd": 1088,
      "##gr": 1089,
      "##llu": 1090,
      "##ouka": 1091,
      "##lip": 1092,
      "labe": 1093,
      "hyouka": 1094,
      "##_find": 1095,
      "##sortfncsj": 1096,
      "label": 1097,
      "27": 1098,
      "v2": 1099,
      "##_ma": 1100,
      "##_set": 1101,
      "##dex": 1102,
      "stdbo": 1103,
      "##ol.h": 1104,
      "look": 1105,
      "##sortfnckj": 1106,
      "crr": 1107,
      "##_valtype": 1108,
      "time.h": 1109,
      "stdbool.h": 1110,
      "64": 1111,
      "lr": 1112,
      "norm": 1113,
      "v1": 1114,
      "##84": 1115,
      "##89": 1116,
      "##ple": 1117,
      "1000000": 1118,
      "atoi": 1119,
      "##2443": 1120,
      "ord": 1121,
      "9982443": 1122,
      "998244353": 1123,
      "##ound": 1124,
      "1024": 1125,
      "##iff": 1126,
      "appe": 1127,
      "lookup": 1128,
      "ds": 1129,
      "na": 1130,
      "uint": 1131,
      "w2": 1132,
      "##pr": 1133,
      "preve": 1134,
      "tree_edge": 1135,
      "chil": 1136,
      "child": 1137,
      "hand2": 1138,
      "sb": 1139,
      "##size": 1140,
      "##50": 1141,
      "##12": 1142,
      "##ha": 1143,
      "tot": 1144,
      "flo": 1145,
      "200000": 1146,
      "ptri": 1147,
      "ptriple": 1148,
      "cno": 1149,
      "down": 1150,
      "l1": 1151,
      "tlen": 1152,
      "vset": 1153,
      "xb": 1154,
      "##yb": 1155,
      "tuple": 1156,
      "odd": 1157,
      "appear": 1158,
      "as": 1159,
      "dag": 1160,
      "2000": 1161,
      "bsch": 1162,
      "build": 1163,
      "400": 1164,
      "bi": 1165,
      "lb": 1166,
      "rot": 1167,
      "y0": 1168,
      "##364": 1169,
      "##inf": 1170,
      "%d%": 1171,
      "##ans": 1172,
      "##ous": 1173,
      "llmax": 1174,
      "<<=": 1175,
      "24": 1176,
      "36": 1177,
      "41": 1178,
      "dbs": 1179,
      "yb": 1180,
      "llmin": 1181,
      "next_num": 1182,
      "%s\\n": 1183,
      "##_size": 1184,
      "arg": 1185,
      "item": 1186,
      "hp": 1187,
      "ms": 1188,
      "r0": 1189,
      "y3": 1190,
      "##able": 1191,
      "##ader": 1192,
      "##range": 1193,
      "##..": 1194,
      "##lue": 1195,
      "cos": 1196,
      "ncr": 1197,
      "sn": 1198,
      "x3": 1199,
      "##lim": 1200,
      "##1415": 1201,
      "##flag": 1202,
      "##%lf%lf": 1203,
      "##graph": 1204,
      "3.": 1205,
      "er": 1206,
      "fmax": 1207,
      "sortfn": 1208,
      "vadd": 1209,
      "w1": 1210,
      "##_d": 1211,
      "##ft": 1212,
      "##kai": 1213,
      "##zt": 1214,
      "##int.h": 1215,
      "stdint.h": 1216,
      "distance": 1217,
      "bitpow": 1218,
      "link": 1219,
      "##926": 1220,
      "0.": 1221,
      "p4": 1222,
      "##yous": 1223,
      "##384": 1224,
      "mask": 1225,
      "max_v": 1226,
      "flg": 1227,
      "prev_num": 1228,
      "##rac": 1229,
      "ki_": 1230,
      "sayous": 1231,
      "##1415926": 1232,
      "sayouso": 1233,
      "19": 1234,
      "hw": 1235,
      "##aw": 1236,
      "##name": 1237,
      "##30": 1238,
      "##inv": 1239,
      "##ang": 1240,
      "llinf": 1241,
      "graph_vertex": 1242,
      "union_find": 1243,
      "factorial": 1244,
      "veryb": 1245,
      "3.1415926": 1246,
      "verybig": 1247,
      "%llu": 1248,
      "i_": 1249,
      "mc": 1250,
      "more": 1251,
      "##aa": 1252,
      "##ose": 1253,
      "ifdef": 1254,
      "dice": 1255,
      "256": 1256,
      "##535": 1257,
      "avl_node": 1258,
      "min_cost": 1259,
      "wild": 1260,
      "5000": 1261,
      "big": 1262,
      "mn": 1263,
      "rand": 1264,
      "##abs": 1265,
      "##0f": 1266,
      "index": 1267,
      "nodes": 1268,
      "##types": 1269,
      "3.1415926535": 1270,
      "bfs": 1271,
      "cy": 1272,
      "mm": 1273,
      "smax": 1274,
      "vv": 1275,
      "##pp": 1276,
      "##zy": 1277,
      "##inrange": 1278,
      "road": 1279,
      "isinrange": 1280,
      "lcm": 1281,
      "3.141592653589": 1282,
      "dot": 1283,
      "et": 1284,
      "h_": 1285,
      "nmax": 1286,
      "oj": 1287,
      "rt": 1288,
      "sup": 1289,
      "wa": 1290,
      "xmax": 1291,
      "##ter": 1292,
      "##dp": 1293,
      "##45": 1294,
      "##20": 1295,
      "##3f": 1296,
      "strcpy": 1297,
      "rel": 1298,
      "typename": 1299,
      "##64_t": 1300,
      "128": 1301,
      "##revcomp": 1302,
      "uint64_t": 1303,
      "3.14159265358979": 1304,
      "dc": 1305,
      "kk": 1306,
      "mul": 1307,
      "pn": 1308,
      "qid": 1309,
      "rd": 1310,
      "rad": 1311,
      "signed": 1312,
      "##pai": 1313,
      "##back": 1314,
      "minpai": 1315,
      "pop": 1316,
      "##mall": 1317,
      "diff": 1318,
      "parent_in": 1319,
      "%ld\\n": 1320,
      "%lld%lld%lld": 1321,
      "##_law": 1322,
      "float": 1323,
      "3.1415926535897932": 1324,
      "parent_in_law": 1325,
      "&=": 1326,
      "50000": 1327,
      "bt": 1328,
      "t3": 1329,
      "##_int": 1330,
      "##find": 1331,
      "##ide": 1332,
      "##digit": 1333,
      "llgcd": 1334,
      "no\\n": 1335,
      "%d%d%d%d%d": 1336,
      "fact_inv": 1337,
      "isdigit": 1338,
      "##rix": 1339,
      "dbmax": 1340,
      "dbmin": 1341,
      "lower": 1342,
      "total": 1343,
      "dbsortfn": 1344,
      "3.1415926535897932384": 1345,
      "alen": 1346,
      "fmin": 1347,
      "height": 1348,
      "rea": 1349,
      "##mo": 1350,
      "##dsum": 1351,
      "mar": 1352,
      "lldsum": 1353,
      "false": 1354,
      "##ankaku": 1355,
      "1000000000": 1356,
      "combi": 1357,
      "##_avl_sub": 1358,
      "llncr": 1359,
      "1.0": 1360,
      "42": 1361,
      "cx": 1362,
      "df": 1363,
      "dq": 1364,
      "oo": 1365,
      "id2": 1366,
      "##ata": 1367,
      "parse": 1368,
      "##9999": 1369,
      "deque": 1370,
      "##_flip": 1371,
      "pushback": 1372,
      "iter": 1373,
      "##calcsub": 1374,
      "mark": 1375,
      "-1\\n": 1376,
      "3000": 1377,
      "ctype": 1378,
      "hin": 1379,
      "mb": 1380,
      "pe": 1381,
      "ua": 1382,
      "ys": 1383,
      "yok": 1384,
      "##66": 1385,
      "##sort": 1386,
      "##gth": 1387,
      "##hr": 1388,
      "%s%s": 1389,
      "true": 1390,
      "##_par": 1391,
      "vsmul": 1392,
      "cmd": 1393,
      "one": 1394,
      "nearnum": 1395,
      "ctype.h": 1396,
      "dsum": 1397,
      "j2": 1398,
      "x_root": 1399,
      "y_root": 1400,
      "##wap": 1401,
      "##72": 1402,
      "##11": 1403,
      "##ari": 1404,
      "lls": 1405,
      "103": 1406,
      "conv": 1407,
      "1000010": 1408,
      "qtop": 1409,
      "501": 1410,
      "int64_t": 1411,
      "tree_vertex_sub": 1412,
      "55": 1413,
      "62": 1414,
      "75": 1415,
      "card": 1416,
      "lea": 1417,
      "smin": 1418,
      "tn": 1419,
      "vb": 1420,
      "ww": 1421,
      "%d:": 1422,
      "##idx": 1423,
      "id1": 1424,
      "mode": 1425,
      "%ld%ld": 1426,
      "fft": 1427,
      "%.9": 1428,
      "vabs": 1429,
      "##_mod": 1430,
      "fc": 1431,
      "pd": 1432,
      "xw": 1433,
      "xmin": 1434,
      "yw": 1435,
      "##i32": 1436,
      "##pa": 1437,
      "##canf": 1438,
      "input": 1439,
      "##its": 1440,
      "##_table": 1441,
      "202": 1442,
      "upper": 1443,
      "idx2": 1444,
      "rank_dist": 1445,
      "##1\\n-1\\n-1\\n-1\\n-1\\n-1\\n-1\\n-1\\n-1\\n-1\\n-1\\n-1\\n-1\\n-1\\n-1\\n-1\\n-1\\n-1\\n-1\\n-1\\n-1\\n-1\\n-1\\n-1\\n-1\\n-1\\n-1\\n-1\\n-1\\n-1\\n-1\\n-1\\n-1\\n-1\\n-1\\n-1\\n-1\\n-1\\n-1\\n-1\\n-1\\n-1\\n-1\\n-1\\n-1\\n-1\\n-1\\n-1\\n-1\\n-1\\n-1\\n-1\\n-1\\n-1\\n-1\\n-1\\n-1\\n-1\\n-1\\n-1\\n-1\\n-1\\n-1\\n-1\\n-1\\n-1\\n-1\\n-1\\n-1\\n-1\\n-1\\n-1\\n-1\\n-1\\n-1\\n-1\\n-1\\n-1\\n-1\\n-1\\n-1\\n-1\\n-1\\n-1\\n-1\\n-1\\n-1\\n-1\\n-1\\n-1\\n-1\\n-1\\n-1\\n-1\\n-1\\n-1\\n-1\\n-1\\n-1\\n-1\\n-1\\n-1\\n-1\\n-1\\n-1\\n-1\\n-1\\n-1\\n-1\\n-1\\n-1\\n-1\\n-1\\n-1\\n-1\\n-1\\n-1\\n-1\\n-1\\n-1\\n-1\\n-1\\n-1\\n-1\\n-1\\n-1\\n-1\\n-1\\n-1\\n-1\\n-1\\n-1\\n-1\\n-1\\n-1\\n-1\\n-1\\n-1\\n-1\\n-1\\n-1\\n-1\\n-1\\n-1\\n-1\\n-1\\n-1\\n-1\\n-1\\n-1\\n-1\\n-1\\n-1\\n-1\\n-1\\n-1\\n-1\\n-1\\n-1\\n-1\\n-1\\n-1\\n-1\\n-1\\n-1\\n-1\\n-1\\n-1\\n-1\\n-1\\n-1\\n-1\\n-1\\n-1\\n-1\\n-1\\n-1\\n-1\\n-1\\n-1\\n-1\\n-1\\n-1\\n-1\\n-1\\n-1\\n-1\\n-1\\n-1\\n-1\\n-1\\n-1\\n-1\\n-1\\n-1\\n-1\\n-1\\n-1\\n-1\\n-1\\n-1\\n-1\\n-1\\n-1\\n-1\\n-1\\n-1\\n-1\\n-1\\n-1\\n-1\\n-1\\n-1\\n-1\\n-1\\n-1\\n-1\\n-1\\n-1\\n-1\\n-1\\n-1\\n-1\\n-1\\n-1\\n-1\\n-1\\n-1\\n-1\\n-1\\n-1\\n-1\\n-1\\n-1\\n-1\\n-1\\n-1\\n-1\\n-1\\n-1\\n-1\\n-1\\n-1\\n-1\\n-1\\n-1\\n-1\\n-1\\n-1\\n-1\\n-1\\n-1\\n-1\\n-1\\n-1\\n-1\\n-1\\n-1\\n-1\\n-1\\n-1\\n-1\\n-1\\n-1\\n-1\\n-1\\n-1\\n-1\\n-1\\n-1\\n-1\\n-1\\n-1\\n-1\\n-1\\n-1\\n-1\\n-1\\n-1\\n-1\\n-1\\n-1\\n-1\\n-1\\n-1\\n-1\\n-1\\n-1\\n-1\\n-1\\n-1\\n-1\\n-1\\n-1\\n-1\\n-1\\n-1\\n-1\\n-1\\n-1\\n-1\\n-1\\n-1\\n-1\\n-1\\n-1\\n-1\\n-1\\n-1\\n-1\\n-1\\n-1\\n-1\\n-1\\n-1\\n-1\\n-1\\n-1\\n-1\\n-1\\n-1\\n-1\\n-1\\n-1\\n-1\\n-1\\n-1\\n-1\\n-1\\n-1\\n-1\\n-1\\n-1\\n-1\\n-1\\n-1\\n-1\\n-1\\n-1\\n-1\\n-1\\n-1\\n-1\\n-1\\n-1\\n-1\\n-1\\n-1\\n-1\\n-1\\n-1\\n-1\\n-1\\n-1\\n-1\\n-1\\n-1\\n-1\\n-1\\n-1\\n-1\\n-1\\n-1\\n-1\\n-1\\n-1\\n-1\\n-1\\n-1\\n-1\\n-1\\n-1\\n-1\\n-1\\n-1\\n-1\\n-1\\n-1\\n-1\\n-1\\n-1\\n-1\\n-1\\n-1\\n-1\\n-1\\n-1\\n-1\\n-1\\n-1\\n-1\\n-1\\n-1\\n-1\\n-1\\n-1\\n-1\\n-1\\n-1\\n-1\\n-1\\n-1\\n-1\\n-1\\n-1\\n-1\\n-1\\n-1\\n-1\\n-1\\n-1\\n-1\\n-1\\n-1\\n-1\\n-1\\n-1\\n-1\\n-1\\n-1\\n-1\\n-1\\n-1\\n-1\\n-1\\n-1\\n-1\\n-1\\n-1\\n-1\\n-1\\n-1\\n-1\\n-1\\n-1\\n-1\\n-1\\n-1\\n-1\\n-1\\n-1\\n-1\\n-1\\n-1\\n-1\\n-1\\n-1\\n-1\\n-1\\n-1\\n-1\\n-1\\n-1\\n-1\\n-1\\n-1\\n-1\\n-1\\n-1\\n-1\\n-1\\n-1\\n-1\\n-1\\n-1\\n-1\\n-1\\n-1\\n-1\\n-1\\n-1\\n-1\\n-1\\n-1\\n-1\\n-1\\n-1\\n-1\\n-1\\n-1\\n-1\\n-1\\n-1\\n-1\\n-1\\n-1\\n-1\\n-1\\n-1\\n-1\\n-1\\n-1\\n-1\\n-1\\n-1\\n-1\\n-1\\n-1\\n-1\\n-1\\n-1\\n-1\\n-1\\n-1\\n-1\\n-1\\n-1\\n-1\\n-1\\n-1\\n-1\\n-1\\n-": 1446,
      "r_hi": 1447,
      "cum": 1448,
      "hout": 1449,
      "nb": 1450,
      "qq": 1451,
      "rs": 1452,
      "range": 1453,
      "xs": 1454,
      "##ay": 1455,
      "##ump": 1456,
      "##onseg": 1457,
      "coin": 1458,
      "expr": 1459,
      "orig": 1460,
      "##_all": 1461,
      "##usin": 1462,
      "##5555": 1463,
      "unionfind": 1464,
      "##0f0f": 1465,
      "##_parent": 1466,
      "65": 1467,
      "?:": 1468,
      "ball": 1469,
      "frac": 1470,
      "u64": 1471,
      "##ep": 1472,
      "%d%s": 1473,
      "##%d\\n": 1474,
      "10010": 1475,
      "##real": 1476,
      "##result": 1477,
      "next_scc": 1478,
      "segn": 1479,
      "root_uf": 1480,
      "2002": 1481,
      "upll": 1482,
      "invf": 1483,
      "lazy": 1484,
      "convex": 1485,
      "%f\\n": 1486,
      "33": 1487,
      "\\0": 1488,
      "bn": 1489,
      "cand": 1490,
      "gx": 1491,
      "sm": 1492,
      "sl": 1493,
      "ycnt": 1494,
      "##576": 1495,
      "##line": 1496,
      "scn": 1497,
      "##stor": 1498,
      "coe": 1499,
      "code": 1500,
      "##map": 1501,
      "pare": 1502,
      "##col": 1503,
      "chk": 1504,
      "table": 1505,
      "bitcount": 1506,
      "##ssible": 1507,
      "sdsortfn": 1508,
      "find_set": 1509,
      "crosspoint": 1510,
      "color": 1511,
      "theta": 1512,
      "divide": 1513,
      "1e-8": 1514,
      "cell": 1515,
      "##queue": 1516,
      "chilnum": 1517,
      "origin": 1518,
      "sdsortfnc": 1519,
      "%f": 1520,
      "ae": 1521,
      "a0": 1522,
      "best": 1523,
      "game": 1524,
      "ld": 1525,
      "ni": 1526,
      "nd": 1527,
      "pw": 1528,
      "ppe": 1529,
      "##_queue": 1530,
      "##men": 1531,
      "##ority": 1532,
      "##00000000": 1533,
      "##uff": 1534,
      "##_small": 1535,
      "##sizu": 1536,
      "new1": 1537,
      "##pointer": 1538,
      "banmen": 1539,
      "priority": 1540,
      "vertex_num": 1541,
      "wasizu": 1542,
      "ppeq": 1543,
      "priority_queue": 1544,
      "block": 1545,
      "dcmp": 1546,
      "digit": 1547,
      "gy": 1548,
      "hb": 1549,
      "imp": 1550,
      "t4": 1551,
      "##xx": 1552,
      "##ossible": 1553,
      "##62": 1554,
      "##use": 1555,
      "##gn": 1556,
      "##%f": 1557,
      "maxn": 1558,
      "1048": 1559,
      "##enkai": 1560,
      "##cho": 1561,
      "##ltin": 1562,
      "##cess": 1563,
      "is_": 1564,
      "yes\\n": 1565,
      "front": 1566,
      "comm": 1567,
      "9999": 1568,
      "handp": 1569,
      "builtin": 1570,
      "impossible": 1571,
      "210": 1572,
      "97": 1573,
      "ele": 1574,
      "gin": 1575,
      "imax": 1576,
      "lp": 1577,
      "pull": 1578,
      "qe": 1579,
      "vy": 1580,
      "vmul": 1581,
      "word": 1582,
      "##ment": 1583,
      "##pt": 1584,
      "##ca": 1585,
      "##ber": 1586,
      "##buf": 1587,
      "mov": 1588,
      "move": 1589,
      "1005": 1590,
      "##cell": 1591,
      "##update": 1592,
      "suc": 1593,
      "output": 1594,
      "##3f3f": 1595,
      "yoko": 1596,
      "0\\n": 1597,
      "2e": 1598,
      "35": 1599,
      "bm": 1600,
      "cd": 1601,
      "cv": 1602,
      "cmax": 1603,
      "dh": 1604,
      "gg": 1605,
      "grea": 1606,
      "high": 1607,
      "lx": 1608,
      "umin": 1609,
      "xa": 1610,
      "zz": 1611,
      "##c_unlocked": 1612,
      "mincost": 1613,
      "##erm": 1614,
      "putc_unlocked": 1615,
      "##ower": 1616,
      "part": 1617,
      "lsegnum": 1618,
      "matrix": 1619,
      "ang": 1620,
      "div_mod": 1621,
      "%d%c": 1622,
      "realloc": 1623,
      "greater": 1624,
      "bf": 1625,
      "fail": 1626,
      "ho": 1627,
      "hal": 1628,
      "my": 1629,
      "nex": 1630,
      "wid": 1631,
      "zt": 1632,
      "##alue": 1633,
      "##_le": 1634,
      "##plus": 1635,
      "prag": 1636,
      "##stic": 1637,
      "##pen": 1638,
      "memcmp": 1639,
      "nodex": 1640,
      "nodey": 1641,
      "gcc": 1642,
      "0x7": 1643,
      "datas": 1644,
      "seen": 1645,
      "isr": 1646,
      "pow2": 1647,
      "uft": 1648,
      "sdiff": 1649,
      "3005": 1650,
      "nnn": 1651,
      "##lusplus": 1652,
      "cplusplus": 1653,
      "1048576": 1654,
      "width": 1655,
      "pragma": 1656,
      "cent": 1657,
      "dr": 1658,
      "eof": 1659,
      "ht": 1660,
      "ke": 1661,
      "qc": 1662,
      "vx": 1663,
      "##ybe": 1664,
      "maybe": 1665,
      "size_t": 1666,
      "hi2": 1667,
      "##odes": 1668,
      "sortup": 1669,
      "ptr": 1670,
      "##dir": 1671,
      "nnodes": 1672,
      "err": 1673,
      "scni32": 1674,
      "-w": 1675,
      "1\\n": 1676,
      "bin": 1677,
      "c0": 1678,
      "e2": 1679,
      "ign": 1680,
      "nw": 1681,
      "pb": 1682,
      "slen": 1683,
      "ti": 1684,
      "umax": 1685,
      "uchar": 1686,
      "ya": 1687,
      "zy": 1688,
      "##_lim": 1689,
      "##ne": 1690,
      "##nown": 1691,
      "##row": 1692,
      "##-types": 1693,
      "##-pointer": 1694,
      "##\\0": 1695,
      "##ored": 1696,
      "##incomp": 1697,
      "maxflow": 1698,
      "##cted": 1699,
      "##ction": 1700,
      "##atible": 1701,
      "diag": 1702,
      "##aicho": 1703,
      "##entz": 1704,
      "##th_": 1705,
      "2005": 1706,
      "seq": 1707,
      "##_hand": 1708,
      "sscanf": 1709,
      "newr": 1710,
      "nxt": 1711,
      "##_px": 1712,
      "##nostic": 1713,
      "##_invader": 1714,
      "##_card": 1715,
      "old_px": 1716,
      "2000000007": 1717,
      "2000000000000": 1718,
      "-wincomp": 1719,
      "ignored": 1720,
      "##-pointer-types": 1721,
      "##atible-pointer-types": 1722,
      "diagnostic": 1723,
      "-wincompatible-pointer-types": 1724,
      "0.0": 1725,
      "90": 1726,
      "a3": 1727,
      "area": 1728,
      "ev": 1729,
      "hr": 1730,
      "r_to": 1731,
      "term": 1732,
      "vc": 1733,
      "##_i": 1734,
      "##over": 1735,
      "##41": 1736,
      "##rint": 1737,
      "##pha": 1738,
      "##baicho": 1739,
      "##36": 1740,
      "##qp": 1741,
      "%d,": 1742,
      "score": 1743,
      "##arr": 1744,
      "##efl": 1745,
      "dpcell": 1746,
      "##define": 1747,
      "##_sort": 1748,
      "tabaicho": 1749,
      "1e18": 1750,
      "2000010": 1751,
      "argc": 1752,
      "atan": 1753,
      "bpm": 1754,
      "##_avl_node": 1755,
      "merge_sort": 1756,
      "ptriplecomp": 1757,
      "argv": 1758,
      "ms_valtype": 1759,
      "0.5": 1760,
      "success": 1761,
      "mincostflow": 1762,
      "half": 1763,
      "2010": 1764,
      "blen": 1765,
      "cat": 1766,
      "d_": 1767,
      "fun": 1768,
      "loc": 1769,
      "n0": 1770,
      "ri": 1771,
      "rc": 1772,
      "round": 1773,
      "sid": 1774,
      "same": 1775,
      "uc": 1776,
      "vf": 1777,
      "vra": 1778,
      "win": 1779,
      "za": 1780,
      "z1": 1781,
      "##_graph": 1782,
      "##te": 1783,
      "##ren": 1784,
      "##lit": 1785,
      "##core": 1786,
      "##yout": 1787,
      "##hyout": 1788,
      "##ste": 1789,
      "##oup": 1790,
      "maxv": 1791,
      "##ator": 1792,
      "##_th": 1793,
      "nexts": 1794,
      "length": 1795,
      "invp": 1796,
      "use_ma": 1797,
      "check_lim": 1798,
      "512": 1799,
      "##3333": 1800,
      "lca": 1801,
      "5001": 1802,
      "vda": 1803,
      "vdc": 1804,
      "vdb": 1805,
      "##10101010": 1806,
      "uniq": 1807,
      "vrc": 1808,
      "vrb": 1809,
      "ceil": 1810,
      "children": 1811,
      "##364364": 1812,
      "pullcomp": 1813,
      "zyusin": 1814,
      "##th_define": 1815,
      "zahyout": 1816,
      "use_math_define": 1817,
      "zahyoutype": 1818,
      "use_math_defines": 1819,
      "29": 1820,
      "3010": 1821,
      "49": 1822,
      "40000": 1823,
      "5010": 1824,
      "80": 1825,
      "dresult": 1826,
      "mj": 1827,
      "pchar": 1828,
      "p_parent": 1829,
      "si": 1830,
      "sno": 1831,
      "xcnt": 1832,
      "##ix": 1833,
      "##ug": 1834,
      "##gor": 1835,
      "##114": 1836,
      "##hm": 1837,
      "##llcomp": 1838,
      "minus": 1839,
      "llabs": 1840,
      "##oft": 1841,
      "##ithm": 1842,
      "buff": 1843,
      "%s%d": 1844,
      "##_value": 1845,
      "del": 1846,
      "##oly": 1847,
      "##pop": 1848,
      "lsegupdate": 1849,
      "10001": 1850,
      "new2": 1851,
      "sets": 1852,
      "graph_edge": 1853,
      "##_count": 1854,
      "split": 1855,
      "##1919": 1856,
      "psllcomp": 1857,
      "curr": 1858,
      "algor": 1859,
      "chilweight": 1860,
      "gameover": 1861,
      "angle": 1862,
      "pcharcomp": 1863,
      "algorithm": 1864,
      "415": 1865,
      "57": 1866,
      "all": 1867,
      "acc": 1868,
      "be": 1869,
      "b0": 1870,
      "c_num": 1871,
      "fh": 1872,
      "fod": 1873,
      "i1": 1874,
      "imo": 1875,
      "nst": 1876,
      "pstr": 1877,
      "tv": 1878,
      "text": 1879,
      "##_k": 1880,
      "##_se": 1881,
      "##oose": 1882,
      "##514": 1883,
      "##pl": 1884,
      "##ded": 1885,
      "##stak": 1886,
      "min2": 1887,
      "min1": 1888,
      "1072": 1889,
      "##101919": 1890,
      "cnt2": 1891,
      "##_tenkai": 1892,
      "##cos": 1893,
      "choose": 1894,
      "n_dir": 1895,
      "##cestor": 1896,
      "mistak": 1897,
      "inv2": 1898,
      "lsegcalcsub": 1899,
      "10002": 1900,
      "10005": 1901,
      "%lf%lf%lf": 1902,
      "npair": 1903,
      "ancestor": 1904,
      "paste": 1905,
      "unicnt": 1906,
      "##18101919": 1907,
      "udiff": 1908,
      "hwreal": 1909,
      "wilds": 1910,
      "cards": 1911,
      "0x7ffff": 1912,
      "##nected": 1913,
      "##4118101919": 1914,
      "function": 1915,
      "##114514": 1916,
      "4154118101919": 1917,
      "imos": 1918,
      "pstrcomp": 1919,
      "1072114514": 1920,
      "n_dirs": 1921,
      "mistaken": 1922,
      "4154118101919364364": 1923,
      "4000": 1924,
      "am": 1925,
      "bu": 1926,
      "din": 1927,
      "f1": 1928,
      "hit": 1929,
      "lv": 1930,
      "med": 1931,
      "m_p": 1932,
      "nf": 1933,
      "oh": 1934,
      "oper": 1935,
      "over": 1936,
      "ra": 1937,
      "rmin": 1938,
      "t0": 1939,
      "tea": 1940,
      "ue": 1941,
      "wh": 1942,
      "xp": 1943,
      "##_add": 1944,
      "##_pos": 1945,
      "##40": 1946,
      "##score": 1947,
      "##vot": 1948,
      "##late": 1949,
      "##uad": 1950,
      "##cm": 1951,
      "man": 1952,
      "##ar_inv": 1953,
      "##ouble": 1954,
      "llsortfncsj": 1955,
      "llzt": 1956,
      "next_": 1957,
      "##_soft": 1958,
      "x11": 1959,
      "2001": 1960,
      "prevcomp": 1961,
      "template": 1962,
      "tri": 1963,
      "pivot": 1964,
      "modular_inv": 1965,
      "board": 1966,
      "set_edge": 1967,
      "409": 1968,
      "srand": 1969,
      "##_cut": 1970,
      "phwllrevcomp": 1971,
      "scc_num": 1972,
      "300000": 1973,
      "pquad": 1974,
      "ptriplerevcomp": 1975,
      "erase": 1976,
      "isinrange_soft": 1977,
      "peqp": 1978,
      "llsankaku": 1979,
      "pdouble": 1980,
      "convex_cut": 1981,
      "center": 1982,
      "even": 1983,
      "m_pi": 1984,
      "operator": 1985,
      "team": 1986,
      "modular_inverse": 1987,
      "pquadcomp": 1988,
      "pdoublecomp": 1989,
      "28": 1990,
      "cs": 1991,
      "clock": 1992,
      "city": 1993,
      "day": 1994,
      "flip": 1995,
      "ga": 1996,
      "gno": 1997,
      "jump": 1998,
      "known": 1999,
      "lll": 2000,
      "tc": 2001,
      "tb": 2002,
      "##ln": 2003,
      "##ud": 2004,
      "##01": 2005,
      "##ki": 2006,
      "##1buf": 2007,
      "##init": 2008,
      "##00ff": 2009,
      "minang": 2010,
      "strsortfncsj": 2011,
      "strsortfnckj": 2012,
      "llce": 2013,
      "llfact": 2014,
      "llpow": 2015,
      "llsortfnckj": 2016,
      "##itch": 2017,
      "##egr": 2018,
      "next_b": 2019,
      "y11": 2020,
      "y21": 2021,
      "x21": 2022,
      "##eytype": 2023,
      "key_r": 2024,
      "limit": 2025,
      "inverse": 2026,
      "switch": 2027,
      "grid": 2028,
      "putchar_unlocked": 2029,
      "%.12": 2030,
      "order": 2031,
      "lc1buf": 2032,
      "dbzt": 2033,
      "avl_k": 2034,
      "old1": 2035,
      "readgraph": 2036,
      "ft2": 2037,
      "ft1": 2038,
      "downll": 2039,
      "400010": 2040,
      "sortfncsj": 2041,
      "sortfnckj": 2042,
      "dbsortfncsj": 2043,
      "dbsortfnckj": 2044,
      "lldsumb": 2045,
      "fft_val": 2046,
      "next_scc_num": 2047,
      "pareweight": 2048,
      "##rintf": 2049,
      "atan2": 2050,
      "lllcm": 2051,
      "llceil": 2052,
      "next_bt": 2053,
      "avl_keytype": 2054,
      "aid": 2055,
      "alloc": 2056,
      "bv": 2057,
      "dst": 2058,
      "eval": 2059,
      "gf": 2060,
      "k0": 2061,
      "l_": 2062,
      "mp": 2063,
      "rm": 2064,
      "rj": 2065,
      "sg": 2066,
      "sit": 2067,
      "xm": 2068,
      "ymax": 2069,
      "ymin": 2070,
      "z2": 2071,
      "##_min": 2072,
      "##rr": 2073,
      "##round": 2074,
      "##02": 2075,
      "##17": 2076,
      "inter": 2077,
      "##001": 2078,
      "##area": 2079,
      "prarr": 2080,
      "ansx": 2081,
      "ansy": 2082,
      "strch": 2083,
      "strstr": 2084,
      "max_n": 2085,
      "llround": 2086,
      "dim": 2087,
      "0x10101010": 2088,
      "segnum": 2089,
      "1e8": 2090,
      "200005": 2091,
      "upd": 2092,
      "xxx": 2093,
      "group": 2094,
      "dy4": 2095,
      "adj_inv": 2096,
      "dx4": 2097,
      "saidx": 2098,
      "dd_": 2099,
      "oppo": 2100,
      "%lf\\n": 2101,
      "sprintf": 2102,
      "close": 2103,
      "##795": 2104,
      "llnhr": 2105,
      "##3030": 2106,
      "bt_inv": 2107,
      "mbk": 2108,
      "leaf": 2109,
      "builtin_": 2110,
      "htpt": 2111,
      "local": 2112,
      "0x7ffffff": 2113,
      "functional": 2114,
      "##egral": 2115,
      "strchr": 2116,
      "23": 2117,
      "37": 2118,
      "310": 2119,
      "600": 2120,
      "ct": 2121,
      "gb": 2122,
      "hsize": 2123,
      "kr": 2124,
      "ly": 2125,
      "lz": 2126,
      "lmin": 2127,
      "nl": 2128,
      "nhr": 2129,
      "off": 2130,
      "pf": 2131,
      "sankaku": 2132,
      "tans": 2133,
      "weight": 2134,
      "xn": 2135,
      "yp": 2136,
      "##x9": 2137,
      "##x0": 2138,
      "##_len": 2139,
      "##tch": 2140,
      "##eld": 2141,
      "##67": 2142,
      "##832": 2143,
      "##sak": 2144,
      "##07": 2145,
      "##y9": 2146,
      "##y0": 2147,
      "##hai": 2148,
      "##--": 2149,
      "inttypes": 2150,
      "##ary": 2151,
      "##search": 2152,
      "connected": 2153,
      "cnt1": 2154,
      "10000000": 2155,
      "##6433": 2156,
      "tps": 2157,
      "keya": 2158,
      "200002": 2159,
      "##_init": 2160,
      "##_by": 2161,
      "value": 2162,
      "etcnt": 2163,
      "3.141592653589793238462": 2164,
      "dsumb": 2165,
      "%.9f\\n": 2166,
      "command": 2167,
      "offset": 2168,
      "##saki": 2169,
      "inttypes.h": 2170,
      "##6433832": 2171,
      "3.1415926535897932384626433832": 2172,
      "dea": 2173,
      "hsiz": 2174,
      "ka": 2175,
      "mon": 2176,
      "p10": 2177,
      "pmap": 2178,
      "qui": 2179,
      "sf": 2180,
      "tro": 2181,
      "yo": 2182,
      "##_cnt": 2183,
      "##_rev": 2184,
      "##i_val": 2185,
      "##om": 2186,
      "##wi": 2187,
      "##mod": 2188,
      "##dget": 2189,
      "##pro": 2190,
      "##bit": 2191,
      "##%c": 2192,
      "##zero": 2193,
      "ind": 2194,
      "ini_val": 2195,
      "step": 2196,
      "##ledget": 2197,
      "##sen": 2198,
      "stre": 2199,
      "##main": 2200,
      "cnt_": 2201,
      "next1": 2202,
      "fla": 2203,
      "##cksort": 2204,
      "##_union": 2205,
      "chsortfncsj": 2206,
      "chsortfnckj": 2207,
      "0xff": 2208,
      "dfs1": 2209,
      "isp": 2210,
      "invader": 2211,
      "301": 2212,
      "111": 2213,
      "dy8": 2214,
      "dx8": 2215,
      "%.8": 2216,
      "%.10": 2217,
      "shuff": 2218,
      "##_fact": 2219,
      "99999": 2220,
      "build_avl_node": 2221,
      "bip": 2222,
      "##kaisen": 2223,
      "ki_add": 2224,
      "##move": 2225,
      "##pace": 2226,
      "2e9": 2227,
      "##_left": 2228,
      "##eflag": 2229,
      "quicksort": 2230,
      "shuffledget": 2231,
      "2.0": 2232,
      "510": 2233,
      "cu": 2234,
      "ck": 2235,
      "dz": 2236,
      "ey": 2237,
      "e1": 2238,
      "gsz": 2239,
      "hc": 2240,
      "im": 2241,
      "lsz": 2242,
      "pl": 2243,
      "pk": 2244,
      "ze": 2245,
      "##_mul": 2246,
      "##_use": 2247,
      "##ius": 2248,
      "##duct": 2249,
      "##down": 2250,
      "##sion": 2251,
      "##poly": 2252,
      "##345": 2253,
      "##[^": 2254,
      "####": 2255,
      "mak": 2256,
      "##ler": 2257,
      "pro": 2258,
      "not": 2259,
      "##match": 2260,
      "mod_by": 2261,
      "##agari": 2262,
      "added": 2263,
      "y12": 2264,
      "x12": 2265,
      "y22": 2266,
      "segcalcsub": 2267,
      "x22": 2268,
      "deb": 2269,
      "205": 2270,
      "heapsize": 2271,
      "dfs2": 2272,
      "sep": 2273,
      "pi2": 2274,
      "yy_": 2275,
      "##144": 2276,
      "avl_tree": 2277,
      "360": 2278,
      "##_data": 2279,
      "radius": 2280,
      "%ld%ld%ld": 2281,
      "##1\\n-1\\n-1\\n-1\\n-1\\n-1\\n-1\\n-1\\n-1\\n-1\\n-1\\n-1\\n-1\\n-1\\n-1\\n-1\\n-1\\n-1\\n-1\\n-1\\n-1\\n-1\\n-1\\n-1\\n-1\\n-1\\n-1\\n-1\\n-1\\n-1\\n-1\\n-1\\n-1\\n-1\\n-1\\n-1\\n-1\\n-1\\n-1\\n-1\\n-1\\n-1\\n-1\\n-1\\n-1\\n-1\\n-1\\n-1\\n-1\\n-1\\n-1\\n-1\\n-1\\n-1\\n-1\\n-1\\n-1\\n-1\\n-1\\n-1\\n-1\\n-1\\n-1\\n-1\\n-1\\n-1\\n-1\\n-1\\n-1\\n-1\\n-1\\n-1\\n-1\\n-1\\n-1\\n-1\\n-1\\n-1\\n-1\\n-1\\n-1\\n-1\\n-1\\n-1\\n-1\\n-1\\n-1\\n-1\\n-1\\n-1\\n-1\\n-1\\n-1\\n-1\\n-1\\n-1\\n-1\\n-1\\n-1\\n-1\\n-1\\n-1\\n-1\\n-1\\n-1\\n-1\\n-1\\n-1\\n-1\\n-1\\n-1\\n-1\\n-1\\n-1\\n-1\\n-1\\n-1\\n-1\\n-1\\n-1\\n-1\\n-1\\n-1\\n-1\\n-1\\n-1\\n-1\\n-1\\n-1\\n-1\\n-1\\n-1\\n-1\\n-1\\n-1\\n-1\\n-1\\n-1\\n-1\\n-1\\n-1\\n-1\\n-1\\n-1\\n-1\\n-1\\n-1\\n-1\\n-1\\n-1\\n-1\\n-1\\n-1\\n-1\\n-1\\n-1\\n-1\\n-1\\n-1\\n-1\\n-1\\n-1\\n-1\\n-1\\n-1\\n-1\\n-1\\n-1\\n-1\\n-1\\n-1\\n-1\\n-1\\n-1\\n-1\\n-1\\n-1\\n-1\\n-1\\n-1\\n-1\\n-1\\n-1\\n-1\\n-1\\n-1\\n-1\\n-1\\n-1\\n-1\\n-1\\n-1\\n-1\\n-1\\n-1\\n-1\\n-1\\n-1\\n-1\\n-1\\n-1\\n-1\\n-1\\n-1\\n-1\\n-1\\n-1\\n-1\\n-1\\n-1\\n-1\\n-1\\n-1\\n-1\\n-1\\n-1\\n-1\\n-1\\n-1\\n-1\\n-1\\n-1\\n-1\\n-1\\n-1\\n-1\\n-1\\n-1\\n-1\\n-1\\n-1\\n-1\\n-1\\n-1\\n-1\\n-1\\n-1\\n-1\\n-1\\n-1\\n-1\\n-1\\n-1\\n-1\\n-1\\n-1\\n-1\\n-1\\n-1\\n-1\\n-1\\n-1\\n-1\\n-1\\n-1\\n-1\\n-1\\n-1\\n-1\\n-1\\n-1\\n-1\\n-1\\n-1\\n-1\\n-1\\n-1\\n-1\\n-1\\n-1\\n-1\\n-1\\n-1\\n-1\\n-1\\n-1\\n-1\\n-1\\n-1\\n-1\\n-1\\n-1\\n-1\\n-1\\n-1\\n-1\\n-1\\n-1\\n-1\\n-1\\n-1\\n-1\\n-1\\n-1\\n-1\\n-1\\n-1\\n-1\\n-1\\n-1\\n-1\\n-1\\n-1\\n-1\\n-1\\n-1\\n-1\\n-1\\n-1\\n-1\\n-1\\n-1\\n-1\\n-1\\n-1\\n-1\\n-1\\n-1\\n-1\\n-1\\n-1\\n-1\\n-1\\n-1\\n-1\\n-1\\n-1\\n-1\\n-1\\n-1\\n-1\\n-1\\n-1\\n-1\\n-1\\n-1\\n-1\\n-1\\n-1\\n-1\\n-1\\n-1\\n-1\\n-1\\n-1\\n-1\\n-1\\n-1\\n-1\\n-1\\n-1\\n-1\\n-1\\n-1\\n-1\\n-1\\n-1\\n-1\\n-1\\n-1\\n-1\\n-1\\n-1\\n-1\\n-1\\n-1\\n-1\\n-1\\n-1\\n-1\\n-1\\n-1\\n-1\\n-1\\n-1\\n-1\\n-1\\n-1\\n-1\\n-1\\n-1\\n-1\\n-1\\n-1\\n-1\\n-1\\n-1\\n-1\\n-1\\n-1\\n-1\\n-1\\n-1\\n-1\\n-1\\n-1\\n-1\\n-1\\n-1\\n-1\\n-1\\n-1\\n-1\\n-1\\n-1\\n-1\\n-1\\n-1\\n-1\\n-1\\n-1\\n-1\\n-1\\n-1\\n-1\\n-1\\n-1\\n-1\\n-1\\n-1\\n-1\\n-1\\n-1\\n-1\\n-1\\n-1\\n-1\\n-1\\n-1\\n-1\\n-1\\n-1\\n-1\\n-1\\n-1\\n-1\\n-1\\n-1\\n-1\\n-1\\n-1\\n-1\\n-1\\n-1\\n-1\\n-1\\n-1\\n-1\\n-1\\n-1\\n-1\\n-1\\n-1\\n-1\\n-1\\n-1\\n-1\\n-1\\n-1\\n-1\\n-1\\n-1\\n-1\\n-1\\n-1\\n-1\\n-1\\n-1\\n-1\\n-1\\n-1\\n-1\\n-1\\n-1\\n-1\\n-1\\n-1\\n-1\\n-1\\n-1\\n-1\\n-1\\n-1\\n-1\\n-1\\n-1\\n-1\\n-1\\n-1\\n-1\\n-1\\n-1\\n-1\\n-1\\n-1\\n-1\\n-1\\n-1\\n-1\\n-1\\n-1\\n-1\\n-1\\n-1\\n-1\\n-1\\n-1\\n-1\\n-1\\n-1\\n-1\\n-1\\n-1\\n-1\\n-1\\n-1\\n-1\\n-1\\n-1\\n-1\\n-1\\n-1\\n-1\\n-1\\n-1\\n-1\\n-1\\n-1\\n-1\\n-1\\n-1\\n-1\\n-1\\n-1\\n-1\\n-1\\n-1\\n-1\\n-1\\n-1\\n-1\\n-1\\n-1\\n-1\\n-1\\n-1\\n-1\\n-1\\n-1\\n-1\\n-1\\n-1\\n-1\\n-1\\n-1\\n-1\\n-1\\n-1\\n-1\\n-1\\n-1\\n-1\\n-1\\n-1\\n-1\\n-1\\n-1\\n-1\\n-1\\n-1\\n-1\\n-1\\n-1\\n-1\\n-1\\n-1\\n-1\\n-1\\n-1\\n-1\\n-1\\n-1\\n-1\\n-1\\n-1\\n-1\\n-1\\n-1\\n-1\\n-1\\n-1\\n-1\\n-1\\n-1\\n-1\\n-1\\n-1\\n-1\\n-1\\n-1\\n-1\\n-1\\n-1\\n-1\\n-1\\n-1\\n-1\\n-1\\n-1\\n-1\\n-1\\n-1\\n-1\\n-1\\n-1\\n-1\\n-1\\n-1\\n-1\\n-1\\n-1\\n-1\\n-1\\n-1\\n-1\\n-1\\n-1\\n-1\\n-1\\n-1\\n-1\\n-1\\n-1\\n-1\\n-1\\n-1\\n-1\\n-1\\n-1\\n-1\\n-1\\n-1\\n-1\\n-1\\n-1\\n-1\\n-1\\n-1\\n-1\\n-1\\n-1\\n-1\\n-1\\n-1\\n-1\\n-1\\n-1\\n-1\\n-1\\n-1\\n-1\\n-1\\n-1\\n-1\\n-1\\n-1\\n-1\\n-1\\n-1\\n-1\\n-1\\n-1\\n-1\\n-1\\n-1\\n-1\\n-1\\n-1\\n-1\\n-1\\n-1\\n-1\\n-1\\n-1\\n-1\\n-1\\n-1\\n-1\\n-1\\n-1\\n-1\\n-1\\n-1\\n-1\\n-1\\n-1\\n-1\\n-1\\n-1\\n-1\\n-1\\n-1\\n-1\\n-1\\n-1\\n-1\\n-1\\n-1\\n-1\\n-1\\n-1\\n-1\\n-1\\n-1\\n-1\\n-1\\n-1\\n-1\\n-1\\n-1\\n-1\\n-1\\n-1\\n-1\\n-1\\n-1\\n-1\\n-1\\n-1\\n-1\\n-1\\n-1\\n-1\\n-1\\n-1\\n-1\\n-1\\n-1\\n-1\\n-1\\n-1\\n-1\\n-1\\n-1\\n-1\\n-1\\n-1\\n-1\\n-1\\n-1\\n-1\\n-1\\n-1\\n-1\\n-1\\n-1\\n-1\\n-1\\n-1\\n-1\\n-1\\n-1\\n-1\\n-1\\n-1\\n-1\\n-1\\n-1\\n-1\\n-1\\n-1\\n-1\\n-1\\n-1\\n-1\\n-1\\n-1\\n-1\\n-1\\n-1\\n-1\\n-1\\n-1\\n-1\\n-1\\n-1\\n-1\\n-1\\n-1\\n-1\\n-1\\n-1\\n-1\\n-1\\n-1\\n-1\\n-1\\n-1\\n-1\\n-1\\n-1\\n-1\\n-1\\n-1\\n-1\\n-1\\n-1\\n-1\\n-1\\n-1\\n-1\\n-1\\n-1\\n-1\\n-1\\n-1\\n-1\\n-1\\n-1\\n-1\\n-1\\n-1\\n-1\\n-1\\n-1\\n-1\\n-1\\n-1\\n-1\\n-1\\n-1\\n-1\\n-1\\n-1\\n-1\\n-1\\n-1\\n-1\\n-1\\n-1\\n-1\\n-1\\n-1\\n-1\\n-1\\n-1\\n-1\\n-1\\n-1\\n-1\\n-1\\n-1\\n-1\\n-1\\n-1\\n-1\\n-1\\n-1\\n-1\\n-1\\n-1\\n-1\\n-1\\n-1\\n-1\\n-1\\n-1\\n-1\\n-1\\n-1\\n-1\\n-1\\n-1\\n-1\\n-1\\n-1\\n-1\\n-1\\n-1\\n-1\\n-1\\n-1\\n-1\\n-1\\n-1\\n-1\\n-1\\n-1\\n-1\\n-1\\n-1\\n-1\\n-1\\n-1\\n-1\\n-1\\n-1\\n-1\\n-1\\n-1\\n-1\\n-1\\n-1\\n-1\\n-1\\n-1\\n-1\\n-1\\n-1\\n-1\\n-1\\n-1\\n-1\\n-1\\n-1\\n-1\\n-1\\n-1\\n-1\\n-1\\n-1\\n-1\\n-1\\n-1\\n-1\\n-1\\n-1\\n-1\\n-1\\n-1\\n-1\\n-1\\n-1\\n-1\\n-1\\n-1\\n-1\\n-1\\n-1\\n-1\\n-1\\n-1\\n-1\\n-1\\n-1\\n-1\\n-1\\n-1\\n-1\\n-1\\n-1\\n-1\\n-1\\n-1\\n-1\\n-1\\n-1\\n-1\\n-1\\n-1\\n-1\\n-1\\n-1\\n-1\\n-1\\n-1\\n-1\\n-1\\n-1\\n-1\\n-1\\n-1\\n-1\\n-1\\n-1\\n-1\\n-1\\n-1\\n-1\\n-1\\n-1\\n-1\\n-1\\n-1\\n-1\\n-1\\n-1\\n-1\\n-1\\n-1\\n-1\\n-1\\n-1\\n-1\\n-1\\n-1\\n-1\\n-1\\n-1\\n-1\\n-1\\n-1\\n-1\\n-1\\n-1\\n-1\\n-1\\n-1\\n-1\\n-1\\n-1\\n-1\\n-1\\n-1\\n-1\\n-1\\n-1\\n-1\\n-1\\n-1\\n-1\\n-1\\n-1\\n-1\\n-": 2282,
      "##_smallest": 2283,
      "tim": 2284,
      "##_tenkaisaki": 2285,
      "##product": 2286,
      "38": 2287,
      "70": 2288,
      "amax": 2289,
      "acos": 2290,
      "dl": 2291,
      "g_": 2292,
      "jo": 2293,
      "nk": 2294,
      "pit": 2295,
      "qx": 2296,
      "qy": 2297,
      "qcnt": 2298,
      "sign": 2299,
      "tan": 2300,
      "we": 2301,
      "ym": 2302,
      "y4": 2303,
      "##xy": 2304,
      "##_st": 2305,
      "##_str": 2306,
      "##mon": 2307,
      "##data": 2308,
      "##cat": 2309,
      "##nth": 2310,
      "##lear": 2311,
      "maxi": 2312,
      "##%d]": 2313,
      "rest": 2314,
      "remain": 2315,
      "month": 2316,
      "memmove": 2317,
      "repp": 2318,
      "next0": 2319,
      "chmax": 2320,
      "heap_size": 2321,
      "%.15": 2322,
      "phw": 2323,
      "5005": 2324,
      "500010": 2325,
      "then": 2326,
      "sorted_scc": 2327,
      "esort": 2328,
      "blow": 2329,
      "ki_get": 2330,
      "%.12lf\\n": 2331,
      "debug": 2332,
      "333": 2333,
      "asum": 2334,
      "cut": 2335,
      "fp": 2336,
      "fy": 2337,
      "h_dist": 2338,
      "keta": 2339,
      "q1": 2340,
      "ts": 2341,
      "ur": 2342,
      "ul": 2343,
      "x4": 2344,
      "your": 2345,
      "##ew": 2346,
      "##ner": 2347,
      "##57": 2348,
      "##gon": 2349,
      "##ko": 2350,
      "integral": 2351,
      "white": 2352,
      "##00000": 2353,
      "strcat": 2354,
      "max_heap": 2355,
      "cocomp": 2356,
      "%d%d\\n": 2357,
      "##_new": 2358,
      "##rom": 2359,
      "roll": 2360,
      "test": 2361,
      "##che": 2362,
      "dest": 2363,
      "2048": 2364,
      "keyb": 2365,
      "key_c": 2366,
      "limits": 2367,
      "field": 2368,
      "cache": 2369,
      "sort_sub": 2370,
      "ddd": 2371,
      "suit": 2372,
      "##perm": 2373,
      "make_tree": 2374,
      "primes": 2375,
      "vectorsub": 2376,
      "graph_vertex_sub": 2377,
      "h_def": 2378,
      "##%f%f": 2379,
      "ele_num": 2380,
      "element": 2381,
      "lsegupdatesub": 2382,
      "0x7fffffff": 2383,
      "dealer": 2384,
      "mono": 2385,
      "%.8lf\\n": 2386,
      "integral_": 2387,
      "limits.h": 2388,
      "back": 2389,
      "cn": 2390,
      "det": 2391,
      "dsz": 2392,
      "fv": 2393,
      "finv": 2394,
      "iss": 2395,
      "ky": 2396,
      "kz": 2397,
      "lj": 2398,
      "lch": 2399,
      "mf": 2400,
      "mentz": 2401,
      "net": 2402,
      "open": 2403,
      "plen": 2404,
      "rmax": 2405,
      "rock": 2406,
      "suff": 2407,
      "xpos": 2408,
      "##aflag": 2409,
      "##_comp": 2410,
      "##_area": 2411,
      "##ncr": 2412,
      "##open": 2413,
      "##dfs": 2414,
      "##2144": 2415,
      "##long": 2416,
      "##kaku": 2417,
      "##16": 2418,
      "##zz": 2419,
      "##007": 2420,
      "##hift": 2421,
      "strt": 2422,
      "107": 2423,
      "##alpha": 2424,
      "to2": 2425,
      "nowdata": 2426,
      "distpp": 2427,
      "bits": 2428,
      "1e6": 2429,
      "need": 2430,
      "tree_valtype": 2431,
      "heap_node": 2432,
      "sekaisen": 2433,
      "calcncr": 2434,
      "isalpha": 2435,
      "pow_inv": 2436,
      "try": 2437,
      "pile": 2438,
      "%.f": 2439,
      "sortdown": 2440,
      "org": 2441,
      "262144": 2442,
      "##_right": 2443,
      "##mul_all": 2444,
      "combine": 2445,
      "wire": 2446,
      "1e-7": 2447,
      "##180": 2448,
      "aloc": 2449,
      "bloc": 2450,
      "intersection": 2451,
      "%*d%d": 2452,
      "na\\n": 2453,
      "argmin": 2454,
      "ki_mul_all": 2455,
      "more2": 2456,
      "more0": 2457,
      "more1": 2458,
      "##col_cnt": 2459,
      "is_agari": 2460,
      "2000000000000007": 2461,
      "d_col_cnt": 2462,
      "nexts_num": 2463,
      "##popcount": 2464,
      "buy": 2465,
      "sitaflag": 2466,
      "builtin_popcount": 2467,
      "suffix": 2468,
      "1.": 2469,
      "45": 2470,
      "4010": 2471,
      "419": 2472,
      "br": 2473,
      "bmax": 2474,
      "bun": 2475,
      "f3": 2476,
      "fen": 2477,
      "j_": 2478,
      "n3": 2479,
      "rch": 2480,
      "sem": 2481,
      "sft": 2482,
      "ski": 2483,
      "ueflag": 2484,
      "vu": 2485,
      "vz": 2486,
      "wall": 2487,
      "x_": 2488,
      "##_w": 2489,
      "##e4": 2490,
      "##ist": 2491,
      "##60": 2492,
      "##22": 2493,
      "##ls": 2494,
      "##04": 2495,
      "##77": 2496,
      "##*c": 2497,
      "##ete": 2498,
      "pref": 2499,
      "##stem": 2500,
      "maxval": 2501,
      "dpb": 2502,
      "##eat": 2503,
      "copy": 2504,
      "108": 2505,
      "##ation": 2506,
      "repeat": 2507,
      "now_tenkaisaki": 2508,
      "next_invader": 2509,
      "##code": 2510,
      "0x010": 2511,
      "##_v_sub": 2512,
      "1e4": 2513,
      "mkj": 2514,
      "counter": 2515,
      "ary": 2516,
      "303": 2517,
      "pirow": 2518,
      "pi180": 2519,
      "##cccc": 2520,
      "crossproduct": 2521,
      "book": 2522,
      "dirs": 2523,
      "disp": 2524,
      "vec": 2525,
      "rbt_node_use": 2526,
      "pointer": 2527,
      "%lf%lf": 2528,
      "##_lca": 2529,
      "system": 2530,
      "col_flip": 2531,
      "col_table": 2532,
      "anc": 2533,
      "180": 2534,
      "readpoint": 2535,
      "row_flip": 2536,
      "row_table": 2537,
      "##768": 2538,
      "%*d%d%d": 2539,
      "##hash": 2540,
      "floor": 2541,
      "build_tree": 2542,
      "rotate": 2543,
      "##aaaa": 2544,
      "%d%d%d%d%d%d": 2545,
      "##6666": 2546,
      "llswap": 2547,
      "parts": 2548,
      "home": 2549,
      "isred": 2550,
      "error": 2551,
      "binary": 2552,
      "rc_flip": 2553,
      "ancestors": 2554,
      "##wise": 2555,
      "%.10lf\\n": 2556,
      "cocompf": 2557,
      "element_num": 2558,
      "bunbo": 2559,
      "semi": 2560,
      "skip": 2561,
      "copy_hand": 2562,
      "rbt_node_used": 2563,
      "ass": 2564,
      "cw": 2565,
      "cal": 2566,
      "cup": 2567,
      "dw": 2568,
      "dmax": 2569,
      "dump": 2570,
      "fx": 2571,
      "gi": 2572,
      "isu": 2573,
      "kx": 2574,
      "nj": 2575,
      "qn": 2576,
      "rp": 2577,
      "son": 2578,
      "wf": 2579,
      "x32": 2580,
      "ypos": 2581,
      "##_ad": 2582,
      "##trix": 2583,
      "##emp": 2584,
      "##fe": 2585,
      "##ole": 2586,
      "##sa": 2587,
      "##2ln": 2588,
      "##pth": 2589,
      "##gic": 2590,
      "##%*d": 2591,
      "##%llu": 2592,
      "##inate": 2593,
      "stop": 2594,
      "##depth": 2595,
      "##sed": 2596,
      "##sector": 2597,
      "mini": 2598,
      "coord": 2599,
      "dic": 2600,
      "pponseg": 2601,
      "member": 2602,
      "##lis": 2603,
      "nowscore": 2604,
      "nowmon": 2605,
      "##_no": 2606,
      "pos_to": 2607,
      "preb": 2608,
      "##_sum": 2609,
      "tehai": 2610,
      "##th_smallest": 2611,
      "201": 2612,
      "unopen": 2613,
      "factr": 2614,
      "##artite": 2615,
      "list_t": 2616,
      "##%lld%lld": 2617,
      "ufroot": 2618,
      "yy1": 2619,
      "nowva": 2620,
      "##_pow": 2621,
      "rank2": 2622,
      "puzz": 2623,
      "255": 2624,
      "aaa": 2625,
      "##536": 2626,
      "##div": 2627,
      "1000001": 2628,
      "hand3": 2629,
      "3001": 2630,
      "##factor": 2631,
      "##_lower": 2632,
      "##10101": 2633,
      "old2": 2634,
      "compare_int": 2635,
      "##_mentz": 2636,
      "verb": 2637,
      "##_matrix": 2638,
      "bisector": 2639,
      "%d%*d": 2640,
      "parev": 2641,
      "set_edge_tree": 2642,
      "3.1415926535897932384626433832795": 2643,
      "bipartite": 2644,
      "##matching": 2645,
      "##xyz": 2646,
      "isspace": 2647,
      "combine_uf": 2648,
      "is_agari_mentz": 2649,
      "41943": 2650,
      "0x01010101": 2651,
      "assign": 2652,
      "##_adj": 2653,
      "##inate_comp": 2654,
      "coordinate_comp": 2655,
      "nowmoney": 2656,
      "pos_to_int": 2657,
      "bipartitematching": 2658,
      "%u": 2659,
      "39": 2660,
      "46": 2661,
      "44": 2662,
      "73": 2663,
      "700": 2664,
      "800": 2665,
      "96": 2666,
      "b3": 2667,
      "cor": 2668,
      "car": 2669,
      "cfact": 2670,
      "clear": 2671,
      "d4": 2672,
      "dai": 2673,
      "dmin": 2674,
      "e3": 2675,
      "fo": 2676,
      "hl": 2677,
      "hid": 2678,
      "ken": 2679,
      "mig": 2680,
      "mrr": 2681,
      "phi": 2682,
      "rflag": 2683,
      "s3": 2684,
      "ulen": 2685,
      "y_": 2686,
      "~~": 2687,
      "##_id": 2688,
      "##iret": 2689,
      "##mb": 2690,
      "##80": 2691,
      "##sible": 2692,
      "##ult": 2693,
      "##pf": 2694,
      "##03": 2695,
      "##gno": 2696,
      "##1d": 2697,
      "##heap": 2698,
      "##ziret": 2699,
      "##qu": 2700,
      "ifact": 2701,
      "stone": 2702,
      "##dent": 2703,
      "scount": 2704,
      "##efact": 2705,
      "ans2": 2706,
      "ans1": 2707,
      "##ined": 2708,
      "strn": 2709,
      "maxsize": 2710,
      "##%d,": 2711,
      "coor": 2712,
      "moziret": 2713,
      "pool": 2714,
      "##ocnt": 2715,
      "pp_parent": 2716,
      "szpf": 2717,
      "cmp2": 2718,
      "##bling": 2719,
      "hash2": 2720,
      "hash1": 2721,
      "##_type": 2722,
      "posb": 2723,
      "possible": 2724,
      "data_lca": 2725,
      "desk": 2726,
      "2019": 2727,
      "1e10": 2728,
      "dfs_rev": 2729,
      "year": 2730,
      "lsegcalc": 2731,
      "1145": 2732,
      "sdfs": 2733,
      "compl": 2734,
      "%.6": 2735,
      "hypo": 2736,
      "bob": 2737,
      "bomb": 2738,
      "src": 2739,
      "vsz": 2740,
      "names": 2741,
      "##dist2": 2742,
      "flow_type": 2743,
      "1e-6": 2744,
      "alpha": 2745,
      "blk": 2746,
      "max_x": 2747,
      "max_y": 2748,
      "##_map": 2749,
      "##prime": 2750,
      "##5050": 2751,
      "bigint": 2752,
      "rdfs": 2753,
      "##55555555": 2754,
      "##0f0f0f0f": 2755,
      "65536": 2756,
      "##realcomp": 2757,
      "334": 2758,
      "##xxxx": 2759,
      "##3f3f3f3f": 2760,
      "binom": 2761,
      "lengths": 2762,
      "%lf%lf%lf%lf": 2763,
      "dinic": 2764,
      "##00ff00ff": 2765,
      "gban": 2766,
      "stree": 2767,
      "flash": 2768,
      "ki_add_all": 2769,
      "makefact": 2770,
      "g_hi": 2771,
      "phwrealcomp": 2772,
      "ki_get_i": 2773,
      "max_heapify": 2774,
      "hidari": 2775,
      "migi": 2776,
      "moziretu": 2777,
      "114514": 2778,
      "56": 2779,
      "61": 2780,
      "63": 2781,
      "72": 2782,
      "82": 2783,
      "ali": 2784,
      "ci": 2785,
      "cj": 2786,
      "csz": 2787,
      "fw": 2788,
      "fin": 2789,
      "hv": 2790,
      "hits": 2791,
      "iw": 2792,
      "ice": 2793,
      "kth_smallest": 2794,
      "lt": 2795,
      "lst": 2796,
      "m0": 2797,
      "mst": 2798,
      "rx": 2799,
      "so": 2800,
      "s0": 2801,
      "suf": 2802,
      "small": 2803,
      "shift": 2804,
      "tl": 2805,
      "xor": 2806,
      "yt": 2807,
      "##xt": 2808,
      "##_j": 2809,
      "##_at": 2810,
      "##_su": 2811,
      "##_bl": 2812,
      "##_ans": 2813,
      "##ir": 2814,
      "##83": 2815,
      "##si": 2816,
      "##swap": 2817,
      "##land": 2818,
      "##ush": 2819,
      "##push": 2820,
      "##cross": 2821,
      "##kus": 2822,
      "##\\n]": 2823,
      "sc_adj": 2824,
      "##arall": 2825,
      "##hikaku": 2826,
      "max2": 2827,
      "##%d:": 2828,
      "doubling": 2829,
      "##alind": 2830,
      "##utor": 2831,
      "%d\\n%d\\n": 2832,
      "##ement": 2833,
      "parity": 2834,
      "##ront": 2835,
      "0x9": 2836,
      "fav": 2837,
      "##_sa": 2838,
      "tens": 2839,
      "ch_num": 2840,
      "chswap": 2841,
      "seg2": 2842,
      "capa": 2843,
      "limrow": 2844,
      "1e3": 2845,
      "countset": 2846,
      "count_lower": 2847,
      "##rad": 2848,
      "fib": 2849,
      "##_index": 2850,
      "ssz": 2851,
      "ki_max": 2852,
      "112": 2853,
      "1111": 2854,
      "c2i": 2855,
      "nowvb": 2856,
      "##_power": 2857,
      "##_cv": 2858,
      "300010": 2859,
      "acb": 2860,
      "xyd": 2861,
      "##_back": 2862,
      "pay": 2863,
      "prime_power": 2864,
      "lino": 2865,
      "esca": 2866,
      "matchr": 2867,
      "pqpush": 2868,
      "dbswap": 2869,
      "dice2": 2870,
      "##zyusin": 2871,
      "500000": 2872,
      "500001": 2873,
      "keko": 2874,
      "##3600": 2875,
      "##_three": 2876,
      "buffer": 2877,
      "4096": 2878,
      "##34567": 2879,
      "##_stack": 2880,
      "##_string": 2881,
      "blows": 2882,
      "3333": 2883,
      "repeatnum": 2884,
      "daikus": 2885,
      "flash_su": 2886,
      "alice": 2887,
      "##_block": 2888,
      "escape": 2889,
      "daikusutor": 2890,
      "flash_suit": 2891,
      "%[^": 2892,
      "43": 2893,
      "[%d]": 2894,
      "av": 2895,
      "amin": 2896,
      "b_": 2897,
      "bk": 2898,
      "bor": 2899,
      "bzero": 2900,
      "cb": 2901,
      "cval": 2902,
      "dbl": 2903,
      "eg": 2904,
      "fb": 2905,
      "fput": 2906,
      "hx": 2907,
      "hint": 2908,
      "ip": 2909,
      "imin": 2910,
      "ibuf": 2911,
      "k_": 2912,
      "nz": 2913,
      "per": 2914,
      "ponseg": 2915,
      "rl": 2916,
      "ru": 2917,
      "send": 2918,
      "tg": 2919,
      "turn": 2920,
      "tar": 2921,
      "thi": 2922,
      "tsz": 2923,
      "t_no": 2924,
      "uab": 2925,
      "vl": 2926,
      "wp": 2927,
      "w0": 2928,
      "xo": 2929,
      "xl": 2930,
      "xk": 2931,
      "zr": 2932,
      "##_of": 2933,
      "##_re": 2934,
      "##time": 2935,
      "##ell": 2936,
      "##06": 2937,
      "##base": 2938,
      "##yo": 2939,
      "##yy": 2940,
      "##gcnt": 2941,
      "##.2": 2942,
      "##junc": 2943,
      "##jud": 2944,
      "##*s": 2945,
      "##,%f": 2946,
      "fors": 2947,
      "##onus": 2948,
      "in_num": 2949,
      "##intersect": 2950,
      "##idge": 2951,
      "##idate": 2952,
      "##mpt": 2953,
      "maxf": 2954,
      "maxl": 2955,
      "max_h": 2956,
      "maxscore": 2957,
      "dout": 2958,
      "ren": 2959,
      "modpow": 2960,
      "pp2": 2961,
      "ha2": 2962,
      "100003": 2963,
      "##list": 2964,
      "##rep": 2965,
      "nowpos": 2966,
      "nowbo": 2967,
      "nowang": 2968,
      "##_next": 2969,
      "%s%d%d": 2970,
      "##vec": 2971,
      "n_junc": 2972,
      "take": 2973,
      "bitn": 2974,
      "resflow": 2975,
      "ccc": 2976,
      "tree_v_sub": 2977,
      "heap_valtype": 2978,
      "heapinv": 2979,
      "s2e": 2980,
      "s2s": 2981,
      "s22": 2982,
      "s21": 2983,
      "s1e": 2984,
      "s1s": 2985,
      "s12": 2986,
      "s11": 2987,
      "is_s": 2988,
      "swjud": 2989,
      "exp": 2990,
      "##_inf": 2991,
      "picol": 2992,
      "##number": 2993,
      "##0001": 2994,
      "safe": 2995,
      "%.f\\n": 2996,
      "150": 2997,
      "404": 2998,
      "a12": 2999,
      "9999999": 3000,
      "##_bit": 3001,
      "union_set": 3002,
      "mx_new": 3003,
      "online": 3004,
      "ttt": 3005,
      "make_union": 3006,
      "unique": 3007,
      "vectorabs": 3008,
      "app": 3009,
      "patter": 3010,
      "r_lim": 3011,
      "tatecnt": 3012,
      "##crr": 3013,
      "##query": 3014,
      "300005": 3015,
      "black": 3016,
      "intersectcc": 3017,
      "##_main": 3018,
      "uint32_t": 3019,
      "tree_edge_sub": 3020,
      "wildc": 3021,
      "etv": 3022,
      "pnode": 3023,
      "deque_val": 3024,
      "cumsum": 3025,
      "candidate": 3026,
      "isright": 3027,
      "tabaicho_main": 3028,
      "##_the": 3029,
      "400001": 3030,
      "delete": 3031,
      "belong": 3032,
      "ancestor_num": 3033,
      "40002": 3034,
      "amid": 3035,
      "whole": 3036,
      "many": 3037,
      "next_weight": 3038,
      "set_edge_graph": 3039,
      "##02d": 3040,
      "trode": 3041,
      "img": 3042,
      "%.15f": 3043,
      "your_card": 3044,
      "prefix": 3045,
      "avai": 3046,
      "this": 3047,
      "uabo": 3048,
      "nowboard": 3049,
      "make_union_find": 3050,
      "uniquell": 3051,
      "pattern": 3052,
      "%1d": 3053,
      "34": 3054,
      "54": 3055,
      "59": 3056,
      "58": 3057,
      "a_sub": 3058,
      "cz": 3059,
      "dn": 3060,
      "d_t": 3061,
      "dcnt": 3062,
      "ec": 3063,
      "egcd": 3064,
      "fid": 3065,
      "fcalc": 3066,
      "g_to": 3067,
      "ix": 3068,
      "ic": 3069,
      "jl": 3070,
      "kan": 3071,
      "ls": 3072,
      "l3": 3073,
      "lex": 3074,
      "land": 3075,
      "mt": 3076,
      "non": 3077,
      "nine": 3078,
      "npos": 3079,
      "ov": 3080,
      "q2": 3081,
      "rn": 3082,
      "spo": 3083,
      "tbs": 3084,
      "tenkai": 3085,
      "uw": 3086,
      "ufs": 3087,
      "vin": 3088,
      "wr": 3089,
      "wk": 3090,
      "won": 3091,
      "wind": 3092,
      "xz": 3093,
      "xcmp": 3094,
      "yz": 3095,
      "##_cmp": 3096,
      "##_ance": 3097,
      "##tree": 3098,
      "##ient": 3099,
      "##i64": 3100,
      "##wer": 3101,
      "##waku": 3102,
      "##mn": 3103,
      "##ml": 3104,
      "##dbl": 3105,
      "##81": 3106,
      "##s2": 3107,
      "##shi": 3108,
      "##2ma": 3109,
      "##vw": 3110,
      "##u64": 3111,
      "##uss": 3112,
      "##cabcomp": 3113,
      "##0\\n": 3114,
      "##bun": 3115,
      "##yaku": 3116,
      "##ken": 3117,
      "##\\\"": 3118,
      "int_max": 3119,
      "##inver": 3120,
      "##ursion": 3121,
      "magic": 3122,
      "%d%lld": 3123,
      "sc2ma": 3124,
      "##arg": 3125,
      "prod": 3126,
      "answer": 3127,
      "mins": 3128,
      "dpx": 3129,
      "quecnt": 3130,
      "##ped": 3131,
      "mod_pow": 3132,
      "##atype": 3133,
      "1003": 3134,
      "##otient": 3135,
      "hash_string": 3136,
      "##appp": 3137,
      "encode": 3138,
      "now_h": 3139,
      "now_matrix": 3140,
      "nowwaku": 3141,
      "next_l": 3142,
      "gch": 3143,
      "sum1": 3144,
      "top_three": 3145,
      "datatype": 3146,
      "number": 3147,
      "##lta": 3148,
      "##ltime": 3149,
      "seg_v": 3150,
      "delta": 3151,
      "1e5": 3152,
      "heapn": 3153,
      "unit": 3154,
      "calcinver": 3155,
      "##racomp": 3156,
      "120": 3157,
      "lseguse": 3158,
      "lseginit": 3159,
      "abc": 3160,
      "lab": 3161,
      "ssize": 3162,
      "new_": 3163,
      "505": 3164,
      "yy2": 3165,
      "yyy": 3166,
      "pair_cv": 3167,
      "dy_": 3168,
      "dx_": 3169,
      "log": 3170,
      "lost": 3171,
      "compair": 3172,
      "##0007": 3173,
      "r11": 3174,
      "32768": 3175,
      "##_palind": 3176,
      "##ake": 3177,
      "##_func": 3178,
      "chi_n": 3179,
      "1000005": 3180,
      "##kei": 3181,
      "220": 3182,
      "min_x": 3183,
      "min_y": 3184,
      "ngflag": 3185,
      "flow_edge": 3186,
      "prime_num": 3187,
      "alone": 3188,
      "##925": 3189,
      "price": 3190,
      "prii32": 3191,
      "path": 3192,
      "recursion": 3193,
      "pqpop": 3194,
      "pqhikaku": 3195,
      "vertexs": 3196,
      "##ordan": 3197,
      "##print": 3198,
      "ptriplecabcomp": 3199,
      "l11": 3200,
      "##....": 3201,
      "##_dfs": 3202,
      "%llu\\n": 3203,
      "%llu%llu": 3204,
      "rand_": 3205,
      "%d%d%d%d%d%d%d": 3206,
      "realtime": 3207,
      "##99999999": 3208,
      "%s%s%s": 3209,
      "leader": 3210,
      "%.9f": 3211,
      "##stor_num": 3212,
      "crosspoints2": 3213,
      "theta2": 3214,
      "##_smaller": 3215,
      "banmen2": 3216,
      "digits": 3217,
      "hb_t": 3218,
      "comm_card": 3219,
      "impossible\\n": 3220,
      "seqpos": 3221,
      "##_invader_count": 3222,
      "20000000000000007": 3223,
      "805": 3224,
      "all_ance": 3225,
      "##_sec": 3226,
      "trie": 3227,
      "4097": 3228,
      "gauss": 3229,
      "jump_to": 3230,
      "oppo_card": 3231,
      "pfracomp": 3232,
      "troop": 3233,
      "indx": 3234,
      "isparall": 3235,
      "addedflow": 3236,
      "joined": 3237,
      "web": 3238,
      "integral_xt": 3239,
      "strtok": 3240,
      "sekaisencount": 3241,
      "food": 3242,
      "##quotient": 3243,
      "alpha_pos": 3244,
      "##_jordan": 3245,
      "daikusutorappp": 3246,
      "rule": 3247,
      "target": 3248,
      "thiscount": 3249,
      "d_test": 3250,
      "kanbun": 3251,
      "lex_smaller": 3252,
      "spool": 3253,
      "sc2mass": 3254,
      "now_head": 3255,
      "calcinversion": 3256,
      "realtime_invader_count": 3257,
      "crosspoints2p": 3258,
      "all_ancestor_num": 3259,
      "gauss_jordan": 3260,
      "integral_xto": 3261,
      "%*s": 3262,
      "47": 3263,
      "410": 3264,
      "555": 3265,
      "85": 3266,
      "a4": 3267,
      "asz": 3268,
      "ask": 3269,
      "a..": 3270,
      "b_to": 3271,
      "bdp": 3272,
      "csum": 3273,
      "da": 3274,
      "dk": 3275,
      "dig": 3276,
      "den": 3277,
      "dup": 3278,
      "fdp": 3279,
      "gid": 3280,
      "gap": 3281,
      "gre": 3282,
      "hn": 3283,
      "iy": 3284,
      "iid": 3285,
      "i_num": 3286,
      "kb": 3287,
      "kj": 3288,
      "lu": 3289,
      "lmax": 3290,
      "light": 3291,
      "lval": 3292,
      "lans": 3293,
      "mg": 3294,
      "mya": 3295,
      "mult": 3296,
      "nu": 3297,
      "nin": 3298,
      "of": 3299,
      "pv": 3300,
      "plus": 3301,
      "q4": 3302,
      "q3": 3303,
      "ry": 3304,
      "rid": 3305,
      "rval": 3306,
      "refl": 3307,
      "siz": 3308,
      "sss": 3309,
      "tmin": 3310,
      "xr": 3311,
      "yx": 3312,
      "zo": 3313,
      "zeta": 3314,
      "##_y": 3315,
      "##_weight": 3316,
      "##ec": 3317,
      "##fset": 3318,
      "##fli": 3319,
      "##func": 3320,
      "##90": 3321,
      "##2seg": 3322,
      "##2rad": 3323,
      "##lap": 3324,
      "##go": 3325,
      "##13": 3326,
      "##1gno": 3327,
      "##%02d": 3328,
      "##3d": 3329,
      "##.%d": 3330,
      "##ink": 3331,
      "##eted": 3332,
      "inline": 3333,
      "stu": 3334,
      "%d/": 3335,
      "##lease": 3336,
      "##lumn": 3337,
      "##sta": 3338,
      "vout": 3339,
      "min4": 3340,
      "minv": 3341,
      "min3": 3342,
      "mincnt": 3343,
      "minnum": 3344,
      "min_val": 3345,
      "minfactor": 3346,
      "##000000": 3347,
      "##0000ffff": 3348,
      "max_val": 3349,
      "max_l": 3350,
      "maxcost": 3351,
      "dpa": 3352,
      "dpn": 3353,
      "column": 3354,
      "noent": 3355,
      "release": 3356,
      "token": 3357,
      "confli": 3358,
      "##edy": 3359,
      "##ath": 3360,
      "##eru": 3361,
      "sllabs": 3362,
      "getperm": 3363,
      "getdbl": 3364,
      "ha1": 3365,
      "cmpi": 3366,
      "##suflag": 3367,
      "##rect": 3368,
      "enum": 3369,
      "lii": 3370,
      "nowans": 3371,
      "sumr": 3372,
      "sum2": 3373,
      "date": 3374,
      "0x55555555": 3375,
      "0x3f3f3f3f": 3376,
      "fac": 3377,
      "map_num": 3378,
      "chmin": 3379,
      "segcalc": 3380,
      "root2": 3381,
      "deep": 3382,
      "tas": 3383,
      "##999": 3384,
      "prev_weight": 3385,
      "heap_index": 3386,
      "mkls": 3387,
      "under": 3388,
      "dom": 3389,
      "calcdepth": 3390,
      "powmod": 3391,
      "trsta": 3392,
      "xx1": 3393,
      "lno": 3394,
      "lineintersect": 3395,
      "##ame_union": 3396,
      "exist": 3397,
      "labs": 3398,
      "kill": 3399,
      "%.5": 3400,
      "%.20": 3401,
      "bok": 3402,
      "##_front": 3403,
      "##sert.h": 3404,
      "402": 3405,
      "opt": 3406,
      "graph_t": 3407,
      "subo": 3408,
      "1000003": 3409,
      "##%s%s": 3410,
      "##%lf,": 3411,
      "polygon": 3412,
      "d2p": 3413,
      "##_link": 3414,
      "tx2": 3415,
      "query2": 3416,
      "##ople": 3417,
      "1e-9": 3418,
      "deg2rad": 3419,
      "patlen": 3420,
      "qu_": 3421,
      "mergesort": 3422,
      "##_distance": 3423,
      "3000000": 3424,
      "ty2": 3425,
      "##iln": 3426,
      "##123": 3427,
      "xbx9": 3428,
      "xbx0": 3429,
      "assert.h": 3430,
      "yby9": 3431,
      "yby0": 3432,
      "hpv": 3433,
      "sortfnc": 3434,
      "people": 3435,
      "xwx9": 3436,
      "xwx0": 3437,
      "ywy9": 3438,
      "ywy0": 3439,
      "candiln": 3440,
      "crosspointll": 3441,
      "nexp": 3442,
      "##_less": 3443,
      "kesuflag": 3444,
      "scorelist": 3445,
      "rii": 3446,
      "##33333333": 3447,
      "si1gno": 3448,
      "gameover_h": 3449,
      "min2cnt": 3450,
      "min1cnt": 3451,
      "wher": 3452,
      "srand_": 3453,
      "rjj": 3454,
      "##_length": 3455,
      "##modify": 3456,
      "invader_of": 3457,
      "######": 3458,
      "##1\\n-1\\n-1\\n-1\\n-1\\n-1\\n-1\\n-1\\n-1\\n-1\\n-1\\n-1\\n-1\\n-1\\n-1\\n-1\\n-1\\n-1\\n-1\\n-1\\n-1\\n-1\\n-1\\n-1\\n-1\\n-1\\n-1\\n-1\\n-1\\n-1\\n-1\\n-1\\n-1\\n-1\\n-1\\n-1\\n-1\\n-1\\n-1\\n-1\\n-1\\n-1\\n-1\\n-1\\n-1\\n-1\\n-1\\n-1\\n-1\\n-1\\n-1\\n-1\\n-1\\n-1\\n-1\\n-1\\n-1\\n-1\\n-1\\n-1\\n-1\\n-1\\n-1\\n-1\\n-1\\n-1\\n-1\\n-1\\n-1\\n-1\\n-1\\n-1\\n-1\\n-1\\n-1\\n-1\\n-1\\n-1\\n-1\\n-1\\n-1\\n-1\\n-1\\n-1\\n-1\\n-1\\n-1\\n-1\\n-1\\n-1\\n-1\\n-1\\n-1\\n-1\\n-1\\n-1\\n-1\\n-1\\n-1\\n-1\\n-1\\n-1\\n-1\\n-1\\n-1\\n-1\\n-1\\n-1\\n-1\\n-1\\n-1\\n-1\\n-1\\n-1\\n-1\\n-1\\n-1\\n-1\\n-1\\n-1\\n-1\\n-1\\n-1\\n-1\\n-1\\n-1\\n-1\\n-1\\n-1\\n-1\\n-1\\n-1\\n-1\\n-1\\n-1\\n-1\\n-1\\n-1\\n-1\\n-1\\n-1\\n-1\\n-1\\n-1\\n-1\\n-1\\n-1\\n-1\\n-1\\n-1\\n-1\\n-1\\n-1\\n-1\\n-1\\n-1\\n-1\\n-1\\n-1\\n-1\\n-1\\n-1\\n-1\\n-1\\n-1\\n-1\\n-1\\n-1\\n-1\\n-1\\n-1\\n-1\\n-1\\n-1\\n-1\\n-1\\n-1\\n-1\\n-1\\n-1\\n-1\\n-1\\n-1\\n-1\\n-1\\n-1\\n-1\\n-1\\n-1\\n-1\\n-1\\n-1\\n-1\\n-1\\n-1\\n-1\\n-1\\n-1\\n-1\\n-1\\n-1\\n-1\\n-1\\n-1\\n-1\\n-1\\n-1\\n-1\\n-1\\n-1\\n-1\\n-1\\n-1\\n-1\\n-1\\n-1\\n-1\\n-1\\n-1\\n-1\\n-1\\n-1\\n-1\\n-1\\n-1\\n-1\\n-1\\n-1\\n-1\\n-1\\n-1\\n-1\\n-1\\n-1\\n-1\\n-1\\n-1\\n-1\\n-1\\n-1\\n-1\\n-1\\n-1\\n-1\\n-1\\n-1\\n-1\\n-1\\n-1\\n-1\\n-1\\n-1\\n-1\\n-1\\n-1\\n-1\\n-1\\n-1\\n-1\\n-1\\n-1\\n-1\\n-1\\n-1\\n-1\\n-1\\n-1\\n-1\\n-1\\n-1\\n-1\\n-1\\n-1\\n-1\\n-1\\n-1\\n-1\\n-1\\n-1\\n-1\\n-1\\n-1\\n-1\\n-1\\n-1\\n-1\\n-1\\n-1\\n-1\\n-1\\n-1\\n-1\\n-1\\n-1\\n-1\\n-1\\n-1\\n-1\\n-1\\n-1\\n-1\\n-1\\n-1\\n-1\\n-1\\n-1\\n-1\\n-1\\n-1\\n-1\\n-1\\n-1\\n-1\\n-1\\n-1\\n-1\\n-1\\n-1\\n-1\\n-1\\n-1\\n-1\\n-1\\n-1\\n-1\\n-1\\n-1\\n-1\\n-1\\n-1\\n-1\\n-1\\n-1\\n-1\\n-1\\n-1\\n-1\\n-1\\n-1\\n-1\\n-1\\n-1\\n-1\\n-1\\n-1\\n-1\\n-1\\n-1\\n-1\\n-1\\n-1\\n-1\\n-1\\n-1\\n-1\\n-1\\n-1\\n-1\\n-1\\n-1\\n-1\\n-1\\n-1\\n-1\\n-1\\n-1\\n-1\\n-1\\n-1\\n-1\\n-1\\n-1\\n-1\\n-1\\n-1\\n-1\\n-1\\n-1\\n-1\\n-1\\n-1\\n-1\\n-1\\n-1\\n-1\\n-1\\n-1\\n-1\\n-1\\n-1\\n-1\\n-1\\n-1\\n-1\\n-1\\n-1\\n-1\\n-1\\n-1\\n-1\\n-1\\n-1\\n-1\\n-1\\n-1\\n-1\\n-1\\n-1\\n-1\\n-1\\n-1\\n-1\\n-1\\n-1\\n-1\\n-1\\n-1\\n-1\\n-1\\n-1\\n-1\\n-1\\n-1\\n-1\\n-1\\n-1\\n-1\\n-1\\n-1\\n-1\\n-1\\n-1\\n-1\\n-1\\n-1\\n-1\\n-1\\n-1\\n-1\\n-1\\n-1\\n-1\\n-1\\n-1\\n-1\\n-1\\n-1\\n-1\\n-1\\n-1\\n-1\\n-1\\n-1\\n-1\\n-1\\n-1\\n-1\\n-1\\n-1\\n-1\\n-1\\n-1\\n-1\\n-1\\n-1\\n-1\\n-1\\n-1\\n-1\\n-1\\n-1\\n-1\\n-1\\n-1\\n-1\\n-1\\n-1\\n-1\\n-1\\n-1\\n-1\\n-1\\n-1\\n-1\\n-1\\n-1\\n-1\\n-1\\n-1\\n-1\\n-1\\n-1\\n-1\\n-1\\n-1\\n-1\\n-1\\n-1\\n-1\\n-1\\n-1\\n-1\\n-1\\n-1\\n-1\\n-1\\n-1\\n-1\\n-1\\n-1\\n-1\\n-1\\n-1\\n-1\\n-1\\n-1\\n-1\\n-1\\n-1\\n-1\\n-1\\n-1\\n-1\\n-1\\n-1\\n-1\\n-1\\n-1\\n-1\\n-1\\n-1\\n-1\\n-1\\n-1\\n-1\\n-1\\n-1\\n-1\\n-1\\n-1\\n-1\\n-1\\n-1\\n-1\\n-1\\n-1\\n-1\\n-1\\n-1\\n-1\\n-1\\n-1\\n-1\\n-1\\n-1\\n-1\\n-1\\n-1\\n-1\\n-1\\n-1\\n-1\\n-1\\n-1\\n-1\\n-1\\n-1\\n-1\\n-1\\n-1\\n-1\\n-1\\n-1\\n-1\\n-1\\n-1\\n-1\\n-1\\n-1\\n-1\\n-1\\n-1\\n-1\\n-1\\n-1\\n-1\\n-1\\n-1\\n-1\\n-1\\n-1\\n-1\\n-1\\n-1\\n-1\\n-1\\n-1\\n-1\\n-1\\n-1\\n-1\\n-1\\n-1\\n-1\\n-1\\n-1\\n-1\\n-1\\n-1\\n-1\\n-1\\n-1\\n-1\\n-1\\n-1\\n-1\\n-1\\n-1\\n-1\\n-1\\n-1\\n-1\\n-1\\n-1\\n-1\\n-1\\n-1\\n-1\\n-1\\n-1\\n-1\\n-1\\n-1\\n-1\\n-1\\n-1\\n-1\\n-1\\n-1\\n-1\\n-1\\n-1\\n-1\\n-1\\n-1\\n-1\\n-1\\n-1\\n-1\\n-1\\n-1\\n-1\\n-1\\n-1\\n-1\\n-1\\n-1\\n-1\\n-1\\n-1\\n-1\\n-1\\n-1\\n-1\\n-1\\n-1\\n-1\\n-1\\n-1\\n-1\\n-1\\n-1\\n-1\\n-1\\n-1\\n-1\\n-1\\n-1\\n-1\\n-1\\n-1\\n-1\\n-1\\n-1\\n-1\\n-1\\n-1\\n-1\\n-1\\n-1\\n-1\\n-1\\n-1\\n-1\\n-1\\n-1\\n-1\\n-1\\n-1\\n-1\\n-1\\n-1\\n-1\\n-1\\n-1\\n-1\\n-1\\n-1\\n-1\\n-1\\n-1\\n-1\\n-1\\n-1\\n-1\\n-1\\n-1\\n-1\\n-1\\n-1\\n-1\\n-1\\n-1\\n-1\\n-1\\n-1\\n-1\\n-1\\n-1\\n-1\\n-1\\n-1\\n-1\\n-1\\n-1\\n-1\\n-1\\n-1\\n-1\\n-1\\n-1\\n-1\\n-1\\n-1\\n-1\\n-1\\n-1\\n-1\\n-1\\n-1\\n-1\\n-1\\n-1\\n-1\\n-1\\n-1\\n-1\\n-1\\n-1\\n-1\\n-1\\n-1\\n-1\\n-1\\n-1\\n-1\\n-1\\n-1\\n-1\\n-1\\n-1\\n-1\\n-1\\n-1\\n-1\\n-1\\n-1\\n-1\\n-1\\n-1\\n-1\\n-1\\n-1\\n-1\\n-1\\n-1\\n-1\\n-1\\n-1\\n-1\\n-1\\n-1\\n-1\\n-1\\n-1\\n-1\\n-1\\n-1\\n-1\\n-1\\n-1\\n-1\\n-1\\n-1\\n-1\\n-1\\n-1\\n-1\\n-1\\n-1\\n-1\\n-1\\n-1\\n-1\\n-1\\n-1\\n-1\\n-1\\n-1\\n-1\\n-1\\n-1\\n-1\\n-1\\n-1\\n-1\\n-1\\n-1\\n-1\\n-1\\n-1\\n-1\\n-1\\n-1\\n-1\\n-1\\n-1\\n-1\\n-1\\n-1\\n-1\\n-1\\n-1\\n-1\\n-1\\n-1\\n-1\\n-1\\n-1\\n-1\\n-1\\n-1\\n-1\\n-1\\n-1\\n-1\\n-1\\n-1\\n-1\\n-1\\n-1\\n-1\\n-1\\n-1\\n-1\\n-1\\n-1\\n-1\\n-1\\n-1\\n-1\\n-1\\n-1\\n-1\\n-1\\n-1\\n-1\\n-1\\n-1\\n-1\\n-1\\n-1\\n-1\\n-1\\n-1\\n-1\\n-1\\n-1\\n-1\\n-1\\n-1\\n-1\\n-1\\n-1\\n-1\\n-1\\n-1\\n-1\\n-1\\n-1\\n-1\\n-1\\n-1\\n-1\\n-1\\n-1\\n-1\\n-1\\n-1\\n-1\\n-1\\n-1\\n-1\\n-1\\n-1\\n-1\\n-1\\n-1\\n-1\\n-1\\n-1\\n-1\\n-1\\n-1\\n-1\\n-1\\n-1\\n-1\\n-1\\n-1\\n-1\\n-1\\n-1\\n-1\\n-1\\n-1\\n-1\\n-1\\n-1\\n-1\\n-1\\n-1\\n-1\\n-1\\n-1\\n-1\\n-1\\n-1\\n-1\\n-1\\n-1\\n-1\\n-1\\n-1\\n-1\\n-1\\n-1\\n-1\\n-1\\n-1\\n-1\\n-1\\n-1\\n-1\\n-1\\n-1\\n-1\\n-1\\n-1\\n-1\\n-1\\n-1\\n-1\\n-1\\n-1\\n-1\\n-1\\n-1\\n-1\\n-1\\n-1\\n-1\\n-1\\n-1\\n-1\\n-1\\n-1\\n-1\\n-1\\n-1\\n-1\\n-1\\n-1\\n-1\\n-1\\n-1\\n-1\\n-1\\n-1\\n-1\\n-1\\n-1\\n-1\\n-1\\n-1\\n-1\\n-1\\n-1\\n-1\\n-1\\n-1\\n-1\\n-1\\n-1\\n-1\\n-1\\n-1\\n-1\\n-1\\n-1\\n-1\\n-1\\n-1\\n-1\\n-1\\n-1\\n-1\\n-1\\n-1\\n-1\\n-1\\n-1\\n-1\\n-1\\n-1\\n-1\\n-1\\n-1\\n-1\\n-1\\n-1\\n-1\\n-1\\n-1\\n-1\\n-1\\n-1\\n-1\\n-1\\n-1\\n-1\\n-1\\n-1\\n-1\\n-1\\n-1\\n-1\\n-1\\n-1\\n-1\\n-1\\n-1\\n-1\\n-1\\n-1\\n-1\\n-1\\n-1\\n-1\\n-1\\n-1\\n-1\\n-1\\n-1\\n-1\\n-1\\n-1\\n-1\\n-1\\n-1\\n-1\\n-1\\n-1\\n-1\\n-1\\n-1\\n-1\\n-1\\n-1\\n-1\\n-1\\n-1\\n-1\\n-1\\n-1\\n-1\\n-1\\n-1\\n-1\\n-1\\n-1\\n-1\\n-1\\n-1\\n-1\\n-1\\n-1\\n-1\\n-1\\n-1\\n-1\\n-1\\n-1\\n-1\\n-1\\n-1\\n-1\\n-1\\n-1\\n-1\\n-1\\n-1\\n-1\\n-1\\n-1\\n-1\\n-1\\n-1\\n-1\\n-1\\n-1\\n-1\\n-1\\n-1\\n-1\\n-1\\n-1\\n-1\\n-1\\n-1\\n-1\\n-1\\n-1\\n-1\\n-1\\n-1\\n-1\\n-1\\n-1\\n-1\\n-1\\n-1\\n-1\\n-1\\n-1\\n-1\\n-1\\n-1\\n-1\\n-1\\n-1\\n-1\\n-1\\n-1\\n-1\\n-1\\n-1\\n-1\\n-1\\n-1\\n-1\\n-1\\n-1\\n-1\\n-1\\n-1\\n-1\\n-1\\n-1\\n-1\\n-1\\n-1\\n-1\\n-1\\n-1\\n-1\\n-1\\n-1\\n-1\\n-1\\n-1\\n-1\\n-1\\n-1\\n-1\\n-1\\n-1\\n-1\\n-1\\n-1\\n-1\\n-1\\n-1\\n-1\\n-1\\n-1\\n-1\\n-1\\n-1\\n-1\\n-1\\n-1\\n-1\\n-1\\n-1\\n-1\\n-1\\n-1\\n-1\\n-1\\n-1\\n-1\\n-1\\n-1\\n-1\\n-1\\n-1\\n-1\\n-1\\n-1\\n-1\\n-1\\n-1\\n-1\\n-1\\n-1\\n-1\\n-1\\n-1\\n-1\\n-1\\n-1\\n-1\\n-1\\n-1\\n-1\\n-1\\n-1\\n-1\\n-1\\n-1\\n-1\\n-1\\n-1\\n-1\\n-1\\n-1\\n-1\\n-1\\n-1\\n-1\\n-1\\n-1\\n-1\\n-1\\n-1\\n-1\\n-1\\n-1\\n-1\\n-1\\n-1\\n-1\\n-1\\n-1\\n-1\\n-1\\n-1\\n-1\\n-1\\n-1\\n-1\\n-1\\n-1\\n-1\\n-1\\n-1\\n-1\\n-1\\n-1\\n-1\\n-1\\n-1\\n-1\\n-1\\n-1\\n-1\\n-1\\n-1\\n-1\\n-1\\n-1\\n-1\\n-1\\n-1\\n-1\\n-1\\n-1\\n-1\\n-1\\n-1\\n-1\\n-1\\n-1\\n-1\\n-1\\n-1\\n-1\\n-1\\n-1\\n-1\\n-1\\n-1\\n-1\\n-1\\n-1\\n-1\\n-1\\n-1\\n-1\\n-1\\n-1\\n-1\\n-1\\n-1\\n-1\\n-1\\n-1\\n-1\\n-1\\n-1\\n-1\\n-1\\n-1\\n-1\\n-1\\n-1\\n-1\\n-1\\n-1\\n-1\\n-1\\n-1\\n-1\\n-1\\n-1\\n-1\\n-1\\n-1\\n-1\\n-1\\n-1\\n-1\\n-1\\n-1\\n-1\\n-1\\n-1\\n-1\\n-1\\n-1\\n-1\\n-1\\n-1\\n-1\\n-1\\n-1\\n-1\\n-1\\n-1\\n-1\\n-1\\n-1\\n-1\\n-1\\n-1\\n-1\\n-1\\n-1\\n-1\\n-1\\n-1\\n-1\\n-1\\n-1\\n-1\\n-1\\n-1\\n-1\\n-1\\n-1\\n-1\\n-1\\n-1\\n-1\\n-1\\n-1\\n-1\\n-1\\n-1\\n-1\\n-1\\n-1\\n-1\\n-1\\n-1\\n-1\\n-1\\n-1\\n-1\\n-1\\n-1\\n-1\\n-1\\n-1\\n-1\\n-1\\n-1\\n-1\\n-1\\n-1\\n-1\\n-1\\n-1\\n-1\\n-1\\n-1\\n-1\\n-1\\n-1\\n-1\\n-1\\n-1\\n-1\\n-1\\n-1\\n-1\\n-1\\n-1\\n-1\\n-1\\n-1\\n-1\\n-1\\n-1\\n-1\\n-1\\n-1\\n-1\\n-1\\n-1\\n-1\\n-1\\n-1\\n-1\\n-1\\n-1\\n-1\\n-1\\n-1\\n-1\\n-1\\n-1\\n-1\\n-1\\n-1\\n-1\\n-1\\n-1\\n-1\\n-1\\n-1\\n-1\\n-1\\n-1\\n-1\\n-1\\n-1\\n-1\\n-1\\n-1\\n-1\\n-1\\n-1\\n-1\\n-1\\n-1\\n-1\\n-1\\n-1\\n-1\\n-1\\n-1\\n-1\\n-1\\n-1\\n-1\\n-1\\n-1\\n-1\\n-1\\n-1\\n-1\\n-1\\n-1\\n-1\\n-1\\n-1\\n-1\\n-1\\n-1\\n-1\\n-1\\n-1\\n-1\\n-1\\n-1\\n-1\\n-1\\n-1\\n-1\\n-1\\n-1\\n-1\\n-1\\n-1\\n-1\\n-1\\n-1\\n-1\\n-1\\n-1\\n-1\\n-1\\n-1\\n-1\\n-1\\n-1\\n-1\\n-1\\n-1\\n-1\\n-1\\n-1\\n-1\\n-1\\n-1\\n-1\\n-1\\n-1\\n-1\\n-1\\n-1\\n-1\\n-1\\n-1\\n-1\\n-1\\n-1\\n-1\\n-1\\n-1\\n-1\\n-1\\n-1\\n-1\\n-1\\n-1\\n-1\\n-1\\n-1\\n-1\\n-1\\n-1\\n-1\\n-1\\n-1\\n-1\\n-1\\n-1\\n-1\\n-1\\n-1\\n-1\\n-1\\n-1\\n-1\\n-1\\n-1\\n-1\\n-1\\n-1\\n-1\\n-1\\n-1\\n-1\\n-1\\n-1\\n-1\\n-1\\n-1\\n-1\\n-1\\n-1\\n-1\\n-1\\n-1\\n-1\\n-1\\n-1\\n-1\\n-1\\n-1\\n-1\\n-1\\n-1\\n-1\\n-1\\n-1\\n-1\\n-1\\n-1\\n-1\\n-1\\n-1\\n-1\\n-1\\n-1\\n-1\\n-1\\n-1\\n-1\\n-1\\n-1\\n-1\\n-1\\n-1\\n-1\\n-1\\n-1\\n-1\\n-1\\n-1\\n-1\\n-1\\n-1\\n-1\\n-1\\n-1\\n-1\\n-1\\n-1\\n-1\\n-1\\n-1\\n-1\\n-1\\n-1\\n-1\\n-1\\n-1\\n-1\\n-1\\n-1\\n-1\\n-1\\n-1\\n-1\\n-1\\n-1\\n-1\\n-1\\n-1\\n-1\\n-1\\n-1\\n-1\\n-1\\n-1\\n-1\\n-1\\n-1\\n-1\\n-1\\n-1\\n-1\\n-1\\n-1\\n-1\\n-1\\n-1\\n-1\\n-1\\n-1\\n-1\\n-1\\n-1\\n-1\\n-1\\n-1\\n-1\\n-1\\n-1\\n-1\\n-1\\n-1\\n-1\\n-1\\n-1\\n-1\\n-1\\n-1\\n-1\\n-1\\n-1\\n-1\\n-1\\n-1\\n-1\\n-1\\n-1\\n-1\\n-1\\n-1\\n-1\\n-1\\n-1\\n-1\\n-1\\n-1\\n-1\\n-1\\n-1\\n-1\\n-1\\n-1\\n-1\\n-1\\n-1\\n-1\\n-1\\n-1\\n-1\\n-1\\n-1\\n-1\\n-1\\n-1\\n-1\\n-1\\n-1\\n-1\\n-1\\n-1\\n-1\\n-1\\n-1\\n-1\\n-1\\n-1\\n-1\\n-1\\n-1\\n-1\\n-1\\n-1\\n-1\\n-1\\n-1\\n-1\\n-1\\n-1\\n-1\\n-1\\n-1\\n-1\\n-1\\n-1\\n-1\\n-1\\n-1\\n-1\\n-1\\n-1\\n-1\\n-1\\n-1\\n-1\\n-1\\n-1\\n-1\\n-1\\n-1\\n-1\\n-1\\n-1\\n-1\\n-1\\n-1\\n-1\\n-1\\n-1\\n-1\\n-1\\n-1\\n-1\\n-1\\n-1\\n-1\\n-1\\n-1\\n-1\\n-1\\n-1\\n-1\\n-1\\n-1\\n-1\\n-1\\n-1\\n-1\\n-1\\n-1\\n-1\\n-1\\n-1\\n-1\\n-1\\n-1\\n-1\\n-1\\n-1\\n-1\\n-1\\n-1\\n-1\\n-1\\n-1\\n-1\\n-1\\n-1\\n-1\\n-1\\n-1\\n-1\\n-1\\n-1\\n-1\\n-1\\n-1\\n-1\\n-1\\n-1\\n-1\\n-1\\n-1\\n-1\\n-1\\n-1\\n-1\\n-1\\n-1\\n-1\\n-1\\n-1\\n-1\\n-1\\n-1\\n-1\\n-1\\n-1\\n-1\\n-1\\n-1\\n-1\\n-1\\n-1\\n-1\\n-1\\n-1\\n-1\\n-1\\n-1\\n-1\\n-1\\n-1\\n-1\\n-1\\n-1\\n-1\\n-1\\n-1\\n-1\\n-1\\n-1\\n-1\\n-1\\n-1\\n-1\\n-1\\n-1\\n-1\\n-1\\n-1\\n-1\\n-1\\n-1\\n-1\\n-1\\n-1\\n-1\\n-1\\n-1\\n-1\\n-1\\n-1\\n-1\\n-1\\n-1\\n-1\\n-1\\n-1\\n-1\\n-1\\n-1\\n-1\\n-1\\n-1\\n-1\\n-1\\n-1\\n-1\\n-1\\n-1\\n-1\\n-1\\n-1\\n-1\\n-1\\n-1\\n-1\\n-1\\n-1\\n-1\\n-1\\n-1\\n-1\\n-1\\n-1\\n-1\\n-1\\n-1\\n-1\\n-1\\n-1\\n-1\\n-1\\n-1\\n-1\\n-1\\n-1\\n-1\\n-1\\n-1\\n-1\\n-1\\n-1\\n-1\\n-1\\n-1\\n-1\\n-1\\n-1\\n-1\\n-1\\n-1\\n-1\\n-1\\n-1\\n-1\\n-1\\n-1\\n-1\\n-1\\n-1\\n-1\\n-1\\n-1\\n-1\\n-1\\n-1\\n-1\\n-1\\n-1\\n-1\\n-1\\n-1\\n-1\\n-1\\n-1\\n-1\\n-1\\n-1\\n-1\\n-1\\n-1\\n-1\\n-1\\n-1\\n-1\\n-1\\n-1\\n-1\\n-1\\n-1\\n-1\\n-1\\n-1\\n-1\\n-1\\n-1\\n-1\\n-1\\n-1\\n-1\\n-1\\n-1\\n-1\\n-1\\n-1\\n-1\\n-1\\n-1\\n-1\\n-1\\n-1\\n-1\\n-1\\n-": 3459,
      "join": 3460,
      "dddd": 3461,
      "ky2": 3462,
      "ljj": 3463,
      "suffix_link": 3464,
      "bridge": 3465,
      "dwm": 3466,
      "kx2": 3467,
      "members": 3468,
      "puzzle": 3469,
      "strncmp": 3470,
      "completed": 3471,
      "##3456789": 3472,
      "repeatnummodify": 3473,
      "##mpty": 3474,
      "is_same_union": 3475,
      "hnv": 3476,
      "myabs": 3477,
      "noentry": 3478,
      "release_avl_node": 3479,
      "conflict": 3480,
      "lineintersection": 3481,
      "invader_offset": 3482,
      "is_same_union_uf": 3483,
      "%lu": 3484,
      "6000": 3485,
      "79": 3486,
      "88": 3487,
      "864": 3488,
      "8000": 3489,
      "98": 3490,
      "a_root": 3491,
      "ba": 3492,
      "b_root": 3493,
      "bmap": 3494,
      "cf": 3495,
      "c3600": 3496,
      "ee": 3497,
      "eh": 3498,
      "emax": 3499,
      "eve": 3500,
      "empty": 3501,
      "fd": 3502,
      "fs": 3503,
      "fmap": 3504,
      "fpt": 3505,
      "gz": 3506,
      "gmax": 3507,
      "gen": 3508,
      "gmin": 3509,
      "he": 3510,
      "ia": 3511,
      "ij": 3512,
      "jr": 3513,
      "jud": 3514,
      "le": 3515,
      "lpos": 3516,
      "lidx": 3517,
      "me": 3518,
      "mcnt": 3519,
      "m_fact": 3520,
      "nit": 3521,
      "ncnt": 3522,
      "none": 3523,
      "nil": 3524,
      "nha": 3525,
      "ndp": 3526,
      "oum": 3527,
      "pvec": 3528,
      "qf": 3529,
      "rw": 3530,
      "rbl": 3531,
      "rsz": 3532,
      "ridx": 3533,
      "s_": 3534,
      "sv": 3535,
      "tw": 3536,
      "tu": 3537,
      "tata": 3538,
      "uid": 3539,
      "vn": 3540,
      "v0": 3541,
      "v3": 3542,
      "ws": 3543,
      "wsz": 3544,
      "x5": 3545,
      "yn": 3546,
      "yl": 3547,
      "z0": 3548,
      "##ain": 3549,
      "##acomp": 3550,
      "##x8": 3551,
      "##_e": 3552,
      "##_sh": 3553,
      "##tou": 3554,
      "##e3": 3555,
      "##ehai": 3556,
      "##ndef": 3557,
      "##os": 3558,
      "##oll": 3559,
      "##mi": 3560,
      "##dy": 3561,
      "##diff": 3562,
      "##day": 3563,
      "##432": 3564,
      "##91": 3565,
      "##s_id": 3566,
      "##25": 3567,
      "##2poly": 3568,
      "##pi": 3569,
      "##pq": 3570,
      "##c2": 3571,
      "##cle": 3572,
      "##bcomp": 3573,
      "##ghi": 3574,
      "##hull": 3575,
      "##%.": 3576,
      "##%*c": 3577,
      "##j_max": 3578,
      "##\\7": 3579,
      "##!\\n": 3580,
      "##ori": 3581,
      "##orpoint": 3582,
      "ifndef": 3583,
      "##uri": 3584,
      "inner": 3585,
      "##llf": 3586,
      "scan": 3587,
      "anss": 3588,
      "ans_small": 3589,
      "max1": 3590,
      "max_node": 3591,
      "llgcnt": 3592,
      "dp_s": 3593,
      "dpsum": 3594,
      "##uman": 3595,
      "##ofnumber": 3596,
      "reg": 3597,
      "modu": 3598,
      "%d\\n%d": 3599,
      "%d%d%s": 3600,
      "getinv": 3601,
      "##defghi": 3602,
      "##_tehai": 3603,
      "##rent": 3604,
      "##ress": 3605,
      "now_pos": 3606,
      "next2": 3607,
      "nextint": 3608,
      "par2": 3609,
      "par1": 3610,
      "##ocks": 3611,
      "0x3030": 3612,
      "inf_": 3613,
      "map2": 3614,
      "edge2": 3615,
      "##_vec": 3616,
      "##ves": 3617,
      "##lter": 3618,
      "qtmp": 3619,
      "##length": 3620,
      "segupdate": 3621,
      "seg_i": 3622,
      "segcross": 3623,
      "root1": 3624,
      "bit_max": 3625,
      "mir": 3626,
      "mirr": 3627,
      "1e7": 3628,
      "heap_d": 3629,
      "sell": 3630,
      "undef": 3631,
      "##anks": 3632,
      "200009": 3633,
      "upset": 3634,
      "add_data": 3635,
      "isok": 3636,
      "ispoint": 3637,
      "123": 3638,
      "heads": 3639,
      "ii2": 3640,
      "ii1": 3641,
      "10000000000": 3642,
      "305": 3643,
      "new_vec": 3644,
      "502": 3645,
      "16384": 3646,
      "n2xyz": 3647,
      "comp2": 3648,
      "##_pair": 3649,
      "rank1": 3650,
      "rank_uf": 3651,
      "##ic_tree": 3652,
      "bpt": 3653,
      "##isor": 3654,
      "##_from": 3655,
      "1500": 3656,
      "2500": 3657,
      "1000002": 3658,
      "sqn": 3659,
      "hands_id": 3660,
      "5002": 3661,
      "acp": 3662,
      "nsize": 3663,
      "sqrt_p": 3664,
      "times": 3665,
      "xy_t": 3666,
      "power2": 3667,
      "initial": 3668,
      "three": 3669,
      "divisor": 3670,
      "search_w": 3671,
      "compare_avl": 3672,
      "##_mode": 3673,
      "##7950": 3674,
      "zeros": 3675,
      "insv": 3676,
      "current": 3677,
      "varid": 3678,
      "array_rank": 3679,
      "matchl": 3680,
      "prii64": 3681,
      "tate2": 3682,
      "tate1": 3683,
      "blanks": 3684,
      "271": 3685,
      "365": 3686,
      "snake": 3687,
      "##ztx": 3688,
      "0.00000000": 3689,
      "##angle": 3690,
      "50002": 3691,
      "nodes_left": 3692,
      "mul_value": 3693,
      "%lld%lld%lld%lld": 3694,
      "yokocnt": 3695,
      "leaves": 3696,
      "fftcnt": 3697,
      "##onsegment": 3698,
      "convexhull": 3699,
      "cells": 3700,
      "ae_": 3701,
      "movs": 3702,
      "hold": 3703,
      "pow2inv": 3704,
      "halfrac": 3705,
      "500100": 3706,
      "next_j_max": 3707,
      "erase_avl_sub": 3708,
      "jump_from": 3709,
      "command2": 3710,
      "3.14159265358979323846264338327950": 3711,
      "street": 3712,
      "isponseg": 3713,
      "ki_addmul": 3714,
      "thenj": 3715,
      "debug_mode": 3716,
      "##romic_tree": 3717,
      "suit_dist": 3718,
      "integral_ztx": 3719,
      "binary_se": 3720,
      "element_num_heap": 3721,
      "cupcnt": 3722,
      "factrial": 3723,
      "4194304": 3724,
      "szpfpi": 3725,
      "112345": 3726,
      "%[^\\n]": 3727,
      "fputs": 3728,
      "max_hw": 3729,
      "tenkailength": 3730,
      "new_lis": 3731,
      "##_palindromic_tree": 3732,
      "%.5lf\\n": 3733,
      "%.20lf\\n": 3734,
      "emaxs": 3735,
      "judge": 3736,
      "m_facts": 3737,
      "nitem": 3738,
      "tatami": 3739,
      "vnow": 3740,
      "##x8b": 3741,
      "max_nodes": 3742,
      "dp_sz": 3743,
      "getinvader": 3744,
      "mirrorpoint": 3745,
      "heap_dtou": 3746,
      "ispointonsegment": 3747,
      "search_word": 3748,
      "350": 3749,
      "5e4": 3750,
      "66": 3751,
      "60000": 3752,
      "78": 3753,
      "71": 3754,
      "84": 3755,
      "87": 3756,
      "9e": 3757,
      "\\x8b": 3758,
      "aw": 3759,
      "ag": 3760,
      "bef": 3761,
      "bot": 3762,
      "bro": 3763,
      "can": 3764,
      "crea": 3765,
      "dlen": 3766,
      "dra": 3767,
      "d_b": 3768,
      "ew": 3769,
      "e0": 3770,
      "fe": 3771,
      "fm": 3772,
      "f2": 3773,
      "fri": 3774,
      "fpp": 3775,
      "f_min": 3776,
      "gint": 3777,
      "h3": 3778,
      "human": 3779,
      "i3": 3780,
      "ks": 3781,
      "kg": 3782,
      "koc": 3783,
      "l0": 3784,
      "lign": 3785,
      "mw": 3786,
      "nstr": 3787,
      "plis": 3788,
      "qlen": 3789,
      "rsum": 3790,
      "sur": 3791,
      "sar": 3792,
      "td": 3793,
      "tai": 3794,
      "uh": 3795,
      "u_ans": 3796,
      "vw": 3797,
      "wl": 3798,
      "wg": 3799,
      "xd": 3800,
      "xdist2": 3801,
      "yd": 3802,
      "yr": 3803,
      "y5": 3804,
      "ydist2": 3805,
      "zb": 3806,
      "##as": 3807,
      "##ant": 3808,
      "##ash": 3809,
      "##_de": 3810,
      "##_ut": 3811,
      "##_gcd": 3812,
      "##_gr": 3813,
      "##_zero": 3814,
      "##_zyusin": 3815,
      "##ten": 3816,
      "##iv": 3817,
      "##ima": 3818,
      "##na": 3819,
      "##mem": 3820,
      "##mno": 3821,
      "##mary": 3822,
      "##400": 3823,
      "##86": 3824,
      "##rase": 3825,
      "##s/": 3826,
      "##23": 3827,
      "##2\\n": 3828,
      "##2num": 3829,
      "##5\\n": 3830,
      "##lsum": 3831,
      "##lmno": 3832,
      "##uvw": 3833,
      "##uquotient": 3834,
      "##ppy": 3835,
      "##card": 3836,
      "##big": 3837,
      "##kj": 3838,
      "##known": 3839,
      "##hs": 3840,
      "##h_c": 3841,
      "##%[": 3842,
      "##ze": 3843,
      "##zu": 3844,
      "##\\x": 3845,
      "##\\6": 3846,
      "##=%d:": 3847,
      "##:%d": 3848,
      "##++": 3849,
      "##eto": 3850,
      "##etu": 3851,
      "##urve": 3852,
      "indent": 3853,
      "sta": 3854,
      "stable": 3855,
      "##lect": 3856,
      "##nsum": 3857,
      "ansnum": 3858,
      "printuquotient": 3859,
      "##mple": 3860,
      "main2": 3861,
      "##ounum": 3862,
      "which": 3863,
      "maxid": 3864,
      "max_t": 3865,
      "maxlen": 3866,
      "max_r": 3867,
      "max_size": 3868,
      "dp_": 3869,
      "104": 3870,
      "109": 3871,
      "req": 3872,
      "reset": 3873,
      "idounum": 3874,
      "tow": 3875,
      "##1072": 3876,
      "post": 3877,
      "##erate": 3878,
      "##emkj": 3879,
      "pp_left": 3880,
      "pp_right": 3881,
      "ullcomp": 3882,
      "get_size": 3883,
      "get_the": 3884,
      "getmem": 3885,
      "cnt0": 3886,
      "##ready": 3887,
      "happy": 3888,
      "100004": 3889,
      "##lic": 3890,
      "##_tw": 3891,
      "##union": 3892,
      "tbl2": 3893,
      "##rest": 3894,
      "nowpointer": 3895,
      "now_next": 3896,
      "##_name": 3897,
      "dist_all": 3898,
      "topo": 3899,
      "0x0": 3900,
      "0x0f0f0f0f": 3901,
      "0x00ff00ff": 3902,
      "0x33333333": 3903,
      "##lockwise": 3904,
      "info": 3905,
      "end2": 3906,
      "room": 3907,
      "##649": 3908,
      "cha": 3909,
      "n_pow": 3910,
      "seg1": 3911,
      "seguse": 3912,
      "segment": 3913,
      "seginit": 3914,
      "cap_set": 3915,
      "cap_new": 3916,
      "1e20": 3917,
      "2003": 3918,
      "##seg2seg": 3919,
      "previs": 3920,
      "heap_ut": 3921,
      "nte": 3922,
      "sel": 3923,
      "unknown": 3924,
      "##_hull": 3925,
      "calc_area": 3926,
      "calc_distance": 3927,
      "cost2": 3928,
      "add_value": 3929,
      "isa": 3930,
      "is_f": 3931,
      "tempmax": 3932,
      "127": 3933,
      "iii": 3934,
      "exten": 3935,
      "rr_": 3936,
      "atm": 3937,
      "atr": 3938,
      "uflim": 3939,
      "10007": 3940,
      "newlen": 3941,
      "newunion": 3942,
      "compcnt": 3943,
      "checked": 3944,
      "sample": 3945,
      "findcol": 3946,
      "mdml": 3947,
      "shlter": 3948,
      "crossangle": 3949,
      "ko2": 3950,
      "ko1": 3951,
      "set_at": 3952,
      "bplsum": 3953,
      "##island": 3954,
      "15000": 3955,
      "250000": 3956,
      "phase": 3957,
      "phrase": 3958,
      "401": 3959,
      "131072": 3960,
      "pto": 3961,
      "ptbl": 3962,
      "##_row": 3963,
      "##_clockwise": 3964,
      "push_back": 3965,
      "bsz": 3966,
      "okflag": 3967,
      "##%lf)": 3968,
      "access": 3969,
      "##jklmno": 3970,
      "visitrest": 3971,
      "xypos": 3972,
      "##_ban": 3973,
      "##_buf": 3974,
      "##_bak": 3975,
      "##_bonus": 3976,
      "2222": 3977,
      "%c\\n": 3978,
      "%c%d": 3979,
      "##rstuvw": 3980,
      "ax0": 3981,
      "ay0": 3982,
      "compare_l": 3983,
      "compare_m": 3984,
      "compare_sa": 3985,
      "flow_inf": 3986,
      "secondsum": 3987,
      "psize": 3988,
      "makep": 3989,
      "make_set": 3990,
      "makeinv": 3991,
      "makesa": 3992,
      "prime_fact": 3993,
      "1e-10": 3994,
      "firstsum": 3995,
      "inside": 3996,
      "already": 3997,
      "primary": 3998,
      "patend": 3999,
      "dtm": 4000,
      "##489": 4001,
      "by0": 4002,
      "max_id": 4003,
      "bx0": 4004,
      "nmmax": 4005,
      "child_name": 4006,
      "##125": 4007,
      "oddsum": 4008,
      "oddpoint": 4009,
      "asc": 4010,
      "4001": 4011,
      "bisearch": 4012,
      "argmax": 4013,
      "##angement": 4014,
      "etdfs": 4015,
      "xmax8": 4016,
      "##_inter": 4017,
      "total2": 4018,
      "df2": 4019,
      "30002": 4020,
      "nbit": 4021,
      "convex_hull": 4022,
      "slate": 4023,
      "theta1": 4024,
      "hbr": 4025,
      "##625": 4026,
      "is_island": 4027,
      "moved": 4028,
      "movable": 4029,
      "moves": 4030,
      "2e3": 4031,
      "zzz": 4032,
      "bfrac": 4033,
      "hoge": 4034,
      "%d,%d": 4035,
      "##arrangement": 4036,
      "tabaicho_size": 4037,
      "sidiv": 4038,
      "zyusin_t": 4039,
      "501010": 4040,
      "allce": 4041,
      "textend": 4042,
      "##_select": 4043,
      "##ded_gcd": 4044,
      "nfi": 4045,
      "mana": 4046,
      "next_perm": 4047,
      "clockwise": 4048,
      "fft_val_mul": 4049,
      "sitno": 4050,
      "oppo_hand": 4051,
      "close_num": 4052,
      "239": 4053,
      "60010": 4054,
      "##----": 4055,
      "invader_table": 4056,
      "makemkj": 4057,
      "prob": 4058,
      "timing": 4059,
      "705": 4060,
      "remainder": 4061,
      "your_hand": 4062,
      "suit2num": 4063,
      "heap_node_sub": 4064,
      "counter_clockwise": 4065,
      "disp2ln": 4066,
      "##66666666": 4067,
      "binarysearch": 4068,
      "skipped": 4069,
      "ypos2": 4070,
      "rank2num": 4071,
      "444": 4072,
      "caru": 4073,
      "carry": 4074,
      "phim": 4075,
      "possible\\n": 4076,
      "dfs_rev2": 4077,
      "dfs_rev1": 4078,
      "bomb_t": 4079,
      "iwa": 4080,
      "kth_smallest_avl": 4081,
      "ltr": 4082,
      "buffer_size": 4083,
      "hint_t": 4084,
      "t_no_select": 4085,
      "5555": 4086,
      "greedy": 4087,
      "multi": 4088,
      "enumerate": 4089,
      "killed": 4090,
      "##%lf,%lf)": 4091,
      "polygonarea": 4092,
      "evensum": 4093,
      "##pqrstuvw": 4094,
      "##%.6": 4095,
      "##defghijklmno": 4096,
      "0x30303030": 4097,
      "befk": 4098,
      "draw": 4099,
      "d_bits": 4100,
      "koch_c": 4101,
      "ligno": 4102,
      "suretu": 4103,
      "##cards": 4104,
      "get_the_zyusin": 4105,
      "now_next_bak": 4106,
      "segmentarrangement": 4107,
      "previsx": 4108,
      "heap_utod": 4109,
      "extended_gcd": 4110,
      "uflimit": 4111,
      "newunionfind": 4112,
      "compare_ms": 4113,
      "makeinvedge": 4114,
      "prime_factor": 4115,
      "##pqrstuvwxyz": 4116,
      "##defghijklmnopqrstuvwxyz": 4117,
      "koch_curve": 4118,
      "%g": 4119,
      "..": 4120,
      "199": 4121,
      "4.0": 4122,
      "67": 4123,
      "6.2": 4124,
      "81": 4125,
      "83": 4126,
      "94": 4127,
      "900": 4128,
      "af": 4129,
      "ak": 4130,
      "agcd": 4131,
      "bw": 4132,
      "bd": 4133,
      "bj": 4134,
      "bad": 4135,
      "bry": 4136,
      "cid": 4137,
      "cmin": 4138,
      "crt": 4139,
      "cnum": 4140,
      "cord": 4141,
      "ea": 4142,
      "elen": 4143,
      "f0": 4144,
      "far": 4145,
      "f_t": 4146,
      "fsum": 4147,
      "found": 4148,
      "fug": 4149,
      "f_re": 4150,
      "hight": 4151,
      "hori": 4152,
      "ib": 4153,
      "jf": 4154,
      "ji": 4155,
      "kp": 4156,
      "kind": 4157,
      "kak": 4158,
      "kocnt": 4159,
      "let": 4160,
      "l_d": 4161,
      "mh": 4162,
      "m3": 4163,
      "mum": 4164,
      "mmax": 4165,
      "myb": 4166,
      "nq": 4167,
      "nai": 4168,
      "ndiv": 4169,
      "ope": 4170,
      "o_num": 4171,
      "ood": 4172,
      "pma": 4173,
      "pul": 4174,
      "q_size": 4175,
      "rg": 4176,
      "ref": 4177,
      "rans": 4178,
      "raw": 4179,
      "sint": 4180,
      "sig": 4181,
      "slr": 4182,
      "sgn": 4183,
      "tst": 4184,
      "tmax": 4185,
      "t_t": 4186,
      "tsum": 4187,
      "tone": 4188,
      "toup": 4189,
      "uu": 4190,
      "uset": 4191,
      "v_ans": 4192,
      "wb": 4193,
      "wal": 4194,
      "wmin": 4195,
      "wsum": 4196,
      "xt": 4197,
      "xe": 4198,
      "xbs": 4199,
      "xsum": 4200,
      "x_sub": 4201,
      "yf": 4202,
      "yc": 4203,
      "yk": 4204,
      "yh": 4205,
      "ybs": 4206,
      "zk": 4207,
      "z3": 4208,
      "##af": 4209,
      "##_seg": 4210,
      "##ei": 4211,
      "##eed": 4212,
      "##im": 4213,
      "##irst": 4214,
      "##nse": 4215,
      "##nal": 4216,
      "##ogon": 4217,
      "##my": 4218,
      "##dmin": 4219,
      "##49": 4220,
      "##98": 4221,
      "##9576": 4222,
      "##864": 4223,
      "##ruct": 4224,
      "##rime": 4225,
      "##s_t": 4226,
      "##ssed": 4227,
      "##vs": 4228,
      "##lo": 4229,
      "##low": 4230,
      "##unt": 4231,
      "##ual": 4232,
      "##pid": 4233,
      "##pair": 4234,
      "##pify": 4235,
      "##city": 4236,
      "##kd": 4237,
      "##kon": 4238,
      "##199": 4239,
      "##[%d]": 4240,
      "##-%d": 4241,
      "##:%02d": 4242,
      "##+\\6": 4243,
      "##);": 4244,
      "intcomp": 4245,
      "##orea": 4246,
      "##inseg": 4247,
      "##inite": 4248,
      "##etol": 4249,
      "indef": 4250,
      "insub": 4251,
      "insum": 4252,
      "st1": 4253,
      "storea": 4254,
      "##des": 4255,
      "%d%lf": 4256,
      "%d%ld": 4257,
      "##aneru": 4258,
      "##leaf": 4259,
      "scns": 4260,
      "##arge": 4261,
      "prg": 4262,
      "prea": 4263,
      "proc": 4264,
      "incnt": 4265,
      "##step": 4266,
      "prints": 4267,
      "minc": 4268,
      "minz": 4269,
      "max_max": 4270,
      "maxcell": 4271,
      "dpl": 4272,
      "dpdp": 4273,
      "##ummy": 4274,
      "##ofer": 4275,
      "red": 4276,
      "reld": 4277,
      "##ctz": 4278,
      "##ctemp": 4279,
      "modi": 4280,
      "construct": 4281,
      "100.0": 4282,
      "ppinseg": 4283,
      "##ortest": 4284,
      "get_value": 4285,
      "getlong": 4286,
      "%lld%d%d": 4287,
      "##suf": 4288,
      "##res": 4289,
      "##320": 4290,
      "##32925": 4291,
      "nodeid": 4292,
      "node_t": 4293,
      "nowresult": 4294,
      "next_smallest": 4295,
      "##roid": 4296,
      "sums": 4297,
      "suml": 4298,
      "sum_bit": 4299,
      "sumquery": 4300,
      "leng": 4301,
      "0x1": 4302,
      "pos2": 4303,
      "pos1": 4304,
      "edges": 4305,
      "edge_max": 4306,
      "edge_length": 4307,
      "roofer": 4308,
      "##_scanf": 4309,
      "num_p": 4310,
      "num_less": 4311,
      "nums_t": 4312,
      "change": 4313,
      "##vematch": 4314,
      "##ve_sh": 4315,
      "n_pid": 4316,
      "segtree": 4317,
      "##eyui": 4318,
      "##thogon": 4319,
      "##cesi": 4320,
      "cap_zero": 4321,
      "des": 4322,
      "taka": 4323,
      "bit_n": 4324,
      "bit_add": 4325,
      "bit_data": 4326,
      "##_nums": 4327,
      "20010": 4328,
      "calcleaf": 4329,
      "upzyusin": 4330,
      "add0": 4331,
      "add1": 4332,
      "addquery": 4333,
      "add_palindromic_tree": 4334,
      "ispa": 4335,
      "island": 4336,
      "temp2": 4337,
      "##upper": 4338,
      "##uplic": 4339,
      "##rain": 4340,
      "129": 4341,
      "1200000": 4342,
      "lsegk": 4343,
      "\\n%c": 4344,
      "beg2": 4345,
      "idx1": 4346,
      "atdp": 4347,
      "##_heappify": 4348,
      "1000000009": 4349,
      "ufinit": 4350,
      "302": 4351,
      "503": 4352,
      "5050": 4353,
      "startpos": 4354,
      "start_invader": 4355,
      "yyaku": 4356,
      "equal": 4357,
      "compf": 4358,
      "compr": 4359,
      "check_d": 4360,
      "%.7": 4361,
      "tails": 4362,
      "find_": 4363,
      "##_pp": 4364,
      "##_print": 4365,
      "##_path": 4366,
      "pcount": 4367,
      "pcvs": 4368,
      "koyaku": 4369,
      "setv": 4370,
      "##ako": 4371,
      "##ends": 4372,
      "t2m": 4373,
      "150000": 4374,
      "dirx": 4375,
      "diry": 4376,
      "orthogon": 4377,
      "137": 4378,
      "##_clear": 4379,
      "push_pp": 4380,
      "dispp": 4381,
      "namecount": 4382,
      "outs": 4383,
      "outcnt": 4384,
      "outsum": 4385,
      "outall": 4386,
      "lcpa": 4387,
      "getsize": 4388,
      "50010": 4389,
      "##%lf\\n": 4390,
      "nsz": 4391,
      "hashend2": 4392,
      "hashend1": 4393,
      "lowb": 4394,
      "syn": 4395,
      "sys/": 4396,
      "combin": 4397,
      "##_bound": 4398,
      "i20": 4399,
      "1001001": 4400,
      "divine": 4401,
      "on_seg": 4402,
      "oyav": 4403,
      "avl_valtype": 4404,
      "paid": 4405,
      "pass": 4406,
      "ayaneru": 4407,
      "wide": 4408,
      "make_graph": 4409,
      "linum": 4410,
      "linetol": 4411,
      "varr": 4412,
      "##9236": 4413,
      "priu64": 4414,
      "2000000000": 4415,
      "pathash": 4416,
      "ftemp": 4417,
      "tatehash": 4418,
      "verf": 4419,
      "scc_sub": 4420,
      "300001": 4421,
      "max_depth": 4422,
      "max_diff": 4423,
      "1440": 4424,
      "##grp": 4425,
      "dspl": 4426,
      "##sizeof": 4427,
      "##hashi": 4428,
      "down_heappify": 4429,
      "build_d": 4430,
      "build_graph": 4431,
      "%d%*c": 4432,
      "##...": 4433,
      "distancepl": 4434,
      "0.1": 4435,
      "max_value": 4436,
      "##aach": 4437,
      "50003": 4438,
      "vvv": 4439,
      "##ppair": 4440,
      "way": 4441,
      "##ters": 4442,
      "##4532925": 4443,
      "popcnt": 4444,
      "diff2": 4445,
      "%lld%lld%lld%lld%lld": 4446,
      "float.h": 4447,
      "##_integral": 4448,
      "false\\n": 4449,
      "true\\n": 4450,
      "%.9lf\\n": 4451,
      "qqq": 4452,
      "bitcount64": 4453,
      "digit_count": 4454,
      "builtin_scanf": 4455,
      "succesi": 4456,
      "bfa": 4457,
      "my_ban": 4458,
      "centroid": 4459,
      "0.017": 4460,
      "location": 4461,
      "river": 4462,
      "##_than": 4463,
      "sires": 4464,
      "57.2": 4465,
      "##ply": 4466,
      "imos2": 4467,
      "imos1": 4468,
      "day1": 4469,
      "updcnt": 4470,
      "builtin_ctz": 4471,
      "ct2": 4472,
      "ctoll": 4473,
      "100000007": 4474,
      "kaunt": 4475,
      "##wick": 4476,
      "invader_count": 4477,
      "999999": 4478,
      "not0": 4479,
      "notprime": 4480,
      "%ld%ld%ld%ld": 4481,
      "maxice": 4482,
      "remain_num": 4483,
      "theni": 4484,
      "then_num": 4485,
      "##%f%f%f%f": 4486,
      "open_num": 4487,
      "xpos2": 4488,
      "needy": 4489,
      "needz": 4490,
      "needinv": 4491,
      "fenwick": 4492,
      "vua": 4493,
      "vub": 4494,
      "##768489": 4495,
      "element_num_avl": 4496,
      "calctemp": 4497,
      "isunse": 4498,
      "minima": 4499,
      "membercount": 4500,
      "%u\\n": 4501,
      "80010": 4502,
      "##%d,%d": 4503,
      "szpfpa": 4504,
      "%.6f\\n": 4505,
      "%.6lf\\n": 4506,
      "blkid": 4507,
      "bigint_init": 4508,
      "##xxxxxx": 4509,
      "findes": 4510,
      "hits0": 4511,
      "kth_smallest_avl_sub": 4512,
      "capacity": 4513,
      "blows0": 4514,
      "borw": 4515,
      "##,%f,%f": 4516,
      "pp2pp": 4517,
      "pp2line": 4518,
      "online_back": 4519,
      "online_front": 4520,
      "noneflag": 4521,
      "rnorm": 4522,
      "ufsame": 4523,
      "next_large": 4524,
      "top_three_max": 4525,
      "%d%d%d%d%d%d%d%d": 4526,
      "gaps": 4527,
      "pluscnt": 4528,
      "##90768489": 4529,
      "##goal": 4530,
      "gameover_hant": 4531,
      "fsl": 4532,
      "##4329576": 4533,
      "##\\7+\\6": 4534,
      "tate2crr": 4535,
      "tate1crr": 4536,
      "binary_seaach": 4537,
      "\\x8b\\7+\\6": 4538,
      "friends": 4539,
      "taiou": 4540,
      "town": 4541,
      "ptoab": 4542,
      "multiply": 4543,
      "cminima": 4544,
      "f_tate": 4545,
      "fuga": 4546,
      "f_res": 4547,
      "horieyui": 4548,
      "kpart": 4549,
      "kakkon": 4550,
      "letters": 4551,
      "l_dummy": 4552,
      "mumll": 4553,
      "mybsearch": 4554,
      "naivematch": 4555,
      "ooddmin": 4556,
      "pmappair": 4557,
      "refr": 4558,
      "sigcnt": 4559,
      "slrow": 4560,
      "tsten": 4561,
      "t_top": 4562,
      "tones": 4563,
      "toupper": 4564,
      "walk": 4565,
      "##1994329576": 4566,
      "##inite_integral": 4567,
      "indefinite_integral": 4568,
      "storeall": 4569,
      "proceed": 4570,
      "maxcells": 4571,
      "reldir": 4572,
      "construct_sa": 4573,
      "##ortest_path": 4574,
      "edge_max_size": 4575,
      "num_pf": 4576,
      "num_less_than": 4577,
      "##ve_shortest_path": 4578,
      "takahashi": 4579,
      "ispassed": 4580,
      "island_nums": 4581,
      "##uplicate": 4582,
      "check_duplicate": 4583,
      "orthogonall": 4584,
      "dispp2ln": 4585,
      "linetoline": 4586,
      "##923690768489": 4587,
      "build_dag": 4588,
      "##45329251994329576": 4589,
      "succesive_shortest_path": 4590,
      "0.01745329251994329576": 4591,
      "57.29": 4592,
      "kaunto": 4593,
      "isunseen": 4594,
      "next_largest": 4595,
      "gameover_hantei": 4596,
      "kakkonum": 4597,
      "0.01745329251994329576923690768489": 4598,
      "%x": 4599,
      "%3d": 4600,
      "'k": 4601,
      "(%lf,%lf)": 4602,
      ".aa": 4603,
      "....": 4604,
      "012": 4605,
      "2\\n": 4606,
      "214": 4607,
      "499": 4608,
      "4649": 4609,
      "68": 4610,
      "610": 4611,
      "76": 4612,
      "70000": 4613,
      "86": 4614,
      "819": 4615,
      "850": 4616,
      "840": 4617,
      "95": 4618,
      "91": 4619,
      ":(": 4620,
      "\\'": 4621,
      "\\\"": 4622,
      "ah": 4623,
      "ain": 4624,
      "act": 4625,
      "a10": 4626,
      "a32": 4627,
      "aok": 4628,
      "a33": 4629,
      "bg": 4630,
      "bmin": 4631,
      "blue": 4632,
      "b_init": 4633,
      "bonus": 4634,
      "ccmp": 4635,
      "cedge": 4636,
      "cfl": 4637,
      "cinf": 4638,
      "csort": 4639,
      "dv": 4640,
      "d3": 4641,
      "dft": 4642,
      "eb": 4643,
      "echo": 4644,
      "elap": 4645,
      "fn": 4646,
      "fgno": 4647,
      "f_y": 4648,
      "g2": 4649,
      "gou": 4650,
      "h0": 4651,
      "hj": 4652,
      "ih": 4653,
      "ibit": 4654,
      "ja": 4655,
      "jt": 4656,
      "jb": 4657,
      "kt": 4658,
      "kari": 4659,
      "lm": 4660,
      "l4": 4661,
      "lcnt": 4662,
      "mr": 4663,
      "meld": 4664,
      "nak": 4665,
      "ox": 4666,
      "oy": 4667,
      "oz": 4668,
      "occ": 4669,
      "osz": 4670,
      "oyaku": 4671,
      "pz": 4672,
      "pid": 4673,
      "pend": 4674,
      "perm": 4675,
      "p_left": 4676,
      "p_right": 4677,
      "pfactor": 4678,
      "q5": 4679,
      "q0": 4680,
      "q_p": 4681,
      "qend": 4682,
      "q_m": 4683,
      "qoly": 4684,
      "q_st": 4685,
      "radd": 4686,
      "sk": 4687,
      "spe": 4688,
      "sout": 4689,
      "srep": 4690,
      "tf": 4691,
      "ten": 4692,
      "tfl": 4693,
      "trep": 4694,
      "ult": 4695,
      "vue": 4696,
      "vuf": 4697,
      "vud": 4698,
      "wt": 4699,
      "wn": 4700,
      "war": 4701,
      "xi": 4702,
      "xg": 4703,
      "x10": 4704,
      "xlim": 4705,
      "yi": 4706,
      "yg": 4707,
      "ycmp": 4708,
      "zm": 4709,
      "zone": 4710,
      "##ach": 4711,
      "##a..": 4712,
      "##ault": 4713,
      "##xo": 4714,
      "##xed": 4715,
      "##_z": 4716,
      "##_per": 4717,
      "##_result": 4718,
      "##e5": 4719,
      "##el": 4720,
      "##ek": 4721,
      "##els": 4722,
      "##ip": 4723,
      "##ipe": 4724,
      "##ning": 4725,
      "##node": 4726,
      "##norm": 4727,
      "##ope": 4728,
      "##ome": 4729,
      "##o_s": 4730,
      "##ogic": 4731,
      "##do": 4732,
      "##dd": 4733,
      "##d\\n": 4734,
      "##dle": 4735,
      "##655": 4736,
      "##9\\n": 4737,
      "##s_per": 4738,
      "##some": 4739,
      "##286": 4740,
      "##lc": 4741,
      "##lag": 4742,
      "##lower": 4743,
      "##ust": 4744,
      "##pet": 4745,
      "##pper": 4746,
      "##cl": 4747,
      "##c3": 4748,
      "##cut": 4749,
      "##cap": 4750,
      "##70": 4751,
      "##73": 4752,
      "##748": 4753,
      "##bk": 4754,
      "##bip": 4755,
      "##yx": 4756,
      "##g2": 4757,
      "##kal": 4758,
      "##1795": 4759,
      "##%llf": 4760,
      "##-z": 4761,
      "##]=": 4762,
      "##.%lld": 4763,
      "##\\\\": 4764,
      "##=%d\\n": 4765,
      "##+d": 4766,
      "##(\"": 4767,
      "##))": 4768,
      "##>]": 4769,
      "##nta": 4770,
      "##\\n3": 4771,
      "##index": 4772,
      "ifcl": 4773,
      "ret2": 4774,
      "##onnected": 4775,
      "mae": 4776,
      "mam": 4777,
      "ino": 4778,
      "inm": 4779,
      "stock": 4780,
      "stay": 4781,
      "%d|": 4782,
      "%d.%d": 4783,
      "##any": 4784,
      "##an_the": 4785,
      "##arrange": 4786,
      "##sekaisen": 4787,
      "##nsi": 4788,
      "ansf": 4789,
      "ans0": 4790,
      "anscnt": 4791,
      "anspoint": 4792,
      "##state": 4793,
      "print_result": 4794,
      "##iddle": 4795,
      "printf(\"": 4796,
      "vol": 4797,
      "default": 4798,
      "##ouse": 4799,
      "mina": 4800,
      "minr": 4801,
      "minl": 4802,
      "minch": 4803,
      "min_p": 4804,
      "min_r": 4805,
      "maxa": 4806,
      "maxr": 4807,
      "max_c": 4808,
      "max_fact": 4809,
      "maxsekaisen": 4810,
      "10xxxxxx": 4811,
      "##iod": 4812,
      "##ofday": 4813,
      "##oflag": 4814,
      "resh": 4815,
      "reki": 4816,
      "##alv": 4817,
      "##alize": 4818,
      "##alsort": 4819,
      "po2": 4820,
      "po1": 4821,
      "popo": 4822,
      "##utation": 4823,
      "dif": 4824,
      "1009": 4825,
      "ppp": 4826,
      "getmin": 4827,
      "gettime": 4828,
      "getstate": 4829,
      "struct_a": 4830,
      "struct_b": 4831,
      "hae": 4832,
      "hai": 4833,
      "cmpint": 4834,
      "cmpedge": 4835,
      "left_h": 4836,
      "hist": 4837,
      "hikaku": 4838,
      "right_h": 4839,
      "contain": 4840,
      "##321": 4841,
      "tmp_gr": 4842,
      "parall": 4843,
      "##rome": 4844,
      "##road": 4845,
      "suma": 4846,
      "sumb": 4847,
      "sumipe": 4848,
      "distp": 4849,
      "distsort": 4850,
      "dist3d": 4851,
      "topol": 4852,
      "##eap_map": 4853,
      "0x10": 4854,
      "0x55": 4855,
      "0x5050": 4856,
      "0x0000ffff": 4857,
      "epre": 4858,
      "posf": 4859,
      "posmax": 4860,
      "fax": 4861,
      "fay": 4862,
      "##_swap": 4863,
      "numbo": 4864,
      "tpg": 4865,
      "##chk": 4866,
      "qtv": 4867,
      "qtbl": 4868,
      "segarrange": 4869,
      "capcnt": 4870,
      "0xfffff": 4871,
      "bit_table": 4872,
      "bit_cnt": 4873,
      "mim": 4874,
      "mip": 4875,
      "resf": 4876,
      "resb": 4877,
      "##indan_the": 4878,
      "heapfunc": 4879,
      "unus": 4880,
      "dog": 4881,
      "fact9": 4882,
      "up_heap": 4883,
      "upque": 4884,
      "s1cnt": 4885,
      "counts": 4886,
      "iso": 4887,
      "isw": 4888,
      "isbl": 4889,
      "is_c": 4890,
      "isval": 4891,
      "isprime": 4892,
      "iscross": 4893,
      "isbk": 4894,
      "temp0": 4895,
      "temp1": 4896,
      "inv1": 4897,
      "pow_z": 4898,
      "##rabig": 4899,
      "124": 4900,
      "1200": 4901,
      "123456789": 4902,
      "trpl": 4903,
      "xx2": 4904,
      "xx0": 4905,
      "arem": 4906,
      "fixed": 4907,
      "sweap_map": 4908,
      "##_input": 4909,
      "nrocks": 4910,
      "ssum": 4911,
      "1000000001": 4912,
      "uf_find": 4913,
      "3030": 4914,
      "new_node": 4915,
      "new_graph": 4916,
      "newbase": 4917,
      "new_input": 4918,
      "ki_set": 4919,
      "starts": 4920,
      "usep": 4921,
      "##nume": 4922,
      "16001": 4923,
      "lose": 4924,
      "eq_p": 4925,
      "compos": 4926,
      "company": 4927,
      "saw": 4928,
      "sach": 4929,
      "%.2": 4930,
      "find2": 4931,
      "find_c": 4932,
      "find_avl_sub": 4933,
      "find_min": 4934,
      "mdpow": 4935,
      "show": 4936,
      "shop": 4937,
      "shindan_the": 4938,
      "hyok": 4939,
      "koya": 4940,
      "sinv": 4941,
      "##ending": 4942,
      "155": 4943,
      "250": 4944,
      "2501": 4945,
      "250001": 4946,
      "a22": 4947,
      "a21": 4948,
      "a23": 4949,
      "matmul": 4950,
      "##oko": 4951,
      "##okkei": 4952,
      "goalx": 4953,
      "goaly": 4954,
      "a11": 4955,
      "a13": 4956,
      "ori": 4957,
      "tm_m": 4958,
      "graph_v_sub": 4959,
      "2600": 4960,
      "##5307": 4961,
      "insert2": 4962,
      "insert1": 4963,
      "insert_avl": 4964,
      "insert_avl_sub": 4965,
      "dispoly": 4966,
      "disseg2seg": 4967,
      "1025": 4968,
      "case_num": 4969,
      "out_num": 4970,
      "lcs": 4971,
      "##abc": 4972,
      "3002": 4973,
      "acx": 4974,
      "acy": 4975,
      "poly_area": 4976,
      "##uskal": 4977,
      "swaps": 4978,
      "lowbit": 4979,
      "%lf%d": 4980,
      "timeval": 4981,
      "phwllacomp": 4982,
      "phwllbcomp": 4983,
      "xy_": 4984,
      "shortcut": 4985,
      "##_avl_tree": 4986,
      "and": 4987,
      "sec_s": 4988,
      "sec_e": 4989,
      "init_uf": 4990,
      "the": 4991,
      "thash": 4992,
      "mxm": 4993,
      "mx_add": 4994,
      "mx_inf": 4995,
      "oyaidx": 4996,
      "spque": 4997,
      "lastv": 4998,
      "query_count": 4999,
      "##opair": 5000,
      "makeet": 5001,
      "make_pair": 5002,
      "makekd": 5003,
      "make_avl_tree": 5004,
      "prime_c": 5005,
      "##185307": 5006,
      "bans": 5007,
      "subxy": 5008,
      "subyo": 5009,
      "subxo": 5010,
      "subyx": 5011,
      "521": 5012,
      "dtk": 5013,
      "dt1": 5014,
      "3000000000000": 5015,
      "tyokkei": 5016,
      "##76925": 5017,
      "##76655": 5018,
      "max_e": 5019,
      "max_w": 5020,
      "max_ans": 5021,
      "intersectss": 5022,
      "cpcc": 5023,
      "%*d%s": 5024,
      "10000005": 5025,
      "##128": 5026,
      "downheap": 5027,
      "odd_num": 5028,
      "200017": 5029,
      "4004": 5030,
      "lbound": 5031,
      "cosv": 5032,
      "ncrbit": 5033,
      "snorm": 5034,
      "##%lf%lf%lf": 5035,
      "ete": 5036,
      "kkk": 5037,
      "500009": 5038,
      "30005": 5039,
      "ysach": 5040,
      "##1111": 5041,
      "convert": 5042,
      "ww2": 5043,
      "ww1": 5044,
      "%d:\\n": 5045,
      "%d:%d": 5046,
      "ball_t": 5047,
      "200200": 5048,
      "slope": 5049,
      "scnu64": 5050,
      "block2": 5051,
      "hbc": 5052,
      "common": 5053,
      "lpg": 5054,
      "cdq": 5055,
      "mym": 5056,
      "a31": 5057,
      "evnum": 5058,
      "same_l": 5059,
      "winner": 5060,
      "winpet": 5061,
      "lcav": 5062,
      "lcau": 5063,
      "400005": 5064,
      "400000": 5065,
      "sieve": 5066,
      "graph_edge_sub": 5067,
      "tv_use": 5068,
      "tv_sec": 5069,
      "bunsi": 5070,
      "overlap": 5071,
      "wh2": 5072,
      "evennum": 5073,
      "clock_t": 5074,
      "clocks_per": 5075,
      "day2": 5076,
      "##lnll": 5077,
      "%.12f\\n": 5078,
      "fft_val_add": 5079,
      "##7951": 5080,
      "kruskal": 5081,
      "tansaku": 5082,
      "xn2": 5083,
      "##_leng2": 5084,
      "ymd": 5085,
      "##577951": 5086,
      "dealername": 5087,
      "vuc": 5088,
      "##cccccccc": 5089,
      "floor_sum": 5090,
      "##aaaaaaaa": 5091,
      "dwk": 5092,
      "dump2": 5093,
      "isused": 5094,
      "isupper": 5095,
      "qnorm": 5096,
      "4194303": 5097,
      "corner": 5098,
      "correct": 5099,
      "complete": 5100,
      "ki_get_i_i": 5101,
      "shifts": 5102,
      "xor128": 5103,
      "##ircle": 5104,
      "##83185307": 5105,
      "prime_power_sum": 5106,
      "border": 5107,
      "hints": 5108,
      "period": 5109,
      "t_no_tw": 5110,
      "xk_leng2": 5111,
      "##time.h": 5112,
      "999999999": 5113,
      "imghash": 5114,
      "nonbip": 5115,
      "ufsize": 5116,
      "##arger": 5117,
      "next_larger": 5118,
      "numberofnumber": 5119,
      "unitnorm": 5120,
      "##9999999999999999": 5121,
      "foodoflag": 5122,
      "a..a..": 5123,
      "csum_p": 5124,
      "csum_m": 5125,
      "digdp": 5126,
      "%d/%d": 5127,
      "subox": 5128,
      "suboy": 5129,
      "dwm0": 5130,
      "%lu\\n": 5131,
      "86400": 5132,
      "lens": 5133,
      "qfirst": 5134,
      "yn2": 5135,
      "innerproduct": 5136,
      "segcrossf": 5137,
      "add_data_heap": 5138,
      "initial_tenkaisaki": 5139,
      "insvb": 5140,
      "ki_addmul_i": 5141,
      "agari": 5142,
      "create": 5143,
      "##_deque": 5144,
      "##\\xc3": 5145,
      "next_permutation": 5146,
      "##%.6lf": 5147,
      "6.283185307": 5148,
      "##86476925": 5149,
      "next_smallest_avl_sub": 5150,
      "outall_avl_sub": 5151,
      "sys/time.h": 5152,
      "storeall_avl_sub": 5153,
      "num_less_than_avl_sub": 5154,
      "57.29577951": 5155,
      "next_largest_avl_sub": 5156,
      "214748": 5157,
      "8192": 5158,
      "aoki": 5159,
      "dvc": 5160,
      "elapsed": 5161,
      "fgnoget": 5162,
      "f_yoko": 5163,
      "goukei": 5164,
      "kari_value": 5165,
      "naka": 5166,
      "occur": 5167,
      "spell": 5168,
      "ultrabig": 5169,
      "##elshift": 5170,
      "##ogicalsort": 5171,
      "##28676655": 5172,
      "##179586476925": 5173,
      "resheap": 5174,
      "gettimeofday": 5175,
      "contains": 5176,
      "tmp_grid": 5177,
      "parallelshift": 5178,
      "topologicalsort": 5179,
      "0x50505050": 5180,
      "numbosome": 5181,
      "heapfunc_swap": 5182,
      "up_heapify": 5183,
      "is_connected": 5184,
      "isvalid": 5185,
      "iscrossseg": 5186,
      "pow_zeta": 5187,
      "composite": 5188,
      "shindan_the_block": 5189,
      "hyoka": 5190,
      "dispoly2poly": 5191,
      "makekdtree": 5192,
      "winpetr": 5193,
      "tv_usec": 5194,
      "clocks_per_sec": 5195,
      "t_no_two": 5196,
      "unitnormalv": 5197,
      "6.283185307179586476925": 5198,
      "214748364": 5199,
      "##286766559": 5200,
      "6.283185307179586476925286766559": 5201,
      "%4": 5202,
      "%2": 5203,
      "%0": 5204,
      "%[": 5205,
      "%04": 5206,
      "%as": 5207,
      "-e": 5208,
      "224": 5209,
      "29999": 5210,
      "324": 5211,
      "514": 5212,
      "5e3": 5213,
      "89": 5214,
      "92": 5215,
      "az": 5216,
      "ave": 5217,
      "aout": 5218,
      "a_inv": 5219,
      "aug": 5220,
      "aim": 5221,
      "bco": 5222,
      "bsum": 5223,
      "c10": 5224,
      "ccnt": 5225,
      "cout": 5226,
      "clim": 5227,
      "c_min": 5228,
      "d0": 5229,
      "dro": 5230,
      "dvw": 5231,
      "d_row": 5232,
      "em": 5233,
      "ek": 5234,
      "f4": 5235,
      "fq": 5236,
      "fss": 5237,
      "fdi": 5238,
      "fone": 5239,
      "four": 5240,
      "fsz": 5241,
      "fgrp": 5242,
      "gon": 5243,
      "gdist": 5244,
      "hm": 5245,
      "h4": 5246,
      "hg": 5247,
      "har": 5248,
      "hod": 5249,
      "i4": 5250,
      "ir": 5251,
      "i10": 5252,
      "iod": 5253,
      "i40": 5254,
      "ident": 5255,
      "jid": 5256,
      "j_max": 5257,
      "jte": 5258,
      "kw": 5259,
      "kv": 5260,
      "kuri": 5261,
      "lg": 5262,
      "lan": 5263,
      "lid": 5264,
      "lent": 5265,
      "ldist": 5266,
      "lhs": 5267,
      "miz": 5268,
      "mex": 5269,
      "men": 5270,
      "m_max": 5271,
      "mha": 5272,
      "must": 5273,
      "nh": 5274,
      "nhi": 5275,
      "nig": 5276,
      "nbl": 5277,
      "ndist": 5278,
      "narg": 5279,
      "n=%d:": 5280,
      "odir": 5281,
      "pg": 5282,
      "pj": 5283,
      "pin": 5284,
      "pmax": 5285,
      "psz": 5286,
      "p_index": 5287,
      "qv": 5288,
      "qp": 5289,
      "qmul": 5290,
      "qadd": 5291,
      "qback": 5292,
      "qdiv": 5293,
      "r3": 5294,
      "rcnt": 5295,
      "rab": 5296,
      "rhs": 5297,
      "sle": 5298,
      "snum": 5299,
      "t_": 5300,
      "t6": 5301,
      "t5": 5302,
      "tnum": 5303,
      "tend": 5304,
      "tdp": 5305,
      "vi": 5306,
      "vse": 5307,
      "v_num": 5308,
      "vcos": 5309,
      "xf": 5310,
      "xh": 5311,
      "you": 5312,
      "yaku": 5313,
      "ysize": 5314,
      "yupper": 5315,
      "zf": 5316,
      "zal": 5317,
      "zig": 5318,
      "##a2": 5319,
      "##ast": 5320,
      "##ama": 5321,
      "##ained": 5322,
      "##a-z": 5323,
      "##_ge": 5324,
      "##_char": 5325,
      "##_cpy": 5326,
      "##_ka": 5327,
      "##_road": 5328,
      "##tml": 5329,
      "##eek": 5330,
      "##fri": 5331,
      "##ik": 5332,
      "##ive": 5333,
      "##ieve": 5334,
      "##not": 5335,
      "##nzu": 5336,
      "##oo": 5337,
      "##o\\0": 5338,
      "##wt": 5339,
      "##week": 5340,
      "##d.h": 5341,
      "##dig": 5342,
      "##65": 5343,
      "##63": 5344,
      "##6\\n": 5345,
      "##672": 5346,
      "##433": 5347,
      "##96": 5348,
      "##95": 5349,
      "##85": 5350,
      "##8_t": 5351,
      "##r2": 5352,
      "##sp": 5353,
      "##s.": 5354,
      "##sse": 5355,
      "##sign": 5356,
      "##sdfs": 5357,
      "##2k": 5358,
      "##2str": 5359,
      "##58": 5360,
      "##515": 5361,
      "##5123": 5362,
      "##uc": 5363,
      "##ub": 5364,
      "##uha": 5365,
      "##pline": 5366,
      "##path": 5367,
      "##con": 5368,
      "##chi": 5369,
      "##0625": 5370,
      "##bb": 5371,
      "##bcnt": 5372,
      "##yal": 5373,
      "##kic": 5374,
      "##kyo": 5375,
      "##kako": 5376,
      "##100": 5377,
      "##1f\\n": 5378,
      "##ht": 5379,
      "##her": 5380,
      "##house": 5381,
      "##%u": 5382,
      "##%[^": 5383,
      "##%+d": 5384,
      "##39": 5385,
      "##37": 5386,
      "##zag": 5387,
      "##[i": 5388,
      "##[c2": 5389,
      "##-kic": 5390,
      "##];": 5391,
      "##]%d": 5392,
      "##.a": 5393,
      "##\\2": 5394,
      "##qr": 5395,
      "##qrt": 5396,
      "##=]": 5397,
      "##=%d,": 5398,
      "##<>": 5399,
      "##:\\n": 5400,
      "##:%d\\n": 5401,
      "##+\u0006": 5402,
      "##(i": 5403,
      "##)\\n": 5404,
      "##,sse": 5405,
      "##':\\n": 5406,
      "##\",": 5407,
      "int_to": 5408,
      "int2str": 5409,
      "##\\n0": 5410,
      "##input": 5411,
      "ifv": 5412,
      "formul": 5413,
      "##uro": 5414,
      "##onln": 5415,
      "mage": 5416,
      "mabs": 5417,
      "inss": 5418,
      "insuf": 5419,
      "st2": 5420,
      "state": 5421,
      "##dean": 5422,
      "%d00": 5423,
      "##llow": 5424,
      "##arator": 5425,
      "##seki": 5426,
      "##nsion": 5427,
      "incr2": 5428,
      "##.html": 5429,
      "##std.h": 5430,
      "printpoint": 5431,
      "print_tehai": 5432,
      "##ization": 5433,
      "##izyo": 5434,
      "##hild": 5435,
      "##ouj": 5436,
      "mink": 5437,
      "minstep": 5438,
      "str_rev": 5439,
      "maxu": 5440,
      "maxj": 5441,
      "maxindex": 5442,
      "##%d.": 5443,
      "que2": 5444,
      "coprime": 5445,
      "dount": 5446,
      "##ofweek": 5447,
      "ids": 5448,
      "toget": 5449,
      "po0": 5450,
      "cons": 5451,
      "##maka": 5452,
      "mod_inv": 5453,
      "constrain": 5454,
      "dire": 5455,
      "1004": 5456,
      "10080": 5457,
      "sllcomp": 5458,
      "%d%d%*d": 5459,
      "getk": 5460,
      "getmax": 5461,
      "getnum": 5462,
      "getdown": 5463,
      "get_at": 5464,
      "getnumber": 5465,
      "get_func": 5466,
      "##enum": 5467,
      "##geeto": 5468,
      "##ingzero": 5469,
      "##ing_area": 5470,
      "##ream": 5471,
      "qsub": 5472,
      "qsqrt": 5473,
      "100009": 5474,
      "cmpline": 5475,
      "hashadd": 5476,
      "hashsearch": 5477,
      "##lidean": 5478,
      "##_tama": 5479,
      "contained": 5480,
      "lirow": 5481,
      "libcnt": 5482,
      "nowmax": 5483,
      "##_norm": 5484,
      "sumw": 5485,
      "sumc": 5486,
      "distdfs": 5487,
      "dist_inter": 5488,
      "len2": 5489,
      "0x00": 5490,
      "0x53": 5491,
      "0x33": 5492,
      "0x45": 5493,
      "0x3f": 5494,
      "0x01": 5495,
      "0x07": 5496,
      "0x06": 5497,
      "prep": 5498,
      "valid": 5499,
      "inflow": 5500,
      "maps": 5501,
      "map_d": 5502,
      "map_char": 5503,
      "malloc.h": 5504,
      "##_sieve": 5505,
      "y100": 5506,
      "chrt": 5507,
      "##check": 5508,
      "##change": 5509,
      "##chang": 5510,
      "seglen": 5511,
      "##ullhouse": 5512,
      "%d%d%d\\n": 5513,
      "cap_add": 5514,
      "cap_norm": 5515,
      "206": 5516,
      "2020": 5517,
      "bit2": 5518,
      "mikako": 5519,
      "1e12": 5520,
      "resx": 5521,
      "resy": 5522,
      "cc_": 5523,
      "prevj": 5524,
      "tree_max": 5525,
      "dfs4": 5526,
      "dfs5": 5527,
      "dfs3": 5528,
      "ntemp": 5529,
      "doprint": 5530,
      "calcf": 5531,
      "calc2": 5532,
      "200008": 5533,
      "2000000": 5534,
      "s2n": 5535,
      "s2d": 5536,
      "s2cnt": 5537,
      "upheap": 5538,
      "uscanf": 5539,
      "addv": 5540,
      "addc": 5541,
      "addval": 5542,
      "add_bit": 5543,
      "add_tama": 5544,
      "countnum": 5545,
      "count_re": 5546,
      "count_less": 5547,
      "yellow": 5548,
      "isum": 5549,
      "is_par": 5550,
      "islower": 5551,
      "ischang": 5552,
      "##fff": 5553,
      "inv9": 5554,
      "pow_mod": 5555,
      "trail": 5556,
      "file": 5557,
      "fgetgcnt": 5558,
      "iir": 5559,
      "iib": 5560,
      "exte": 5561,
      "##adow": 5562,
      "##adain": 5563,
      "##_indent": 5564,
      "laze": 5565,
      "1000000000000": 5566,
      "10000000000000000": 5567,
      "##%lld\\n": 5568,
      "##2436": 5569,
      "10003": 5570,
      "kieta": 5571,
      "pi3": 5572,
      "117": 5573,
      "1110": 5574,
      "1120": 5575,
      "11001": 5576,
      "dxy": 5577,
      "168": 5578,
      "165": 5579,
      "basech": 5580,
      "comp_int": 5581,
      "compress": 5582,
      "%.4": 5583,
      "%.0": 5584,
      "%.3": 5585,
      "%.3f": 5586,
      "find1": 5587,
      "mdadd": 5588,
      "r100": 5589,
      "k2code": 5590,
      "shadow": 5591,
      "pcpline": 5592,
      "rank_str": 5593,
      "hyadain": 5594,
      "sincos": 5595,
      "solve_mod": 5596,
      "setc": 5597,
      "setmin": 5598,
      "set_c": 5599,
      "set_value": 5600,
      "set_data": 5601,
      "set_road": 5602,
      "1510": 5603,
      "257": 5604,
      "25000": 5605,
      "gosa": 5606,
      "matvec": 5607,
      "goals": 5608,
      "graph_valtype": 5609,
      "265": 5610,
      "##537": 5611,
      "push_front": 5612,
      "push_inter": 5613,
      "##%d%d%d%d": 5614,
      "vsa": 5615,
      "vsf": 5616,
      "vsd": 5617,
      "vsc": 5618,
      "vsb": 5619,
      "vsin": 5620,
      "vsdiv": 5621,
      "5100": 5622,
      "suits": 5623,
      "disco": 5624,
      "pol2": 5625,
      "pol0": 5626,
      "##%s\\n": 5627,
      "outflow": 5628,
      "##erse_num": 5629,
      "##odfs": 5630,
      "getscore": 5631,
      "iti": 5632,
      "5003": 5633,
      "##rict": 5634,
      "3003": 5635,
      "30010": 5636,
      "dbase": 5637,
      "depsdfs": 5638,
      "swapped": 5639,
      "npoly": 5640,
      "nprime": 5641,
      "init_dfs": 5642,
      "100100": 5643,
      "div_num": 5644,
      "%d%d%d%d\\n": 5645,
      "factorization": 5646,
      "bbb": 5647,
      "mx_cmp": 5648,
      "mx_cpy": 5649,
      "onenum": 5650,
      "1050": 5651,
      "222": 5652,
      "oyae": 5653,
      "reverse_num": 5654,
      "search_max": 5655,
      "span": 5656,
      "sp_len": 5657,
      "##435": 5658,
      "##28862": 5659,
      "last_a": 5660,
      "ngb": 5661,
      "ttl": 5662,
      "oldbase": 5663,
      "old_indent": 5664,
      "##_middle": 5665,
      "second\\n": 5666,
      "uni_rank": 5667,
      "unistd.h": 5668,
      "1e-3": 5669,
      "##allell": 5670,
      "first\\n": 5671,
      "vector_min": 5672,
      "20000000000000000": 5673,
      "subv": 5674,
      "subc": 5675,
      "dt2": 5676,
      "300002": 5677,
      "pqchange": 5678,
      "max_k": 5679,
      "intersecting_area": 5680,
      "cpp": 5681,
      "##ndnode": 5682,
      "1000000010": 5683,
      "appendnode": 5684,
      "uint8_t": 5685,
      "2000001": 5686,
      "dag_valtype": 5687,
      "200020": 5688,
      "367": 5689,
      "3600": 5690,
      "362436": 5691,
      "0.7": 5692,
      "0.001": 5693,
      "%llu.": 5694,
      "mca": 5695,
      "avl_node_sub": 5696,
      "index.html": 5697,
      "nodes_right": 5698,
      "nodes_middle": 5699,
      "cycle": 5700,
      "##2020": 5701,
      "lower_bound": 5702,
      "total_len": 5703,
      "reach": 5704,
      "##_avl_sub':\\n": 5705,
      "##667": 5706,
      "%s%s(": 5707,
      "llsqr": 5708,
      "%d:%d:": 5709,
      "%.9lf": 5710,
      "rside": 5711,
      "range_t": 5712,
      "range_max": 5713,
      "##555555": 5714,
      "##0f0f0": 5715,
      "##0f0f0f": 5716,
      "%d%s%d": 5717,
      "codebase": 5718,
      "code2k": 5719,
      "crosspointss": 5720,
      "%f,%f": 5721,
      "ldfs": 5722,
      "nim": 5723,
      "104857": 5724,
      "builtin_p": 5725,
      "moveto": 5726,
      "2e5": 5727,
      "cdfs": 5728,
      "zz_": 5729,
      "matrix_mul": 5730,
      "matrix_ka": 5731,
      "halt": 5732,
      "mysign": 5733,
      "0x7e": 5734,
      "200000000000007": 5735,
      "0.01": 5736,
      "scoresum": 5737,
      "tabaicho_block": 5738,
      "d_comp": 5739,
      "##333333": 5740,
      "simaka": 5741,
      "gameover_w": 5742,
      "gameover_block": 5743,
      "gameover_clear": 5744,
      "fhh": 5745,
      "i1000": 5746,
      "0x7fffff": 5747,
      "40001": 5748,
      "overflow": 5749,
      "cspace": 5750,
      "dayfri": 5751,
      "dayofweek": 5752,
      "flips": 5753,
      "flip_row": 5754,
      "##00ff00": 5755,
      "##_min_heap": 5756,
      "xxx2": 5757,
      "xxx1": 5758,
      "leaf_num": 5759,
      "leaf_bonus": 5760,
      "600010": 5761,
      "##675123": 5762,
      "command_num": 5763,
      "death": 5764,
      "kazu": 5765,
      "##%c%c": 5766,
      "steps": 5767,
      "isponln": 5768,
      "%.10f\\n": 5769,
      "##polygon": 5770,
      "addedge": 5771,
      "separator": 5772,
      "##_data_stack": 5773,
      "wei": 5774,
      "wel": 5775,
      "##mony": 5776,
      "restrict": 5777,
      "%.15f\\n": 5778,
      "fyy": 5779,
      "dett": 5780,
      "dets": 5781,
      "rockx": 5782,
      "rocky": 5783,
      "strtmp": 5784,
      "brem": 5785,
      "fen_add": 5786,
      "fen_sum": 5787,
      "pirow2": 5788,
      "pirow1": 5789,
      "##cccccc": 5790,
      "disp2poly": 5791,
      "##aaaaaa": 5792,
      "error!\\n": 5793,
      "calco": 5794,
      "pponsegf": 5795,
      "foot": 5796,
      "strncpy": 5797,
      "201910": 5798,
      "namespace": 5799,
      "bigint_print": 5800,
      "dinicdfs": 5801,
      "dinic_dfs": 5802,
      "moziretu_tenkai": 5803,
      "small_sieve": 5804,
      "##ementpath": 5805,
      "1121": 5806,
      "b_hi": 5807,
      "fputc": 5808,
      "##ello": 5809,
      "##069": 5810,
      "picol2": 5811,
      "picol1": 5812,
      "9999999999": 5813,
      "amida": 5814,
      "write": 5815,
      "answercheck": 5816,
      "abcdefghijklmnopqrstuvwxyz": 5817,
      "yyy2": 5818,
      "yyy1": 5819,
      "log2": 5820,
      "log10": 5821,
      "%d%d%d%d%d%d%d%d%d": 5822,
      "leader_bonus": 5823,
      "foododfs": 5824,
      "dupli": 5825,
      "mga": 5826,
      "sssp": 5827,
      "%d/%d\\n": 5828,
      "existpos": 5829,
      "candiln_id": 5830,
      "gameover_hole": 5831,
      "##########": 5832,
      "##1\\n-1\\n-1\\n-1\\n-1\\n-1\\n-1\\n-1\\n-1\\n-1\\n-1\\n-1\\n-1\\n-1\\n-1\\n-1\\n-1\\n-1\\n-1\\n-1\\n-1\\n-1\\n-1\\n-1\\n-1\\n-1\\n-1\\n-1\\n-1\\n-1\\n-1\\n-1\\n-1\\n-1\\n-1\\n-1\\n-1\\n-1\\n-1\\n-1\\n-1\\n-1\\n-1\\n-1\\n-1\\n-1\\n-1\\n-1\\n-1\\n-1\\n-1\\n-1\\n-1\\n-1\\n-1\\n-1\\n-1\\n-1\\n-1\\n-1\\n-1\\n-1\\n-1\\n-1\\n-1\\n-1\\n-1\\n-1\\n-1\\n-1\\n-1\\n-1\\n-1\\n-1\\n-1\\n-1\\n-1\\n-1\\n-1\\n-1\\n-1\\n-1\\n-1\\n-1\\n-1\\n-1\\n-1\\n-1\\n-1\\n-1\\n-1\\n-1\\n-1\\n-1\\n-1\\n-1\\n-1\\n-1\\n-1\\n-1\\n-1\\n-1\\n-1\\n-1\\n-1\\n-1\\n-1\\n-1\\n-1\\n-1\\n-1\\n-1\\n-1\\n-1\\n-1\\n-1\\n-1\\n-1\\n-1\\n-1\\n-1\\n-1\\n-1\\n-1\\n-1\\n-1\\n-1\\n-1\\n-1\\n-1\\n-1\\n-1\\n-1\\n-1\\n-1\\n-1\\n-1\\n-1\\n-1\\n-1\\n-1\\n-1\\n-1\\n-1\\n-1\\n-1\\n-1\\n-1\\n-1\\n-1\\n-1\\n-1\\n-1\\n-1\\n-1\\n-1\\n-1\\n-1\\n-1\\n-1\\n-1\\n-1\\n-1\\n-1\\n-1\\n-1\\n-1\\n-1\\n-1\\n-1\\n-1\\n-1\\n-1\\n-1\\n-1\\n-1\\n-1\\n-1\\n-1\\n-1\\n-1\\n-1\\n-1\\n-1\\n-1\\n-1\\n-1\\n-1\\n-1\\n-1\\n-1\\n-1\\n-1\\n-1\\n-1\\n-1\\n-1\\n-1\\n-1\\n-1\\n-1\\n-1\\n-1\\n-1\\n-1\\n-1\\n-1\\n-1\\n-1\\n-1\\n-1\\n-1\\n-1\\n-1\\n-1\\n-1\\n-1\\n-1\\n-1\\n-1\\n-1\\n-1\\n-1\\n-1\\n-1\\n-1\\n-1\\n-1\\n-1\\n-1\\n-1\\n-1\\n-1\\n-1\\n-1\\n-1\\n-1\\n-1\\n-1\\n-1\\n-1\\n-1\\n-1\\n-1\\n-1\\n-1\\n-1\\n-1\\n-1\\n-1\\n-1\\n-1\\n-1\\n-1\\n-1\\n-1\\n-1\\n-1\\n-1\\n-1\\n-1\\n-1\\n-1\\n-1\\n-1\\n-1\\n-1\\n-1\\n-1\\n-1\\n-1\\n-1\\n-1\\n-1\\n-1\\n-1\\n-1\\n-1\\n-1\\n-1\\n-1\\n-1\\n-1\\n-1\\n-1\\n-1\\n-1\\n-1\\n-1\\n-1\\n-1\\n-1\\n-1\\n-1\\n-1\\n-1\\n-1\\n-1\\n-1\\n-1\\n-1\\n-1\\n-1\\n-1\\n-1\\n-1\\n-1\\n-1\\n-1\\n-1\\n-1\\n-1\\n-1\\n-1\\n-1\\n-1\\n-1\\n-1\\n-1\\n-1\\n-1\\n-1\\n-1\\n-1\\n-1\\n-1\\n-1\\n-1\\n-1\\n-1\\n-1\\n-1\\n-1\\n-1\\n-1\\n-1\\n-1\\n-1\\n-1\\n-1\\n-1\\n-1\\n-1\\n-1\\n-1\\n-1\\n-1\\n-1\\n-1\\n-1\\n-1\\n-1\\n-1\\n-1\\n-1\\n-1\\n-1\\n-1\\n-1\\n-1\\n-1\\n-1\\n-1\\n-1\\n-1\\n-1\\n-1\\n-1\\n-1\\n-1\\n-1\\n-1\\n-1\\n-1\\n-1\\n-1\\n-1\\n-1\\n-1\\n-1\\n-1\\n-1\\n-1\\n-1\\n-1\\n-1\\n-1\\n-1\\n-1\\n-1\\n-1\\n-1\\n-1\\n-1\\n-1\\n-1\\n-1\\n-1\\n-1\\n-1\\n-1\\n-1\\n-1\\n-1\\n-1\\n-1\\n-1\\n-1\\n-1\\n-1\\n-1\\n-1\\n-1\\n-1\\n-1\\n-1\\n-1\\n-1\\n-1\\n-1\\n-1\\n-1\\n-1\\n-1\\n-1\\n-1\\n-1\\n-1\\n-1\\n-1\\n-1\\n-1\\n-1\\n-1\\n-1\\n-1\\n-1\\n-1\\n-1\\n-1\\n-1\\n-1\\n-1\\n-1\\n-1\\n-1\\n-1\\n-1\\n-1\\n-1\\n-1\\n-1\\n-1\\n-1\\n-1\\n-1\\n-1\\n-1\\n-1\\n-1\\n-1\\n-1\\n-1\\n-1\\n-1\\n-1\\n-1\\n-1\\n-1\\n-1\\n-1\\n-1\\n-1\\n-1\\n-1\\n-1\\n-1\\n-1\\n-1\\n-1\\n-1\\n-1\\n-1\\n-1\\n-1\\n-1\\n-1\\n-1\\n-1\\n-1\\n-1\\n-1\\n-1\\n-1\\n-1\\n-1\\n-1\\n-1\\n-1\\n-1\\n-1\\n-1\\n-1\\n-1\\n-1\\n-1\\n-1\\n-1\\n-1\\n-1\\n-1\\n-1\\n-1\\n-1\\n-1\\n-1\\n-1\\n-1\\n-1\\n-1\\n-1\\n-1\\n-1\\n-1\\n-1\\n-1\\n-1\\n-1\\n-1\\n-1\\n-1\\n-1\\n-1\\n-1\\n-1\\n-1\\n-1\\n-1\\n-1\\n-1\\n-1\\n-1\\n-1\\n-1\\n-1\\n-1\\n-1\\n-1\\n-1\\n-1\\n-1\\n-1\\n-1\\n-1\\n-1\\n-1\\n-1\\n-1\\n-1\\n-1\\n-1\\n-1\\n-1\\n-1\\n-1\\n-1\\n-1\\n-1\\n-1\\n-1\\n-1\\n-1\\n-1\\n-1\\n-1\\n-1\\n-1\\n-1\\n-1\\n-1\\n-1\\n-1\\n-1\\n-1\\n-1\\n-1\\n-1\\n-1\\n-1\\n-1\\n-1\\n-1\\n-1\\n-1\\n-1\\n-1\\n-1\\n-1\\n-1\\n-1\\n-1\\n-1\\n-1\\n-1\\n-1\\n-1\\n-1\\n-1\\n-1\\n-1\\n-1\\n-1\\n-1\\n-1\\n-1\\n-1\\n-1\\n-1\\n-1\\n-1\\n-1\\n-1\\n-1\\n-1\\n-1\\n-1\\n-1\\n-1\\n-1\\n-1\\n-1\\n-1\\n-1\\n-1\\n-1\\n-1\\n-1\\n-1\\n-1\\n-1\\n-1\\n-1\\n-1\\n-1\\n-1\\n-1\\n-1\\n-1\\n-1\\n-1\\n-1\\n-1\\n-1\\n-1\\n-1\\n-1\\n-1\\n-1\\n-1\\n-1\\n-1\\n-1\\n-1\\n-1\\n-1\\n-1\\n-1\\n-1\\n-1\\n-1\\n-1\\n-1\\n-1\\n-1\\n-1\\n-1\\n-1\\n-1\\n-1\\n-1\\n-1\\n-1\\n-1\\n-1\\n-1\\n-1\\n-1\\n-1\\n-1\\n-1\\n-1\\n-1\\n-1\\n-1\\n-1\\n-1\\n-1\\n-1\\n-1\\n-1\\n-1\\n-1\\n-1\\n-1\\n-1\\n-1\\n-1\\n-1\\n-1\\n-1\\n-1\\n-1\\n-1\\n-1\\n-1\\n-1\\n-1\\n-1\\n-1\\n-1\\n-1\\n-1\\n-1\\n-1\\n-1\\n-1\\n-1\\n-1\\n-1\\n-1\\n-1\\n-1\\n-1\\n-1\\n-1\\n-1\\n-1\\n-1\\n-1\\n-1\\n-1\\n-1\\n-1\\n-1\\n-1\\n-1\\n-1\\n-1\\n-1\\n-1\\n-1\\n-1\\n-1\\n-1\\n-1\\n-1\\n-1\\n-1\\n-1\\n-1\\n-1\\n-1\\n-1\\n-1\\n-1\\n-1\\n-1\\n-1\\n-1\\n-1\\n-1\\n-1\\n-1\\n-1\\n-1\\n-1\\n-1\\n-1\\n-1\\n-1\\n-1\\n-1\\n-1\\n-1\\n-1\\n-1\\n-1\\n-1\\n-1\\n-1\\n-1\\n-1\\n-1\\n-1\\n-1\\n-1\\n-1\\n-1\\n-1\\n-1\\n-1\\n-1\\n-1\\n-1\\n-1\\n-1\\n-1\\n-1\\n-1\\n-1\\n-1\\n-1\\n-1\\n-1\\n-1\\n-1\\n-1\\n-1\\n-1\\n-1\\n-1\\n-1\\n-1\\n-1\\n-1\\n-1\\n-1\\n-1\\n-1\\n-1\\n-1\\n-1\\n-1\\n-1\\n-1\\n-1\\n-1\\n-1\\n-1\\n-1\\n-1\\n-1\\n-1\\n-1\\n-1\\n-1\\n-1\\n-1\\n-1\\n-1\\n-1\\n-1\\n-1\\n-1\\n-1\\n-1\\n-1\\n-1\\n-1\\n-1\\n-1\\n-1\\n-1\\n-1\\n-1\\n-1\\n-1\\n-1\\n-1\\n-1\\n-1\\n-1\\n-1\\n-1\\n-1\\n-1\\n-1\\n-1\\n-1\\n-1\\n-1\\n-1\\n-1\\n-1\\n-1\\n-1\\n-1\\n-1\\n-1\\n-1\\n-1\\n-1\\n-1\\n-1\\n-1\\n-1\\n-1\\n-1\\n-1\\n-1\\n-1\\n-1\\n-1\\n-1\\n-1\\n-1\\n-1\\n-1\\n-1\\n-1\\n-1\\n-1\\n-1\\n-1\\n-1\\n-1\\n-1\\n-1\\n-1\\n-1\\n-1\\n-1\\n-1\\n-1\\n-1\\n-1\\n-1\\n-1\\n-1\\n-1\\n-1\\n-1\\n-1\\n-1\\n-1\\n-1\\n-1\\n-1\\n-1\\n-1\\n-1\\n-1\\n-1\\n-1\\n-1\\n-1\\n-1\\n-1\\n-1\\n-1\\n-1\\n-1\\n-1\\n-1\\n-1\\n-1\\n-1\\n-1\\n-1\\n-1\\n-1\\n-1\\n-1\\n-1\\n-1\\n-1\\n-1\\n-1\\n-1\\n-1\\n-1\\n-1\\n-1\\n-1\\n-1\\n-1\\n-1\\n-1\\n-1\\n-1\\n-1\\n-1\\n-1\\n-1\\n-1\\n-1\\n-1\\n-1\\n-1\\n-1\\n-1\\n-1\\n-1\\n-1\\n-1\\n-1\\n-1\\n-1\\n-1\\n-1\\n-1\\n-1\\n-1\\n-1\\n-1\\n-1\\n-1\\n-1\\n-1\\n-1\\n-1\\n-1\\n-1\\n-1\\n-1\\n-1\\n-1\\n-1\\n-1\\n-1\\n-1\\n-1\\n-1\\n-1\\n-1\\n-1\\n-1\\n-1\\n-1\\n-1\\n-1\\n-1\\n-1\\n-1\\n-1\\n-1\\n-1\\n-1\\n-1\\n-1\\n-1\\n-1\\n-1\\n-1\\n-1\\n-1\\n-1\\n-1\\n-1\\n-1\\n-1\\n-1\\n-1\\n-1\\n-1\\n-1\\n-1\\n-1\\n-1\\n-1\\n-1\\n-1\\n-1\\n-1\\n-1\\n-1\\n-1\\n-1\\n-1\\n-1\\n-1\\n-1\\n-1\\n-1\\n-1\\n-1\\n-1\\n-1\\n-1\\n-1\\n-1\\n-1\\n-1\\n-1\\n-1\\n-1\\n-1\\n-1\\n-1\\n-1\\n-1\\n-1\\n-1\\n-1\\n-1\\n-1\\n-1\\n-1\\n-1\\n-1\\n-1\\n-1\\n-1\\n-1\\n-1\\n-1\\n-1\\n-1\\n-1\\n-1\\n-1\\n-1\\n-1\\n-1\\n-1\\n-1\\n-1\\n-1\\n-1\\n-1\\n-1\\n-1\\n-1\\n-1\\n-1\\n-1\\n-1\\n-1\\n-1\\n-1\\n-1\\n-1\\n-1\\n-1\\n-1\\n-1\\n-1\\n-1\\n-1\\n-1\\n-1\\n-1\\n-1\\n-1\\n-1\\n-1\\n-1\\n-1\\n-1\\n-1\\n-1\\n-1\\n-1\\n-1\\n-1\\n-1\\n-1\\n-1\\n-1\\n-1\\n-1\\n-1\\n-1\\n-1\\n-1\\n-1\\n-1\\n-1\\n-1\\n-1\\n-1\\n-1\\n-1\\n-1\\n-1\\n-1\\n-1\\n-1\\n-1\\n-1\\n-1\\n-1\\n-1\\n-1\\n-1\\n-1\\n-1\\n-1\\n-1\\n-1\\n-1\\n-1\\n-1\\n-1\\n-1\\n-1\\n-1\\n-1\\n-1\\n-1\\n-1\\n-1\\n-1\\n-1\\n-1\\n-1\\n-1\\n-1\\n-1\\n-1\\n-1\\n-1\\n-1\\n-1\\n-1\\n-1\\n-1\\n-1\\n-1\\n-1\\n-1\\n-1\\n-1\\n-1\\n-1\\n-1\\n-1\\n-1\\n-1\\n-1\\n-1\\n-1\\n-1\\n-1\\n-1\\n-1\\n-1\\n-1\\n-1\\n-1\\n-1\\n-1\\n-1\\n-1\\n-1\\n-1\\n-1\\n-1\\n-1\\n-1\\n-1\\n-1\\n-1\\n-1\\n-1\\n-1\\n-1\\n-1\\n-1\\n-1\\n-1\\n-1\\n-1\\n-1\\n-1\\n-1\\n-1\\n-1\\n-1\\n-1\\n-1\\n-1\\n-1\\n-1\\n-1\\n-1\\n-1\\n-1\\n-1\\n-1\\n-1\\n-1\\n-1\\n-1\\n-1\\n-1\\n-1\\n-1\\n-1\\n-1\\n-1\\n-1\\n-1\\n-1\\n-1\\n-1\\n-1\\n-1\\n-1\\n-1\\n-1\\n-1\\n-1\\n-1\\n-1\\n-1\\n-1\\n-1\\n-1\\n-1\\n-1\\n-1\\n-1\\n-1\\n-1\\n-1\\n-1\\n-1\\n-1\\n-1\\n-1\\n-1\\n-1\\n-1\\n-1\\n-1\\n-1\\n-1\\n-1\\n-1\\n-1\\n-1\\n-1\\n-1\\n-1\\n-1\\n-1\\n-1\\n-1\\n-1\\n-1\\n-1\\n-1\\n-1\\n-1\\n-1\\n-1\\n-1\\n-1\\n-1\\n-1\\n-1\\n-1\\n-1\\n-1\\n-1\\n-1\\n-1\\n-1\\n-1\\n-1\\n-1\\n-1\\n-1\\n-1\\n-1\\n-1\\n-1\\n-1\\n-1\\n-1\\n-1\\n-1\\n-1\\n-1\\n-1\\n-1\\n-1\\n-1\\n-1\\n-1\\n-1\\n-1\\n-1\\n-1\\n-1\\n-1\\n-1\\n-1\\n-1\\n-1\\n-1\\n-1\\n-1\\n-1\\n-1\\n-1\\n-1\\n-1\\n-1\\n-1\\n-1\\n-1\\n-1\\n-1\\n-1\\n-1\\n-1\\n-1\\n-1\\n-1\\n-1\\n-1\\n-1\\n-1\\n-1\\n-1\\n-1\\n-1\\n-1\\n-1\\n-1\\n-1\\n-1\\n-1\\n-1\\n-1\\n-1\\n-1\\n-1\\n-1\\n-1\\n-1\\n-1\\n-1\\n-1\\n-1\\n-1\\n-1\\n-1\\n-1\\n-1\\n-1\\n-1\\n-1\\n-1\\n-1\\n-1\\n-1\\n-1\\n-1\\n-1\\n-1\\n-1\\n-1\\n-1\\n-1\\n-1\\n-1\\n-1\\n-1\\n-1\\n-1\\n-1\\n-1\\n-1\\n-1\\n-1\\n-1\\n-1\\n-1\\n-1\\n-1\\n-1\\n-1\\n-1\\n-1\\n-1\\n-1\\n-1\\n-1\\n-1\\n-1\\n-1\\n-1\\n-1\\n-1\\n-1\\n-1\\n-1\\n-1\\n-1\\n-1\\n-1\\n-1\\n-1\\n-1\\n-1\\n-1\\n-1\\n-1\\n-1\\n-1\\n-1\\n-1\\n-1\\n-1\\n-1\\n-1\\n-1\\n-1\\n-1\\n-1\\n-1\\n-1\\n-1\\n-1\\n-1\\n-1\\n-1\\n-1\\n-1\\n-1\\n-1\\n-1\\n-1\\n-1\\n-1\\n-1\\n-1\\n-1\\n-1\\n-1\\n-1\\n-1\\n-1\\n-1\\n-1\\n-1\\n-1\\n-1\\n-1\\n-1\\n-1\\n-1\\n-1\\n-1\\n-1\\n-1\\n-1\\n-1\\n-1\\n-1\\n-1\\n-1\\n-1\\n-1\\n-1\\n-1\\n-1\\n-1\\n-1\\n-1\\n-1\\n-1\\n-1\\n-1\\n-1\\n-1\\n-1\\n-1\\n-1\\n-1\\n-1\\n-1\\n-1\\n-1\\n-1\\n-1\\n-1\\n-1\\n-1\\n-1\\n-1\\n-1\\n-1\\n-1\\n-1\\n-1\\n-1\\n-1\\n-1\\n-1\\n-1\\n-1\\n-1\\n-1\\n-1\\n-1\\n-1\\n-1\\n-1\\n-1\\n-1\\n-1\\n-1\\n-1\\n-1\\n-1\\n-1\\n-1\\n-1\\n-1\\n-1\\n-1\\n-1\\n-1\\n-1\\n-1\\n-1\\n-1\\n-1\\n-1\\n-1\\n-1\\n-1\\n-1\\n-1\\n-1\\n-1\\n-1\\n-1\\n-1\\n-1\\n-1\\n-1\\n-1\\n-1\\n-1\\n-1\\n-1\\n-1\\n-1\\n-1\\n-1\\n-1\\n-1\\n-1\\n-1\\n-1\\n-1\\n-1\\n-1\\n-1\\n-1\\n-1\\n-1\\n-1\\n-1\\n-1\\n-1\\n-1\\n-1\\n-1\\n-1\\n-1\\n-1\\n-1\\n-1\\n-1\\n-1\\n-1\\n-1\\n-1\\n-1\\n-1\\n-1\\n-1\\n-1\\n-1\\n-1\\n-1\\n-1\\n-1\\n-1\\n-1\\n-1\\n-1\\n-1\\n-1\\n-1\\n-1\\n-1\\n-1\\n-1\\n-1\\n-1\\n-1\\n-1\\n-1\\n-1\\n-1\\n-1\\n-1\\n-1\\n-1\\n-1\\n-1\\n-1\\n-1\\n-1\\n-1\\n-1\\n-1\\n-1\\n-1\\n-1\\n-1\\n-1\\n-1\\n-1\\n-1\\n-1\\n-1\\n-1\\n-1\\n-1\\n-1\\n-1\\n-1\\n-1\\n-1\\n-1\\n-1\\n-1\\n-1\\n-1\\n-1\\n-1\\n-1\\n-1\\n-1\\n-1\\n-1\\n-1\\n-1\\n-1\\n-1\\n-1\\n-1\\n-1\\n-1\\n-1\\n-1\\n-1\\n-1\\n-1\\n-1\\n-1\\n-1\\n-1\\n-1\\n-1\\n-1\\n-1\\n-1\\n-1\\n-1\\n-1\\n-1\\n-1\\n-1\\n-1\\n-1\\n-1\\n-1\\n-1\\n-1\\n-1\\n-1\\n-1\\n-1\\n-1\\n-1\\n-1\\n-1\\n-1\\n-1\\n-1\\n-1\\n-1\\n-1\\n-1\\n-1\\n-1\\n-1\\n-1\\n-1\\n-1\\n-1\\n-1\\n-1\\n-1\\n-1\\n-1\\n-1\\n-1\\n-1\\n-1\\n-1\\n-1\\n-1\\n-1\\n-1\\n-1\\n-1\\n-1\\n-1\\n-1\\n-1\\n-1\\n-1\\n-1\\n-1\\n-1\\n-1\\n-1\\n-1\\n-1\\n-1\\n-1\\n-1\\n-1\\n-1\\n-1\\n-1\\n-1\\n-1\\n-1\\n-1\\n-1\\n-1\\n-1\\n-1\\n-1\\n-1\\n-1\\n-1\\n-1\\n-1\\n-1\\n-1\\n-1\\n-1\\n-1\\n-1\\n-1\\n-1\\n-1\\n-1\\n-1\\n-1\\n-1\\n-1\\n-1\\n-1\\n-1\\n-1\\n-1\\n-1\\n-1\\n-1\\n-1\\n-1\\n-1\\n-1\\n-1\\n-1\\n-1\\n-1\\n-1\\n-1\\n-1\\n-1\\n-1\\n-1\\n-1\\n-1\\n-1\\n-1\\n-1\\n-1\\n-1\\n-1\\n-1\\n-1\\n-1\\n-1\\n-1\\n-1\\n-1\\n-1\\n-1\\n-1\\n-1\\n-1\\n-1\\n-1\\n-1\\n-1\\n-1\\n-1\\n-1\\n-1\\n-1\\n-1\\n-1\\n-1\\n-1\\n-1\\n-1\\n-1\\n-1\\n-1\\n-1\\n-1\\n-1\\n-1\\n-1\\n-1\\n-1\\n-1\\n-1\\n-1\\n-1\\n-1\\n-1\\n-1\\n-1\\n-1\\n-1\\n-1\\n-1\\n-1\\n-1\\n-1\\n-1\\n-1\\n-1\\n-1\\n-1\\n-1\\n-1\\n-1\\n-1\\n-1\\n-1\\n-1\\n-1\\n-1\\n-1\\n-1\\n-1\\n-1\\n-1\\n-1\\n-1\\n-1\\n-1\\n-1\\n-1\\n-1\\n-1\\n-1\\n-1\\n-1\\n-1\\n-1\\n-1\\n-1\\n-1\\n-1\\n-1\\n-1\\n-1\\n-1\\n-1\\n-1\\n-1\\n-1\\n-1\\n-1\\n-1\\n-1\\n-1\\n-1\\n-1\\n-1\\n-1\\n-1\\n-1\\n-1\\n-1\\n-1\\n-1\\n-1\\n-1\\n-1\\n-1\\n-1\\n-1\\n-1\\n-1\\n-1\\n-1\\n-1\\n-1\\n-1\\n-1\\n-1\\n-1\\n-1\\n-1\\n-1\\n-1\\n-1\\n-1\\n-1\\n-1\\n-1\\n-1\\n-1\\n-1\\n-1\\n-1\\n-1\\n-1\\n-1\\n-1\\n-1\\n-1\\n-1\\n-1\\n-1\\n-1\\n-1\\n-1\\n-1\\n-1\\n-1\\n-1\\n-1\\n-1\\n-1\\n-1\\n-1\\n-1\\n-1\\n-1\\n-1\\n-1\\n-1\\n-1\\n-1\\n-1\\n-1\\n-1\\n-1\\n-1\\n-1\\n-1\\n-1\\n-1\\n-1\\n-1\\n-1\\n-1\\n-1\\n-1\\n-1\\n-1\\n-1\\n-1\\n-1\\n-1\\n-1\\n-1\\n-1\\n-1\\n-1\\n-1\\n-1\\n-1\\n-1\\n-1\\n-1\\n-1\\n-1\\n-1\\n-1\\n-1\\n-1\\n-1\\n-1\\n-1\\n-1\\n-1\\n-1\\n-1\\n-1\\n-1\\n-1\\n-1\\n-1\\n-1\\n-1\\n-1\\n-1\\n-1\\n-1\\n-1\\n-1\\n-1\\n-1\\n-1\\n-1\\n-1\\n-1\\n-1\\n-1\\n-1\\n-1\\n-1\\n-1\\n-1\\n-1\\n-1\\n-1\\n-1\\n-1\\n-1\\n-1\\n-1\\n-1\\n-1\\n-1\\n-1\\n-1\\n-1\\n-1\\n-1\\n-1\\n-1\\n-1\\n-1\\n-1\\n-1\\n-1\\n-1\\n-1\\n-1\\n-1\\n-1\\n-1\\n-1\\n-1\\n-1\\n-1\\n-1\\n-1\\n-1\\n-1\\n-1\\n-1\\n-1\\n-1\\n-1\\n-1\\n-1\\n-1\\n-1\\n-1\\n-1\\n-1\\n-1\\n-1\\n-1\\n-1\\n-1\\n-1\\n-1\\n-1\\n-1\\n-1\\n-1\\n-1\\n-1\\n-1\\n-1\\n-1\\n-1\\n-1\\n-1\\n-1\\n-1\\n-1\\n-1\\n-1\\n-1\\n-1\\n-1\\n-1\\n-1\\n-1\\n-1\\n-1\\n-1\\n-1\\n-1\\n-1\\n-1\\n-1\\n-1\\n-1\\n-1\\n-1\\n-1\\n-1\\n-1\\n-1\\n-1\\n-1\\n-1\\n-1\\n-1\\n-1\\n-1\\n-1\\n-1\\n-1\\n-1\\n-1\\n-1\\n-1\\n-1\\n-1\\n-1\\n-1\\n-1\\n-1\\n-1\\n-1\\n-1\\n-1\\n-1\\n-1\\n-1\\n-1\\n-1\\n-1\\n-1\\n-1\\n-1\\n-1\\n-1\\n-1\\n-1\\n-1\\n-1\\n-1\\n-1\\n-1\\n-1\\n-1\\n-1\\n-1\\n-1\\n-1\\n-1\\n-1\\n-1\\n-1\\n-1\\n-1\\n-1\\n-1\\n-1\\n-1\\n-1\\n-1\\n-1\\n-1\\n-1\\n-1\\n-1\\n-1\\n-1\\n-1\\n-1\\n-1\\n-1\\n-1\\n-1\\n-1\\n-1\\n-1\\n-1\\n-1\\n-1\\n-1\\n-1\\n-1\\n-1\\n-1\\n-1\\n-1\\n-1\\n-1\\n-1\\n-1\\n-1\\n-1\\n-1\\n-1\\n-1\\n-1\\n-1\\n-1\\n-1\\n-1\\n-1\\n-1\\n-1\\n-1\\n-1\\n-1\\n-1\\n-1\\n-1\\n-1\\n-1\\n-1\\n-1\\n-1\\n-1\\n-1\\n-1\\n-1\\n-1\\n-1\\n-1\\n-1\\n-1\\n-1\\n-1\\n-1\\n-1\\n-1\\n-1\\n-1\\n-1\\n-1\\n-1\\n-1\\n-1\\n-1\\n-1\\n-1\\n-1\\n-1\\n-1\\n-1\\n-1\\n-1\\n-1\\n-1\\n-1\\n-1\\n-1\\n-1\\n-1\\n-1\\n-1\\n-1\\n-1\\n-1\\n-1\\n-1\\n-1\\n-1\\n-1\\n-1\\n-1\\n-1\\n-1\\n-1\\n-1\\n-1\\n-1\\n-1\\n-1\\n-1\\n-1\\n-1\\n-1\\n-1\\n-1\\n-1\\n-1\\n-1\\n-1\\n-1\\n-1\\n-1\\n-1\\n-1\\n-1\\n-1\\n-1\\n-1\\n-1\\n-1\\n-1\\n-1\\n-1\\n-1\\n-1\\n-1\\n-1\\n-1\\n-1\\n-1\\n-1\\n-1\\n-1\\n-1\\n-1\\n-1\\n-1\\n-1\\n-1\\n-1\\n-1\\n-1\\n-1\\n-1\\n-1\\n-1\\n-1\\n-1\\n-1\\n-1\\n-1\\n-1\\n-1\\n-1\\n-1\\n-1\\n-1\\n-1\\n-1\\n-1\\n-1\\n-1\\n-1\\n-1\\n-1\\n-1\\n-1\\n-1\\n-1\\n-1\\n-1\\n-1\\n-1\\n-1\\n-1\\n-1\\n-1\\n-1\\n-1\\n-1\\n-1\\n-1\\n-1\\n-1\\n-1\\n-1\\n-1\\n-1\\n-1\\n-1\\n-1\\n-1\\n-1\\n-1\\n-1\\n-1\\n-1\\n-1\\n-1\\n-1\\n-1\\n-1\\n-1\\n-1\\n-1\\n-1\\n-1\\n-1\\n-1\\n-1\\n-1\\n-1\\n-1\\n-1\\n-1\\n-1\\n-1\\n-1\\n-1\\n-1\\n-1\\n-1\\n-1\\n-1\\n-1\\n-1\\n-1\\n-1\\n-1\\n-1\\n-1\\n-1\\n-1\\n-1\\n-1\\n-1\\n-1\\n-1\\n-1\\n-1\\n-1\\n-1\\n-1\\n-1\\n-1\\n-1\\n-1\\n-1\\n-1\\n-1\\n-1\\n-1\\n-1\\n-1\\n-1\\n-1\\n-1\\n-1\\n-1\\n-1\\n-1\\n-1\\n-1\\n-1\\n-1\\n-1\\n-1\\n-1\\n-1\\n-1\\n-1\\n-1\\n-1\\n-1\\n-1\\n-1\\n-1\\n-1\\n-1\\n-1\\n-1\\n-1\\n-1\\n-1\\n-1\\n-1\\n-1\\n-1\\n-1\\n-1\\n-1\\n-1\\n-1\\n-1\\n-1\\n-1\\n-1\\n-1\\n-1\\n-1\\n-1\\n-1\\n-1\\n-1\\n-1\\n-1\\n-1\\n-1\\n-1\\n-1\\n-1\\n-1\\n-1\\n-1\\n-1\\n-1\\n-1\\n-1\\n-1\\n-1\\n-1\\n-1\\n-1\\n-1\\n-1\\n-1\\n-1\\n-1\\n-1\\n-1\\n-1\\n-1\\n-1\\n-1\\n-1\\n-1\\n-1\\n-1\\n-1\\n-1\\n-1\\n-1\\n-1\\n-1\\n-1\\n-1\\n-1\\n-1\\n-1\\n-1\\n-1\\n-1\\n-1\\n-1\\n-1\\n-1\\n-1\\n-1\\n-1\\n-1\\n-1\\n-1\\n-1\\n-1\\n-1\\n-1\\n-1\\n-1\\n-1\\n-1\\n-1\\n-1\\n-1\\n-1\\n-1\\n-1\\n-1\\n-1\\n-1\\n-1\\n-1\\n-1\\n-1\\n-1\\n-1\\n-1\\n-1\\n-1\\n-1\\n-1\\n-1\\n-1\\n-1\\n-1\\n-1\\n-1\\n-1\\n-1\\n-1\\n-1\\n-1\\n-1\\n-1\\n-1\\n-1\\n-1\\n-1\\n-1\\n-1\\n-1\\n-1\\n-1\\n-1\\n-1\\n-1\\n-1\\n-1\\n-1\\n-1\\n-1\\n-1\\n-1\\n-1\\n-1\\n-1\\n-1\\n-1\\n-1\\n-1\\n-1\\n-1\\n-1\\n-1\\n-1\\n-1\\n-1\\n-1\\n-1\\n-1\\n-1\\n-1\\n-1\\n-1\\n-1\\n-1\\n-1\\n-1\\n-1\\n-1\\n-1\\n-1\\n-1\\n-1\\n-1\\n-1\\n-1\\n-1\\n-1\\n-1\\n-1\\n-1\\n-1\\n-1\\n-1\\n-1\\n-1\\n-1\\n-1\\n-1\\n-1\\n-1\\n-1\\n-1\\n-1\\n-1\\n-1\\n-1\\n-1\\n-1\\n-1\\n-1\\n-1\\n-1\\n-1\\n-1\\n-1\\n-1\\n-1\\n-1\\n-1\\n-1\\n-1\\n-1\\n-1\\n-1\\n-1\\n-1\\n-1\\n-1\\n-1\\n-1\\n-1\\n-1\\n-1\\n-1\\n-1\\n-1\\n-1\\n-1\\n-1\\n-1\\n-1\\n-1\\n-1\\n-1\\n-1\\n-1\\n-1\\n-1\\n-1\\n-1\\n-1\\n-1\\n-1\\n-1\\n-1\\n-1\\n-1\\n-1\\n-1\\n-1\\n-1\\n-1\\n-1\\n-1\\n-1\\n-1\\n-1\\n-1\\n-1\\n-1\\n-1\\n-1\\n-1\\n-1\\n-1\\n-1\\n-1\\n-1\\n-1\\n-1\\n-1\\n-1\\n-1\\n-1\\n-1\\n-1\\n-1\\n-1\\n-1\\n-1\\n-1\\n-1\\n-1\\n-1\\n-1\\n-1\\n-1\\n-1\\n-1\\n-1\\n-1\\n-1\\n-1\\n-1\\n-1\\n-1\\n-1\\n-1\\n-1\\n-1\\n-1\\n-1\\n-1\\n-1\\n-1\\n-1\\n-1\\n-1\\n-1\\n-1\\n-1\\n-1\\n-1\\n-1\\n-1\\n-1\\n-1\\n-1\\n-1\\n-1\\n-1\\n-1\\n-1\\n-1\\n-1\\n-1\\n-1\\n-1\\n-1\\n-1\\n-1\\n-1\\n-1\\n-1\\n-1\\n-1\\n-1\\n-1\\n-1\\n-1\\n-1\\n-1\\n-1\\n-1\\n-1\\n-1\\n-1\\n-1\\n-1\\n-1\\n-1\\n-1\\n-1\\n-1\\n-1\\n-1\\n-1\\n-1\\n-1\\n-1\\n-1\\n-1\\n-1\\n-1\\n-1\\n-1\\n-1\\n-1\\n-1\\n-1\\n-1\\n-1\\n-1\\n-1\\n-1\\n-1\\n-1\\n-1\\n-1\\n-1\\n-1\\n-1\\n-1\\n-1\\n-1\\n-1\\n-1\\n-1\\n-1\\n-1\\n-1\\n-1\\n-1\\n-1\\n-1\\n-1\\n-1\\n-1\\n-1\\n-1\\n-1\\n-1\\n-1\\n-1\\n-1\\n-1\\n-1\\n-1\\n-1\\n-1\\n-1\\n-1\\n-1\\n-1\\n-1\\n-1\\n-1\\n-1\\n-1\\n-1\\n-1\\n-1\\n-1\\n-1\\n-1\\n-1\\n-1\\n-1\\n-1\\n-1\\n-1\\n-1\\n-1\\n-1\\n-1\\n-1\\n-1\\n-1\\n-1\\n-1\\n-1\\n-1\\n-1\\n-1\\n-1\\n-1\\n-1\\n-1\\n-1\\n-1\\n-1\\n-1\\n-1\\n-1\\n-1\\n-1\\n-1\\n-1\\n-1\\n-1\\n-1\\n-1\\n-1\\n-1\\n-1\\n-1\\n-1\\n-1\\n-1\\n-1\\n-1\\n-1\\n-1\\n-1\\n-1\\n-1\\n-1\\n-1\\n-1\\n-1\\n-1\\n-1\\n-1\\n-1\\n-1\\n-1\\n-1\\n-1\\n-1\\n-1\\n-1\\n-1\\n-1\\n-1\\n-1\\n-1\\n-1\\n-1\\n-1\\n-1\\n-1\\n-1\\n-1\\n-1\\n-1\\n-1\\n-1\\n-1\\n-1\\n-1\\n-1\\n-1\\n-1\\n-1\\n-1\\n-1\\n-1\\n-1\\n-1\\n-1\\n-1\\n-1\\n-1\\n-1\\n-1\\n-1\\n-1\\n-1\\n-1\\n-1\\n-1\\n-1\\n-1\\n-1\\n-1\\n-1\\n-1\\n-1\\n-1\\n-1\\n-1\\n-1\\n-1\\n-1\\n-1\\n-1\\n-1\\n-1\\n-1\\n-1\\n-1\\n-1\\n-1\\n-1\\n-1\\n-1\\n-1\\n-1\\n-1\\n-1\\n-1\\n-1\\n-1\\n-1\\n-1\\n-1\\n-1\\n-1\\n-1\\n-1\\n-1\\n-1\\n-1\\n-1\\n-1\\n-1\\n-1\\n-1\\n-1\\n-1\\n-1\\n-1\\n-1\\n-1\\n-1\\n-1\\n-1\\n-1\\n-1\\n-1\\n-1\\n-1\\n-1\\n-1\\n-1\\n-1\\n-1\\n-1\\n-1\\n-1\\n-1\\n-1\\n-1\\n-1\\n-1\\n-1\\n-1\\n-1\\n-1\\n-1\\n-1\\n-1\\n-1\\n-1\\n-1\\n-1\\n-1\\n-1\\n-1\\n-1\\n-1\\n-1\\n-1\\n-1\\n-1\\n-1\\n-1\\n-1\\n-1\\n-1\\n-1\\n-1\\n-1\\n-1\\n-1\\n-1\\n-1\\n-1\\n-1\\n-1\\n-1\\n-1\\n-1\\n-1\\n-1\\n-1\\n-1\\n-1\\n-1\\n-1\\n-1\\n-1\\n-1\\n-1\\n-1\\n-1\\n-1\\n-1\\n-1\\n-1\\n-1\\n-1\\n-1\\n-1\\n-1\\n-1\\n-1\\n-1\\n-1\\n-1\\n-1\\n-1\\n-1\\n-1\\n-1\\n-1\\n-1\\n-1\\n-1\\n-1\\n-1\\n-1\\n-1\\n-1\\n-1\\n-1\\n-1\\n-1\\n-1\\n-1\\n-1\\n-1\\n-1\\n-1\\n-1\\n-1\\n-1\\n-1\\n-1\\n-1\\n-1\\n-1\\n-1\\n-1\\n-1\\n-1\\n-1\\n-1\\n-1\\n-1\\n-1\\n-1\\n-1\\n-1\\n-1\\n-1\\n-1\\n-1\\n-1\\n-1\\n-1\\n-1\\n-1\\n-1\\n-1\\n-1\\n-1\\n-1\\n-1\\n-1\\n-1\\n-1\\n-1\\n-1\\n-1\\n-1\\n-1\\n-1\\n-1\\n-1\\n-1\\n-1\\n-1\\n-1\\n-1\\n-1\\n-1\\n-1\\n-1\\n-1\\n-1\\n-1\\n-1\\n-1\\n-1\\n-1\\n-1\\n-1\\n-1\\n-1\\n-1\\n-1\\n-1\\n-1\\n-1\\n-1\\n-1\\n-1\\n-1\\n-1\\n-1\\n-1\\n-1\\n-1\\n-1\\n-1\\n-1\\n-1\\n-1\\n-1\\n-1\\n-1\\n-1\\n-1\\n-1\\n-1\\n-1\\n-1\\n-1\\n-1\\n-1\\n-1\\n-1\\n-1\\n-1\\n-1\\n-1\\n-1\\n-1\\n-1\\n-1\\n-1\\n-1\\n-1\\n-1\\n-1\\n-1\\n-1\\n-1\\n-1\\n-1\\n-1\\n-1\\n-1\\n-1\\n-1\\n-1\\n-1\\n-1\\n-1\\n-1\\n-1\\n-1\\n-1\\n-1\\n-1\\n-1\\n-1\\n-1\\n-1\\n-1\\n-1\\n-1\\n-1\\n-1\\n-1\\n-1\\n-1\\n-1\\n-1\\n-1\\n-1\\n-1\\n-1\\n-1\\n-1\\n-1\\n-1\\n-1\\n-1\\n-1\\n-1\\n-1\\n-1\\n-1\\n-1\\n-1\\n-1\\n-1\\n-1\\n-1\\n-1\\n-1\\n-1\\n-1\\n-1\\n-1\\n-1\\n-1\\n-1\\n-1\\n-1\\n-1\\n-1\\n-1\\n-1\\n-1\\n-1\\n-1\\n-1\\n-1\\n-1\\n-1\\n-1\\n-1\\n-1\\n-1\\n-1\\n-1\\n-1\\n-1\\n-1\\n-1\\n-1\\n-1\\n-1\\n-1\\n-1\\n-1\\n-1\\n-1\\n-1\\n-1\\n-1\\n-1\\n-1\\n-1\\n-1\\n-1\\n-1\\n-1\\n-1\\n-1\\n-1\\n-1\\n-1\\n-1\\n-1\\n-1\\n-1\\n-1\\n-1\\n-1\\n-1\\n-1\\n-1\\n-1\\n-1\\n-1\\n-1\\n-1\\n-1\\n-1\\n-1\\n-1\\n-1\\n-1\\n-1\\n-1\\n-1\\n-1\\n-1\\n-1\\n-1\\n-1\\n-1\\n-1\\n-1\\n-1\\n-1\\n-1\\n-1\\n-1\\n-1\\n-1\\n-1\\n-1\\n-1\\n-1\\n-1\\n-1\\n-1\\n-1\\n-1\\n-1\\n-1\\n-1\\n-1\\n-1\\n-1\\n-1\\n-1\\n-1\\n-1\\n-1\\n-1\\n-1\\n-1\\n-1\\n-1\\n-1\\n-1\\n-1\\n-1\\n-1\\n-1\\n-1\\n-1\\n-1\\n-1\\n-1\\n-1\\n-1\\n-1\\n-1\\n-1\\n-1\\n-1\\n-1\\n-1\\n-1\\n-1\\n-1\\n-1\\n-1\\n-1\\n-1\\n-1\\n-1\\n-1\\n-1\\n-1\\n-1\\n-1\\n-1\\n-1\\n-1\\n-1\\n-1\\n-1\\n-1\\n-1\\n-1\\n-1\\n-1\\n-1\\n-1\\n-1\\n-1\\n-1\\n-1\\n-1\\n-1\\n-1\\n-1\\n-1\\n-1\\n-1\\n-1\\n-1\\n-1\\n-1\\n-1\\n-1\\n-1\\n-1\\n-1\\n-1\\n-1\\n-1\\n-1\\n-1\\n-1\\n-1\\n-1\\n-1\\n-1\\n-1\\n-1\\n-1\\n-1\\n-1\\n-1\\n-1\\n-1\\n-1\\n-1\\n-1\\n-1\\n-1\\n-1\\n-1\\n-1\\n-1\\n-1\\n-1\\n-1\\n-1\\n-1\\n-1\\n-1\\n-1\\n-1\\n-1\\n-1\\n-1\\n-1\\n-1\\n-1\\n-1\\n-1\\n-1\\n-1\\n-1\\n-1\\n-1\\n-1\\n-1\\n-1\\n-1\\n-1\\n-1\\n-1\\n-1\\n-1\\n-1\\n-1\\n-1\\n-1\\n-1\\n-1\\n-1\\n-1\\n-1\\n-1\\n-1\\n-1\\n-1\\n-1\\n-1\\n-1\\n-1\\n-1\\n-1\\n-1\\n-1\\n-1\\n-1\\n-1\\n-1\\n-1\\n-1\\n-1\\n-1\\n-1\\n-1\\n-1\\n-1\\n-1\\n-1\\n-1\\n-1\\n-1\\n-1\\n-1\\n-1\\n-1\\n-1\\n-1\\n-1\\n-1\\n-1\\n-1\\n-1\\n-1\\n-1\\n-1\\n-1\\n-1\\n-1\\n-1\\n-1\\n-1\\n-1\\n-1\\n-1\\n-1\\n-1\\n-1\\n-1\\n-1\\n-1\\n-1\\n-1\\n-1\\n-1\\n-1\\n-1\\n-1\\n-1\\n-1\\n-1\\n-1\\n-1\\n-1\\n-1\\n-1\\n-1\\n-1\\n-1\\n-1\\n-1\\n-1\\n-1\\n-1\\n-1\\n-1\\n-1\\n-1\\n-1\\n-1\\n-1\\n-1\\n-1\\n-1\\n-1\\n-1\\n-1\\n-1\\n-1\\n-1\\n-1\\n-1\\n-1\\n-1\\n-1\\n-1\\n-1\\n-1\\n-1\\n-1\\n-1\\n-1\\n-1\\n-1\\n-1\\n-1\\n-1\\n-1\\n-1\\n-1\\n-1\\n-1\\n-1\\n-1\\n-1\\n-1\\n-1\\n-1\\n-1\\n-1\\n-1\\n-1\\n-1\\n-1\\n-1\\n-1\\n-1\\n-1\\n-1\\n-1\\n-1\\n-1\\n-1\\n-1\\n-1\\n-1\\n-1\\n-1\\n-1\\n-1\\n-1\\n-1\\n-1\\n-1\\n-1\\n-1\\n-1\\n-1\\n-1\\n-1\\n-1\\n-1\\n-1\\n-1\\n-1\\n-1\\n-1\\n-1\\n-1\\n-1\\n-1\\n-1\\n-1\\n-1\\n-1\\n-1\\n-1\\n-1\\n-1\\n-1\\n-1\\n-1\\n-1\\n-1\\n-1\\n-1\\n-1\\n-1\\n-1\\n-1\\n-1\\n-1\\n-1\\n-1\\n-1\\n-1\\n-1\\n-1\\n-1\\n-1\\n-1\\n-1\\n-1\\n-1\\n-1\\n-1\\n-1\\n-1\\n-1\\n-1\\n-1\\n-1\\n-1\\n-1\\n-1\\n-1\\n-1\\n-1\\n-1\\n-1\\n-1\\n-1\\n-1\\n-1\\n-1\\n-1\\n-1\\n-1\\n-1\\n-1\\n-1\\n-1\\n-1\\n-1\\n-1\\n-1\\n-1\\n-1\\n-1\\n-1\\n-1\\n-1\\n-1\\n-1\\n-1\\n-1\\n-1\\n-1\\n-1\\n-1\\n-1\\n-1\\n-1\\n-1\\n-1\\n-1\\n-1\\n-1\\n-1\\n-1\\n-1\\n-1\\n-1\\n-1\\n-1\\n-1\\n-1\\n-1\\n-1\\n-1\\n-1\\n-1\\n-1\\n-1\\n-1\\n-1\\n-1\\n-1\\n-1\\n-1\\n-1\\n-1\\n-1\\n-1\\n-1\\n-1\\n-1\\n-1\\n-1\\n-1\\n-1\\n-1\\n-1\\n-1\\n-1\\n-1\\n-1\\n-1\\n-1\\n-1\\n-1\\n-1\\n-1\\n-1\\n-1\\n-1\\n-1\\n-1\\n-1\\n-1\\n-1\\n-1\\n-1\\n-1\\n-1\\n-1\\n-1\\n-1\\n-1\\n-1\\n-1\\n-1\\n-1\\n-1\\n-1\\n-1\\n-1\\n-1\\n-1\\n-1\\n-1\\n-1\\n-1\\n-1\\n-1\\n-1\\n-1\\n-1\\n-1\\n-1\\n-1\\n-1\\n-1\\n-1\\n-1\\n-1\\n-1\\n-1\\n-1\\n-1\\n-1\\n-1\\n-1\\n-1\\n-1\\n-1\\n-1\\n-1\\n-1\\n-1\\n-1\\n-1\\n-1\\n-1\\n-1\\n-1\\n-1\\n-1\\n-1\\n-1\\n-1\\n-1\\n-1\\n-1\\n-1\\n-1\\n-1\\n-1\\n-1\\n-1\\n-1\\n-1\\n-1\\n-1\\n-1\\n-1\\n-1\\n-1\\n-1\\n-1\\n-1\\n-1\\n-1\\n-1\\n-1\\n-1\\n-1\\n-1\\n-1\\n-1\\n-1\\n-1\\n-": 5833,
      "88675123": 5834,
      "86402": 5835,
      "fdd": 5836,
      "less": 5837,
      "qfront": 5838,
      "rblrange": 5839,
      "ylower": 5840,
      "##_euc": 5841,
      "innerrad": 5842,
      "llgcnt2": 5843,
      "regk": 5844,
      "add_data_stack": 5845,
      "initial_length": 5846,
      "insvf": 5847,
      "erase_avl_sub_sub": 5848,
      "search_word2": 5849,
      "600005": 5850,
      "9e9": 5851,
      "fmm": 5852,
      "fmd": 5853,
      "max_rocks": 5854,
      "0x05": 5855,
      "unknown\\n": 5856,
      "calc_distance_r": 5857,
      "iiii": 5858,
      "%c%d%c": 5859,
      "insidepolygon": 5860,
      "bisearch_le": 5861,
      "bisearch_ge": 5862,
      "xmax8sizeof": 5863,
      "55556": 5864,
      "ligno2": 5865,
      "ligno1": 5866,
      "printsquotient": 5867,
      "0x1f": 5868,
      "\\n%c-%d": 5869,
      "%.7f\\n": 5870,
      "##%lf\\n%lf\\n": 5871,
      "\\x8b\\7+\\6\\xc3": 5872,
      "##.%lld.%lld": 5873,
      "##\\\\t": 5874,
      "hae1": 5875,
      "##abcdefghijklmnopqrstuvwxyz": 5876,
      "52128862": 5877,
      "3000000000000000000": 5878,
      "a..a..b": 5879,
      "2147483647": 5880,
      "%[a-z": 5881,
      "augementpath": 5882,
      "bcopy": 5883,
      "climb": 5884,
      "drop": 5885,
      "d_row_max": 5886,
      "fdim": 5887,
      "fgrpcon": 5888,
      "hms": 5889,
      "hg_tenkai": 5890,
      "harmony": 5891,
      "identic": 5892,
      "jtemp": 5893,
      "kuriagari": 5894,
      "lane": 5895,
      "mizuha": 5896,
      "menseki": 5897,
      "nhit": 5898,
      "nigeru": 5899,
      "nblow": 5900,
      "pgm": 5901,
      "qpqp": 5902,
      "rabbit": 5903,
      "sleep": 5904,
      "t_end": 5905,
      "zalgo": 5906,
      "zigzag": 5907,
      "##nzugeeto": 5908,
      "##-kichi": 5909,
      "int_to_pos": 5910,
      "##input(": 5911,
      "formula": 5912,
      "magenta": 5913,
      "inssiz": 5914,
      "##nsion_euc": 5915,
      "str_reverse": 5916,
      "coprime\\n": 5917,
      "together": 5918,
      "directed": 5919,
      "getnumberofnumber": 5920,
      "map_chars": 5921,
      "mikakosi": 5922,
      "count_rec": 5923,
      "is_parallell": 5924,
      "ischanged": 5925,
      "trailingzero": 5926,
      "extension_euc": 5927,
      "kietaflag": 5928,
      "hyadainnzugeeto": 5929,
      "set_child": 5930,
      "set_data_dfs": 5931,
      "matvec_mul": 5932,
      "push_internal": 5933,
      "suits_str": 5934,
      "vector_minus": 5935,
      "362436069": 5936,
      "matrix_kaizyo": 5937,
      "simakaze": 5938,
      "gameover_wgoal": 5939,
      "dayfri13": 5940,
      "521288629": 5941,
      "%[a-z]%d": 5942,
      "fgrpconv": 5943,
      "mizuhasu": 5944,
      "is_parallelll": 5945,
      "extension_euclidean": 5946,
      "#\\n": 5947,
      "%5": 5948,
      "%*c": 5949,
      "%02d": 5950,
      "%llf": 5951,
      "'^": 5952,
      "(%d": 5953,
      "(%d,%d": 5954,
      "(%.6lf": 5955,
      "**": 5956,
      ",.": 5957,
      "-c": 5958,
      "-q": 5959,
      ".,": 5960,
      ".\\\\t": 5961,
      "2c": 5962,
      "230": 5963,
      "399": 5964,
      "384": 5965,
      "4e": 5966,
      "4.": 5967,
      "488": 5968,
      "4e4": 5969,
      "5e": 5970,
      "588": 5971,
      "69": 5972,
      "6.0": 5973,
      "617": 5974,
      "600000": 5975,
      "720": 5976,
      "7e4": 5977,
      "777": 5978,
      "80000": 5979,
      "8001": 5980,
      "800000": 5981,
      "9.": 5982,
      "924": 5983,
      "976": 5984,
      "9e4": 5985,
      "90001": 5986,
      "?\\n": 5987,
      "^%d": 5988,
      "a#": 5989,
      "aut": 5990,
      "a010": 5991,
      "a64": 5992,
      "a_max": 5993,
      "action": 5994,
      "b8": 5995,
      "bset": 5996,
      "bcnt": 5997,
      "bab": 5998,
      "badd": 5999,
      "bgcd": 6000,
      "binf": 6001,
      "buri": 6002,
      "c#": 6003,
      "dg": 6004,
      "d#": 6005,
      "d10": 6006,
      "deta": 6007,
      "dang": 6008,
      "eu": 6009,
      "ein": 6010,
      "eul": 6011,
      "eout": 6012,
      "f#": 6013,
      "fiz": 6014,
      "fcmp": 6015,
      "ffs": 6016,
      "fout": 6017,
      "f_init": 6018,
      "fmain": 6019,
      "fopen": 6020,
      "fprint": 6021,
      "g#": 6022,
      "gya": 6023,
      "han": 6024,
      "hop": 6025,
      "huri": 6026,
      "hello": 6027,
      "i<": 6028,
      "icnt": 6029,
      "i50": 6030,
      "iabs": 6031,
      "i++": 6032,
      "j4": 6033,
      "j3": 6034,
      "joi": 6035,
      "j20": 6036,
      "j40": 6037,
      "kit": 6038,
      "kai": 6039,
      "kth_": 6040,
      "kouj": 6041,
      "lcmp": 6042,
      "m7": 6043,
      "mif": 6044,
      "n4": 6045,
      "n5": 6046,
      "n10": 6047,
      "nag": 6048,
      "ncomp": 6049,
      "n:%d": 6050,
      "p:": 6051,
      "pon": 6052,
      "pan": 6053,
      "pint": 6054,
      "pits": 6055,
      "palind": 6056,
      "q_max": 6057,
      "rfn": 6058,
      "rcost": 6059,
      "r:%d\\n": 6060,
      "s4": 6061,
      "sed": 6062,
      "sat": 6063,
      "sset": 6064,
      "sun": 6065,
      "s_buf": 6066,
      "tle": 6067,
      "tue": 6068,
      "tcmp": 6069,
      "tra": 6070,
      "train": 6071,
      "ut": 6072,
      "ush": 6073,
      "v32": 6074,
      "vmin": 6075,
      "wed": 6076,
      "wat": 6077,
      "waa": 6078,
      "x^": 6079,
      "xcalc": 6080,
      "xgcd": 6081,
      "xnume": 6082,
      "ycalc": 6083,
      "yay": 6084,
      "ynume": 6085,
      "zx": 6086,
      "׋\u0006": 6087,
      "##aer": 6088,
      "##aight": 6089,
      "##a[^": 6090,
      "##afe": 6091,
      "##x,": 6092,
      "##x_func": 6093,
      "##_x": 6094,
      "##_hi": 6095,
      "##_rea": 6096,
      "##_if": 6097,
      "##_cc": 6098,
      "##_di": 6099,
      "##_one": 6100,
      "##_point": 6101,
      "##_col": 6102,
      "##_div": 6103,
      "##_upper": 6104,
      "##_goal": 6105,
      "##ta": 6106,
      "##tt": 6107,
      "##to": 6108,
      "##text": 6109,
      "##teta": 6110,
      "##txt": 6111,
      "##ele": 6112,
      "##ear": 6113,
      "##equ": 6114,
      "##f8": 6115,
      "##f00000000": 6116,
      "##i;": 6117,
      "##ise": 6118,
      "##ival": 6119,
      "##ious": 6120,
      "##ny": 6121,
      "##nake": 6122,
      "##ov": 6123,
      "##odir": 6124,
      "##wa": 6125,
      "##ww": 6126,
      "##ward": 6127,
      "##mm": 6128,
      "##man": 6129,
      "##mef": 6130,
      "##mum": 6131,
      "##deta": 6132,
      "##dream": 6133,
      "##68": 6134,
      "##600": 6135,
      "##679": 6136,
      "##47": 6137,
      "##4\\n": 6138,
      "##410": 6139,
      "##9d": 6140,
      "##97": 6141,
      "##9]": 6142,
      "##950": 6143,
      "##949": 6144,
      "##82": 6145,
      "##87": 6146,
      "##8\\n": 6147,
      "##810": 6148,
      "##815": 6149,
      "##879": 6150,
      "##876": 6151,
      "##8125": 6152,
      "##rc": 6153,
      "##r1": 6154,
      "##rve": 6155,
      "##ratic": 6156,
      "##ridge": 6157,
      "##s\\n": 6158,
      "##shar": 6159,
      "##s_p": 6160,
      "##sman": 6161,
      "##2sz": 6162,
      "##2cap": 6163,
      "##59": 6164,
      "##5)": 6165,
      "##524": 6166,
      "##543": 6167,
      "##v<": 6168,
      "##lz": 6169,
      "##lose": 6170,
      "##l_pos": 6171,
      "##lash": 6172,
      "##uh": 6173,
      "##uke": 6174,
      "##uous": 6175,
      "##ph": 6176,
      "##pat": 6177,
      "##cd": 6178,
      "##c1": 6179,
      "##cending": 6180,
      "##circle": 6181,
      "##08": 6182,
      "##0-": 6183,
      "##0;": 6184,
      "##024": 6185,
      "##71": 6186,
      "##7\\n": 6187,
      "##720": 6188,
      "##bu": 6189,
      "##bh": 6190,
      "##but": 6191,
      "##bfs": 6192,
      "##bww": 6193,
      "##y.h": 6194,
      "##yyb": 6195,
      "##y_func": 6196,
      "##yori": 6197,
      "##ga": 6198,
      "##gg": 6199,
      "##gh": 6200,
      "##gj": 6201,
      "##gre": 6202,
      "##gok": 6203,
      "##gress": 6204,
      "##key": 6205,
      "##132": 6206,
      "##hod": 6207,
      "##%x": 6208,
      "##%2": 6209,
      "##%0": 6210,
      "##%*": 6211,
      "##%1d": 6212,
      "##%as": 6213,
      "##310": 6214,
      "##zsi": 6215,
      "##[--": 6216,
      "##-(": 6217,
      "##-%d%d": 6218,
      "##.aa": 6219,
      "##.%0": 6220,
      "##ji": 6221,
      "##\\'": 6222,
      "##!!": 6223,
      "##!?": 6224,
      "##=result": 6225,
      "##=0;": 6226,
      "##+\u0007": 6227,
      "##+=result": 6228,
      "##(map": 6229,
      "##).": 6230,
      "##)*": 6231,
      "##,.": 6232,
      "##,%.6lf": 6233,
      "##|er": 6234,
      "##$'": 6235,
      "##??": 6236,
      "##>0": 6237,
      "##/%d": 6238,
      "##order": 6239,
      "##ory.h": 6240,
      "##\\n7": 6241,
      "##\\n0\\n": 6242,
      "##\\n%s%s": 6243,
      "##inity": 6244,
      "##ethod": 6245,
      "for(i": 6246,
      "##1\\n0\\n": 6247,
      "##002": 6248,
      "##urui": 6249,
      "##on3": 6250,
      "mado": 6251,
      "in2": 6252,
      "in1": 6253,
      "inll": 6254,
      "inse": 6255,
      "inid": 6256,
      "inrect": 6257,
      "longest": 6258,
      "st_size": 6259,
      "st_len": 6260,
      "##deno": 6261,
      "##deque": 6262,
      "##dena": 6263,
      "%d)": 6264,
      "##ana": 6265,
      "##anlo": 6266,
      "##lling": 6267,
      "##llequ": 6268,
      "##lesman": 6269,
      "sch": 6270,
      "scmp": 6271,
      "##arp": 6272,
      "prls": 6273,
      "##serve": 6274,
      "include_c": 6275,
      "include_point": 6276,
      "anscmp": 6277,
      "##stfl": 6278,
      "##stbit": 6279,
      "printt": 6280,
      "##ido": 6281,
      "##hile": 6282,
      "##hi_f": 6283,
      "##inert": 6284,
      "##oukyo": 6285,
      "minsz": 6286,
      "----": 6287,
      "------": 6288,
      "##000001": 6289,
      "strint": 6290,
      "straight": 6291,
      "str2cap": 6292,
      "charcomp": 6293,
      "maxb": 6294,
      "max_f": 6295,
      "maxsz": 6296,
      "llin": 6297,
      "size2": 6298,
      "sizesizeof": 6299,
      "dpow": 6300,
      "##ument": 6301,
      "coef": 6302,
      "comin": 6303,
      "1030": 6304,
      "remove": 6305,
      "resuf": 6306,
      "reserve": 6307,
      "##cto": 6308,
      "##ctpoly": 6309,
      "toll": 6310,
      "##pert": 6311,
      "##105": 6312,
      "##101": 6313,
      "##1043": 6314,
      "##1048": 6315,
      "##1067": 6316,
      "##ited": 6317,
      "##uts": 6318,
      "%d\\n\\0": 6319,
      "##ative": 6320,
      "direct": 6321,
      "##erent": 6322,
      "10015": 6323,
      "##sho": 6324,
      "##sh_pow": 6325,
      "%d%d%ld": 6326,
      "memory.h": 6327,
      "ullabs": 6328,
      "get_p": 6329,
      "getval": 6330,
      "getstr": 6331,
      "getpp": 6332,
      "getinit": 6333,
      "get_min": 6334,
      "get_id": 6335,
      "get_map": 6336,
      "get_tehai": 6337,
      "getna": 6338,
      "gettext": 6339,
      "##expr": 6340,
      "##reach": 6341,
      "cmpt": 6342,
      "cmpf": 6343,
      "cmpsu": 6344,
      "cmp_node": 6345,
      "cmp_int": 6346,
      "cmpfunc": 6347,
      "cmp_deque": 6348,
      "cmpx_func": 6349,
      "cmpy_func": 6350,
      "hashcnt": 6351,
      "hi=%d:": 6352,
      "##_tble": 6353,
      "##_tag": 6354,
      "##_tup": 6355,
      "##unite": 6356,
      "##unction": 6357,
      "##recalc": 6358,
      "##repa": 6359,
      "##3239": 6360,
      "repl": 6361,
      "lis": 6362,
      "liret": 6363,
      "licol": 6364,
      "##_nopair": 6365,
      "p100": 6366,
      "##ent_matrix": 6367,
      "string_distance": 6368,
      "##cover": 6369,
      "##royal": 6370,
      "sumcnt": 6371,
      "distpl": 6372,
      "distln": 6373,
      "distseg2seg": 6374,
      "buf1": 6375,
      "0x3": 6376,
      "0x92": 6377,
      "0x30": 6378,
      "0x000000": 6379,
      "0xcccccccc": 6380,
      "0xaaaaaaaa": 6381,
      "p2v": 6382,
      "adgj": 6383,
      "%s,": 6384,
      "%s%*c": 6385,
      "infinity": 6386,
      "edgehikaku": 6387,
      "##6424": 6388,
      "num2": 6389,
      "y11111": 6390,
      "##compose": 6391,
      "##vector": 6392,
      "##velling": 6393,
      "x100": 6394,
      "##reten": 6395,
      "qsort_comp": 6396,
      "##thon3": 6397,
      "dataaa": 6398,
      "%d%d%d%s": 6399,
      "cap_sub": 6400,
      "cap_cmp": 6401,
      "decode": 6402,
      "0xf0f0f0f0f": 6403,
      "204": 6404,
      "2050": 6405,
      "2049": 6406,
      "bit_init": 6407,
      "bit_rev": 6408,
      "bit_sum": 6409,
      "##olv": 6410,
      "miss": 6411,
      "1e16": 6412,
      "resdp": 6413,
      "resolv": 6414,
      "ccab": 6415,
      "##9988": 6416,
      "##99410": 6417,
      "neq": 6418,
      "##indist": 6419,
      "tree_gr": 6420,
      "heap\\n": 6421,
      "mkpat": 6422,
      "undo": 6423,
      "unreach": 6424,
      "do_w": 6425,
      "do_if": 6426,
      "calcv": 6427,
      "calcce": 6428,
      "calcul": 6429,
      "calcpos": 6430,
      "calcdist": 6431,
      "calcdp": 6432,
      "calcgre": 6433,
      "20000000": 6434,
      "2000020": 6435,
      "2000081": 6436,
      "s2[c2": 6437,
      "upi": 6438,
      "up2": 6439,
      "count_sh": 6440,
      "count_di": 6441,
      "ispo": 6442,
      "ispt": 6443,
      "isover": 6444,
      "is_three": 6445,
      "isintersect": 6446,
      "is_palind": 6447,
      "is_tw": 6448,
      "is_nopair": 6449,
      "invcalc": 6450,
      "invmod": 6451,
      "powexpr": 6452,
      "122": 6453,
      "1234567": 6454,
      "arc": 6455,
      "arpo": 6456,
      "fgetc": 6457,
      "head_next": 6458,
      "head_buf": 6459,
      "abb": 6460,
      "abcc": 6461,
      "ab[%d]": 6462,
      "abdd": 6463,
      "exgcd": 6464,
      "##adratic": 6465,
      "##_insert": 6466,
      "##artour": 6467,
      "%ld%c": 6468,
      "ufunite": 6469,
      "##24950": 6470,
      "100012": 6471,
      "newgraph": 6472,
      "newheap": 6473,
      "new_map": 6474,
      "newvector": 6475,
      "pi4": 6476,
      "piar": 6477,
      "115": 6478,
      "113": 6479,
      "1150": 6480,
      "1112": 6481,
      "yy10": 6482,
      "1600": 6483,
      "1677": 6484,
      "loss": 6485,
      "compa": 6486,
      "compx": 6487,
      "comp1": 6488,
      "compact": 6489,
      "check_t": 6490,
      "check_r": 6491,
      "check_b": 6492,
      "checklim": 6493,
      "check25": 6494,
      "check37": 6495,
      "check08": 6496,
      "##0004": 6497,
      "%.1f\\n": 6498,
      "ca..": 6499,
      "find0": 6500,
      "3276": 6501,
      "3271": 6502,
      "shcd": 6503,
      "cross_m": 6504,
      "##_precalc": 6505,
      "stack\\n": 6506,
      "sort2": 6507,
      "sort1": 6508,
      "sort_cmp": 6509,
      "ddab": 6510,
      "sinit": 6511,
      "sin60": 6512,
      "solve_add": 6513,
      "solve_by": 6514,
      "997": 6515,
      "9901": 6516,
      "setup": 6517,
      "1010000": 6518,
      "##isited": 6519,
      "pus": 6520,
      "151": 6521,
      "1512": 6522,
      "258": 6523,
      "2550": 6524,
      "mat_pow": 6525,
      "40320": 6526,
      "a100": 6527,
      "ordena": 6528,
      "tm_y": 6529,
      "##_achi": 6530,
      "134": 6531,
      "135": 6532,
      "130": 6533,
      "1300": 6534,
      "1350": 6535,
      "2603": 6536,
      "26537": 6537,
      "unsafe": 6538,
      "##14105": 6539,
      "python3": 6540,
      "##_range": 6541,
      "##_cs": 6542,
      "##_clz": 6543,
      "insert_map": 6544,
      "##%d%d%s": 6545,
      "visible": 6546,
      "511": 6547,
      "513239": 6548,
      "605": 6549,
      "603": 6550,
      "such": 6551,
      "%lld%lld\\n": 6552,
      "%lld%lld%d": 6553,
      "bs2": 6554,
      "free_deque": 6555,
      "updatepoint": 6556,
      "##onepair": 6557,
      "101010": 6558,
      "##ourcards": 6559,
      "9998": 6560,
      "cases": 6561,
      "179": 6562,
      "rbt_se": 6563,
      "rbt_init": 6564,
      "rbt_insert": 6565,
      "5006": 6566,
      "5004": 6567,
      "acpt": 6568,
      "rbt_node_t": 6569,
      "swap_adj": 6570,
      "time_t": 6571,
      "##_last": 6572,
      "##154": 6573,
      "dijk_init": 6574,
      "syoukyo": 6575,
      "xysa": 6576,
      "comb2": 6577,
      "analize": 6578,
      "unioned": 6579,
      "initbit": 6580,
      "init_fact": 6581,
      "init_palindromic_tree": 6582,
      "##straight": 6583,
      "factorize": 6584,
      "bb_": 6585,
      "bbcc": 6586,
      "mx_sub": 6587,
      "mx_mul": 6588,
      "mx_clear": 6589,
      "187": 6590,
      "181": 6591,
      "##*d\\n": 6592,
      "min_repa": 6593,
      "searchr": 6594,
      "searchl": 6595,
      "search_pos": 6596,
      "%c%d\\n": 6597,
      "%c-%d": 6598,
      "##4362": 6599,
      "clos": 6600,
      "clzsi": 6601,
      "compare_r": 6602,
      "compare_hand": 6603,
      "compare_string": 6604,
      "compare_y": 6605,
      "compare_pair": 6606,
      "compare_x": 6607,
      "compare_tup": 6608,
      "211": 6609,
      "2100000000": 6610,
      "21649": 6611,
      "##_mov": 6612,
      "makest": 6613,
      "make_heap": 6614,
      "makepl": 6615,
      "make_matrix": 6616,
      "make_stack": 6617,
      "makelist": 6618,
      "makelc": 6619,
      "##79815": 6620,
      "zeroa": 6621,
      "zerob": 6622,
      "zero_cc": 6623,
      "1e-5": 6624,
      "##alll": 6625,
      "unite2": 6626,
      "unite1": 6627,
      "##1865": 6628,
      "arrange": 6629,
      "vector8": 6630,
      "vectormul": 6631,
      "vectoradd": 6632,
      "read_all": 6633,
      "readdata": 6634,
      "n100": 6635,
      "##est_one": 6636,
      "##estival": 6637,
      "##estcircle": 6638,
      "alca": 6639,
      "sub2": 6640,
      "sub1": 6641,
      "sub3": 6642,
      "quadratic": 6643,
      "##croft": 6644,
      "##ffffffff": 6645,
      "##ffff0000ffff": 6646,
      "##48\\n": 6647,
      "##4814105": 6648,
      "max_step": 6649,
      "146": 6650,
      "144": 6651,
      "149": 6652,
      "14\\n": 6653,
      "intersectll": 6654,
      "intersectpoly": 6655,
      "cp_cmp": 6656,
      "cplc": 6657,
      "%*d%s%s": 6658,
      "##_match": 6659,
      "6410": 6660,
      "normalize": 6661,
      "v100": 6662,
      "##846": 6663,
      "##844362": 6664,
      "10000004": 6665,
      "10240": 6666,
      "lookup2": 6667,
      "lookup1": 6668,
      "dsll": 6669,
      "2000002": 6670,
      "l1dist": 6671,
      "xby9": 6672,
      "xby0": 6673,
      "oddchk": 6674,
      "asin": 6675,
      "20002": 6676,
      "bsch_lower": 6677,
      "bsch_upper": 6678,
      "4005": 6679,
      "%d%llu": 6680,
      "366": 6681,
      "ybx9": 6682,
      "ybx0": 6683,
      "msg": 6684,
      "snuke": 6685,
      "##%lf%lf%lf%lf%lf": 6686,
      "0.0000": 6687,
      "0.00000": 6688,
      "195": 6689,
      "1900": 6690,
      "1989": 6691,
      "##303": 6692,
      "##3082": 6693,
      "##307\\n": 6694,
      "3.14159265": 6695,
      "big_mod": 6696,
      "rand_int": 6697,
      "cy2": 6698,
      "cy1": 6699,
      "cyan": 6700,
      "sup2": 6701,
      "sup0": 6702,
      "sup1": 6703,
      "##4545": 6704,
      "different": 6705,
      "500002": 6706,
      "500003": 6707,
      "500000000": 6708,
      "500000004": 6709,
      "totalh": 6710,
      "42949": 6711,
      "cx2": 6712,
      "cx1": 6713,
      "deque_rea": 6714,
      "30001": 6715,
      "mbu": 6716,
      "pellequ": 6717,
      "yokoc": 6718,
      "##6686": 6719,
      "%s%s\\n%s%s": 6720,
      "leastbit": 6721,
      "mode2": 6722,
      "mode1": 6723,
      "fclose": 6724,
      "xwy9": 6725,
      "xwy0": 6726,
      "ywx9": 6727,
      "ywx0": 6728,
      "input_graph": 6729,
      "2020000": 6730,
      "upper_bound": 6731,
      "range\\n": 6732,
      "origindist": 6733,
      "%d%s%s": 6734,
      "%d%s%s%s": 6735,
      "slca": 6736,
      "scni64": 6737,
      "bitcount16": 6738,
      "%f%f": 6739,
      "%f%f%f%f%f": 6740,
      "game_init": 6741,
      "nibut": 6742,
      "is_stfl": 6743,
      "is_cover": 6744,
      "is_royal": 6745,
      "is_reten": 6746,
      "is_onepair": 6747,
      "is_straight": 6748,
      "builtin_clz": 6749,
      "##ca..": 6750,
      "0\\n%d": 6751,
      "2e4": 6752,
      "3500": 6753,
      "dh2": 6754,
      "dh1": 6755,
      "ggyyb": 6756,
      "mygcd": 6757,
      "mydiff": 6758,
      "bin2sz": 6759,
      "tie": 6760,
      "zym": 6761,
      "##\\0b": 6762,
      "##\\0%": 6763,
      "90.0": 6764,
      "9090": 6765,
      "9091": 6766,
      "90310": 6767,
      "##369": 6768,
      "%d,%d,%d": 6769,
      "tabaicho_set": 6770,
      "tabaicho_mul": 6771,
      "tabaicho_print": 6772,
      "tabaicho_div": 6773,
      "atanl": 6774,
      "d_grp": 6775,
      "funcs": 6776,
      "wins.": 6777,
      "##steinert": 6778,
      "lcasub": 6779,
      "lca_precalc": 6780,
      "2906": 6781,
      "802": 6782,
      "8080": 6783,
      "575": 6784,
      "577": 6785,
      "i100": 6786,
      "##_karp": 6787,
      "amari": 6788,
      "ambig": 6789,
      "bust": 6790,
      "buzz": 6791,
      "##40\\n": 6792,
      "4095": 6793,
      "erase_avl": 6794,
      "erase_map": 6795,
      "centerline": 6796,
      "centerlnll": 6797,
      "evenchk": 6798,
      "2800": 6799,
      "days": 6800,
      "flip_col": 6801,
      "jump_no": 6802,
      "jump_next": 6803,
      "minangle": 6804,
      "##rr....": 6805,
      "internal": 6806,
      "0x1010101010101010": 6807,
      "%lf\\n%lf\\n%lf\\n": 6808,
      "37000": 6809,
      "pf_de": 6810,
      "weightedge": 6811,
      "weightri": 6812,
      "##070": 6813,
      "##071067": 6814,
      "##saki_last": 6815,
      "0xff00ff00ff": 6816,
      "0xff0000ffff": 6817,
      "%.8lf": 6818,
      "ck_re": 6819,
      "##lers_p": 6820,
      "progress": 6821,
      "propert": 6822,
      "tan60": 6823,
      "##_stone": 6824,
      "%.15lf\\n": 6825,
      "phwacomp": 6826,
      "phwbcomp": 6827,
      "debug4": 6828,
      "333667": 6829,
      "asumik": 6830,
      "##koya": 6831,
      "white_stone": 6832,
      "##romid": 6833,
      "##%f%f%f": 6834,
      "element_count": 6835,
      "detk": 6836,
      "issrc": 6837,
      "kyo": 6838,
      "##161": 6839,
      "##1653": 6840,
      "strtoll": 6841,
      "builtin_popcountll": 6842,
      "1.5": 6843,
      "fen_range": 6844,
      "##ister": 6845,
      "##istent_matrix": 6846,
      "10801": 6847,
      "disp2seg": 6848,
      "%*d%d%d%d": 6849,
      "error!": 6850,
      "element_num_stack": 6851,
      "calch": 6852,
      "##salesman": 6853,
      "##%*d%*d": 6854,
      "##%llu%llu": 6855,
      "minimum": 6856,
      "##th_smallest_avl_sub':\\n": 6857,
      "list_t_tag": 6858,
      "yy100": 6859,
      "yy1000": 6860,
      "compare_intt": 6861,
      "compare_int_rev": 6862,
      "bisectorlnll": 6863,
      "%d%*d%d%d": 6864,
      "4194302": 6865,
      "assign_at": 6866,
      "%u%u": 6867,
      "393": 6868,
      "8002": 6869,
      "800010": 6870,
      "clear_tehai": 6871,
      "##031043": 6872,
      "%.6f": 6873,
      "bigint_add": 6874,
      "bigint_mul": 6875,
      "%lf%lf%lf%lf%d": 6876,
      "dinicbfs": 6877,
      "7200": 6878,
      "s0_buf": 6879,
      "smallestcircle": 6880,
      "yt1": 6881,
      "##_jump": 6882,
      "##arallel": 6883,
      "%d\\n%d\\n%d\\n": 6884,
      "tension": 6885,
      "11111": 6886,
      "daikusutora2": 6887,
      "[%d]%lf,": 6888,
      "egrep": 6889,
      "##elln": 6890,
      "##yyyy": 6891,
      "##mptw": 6892,
      "take_min_heap": 6893,
      "take_data_stack": 6894,
      "is_snake": 6895,
      "delete_edge": 6896,
      "tenkaisaki_last": 6897,
      "xcmp2": 6898,
      "##811865": 6899,
      "%d%lld%d": 6900,
      "##argument": 6901,
      "answerf": 6902,
      "new_deque": 6903,
      "compair_edge": 6904,
      "##print(": 6905,
      "%llu%llu%llu%llu": 6906,
      "isparallelln": 6907,
      "foodo": 6908,
      "target_left": 6909,
      "target_right": 6910,
      "%*s%d%d": 6911,
      "green": 6912,
      "##.%d.%d": 6913,
      "cmpi_func": 6914,
      "0x55555555555555": 6915,
      "0x3f3f3f3f3f3f3f3f": 6916,
      "mklsd": 6917,
      "mklsb": 6918,
      "undermax": 6919,
      "killme": 6920,
      "polygon_area": 6921,
      "fscanf": 6922,
      "genperm": 6923,
      "heise": 6924,
      "two_s": 6925,
      "##c2;": 6926,
      "regstr": 6927,
      "register": 6928,
      "divisor_tble": 6929,
      "0.000000001": 6930,
      "binary_search": 6931,
      "search_word_all": 6932,
      "78125": 6933,
      "9e18": 6934,
      "cannot": 6935,
      "can_achi": 6936,
      "can_jump": 6937,
      "createta": 6938,
      "##400844362": 6939,
      "##2353": 6940,
      "##5\\n400": 6941,
      "##%[=]": 6942,
      "postodir": 6943,
      "toposort": 6944,
      "0x0f0f0f0f0f0f0f": 6945,
      "0x00ff00ff00ff00": 6946,
      "0x33333333333333": 6947,
      "is_fullhouse": 6948,
      "is_flash": 6949,
      "is_fourcards": 6950,
      "2500005": 6951,
      "2500001": 6952,
      "22222": 6953,
      "ascending": 6954,
      "##6666666666666666": 6955,
      "##%.6f": 6956,
      "..oo": 6957,
      "..rr....": 6958,
      "90010": 6959,
      "jisho": 6960,
      "rgb": 6961,
      "rgdig": 6962,
      "##rimes": 6963,
      "##:%02d\\n": 6964,
      "%d%lf%d": 6965,
      "##320876": 6966,
      "descending": 6967,
      "des_cs": 6968,
      "%.7lf\\n": 6969,
      "setvisited": 6970,
      "combination": 6971,
      "%lld%lld%lld%lld%lld%lld": 6972,
      "%.6f\\n%.6f": 6973,
      "\\x8b\\7+\\6ð": 6974,
      "check_duplicate2": 6975,
      "orthogonalll": 6976,
      "'k'": 6977,
      "'kth_smallest_avl_sub':\\n": 6978,
      "(%lf,%lf)-(": 6979,
      "....ab": 6980,
      "0123456789": 6981,
      "700001": 6982,
      "warning": 6983,
      "##o_syori": 6984,
      "##%llf%llf": 6985,
      "##]=i;": 6986,
      "##)))": 6987,
      "##>]>": 6988,
      "stocknum": 6989,
      "distps": 6990,
      "distparallel": 6991,
      "0xffffff00000000": 6992,
      "upque123": 6993,
      "upque321": 6994,
      "%.2f\\n": 6995,
      "koyawt": 6996,
      "koyaht": 6997,
      "tm_mon": 6998,
      "tm_mday": 6999,
      "mx_add2": 7000,
      "mx_add1": 7001,
      "spque123": 7002,
      "spque321": 7003,
      "##opairs": 7004,
      "overlapss": 7005,
      "create_node": 7006,
      "createsum": 7007,
      "57.295779513082": 7008,
      "%4s": 7009,
      "%2d": 7010,
      "%04d\\n": 7011,
      "azl": 7012,
      "coutcap": 7013,
      "##433433": 7014,
      "##9548\\n": 7015,
      "##.aab": 7016,
      "##uroido": 7017,
      "##%d.txt": 7018,
      "consistent_matrix": 7019,
      "0x00ffff0000ffff": 7020,
      "1000000000000000000": 7021,
      "11001001": 7022,
      "%.4lf\\n": 7023,
      "%.3f\\n": 7024,
      "0.7071067": 7025,
      "%d:%d:%d": 7026,
      "1048575": 7027,
      "builtin_puts": 7028,
      "welsh_pow": 7029,
      "abcdefghijklmnopqrstuvwxyzabcdefghijklmnopqrstuvwxyz": 7030,
      "identicalll": 7031,
      "##input().": 7032,
      "directedgraph": 7033,
      "%02d:%02d": 7034,
      "'^(": 7035,
      "(%d,%d)": 7036,
      "(%.6lf,%.6lf": 7037,
      "***": 7038,
      ",.]": 7039,
      ".\\\\test": 7040,
      "3996": 7041,
      "4e6": 7042,
      "5e8": 7043,
      "5882353": 7044,
      "77777": 7045,
      "9.8": 7046,
      "auto_syori": 7047,
      "a010672": 7048,
      "baby": 7049,
      "danger": 7050,
      "eulers_p": 7051,
      "eulartour": 7052,
      "fizz": 7053,
      "foutline": 7054,
      "fprintf": 7055,
      "hanako": 7056,
      "hopcroft": 7057,
      "huristic": 7058,
      "i<c2;": 7059,
      "i++)": 7060,
      "kitaer": 7061,
      "kth_ele": 7062,
      "koujun": 7063,
      "mifl": 7064,
      "naga": 7065,
      "ponline": 7066,
      "pintcomp": 7067,
      "palindrome": 7068,
      "travelling": 7069,
      "training": 7070,
      "utf8": 7071,
      "ushot": 7072,
      "water": 7073,
      "waashar": 7074,
      "x^%lld": 7075,
      "yay!": 7076,
      "zxm": 7077,
      "׋\u0006+\u0007": 7078,
      "##_high": 7079,
      "##mefromid": 7080,
      "##47524": 7081,
      "##810364364": 7082,
      "##uhuroido": 7083,
      "##0-9]": 7084,
      "##024031043": 7085,
      "##(map(": 7086,
      "##|erase": 7087,
      "for(i=0;": 7088,
      "insectpoly": 7089,
      "inidp": 7090,
      "inrects": 7091,
      "longest_match": 7092,
      "##anlobo": 7093,
      "include_circle": 7094,
      "anscmpfunc": 7095,
      "##hi_function": 7096,
      "-----": 7097,
      "----------": 7098,
      "max_flow": 7099,
      "cominit": 7100,
      "remove_high": 7101,
      "reserve_lca": 7102,
      "##10485": 7103,
      "direct_goal": 7104,
      "get_primes": 7105,
      "getnamefromid": 7106,
      "cmpsushi": 7107,
      "cmp_deque_size": 7108,
      "distln2ln": 7109,
      "0x000000ffffffff": 7110,
      "0xcccccccccccccc": 7111,
      "0xaaaaaaaaaaaaaa": 7112,
      "adgjmptw": 7113,
      "##6424\\n": 7114,
      "dataaaa": 7115,
      "0xf0f0f0f0f0f0f0": 7116,
      "##99886424\\n": 7117,
      "tree_grv": 7118,
      "unreachable": 7119,
      "do_while": 7120,
      "calcgreedy": 7121,
      "count_shurui": 7122,
      "count_dice": 7123,
      "ispossible": 7124,
      "is_threecards": 7125,
      "isintersectss": 7126,
      "is_palindrome": 7127,
      "is_twopairs": 7128,
      "12345678": 7129,
      "##24950307\\n": 7130,
      "167772": 7131,
      "check_r_lim": 7132,
      "check_bridge": 7133,
      "check256": 7134,
      "cross_method": 7135,
      "solve_address": 7136,
      "solve_by_mov": 7137,
      "151201": 7138,
      "tm_year": 7139,
      "265371653": 7140,
      "rbt_search": 7141,
      "xysach": 7142,
      "mx_mul2": 7143,
      "min_repaint": 7144,
      "closing": 7145,
      "clzsi2": 7146,
      "compare_pair_cv": 7147,
      "compare_tuple": 7148,
      "makelcpa": 7149,
      "##798154814105": 7150,
      "zero_ccw": 7151,
      "##est_one_bit": 7152,
      "max_steps": 7153,
      "deque_realloc": 7154,
      "%s%s\\n%s%s\\n": 7155,
      "nibutanlobo": 7156,
      "is_covered": 7157,
      "ggyybbww": 7158,
      "909091": 7159,
      "d_grp_max": 7160,
      "##steinertree": 7161,
      "2906161": 7162,
      "ambiguous": 7163,
      "pf_decompose": 7164,
      "0xff00ff00ff00ff": 7165,
      "0xff0000ffff0000": 7166,
      "ck_rel_pos": 7167,
      "property": 7168,
      "asumikana": 7169,
      "minimumsteinertree": 7170,
      "##81186547524": 7171,
      "heisei": 7172,
      "two_sat": 7173,
      "can_achieve": 7174,
      "createtable": 7175,
      "##40084436210485": 7176,
      "..oo....": 7177,
      "rgdigdp": 7178,
      "##320876798154814105": 7179,
      "'kth_smallest_avl_sub':\\nargument": 7180,
      "(%lf,%lf)-(%lf,%lf)": 7181,
      "57.295779513082320876798154814105": 7182,
      "0.707106781186547524": 7183,
      "welsh_powell": 7184,
      "eulers_phi_function": 7185,
      "hopcroft_karp": 7186,
      "kitaeri": 7187,
      "kth_element": 7188,
      "travellingsalesman": 7189,
      "waasharuhuroido": 7190,
      "׋\u0006+\u0007ð": 7191,
      "remove_highest_one_bit": 7192,
      "solve_by_movement": 7193,
      "0.70710678118654752440084436210485": 7194,
      "!out": 7195,
      "#%d:": 7196,
      "#########": 7197,
      "#%x": 7198,
      "%7": 7199,
      "%1": 7200,
      "%3": 7201,
      "%*": 7202,
      "%st": 7203,
      "%10": 7204,
      "%33": 7205,
      "%02": 7206,
      "%06": 7207,
      "%a[^": 7208,
      "&+": 7209,
      "'$": 7210,
      "'in": 7211,
      "'%d": 7212,
      "'1d": 7213,
      "'s/": 7214,
      "',.": 7215,
      "(x": 7216,
      "()": 7217,
      "(mod": 7218,
      "(%d,": 7219,
      "(not": 7220,
      "(tt": 7221,
      "(key": 7222,
      ")[%d]": 7223,
      "+9": 7224,
      "+%d": 7225,
      "+11": 7226,
      "+13": 7227,
      "-n": 7228,
      "-9": 7229,
      "-0": 7230,
      "-%u": 7231,
      "-1\\n-1\\n-1\\n-1\\n-1\\n-1\\n-1\\n-1\\n-1\\n-1\\n-1\\n-1\\n-1\\n-1\\n-1\\n-1\\n-1\\n-1\\n-1\\n-1\\n-1\\n-1\\n-1\\n-1\\n-1\\n-1\\n-1\\n-1\\n-1\\n-1\\n-1\\n-1\\n-1\\n-1\\n-1\\n-1\\n-1\\n-1\\n-1\\n-1\\n-1\\n-1\\n-1\\n-1\\n-1\\n-1\\n-1\\n-1\\n-1\\n-1\\n-1\\n-1\\n-1\\n-1\\n-1\\n-1\\n-1\\n-1\\n-1\\n-1\\n-1\\n-1\\n-1\\n-1\\n-1\\n-1\\n-1\\n-1\\n-1\\n-1\\n-1\\n-1\\n-1\\n-1\\n-1\\n-1\\n-1\\n-1\\n-1\\n-1\\n-1\\n-1\\n-1\\n-1\\n-1\\n-1\\n-1\\n-1\\n-1\\n-1\\n-1\\n-1\\n-1\\n-1\\n-1\\n-1\\n-1\\n-1\\n-1\\n-1\\n-1\\n-1\\n-1\\n-1\\n-1\\n-1\\n-1\\n-1\\n-1\\n-1\\n-1\\n-1\\n-1\\n-1\\n-1\\n-1\\n-1\\n-1\\n-1\\n-1\\n-1\\n-1\\n-1\\n-1\\n-1\\n-1\\n-1\\n-1\\n-1\\n-1\\n-1\\n-1\\n-1\\n-1\\n-1\\n-1\\n-1\\n-1\\n-1\\n-1\\n-1\\n-1\\n-1\\n-1\\n-1\\n-1\\n-1\\n-1\\n-1\\n-1\\n-1\\n-1\\n-1\\n-1\\n-1\\n-1\\n-1\\n-1\\n-1\\n-1\\n-1\\n-1\\n-1\\n-1\\n-1\\n-1\\n-1\\n-1\\n-1\\n-1\\n-1\\n-1\\n-1\\n-1\\n-1\\n-1\\n-1\\n-1\\n-1\\n-1\\n-1\\n-1\\n-1\\n-1\\n-1\\n-1\\n-1\\n-1\\n-1\\n-1\\n-1\\n-1\\n-1\\n-1\\n-1\\n-1\\n-1\\n-1\\n-1\\n-1\\n-1\\n-1\\n-1\\n-1\\n-1\\n-1\\n-1\\n-1\\n-1\\n-1\\n-1\\n-1\\n-1\\n-1\\n-1\\n-1\\n-1\\n-1\\n-1\\n-1\\n-1\\n-1\\n-1\\n-1\\n-1\\n-1\\n-1\\n-1\\n-1\\n-1\\n-1\\n-1\\n-1\\n-1\\n-1\\n-1\\n-1\\n-1\\n-1\\n-1\\n-1\\n-1\\n-1\\n-1\\n-1\\n-1\\n-1\\n-1\\n-1\\n-1\\n-1\\n-1\\n-1\\n-1\\n-1\\n-1\\n-1\\n-1\\n-1\\n-1\\n-1\\n-1\\n-1\\n-1\\n-1\\n-1\\n-1\\n-1\\n-1\\n-1\\n-1\\n-1\\n-1\\n-1\\n-1\\n-1\\n-1\\n-1\\n-1\\n-1\\n-1\\n-1\\n-1\\n-1\\n-1\\n-1\\n-1\\n-1\\n-1\\n-1\\n-1\\n-1\\n-1\\n-1\\n-1\\n-1\\n-1\\n-1\\n-1\\n-1\\n-1\\n-1\\n-1\\n-1\\n-1\\n-1\\n-1\\n-1\\n-1\\n-1\\n-1\\n-1\\n-1\\n-1\\n-1\\n-1\\n-1\\n-1\\n-1\\n-1\\n-1\\n-1\\n-1\\n-1\\n-1\\n-1\\n-1\\n-1\\n-1\\n-1\\n-1\\n-1\\n-1\\n-1\\n-1\\n-1\\n-1\\n-1\\n-1\\n-1\\n-1\\n-1\\n-1\\n-1\\n-1\\n-1\\n-1\\n-1\\n-1\\n-1\\n-1\\n-1\\n-1\\n-1\\n-1\\n-1\\n-1\\n-1\\n-1\\n-1\\n-1\\n-1\\n-1\\n-1\\n-1\\n-1\\n-1\\n-1\\n-1\\n-1\\n-1\\n-1\\n-1\\n-1\\n-1\\n-1\\n-1\\n-1\\n-1\\n-1\\n-1\\n-1\\n-1\\n-1\\n-1\\n-1\\n-1\\n-1\\n-1\\n-1\\n-1\\n-1\\n-1\\n-1\\n-1\\n-1\\n-1\\n-1\\n-1\\n-1\\n-1\\n-1\\n-1\\n-1\\n-1\\n-1\\n-1\\n-1\\n-1\\n-1\\n-1\\n-1\\n-1\\n-1\\n-1\\n-1\\n-1\\n-1\\n-1\\n-1\\n-1\\n-1\\n-1\\n-1\\n-1\\n-1\\n-1\\n-1\\n-1\\n-1\\n-1\\n-1\\n-1\\n-1\\n-1\\n-1\\n-1\\n-1\\n-1\\n-1\\n-1\\n-1\\n-1\\n-1\\n-1\\n-1\\n-1\\n-1\\n-1\\n-1\\n-1\\n-1\\n-1\\n-1\\n-1\\n-1\\n-1\\n-1\\n-1\\n-1\\n-1\\n-1\\n-1\\n-1\\n-1\\n-1\\n-1\\n-1\\n-1\\n-1\\n-1\\n-1\\n-1\\n-1\\n-1\\n-1\\n-1\\n-1\\n-1\\n-1\\n-1\\n-1\\n-1\\n-1\\n-1\\n-1\\n-1\\n-1\\n-1\\n-1\\n-1\\n-1\\n-1\\n-1\\n-1\\n-1\\n-1\\n-1\\n-1\\n-1\\n-1\\n-1\\n-1\\n-1\\n-1\\n-1\\n-1\\n-1\\n-1\\n-1\\n-1\\n-1\\n-1\\n-1\\n-1\\n-1\\n-1\\n-1\\n-1\\n-1\\n-1\\n-1\\n-1\\n-1\\n-1\\n-1\\n-1\\n-1\\n-1\\n-1\\n-1\\n-1\\n-1\\n-1\\n-1\\n-1\\n-1\\n-1\\n-1\\n-1\\n-1\\n-1\\n-1\\n-1\\n-1\\n-1\\n-1\\n-1\\n-1\\n-1\\n-1\\n-1\\n-1\\n-1\\n-1\\n-1\\n-1\\n-1\\n-1\\n-1\\n-1\\n-1\\n-1\\n-1\\n-1\\n-1\\n-1\\n-1\\n-1\\n-1\\n-1\\n-1\\n-1\\n-1\\n-1\\n-1\\n-1\\n-1\\n-1\\n-1\\n-1\\n-1\\n-1\\n-1\\n-1\\n-1\\n-1\\n-1\\n-1\\n-1\\n-1\\n-1\\n-1\\n-1\\n-1\\n-1\\n-1\\n-1\\n-1\\n-1\\n-1\\n-1\\n-1\\n-1\\n-1\\n-1\\n-1\\n-1\\n-1\\n-1\\n-1\\n-1\\n-1\\n-1\\n-1\\n-1\\n-1\\n-1\\n-1\\n-1\\n-1\\n-1\\n-1\\n-1\\n-1\\n-1\\n-1\\n-1\\n-1\\n-1\\n-1\\n-1\\n-1\\n-1\\n-1\\n-1\\n-1\\n-1\\n-1\\n-1\\n-1\\n-1\\n-1\\n-1\\n-1\\n-1\\n-1\\n-1\\n-1\\n-1\\n-
[...]
