{
  "version": "1.0",
  "truncation": null,
  "padding": null,
  "added_tokens": [
    {
      "id": 0,
      "content": "[PAD]",
      "single_word": false,
      "lstrip": false,
      "rstrip": false,
      "normalized": false,
      "special": true
    },
    {
      "id": 1,
      "content": "[UNK]",
      "single_word": false,
      "lstrip": false,
      "rstrip": false,
      "normalized": false,
      "special": true
    },
    {
      "id": 2,
      "content": "[CLS]",
      "single_word": false,
      "lstrip": false,
      "rstrip": false,
      "normalized": false,
      "special": true
    },
    {
      "id": 3,
      "content": "[SEP]",
      "single_word": false,
      "lstrip": false,
      "rstrip": false,
      "normalized": false,
      "special": true
    }
  ],
  "normalizer": {
    "type": "BertNormalizer",
    "clean_text": false,
    "handle_chinese_chars": true,
    "strip_accents": null,
    "lowercase": true
  },
  "pre_tokenizer": {
    "type": "WhitespaceSplit"
  },
  "post_processor": {
    "type": "BertProcessing",
    "sep": [
      "[CLS]",
      2
    ],
    "cls": [
      "[SEP]",
      3
    ]
  },
  "decoder": {
    "type": "WordPiece",
    "prefix": "##",
    "cleanup": true
  },
  "model": {
    "type": "WordPiece",
    "unk_token": "[UNK]",
    "continuing_subword_prefix": "##",
    "max_input_chars_per_word": 100,
    "vocab": {
      "[PAD]": 0,
      "[UNK]": 1,
      "[CLS]": 2,
      "[SEP]": 3,
      "+": 4,
      "-": 5,
      "0": 6,
      "1": 7,
      "2": 8,
      "3": 9,
      "4": 10,
      "5": 11,
      "6": 12,
      "7": 13,
      "8": 14,
      "9": 15,
      "<": 16,
      "=": 17,
      ">": 18,
      "a": 19,
      "b": 20,
      "c": 21,
      "d": 22,
      "e": 23,
      "f": 24,
      "g": 25,
      "h": 26,
      "i": 27,
      "j": 28,
      "k": 29,
      "l": 30,
      "m": 31,
      "n": 32,
      "o": 33,
      "p": 34,
      "q": 35,
      "r": 36,
      "s": 37,
      "t": 38,
      "u": 39,
      "v": 40,
      "w": 41,
      "x": 42,
      "y": 43,
      "z": 44,
      "##e": 45,
      "##p": 46,
      "##a": 47,
      "##r": 48,
      "##t": 49,
      "##l": 50,
      "##y": 51,
      "##o": 52,
      "##u": 53,
      "##d": 54,
      "##n": 55,
      "##w": 56,
      "##s": 57,
      "##c": 58,
      "##i": 59,
      "##+": 60,
      "##1": 61,
      "##2": 62,
      "##h": 63,
      "##g": 64,
      "##0": 65,
      "##6": 66,
      "##q": 67,
      "##k": 68,
      "##m": 69,
      "##x": 70,
      "##z": 71,
      "##v": 72,
      "##b": 73,
      "##-": 74,
      "##9": 75,
      "##7": 76,
      "##f": 77,
      "##=": 78,
      "##j": 79,
      "##8": 80,
      "##5": 81,
      "##4": 82,
      "##>": 83,
      "##<": 84,
      "##3": 85,
      "th": 86,
      "the": 87,
      "##er": 88,
      "##in": 89,
      "##re": 90,
      "##at": 91,
      "##on": 92,
      "##es": 93,
      "of": 94,
      "##en": 95,
      "in": 96,
      "an": 97,
      "##an": 98,
      "##ed": 99,
      "to": 100,
      "##ing": 101,
      "##it": 102,
      "##or": 103,
      "is": 104,
      "and": 105,
      "##ou": 106,
      "##ll": 107,
      "##ar": 108,
      "##is": 109,
      "##le": 110,
      "##ac": 111,
      "##ion": 112,
      "##um": 113,
      "##ro": 114,
      "##as": 115,
      "##al": 116,
      "on": 117,
      "##ow": 118,
      "##am": 119,
      "##ut": 120,
      "##et": 121,
      "##ec": 122,
      "##ic": 123,
      "st": 124,
      "##th": 125,
      "are": 126,
      "##ve": 127,
      "##im": 128,
      "that": 129,
      "##ts": 130,
      "wh": 131,
      "be": 132,
      "##ers": 133,
      "##os": 134,
      "you": 135,
      "con": 136,
      "##ig": 137,
      "num": 138,
      "##te": 139,
      "numb": 140,
      "##om": 141,
      "for": 142,
      "re": 143,
      "##ay": 144,
      "##ent": 145,
      "##ot": 146,
      "##id": 147,
      "as": 148,
      "number": 149,
      "##qu": 150,
      "##ly": 151,
      "##ith": 152,
      "##ation": 153,
      "can": 154,
      "or": 155,
      "##ce": 156,
      "##st": 157,
      "##ach": 158,
      "##iv": 159,
      "pro": 160,
      "with": 161,
      "le": 162,
      "ch": 163,
      "by": 164,
      "ex": 165,
      "it": 166,
      "##rom": 167,
      "at": 168,
      "##00": 169,
      "from": 170,
      "##ter": 171,
      "if": 172,
      "##all": 173,
      "one": 174,
      "##ain": 175,
      "##ul": 176,
      "##ir": 177,
      "each": 178,
      "se": 179,
      "##res": 180,
      "##ak": 181,
      "sh": 182,
      "##ble": 183,
      "##ds": 184,
      "##ch": 185,
      "##ol": 186,
      "##est": 187,
      "##put": 188,
      "there": 189,
      "pl": 190,
      "##oll": 191,
      "mo": 192,
      "##ct": 193,
      "inte": 194,
      "integ": 195,
      "this": 196,
      "##ill": 197,
      "##ver": 198,
      "he": 199,
      "##ple": 200,
      "##ur": 201,
      "##ate": 202,
      "##ame": 203,
      "##igh": 204,
      "##ge": 205,
      "tim": 206,
      "##ollow": 207,
      "follow": 208,
      "##ect": 209,
      "##ine": 210,
      "not": 211,
      "su": 212,
      "giv": 213,
      "##se": 214,
      "pos": 215,
      "tw": 216,
      "all": 217,
      "##ap": 218,
      "##ive": 219,
      "##il": 220,
      "##gr": 221,
      "given": 222,
      "will": 223,
      "##ad": 224,
      "two": 225,
      "##ave": 226,
      "fin": 227,
      "di": 228,
      "str": 229,
      "com": 230,
      "al": 231,
      "en": 232,
      "##ight": 233,
      "we": 234,
      "##der": 235,
      "##gram": 236,
      "##oun": 237,
      "rep": 238,
      "##rit": 239,
      "##ist": 240,
      "##oin": 241,
      "when": 242,
      "has": 243,
      "out": 244,
      "program": 245,
      "writ": 246,
      "following": 247,
      "##per": 248,
      "no": 249,
      "tr": 250,
      "##ition": 251,
      "##ere": 252,
      "##are": 253,
      "ne": 254,
      "de": 255,
      "##-th": 256,
      "##oc": 257,
      "squ": 258,
      "pr": 259,
      "##ore": 260,
      "##ure": 261,
      "ver": 262,
      "##ld": 263,
      "sp": 264,
      "un": 265,
      "how": 266,
      "##ther": 267,
      "have": 268,
      "ro": 269,
      "##ue": 270,
      "line": 271,
      "##ess": 272,
      "##tain": 273,
      "##art": 274,
      "find": 275,
      "##ence": 276,
      "cons": 277,
      "integer": 278,
      "time": 279,
      "##iz": 280,
      "string": 281,
      "tak": 282,
      "do": 283,
      "##act": 284,
      "poin": 285,
      "##ich": 286,
      "bo": 287,
      "leq": 288,
      "car": 289,
      "so": 290,
      "gr": 291,
      "which": 292,
      "bl": 293,
      "##and": 294,
      "##si": 295,
      "##ff": 296,
      "##ang": 297,
      "input": 298,
      "##ree": 299,
      "##ample": 300,
      "order": 301,
      "##imum": 302,
      "ar": 303,
      "##ated": 304,
      "dec": 305,
      "##ents": 306,
      "##ord": 307,
      "##ose": 308,
      "##ft": 309,
      "oper": 310,
      "val": 311,
      "##ity": 312,
      "play": 313,
      "integers": 314,
      "let": 315,
      "##ies": 316,
      "##us": 317,
      "##pp": 318,
      "col": 319,
      "ma": 320,
      "min": 321,
      "same": 322,
      "##ong": 323,
      "##irst": 324,
      "char": 325,
      "##orm": 326,
      "output": 327,
      "##ack": 328,
      "first": 329,
      "man": 330,
      "other": 331,
      "possi": 332,
      "##ome": 333,
      "ab": 334,
      "repres": 335,
      "##ust": 336,
      "##ock": 337,
      "co": 338,
      "##we": 339,
      "##ase": 340,
      "ad": 341,
      "sequ": 342,
      "but": 343,
      "##ast": 344,
      "go": 345,
      "##ally": 346,
      "write": 347,
      "##ould": 348,
      "##un": 349,
      "##ud": 350,
      "##ace": 351,
      "##rect": 352,
      "fig": 353,
      "i-th": 354,
      "us": 355,
      "ai": 356,
      "##ult": 357,
      "example": 358,
      "##ab": 359,
      "##ment": 360,
      "bet": 361,
      "possible": 362,
      "operation": 363,
      "##form": 364,
      "per": 365,
      "your": 366,
      "pi": 367,
      "square": 368,
      "##ke": 369,
      "left": 370,
      "int": 371,
      "##ant": 372,
      "##ween": 373,
      "between": 374,
      "than": 375,
      "me": 376,
      "##eng": 377,
      "##ays": 378,
      "10": 379,
      "any": 380,
      "up": 381,
      "##ost": 382,
      "figure": 383,
      "game": 384,
      "##ide": 385,
      "sequence": 386,
      "res": 387,
      "only": 388,
      "prin": 389,
      "##dition": 390,
      "##ever": 391,
      "##fter": 392,
      "##ice": 393,
      "##ates": 394,
      "##ard": 395,
      "sc": 396,
      "##ip": 397,
      "##ok": 398,
      "more": 399,
      "##ish": 400,
      "##ance": 401,
      "##el": 402,
      "##ell": 403,
      "##ag": 404,
      "after": 405,
      "value": 406,
      "however": 407,
      "times": 408,
      "##gh": 409,
      "##ount": 410,
      "contain": 411,
      "diff": 412,
      "inc": 413,
      "##ided": 414,
      "##ength": 415,
      "numbers": 416,
      "##ort": 417,
      "represent": 418,
      "length": 419,
      "move": 420,
      "they": 421,
      "##ough": 422,
      "##ear": 423,
      "where": 424,
      "such": 425,
      "many": 426,
      "##ri": 427,
      "them": 428,
      "##own": 429,
      "##ten": 430,
      "100": 431,
      "##blem": 432,
      "dist": 433,
      "his": 434,
      "some": 435,
      "##tic": 436,
      "##od": 437,
      "##ions": 438,
      "##ass": 439,
      "##tal": 440,
      "##pt": 441,
      "problem": 442,
      "right": 443,
      "##able": 444,
      "##-1": 445,
      "max": 446,
      "cl": 447,
      "am": 448,
      "vertic": 449,
      "##out": 450,
      "its": 451,
      "##ake": 452,
      "##les": 453,
      "##if": 454,
      "ed": 455,
      "row": 456,
      "##wn": 457,
      "sat": 458,
      "differ": 459,
      "sub": 460,
      "dat": 461,
      "##so": 462,
      "##ange": 463,
      "##isf": 464,
      "ele": 465,
      "also": 466,
      "##our": 467,
      "jo": 468,
      "##age": 469,
      "direct": 470,
      "was": 471,
      "##hi": 472,
      "ob": 473,
      "##ound": 474,
      "satisf": 475,
      "wor": 476,
      "part": 477,
      "##ary": 478,
      "##op": 479,
      "set": 480,
      "##end": 481,
      "##ists": 482,
      "rem": 483,
      "##one": 484,
      "##cc": 485,
      "##erm": 486,
      "qu": 487,
      "point": 488,
      "points": 489,
      "into": 490,
      "te": 491,
      "print": 492,
      "sum": 493,
      "##ous": 494,
      "minimum": 495,
      "cho": 496,
      "sec": 497,
      "comp": 498,
      "li": 499,
      "##ren": 500,
      "##its": 501,
      "##ite": 502,
      "form": 503,
      "##air": 504,
      "these": 505,
      "cal": 506,
      "##ares": 507,
      "condition": 508,
      "decided": 509,
      "##ah": 510,
      "##ater": 511,
      "color": 512,
      "must": 513,
      "##ond": 514,
      "cont": 515,
      "##ial": 516,
      "##tex": 517,
      "##str": 518,
      "##ordin": 519,
      "app": 520,
      "then": 521,
      "bu": 522,
      "cell": 523,
      "ass": 524,
      "written": 525,
      "##ines": 526,
      "block": 527,
      "squares": 528,
      "bec": 529,
      "div": 530,
      "may": 531,
      "##ath": 532,
      "total": 533,
      "end": 534,
      "rec": 535,
      "mult": 536,
      "conn": 537,
      "##uct": 538,
      "who": 539,
      "maximum": 540,
      "equ": 541,
      "arr": 542,
      "det": 543,
      "fl": 544,
      "cards": 545,
      "##cul": 546,
      "##eth": 547,
      "##de": 548,
      "##urn": 549,
      "exp": 550,
      "##ven": 551,
      "##ahas": 552,
      "start": 553,
      "vertex": 554,
      "ever": 555,
      "##acter": 556,
      "##ick": 557,
      "ball": 558,
      "sn": 559,
      "##ress": 560,
      "takahas": 561,
      "cor": 562,
      "##ower": 563,
      "three": 564,
      "##ans": 565,
      "call": 566,
      "character": 567,
      "##ations": 568,
      "every": 569,
      "##ied": 570,
      "should": 571,
      "coordin": 572,
      "make": 573,
      "##ove": 574,
      "different": 575,
      "day": 576,
      "##ments": 577,
      "##ets": 578,
      "win": 579,
      "dis": 580,
      "perform": 581,
      "calcul": 582,
      "here": 583,
      "does": 584,
      "room": 585,
      "cre": 586,
      "##fore": 587,
      "##ign": 588,
      "##ire": 589,
      "##ep": 590,
      "pair": 591,
      "##ted": 592,
      "position": 593,
      "piec": 594,
      "count": 595,
      "##ie": 596,
      "##--": 597,
      "bel": 598,
      "takahashi": 599,
      "##tem": 600,
      "fr": 601,
      "im": 602,
      "their": 603,
      "##ry": 604,
      "##not": 605,
      "##itive": 606,
      "she": 607,
      "vertices": 608,
      "pe": 609,
      "pass": 610,
      "##ise": 611,
      "##ask": 612,
      "##xt": 613,
      "cannot": 614,
      "tree": 615,
      "numbered": 616,
      "cur": 617,
      "##av": 618,
      "##ants": 619,
      "##ize": 620,
      "town": 621,
      "##rough": 622,
      "incl": 623,
      "determ": 624,
      "##em": 625,
      "##ces": 626,
      "##ile": 627,
      "##+1": 628,
      "##ild": 629,
      "##wer": 630,
      "contains": 631,
      "plan": 632,
      "lo": 633,
      "follows": 634,
      "task": 635,
      "new": 636,
      "joi": 637,
      "grid": 638,
      "through": 639,
      "##acters": 640,
      "score": 641,
      "snu": 642,
      "dig": 643,
      "##aph": 644,
      "choose": 645,
      "connect": 646,
      "sm": 647,
      "ind": 648,
      "##umn": 649,
      "characters": 650,
      "kn": 651,
      "lines": 652,
      "positive": 653,
      "##11": 654,
      "column": 655,
      "##ating": 656,
      "##pl": 657,
      "##ads": 658,
      "spec": 659,
      "distance": 660,
      "##isting": 661,
      "multi": 662,
      "pre": 663,
      "##yp": 664,
      "sy": 665,
      "##ots": 666,
      "mat": 667,
      "##ning": 668,
      "consists": 669,
      "long": 670,
      "equal": 671,
      "multiple": 672,
      "##ople": 673,
      "mov": 674,
      "sim": 675,
      "ins": 676,
      "stud": 677,
      "##ective": 678,
      "people": 679,
      "city": 680,
      "top": 681,
      "gre": 682,
      "##ens": 683,
      "pers": 684,
      "both": 685,
      "em": 686,
      "##ges": 687,
      "##ors": 688,
      "like": 689,
      "snuke": 690,
      "operations": 691,
      "ans": 692,
      "data": 693,
      "##ub": 694,
      "init": 695,
      "inform": 696,
      "mod": 697,
      "br": 698,
      "lar": 699,
      "person": 700,
      "sin": 701,
      "##ether": 702,
      "dr": 703,
      "card": 704,
      "called": 705,
      "small": 706,
      "bi": 707,
      "##ider": 708,
      "mr": 709,
      "requ": 710,
      "year": 711,
      "##ular": 712,
      "information": 713,
      "sol": 714,
      "want": 715,
      "##ical": 716,
      "takes": 717,
      "get": 718,
      "below": 719,
      "consider": 720,
      "des": 721,
      "over": 722,
      "area": 723,
      "since": 724,
      "note": 725,
      "cir": 726,
      "typ": 727,
      "direction": 728,
      "##ont": 729,
      "par": 730,
      "##ks": 731,
      "adj": 732,
      "tar": 733,
      "shown": 734,
      "even": 735,
      "##wise": 736,
      "reg": 737,
      "player": 738,
      "edge": 739,
      "inter": 740,
      "place": 741,
      "above": 742,
      "hand": 743,
      "conditions": 744,
      "si": 745,
      "##ues": 746,
      "less": 747,
      "resp": 748,
      "represented": 749,
      "second": 750,
      "ke": 751,
      "most": 752,
      "comput": 753,
      "next": 754,
      "remain": 755,
      "##mb": 756,
      "##ined": 757,
      "##lect": 758,
      "##ari": 759,
      "def": 760,
      "now": 761,
      "##ats": 762,
      "##ime": 763,
      "comm": 764,
      "a1": 765,
      "would": 766,
      "reach": 767,
      "black": 768,
      "rect": 769,
      "curren": 770,
      "rectang": 771,
      "way": 772,
      "use": 773,
      "plac": 774,
      "##ters": 775,
      "satisfy": 776,
      "circ": 777,
      "put": 778,
      "pain": 779,
      "yen": 780,
      "answer": 781,
      "coin": 782,
      "##ones": 783,
      "assum": 784,
      "state": 785,
      "indic": 786,
      "exact": 787,
      "adjac": 788,
      "##au": 789,
      "using": 790,
      "team": 791,
      "##ired": 792,
      "determine": 793,
      "four": 794,
      "step": 795,
      "acc": 796,
      "turn": 797,
      "##row": 798,
      "used": 799,
      "##ways": 800,
      "constr": 801,
      "nor": 802,
      "whether": 803,
      "##par": 804,
      "##app": 805,
      "adjacent": 806,
      "##ither": 807,
      "##ail": 808,
      "change": 809,
      "select": 810,
      "exactly": 811,
      "high": 812,
      "graph": 813,
      "side": 814,
      "xi": 815,
      "create": 816,
      "12": 817,
      "##ked": 818,
      "letters": 819,
      "cost": 820,
      "##uch": 821,
      "outputs": 822,
      "once": 823,
      "##0000": 824,
      "##ade": 825,
      "dep": 826,
      "her": 827,
      "##other": 828,
      "repe": 829,
      "among": 830,
      "##reas": 831,
      "obtain": 832,
      "blocks": 833,
      "sch": 834,
      "consisting": 835,
      "respective": 836,
      "loc": 837,
      "always": 838,
      "##imal": 839,
      "box": 840,
      "need": 841,
      "partic": 842,
      "##ting": 843,
      "another": 844,
      "red": 845,
      "mon": 846,
      "wants": 847,
      "act": 848,
      "before": 849,
      "##tr": 850,
      "train": 851,
      "trave": 852,
      "represents": 853,
      "amount": 854,
      "respectively": 855,
      "coordinates": 856,
      "##aces": 857,
      "short": 858,
      "##pty": 859,
      "element": 860,
      "edges": 861,
      "travel": 862,
      "lower": 863,
      "were": 864,
      "##ict": 865,
      "white": 866,
      "##tern": 867,
      "take": 868,
      "##-s": 869,
      "datas": 870,
      "##ands": 871,
      "least": 872,
      "express": 873,
      "##ause": 874,
      "exce": 875,
      "current": 876,
      "path": 877,
      "##til": 878,
      "prod": 879,
      "contest": 880,
      "values": 881,
      "##-d": 882,
      "##ative": 883,
      "##ection": 884,
      "includ": 885,
      "placed": 886,
      "either": 887,
      "space": 888,
      "digits": 889,
      "hor": 890,
      "po": 891,
      "##vel": 892,
      "vis": 893,
      "##onds": 894,
      "separ": 895,
      "##ouse": 896,
      "sl": 897,
      "##nt": 898,
      "isl": 899,
      "elements": 900,
      "down": 901,
      "item": 902,
      "##ced": 903,
      "stones": 904,
      "what": 905,
      "##co": 906,
      "balls": 907,
      "piece": 908,
      "know": 909,
      "##ides": 910,
      "size": 911,
      "without": 912,
      "north": 913,
      "id": 914,
      "##cess": 915,
      "##ved": 916,
      "star": 917,
      "rob": 918,
      "addition": 919,
      "##dots": 920,
      "##amp": 921,
      "whose": 922,
      "strings": 923,
      "##ending": 924,
      "case": 925,
      "those": 926,
      "##ences": 927,
      "about": 928,
      "20": 929,
      "##ately": 930,
      "hol": 931,
      "non": 932,
      "mag": 933,
      "mar": 934,
      "sw": 935,
      "##aw": 936,
      "##lic": 937,
      "##ecut": 938,
      "add": 939,
      "ag": 940,
      "table": 941,
      "##ner": 942,
      "##gin": 943,
      "##oup": 944,
      "##anged": 945,
      "letter": 946,
      "specif": 947,
      "##inary": 948,
      "##ott": 949,
      "empty": 950,
      "ac": 951,
      "water": 952,
      "group": 953,
      "because": 954,
      "particip": 955,
      "##ind": 956,
      "store": 957,
      "horiz": 958,
      "east": 959,
      "##ings": 960,
      "##000": 961,
      "comple": 962,
      "##rib": 963,
      "pieces": 964,
      "bott": 965,
      "fe": 966,
      "cells": 967,
      "coordinate": 968,
      "##ination": 969,
      "players": 970,
      "means": 971,
      "result": 972,
      "##bo": 973,
      "##10": 974,
      "##ional": 975,
      "stand": 976,
      "weight": 977,
      "required": 978,
      "taro": 979,
      "##case": 980,
      "##ially": 981,
      "##bit": 982,
      "##ute": 983,
      "road": 984,
      "been": 985,
      "under": 986,
      "ci": 987,
      "##ory": 988,
      "cent": 989,
      "occ": 990,
      "##ility": 991,
      "words": 992,
      "build": 993,
      "connected": 994,
      "begin": 995,
      "child": 996,
      "##iles": 997,
      "cub": 998,
      "##ax": 999,
      "while": 1000,
      "roads": 1001,
      "appear": 1002,
      "coins": 1003,
      "made": 1004,
      "##ons": 1005,
      "programm": 1006,
      "off": 1007,
      "##ects": 1008,
      "modul": 1009,
      "rou": 1010,
      "days": 1011,
      "##king": 1012,
      "comb": 1013,
      "sing": 1014,
      "ways": 1015,
      "109": 1016,
      "larg": 1017,
      "modulo": 1018,
      "fri": 1019,
      "just": 1020,
      "##read": 1021,
      "##ities": 1022,
      "enter": 1023,
      "show": 1024,
      "therefore": 1025,
      "##gl": 1026,
      "key": 1027,
      "assign": 1028,
      "house": 1029,
      "inv": 1030,
      "station": 1031,
      "stone": 1032,
      "tri": 1033,
      "very": 1034,
      "pairs": 1035,
      "obtained": 1036,
      "a2": 1037,
      "read": 1038,
      "good": 1039,
      "non-": 1040,
      "him": 1041,
      "power": 1042,
      "##resp": 1043,
      "##usive": 1044,
      "##ient": 1045,
      "##igin": 1046,
      "divis": 1047,
      "starting": 1048,
      "bottom": 1049,
      "##ious": 1050,
      "quest": 1051,
      "last": 1052,
      "sample": 1053,
      "##rees": 1054,
      "repl": 1055,
      "initial": 1056,
      "separated": 1057,
      "cer": 1058,
      "j-th": 1059,
      "##aid": 1060,
      "##uc": 1061,
      "representing": 1062,
      "rows": 1063,
      "poly": 1064,
      "single": 1065,
      "fo": 1066,
      "ph": 1067,
      "board": 1068,
      "##ording": 1069,
      "rece": 1070,
      "my": 1071,
      "##outh": 1072,
      "visit": 1073,
      "##gy": 1074,
      "##iss": 1075,
      "corresp": 1076,
      "origin": 1077,
      "until": 1078,
      "quer": 1079,
      "##12": 1080,
      "##day": 1081,
      "cand": 1082,
      "trans": 1083,
      "otherwise": 1084,
      "butt": 1085,
      "calculate": 1086,
      "den": 1087,
      "sur": 1088,
      "##ames": 1089,
      "prime": 1090,
      "inters": 1091,
      "circle": 1092,
      "zer": 1093,
      "blue": 1094,
      "type": 1095,
      "run": 1096,
      "book": 1097,
      "flo": 1098,
      "greater": 1099,
      "smallest": 1100,
      "shortest": 1101,
      "certain": 1102,
      "jap": 1103,
      "rot": 1104,
      "west": 1105,
      "node": 1106,
      "triang": 1107,
      "binary": 1108,
      "ev": 1109,
      "gu": 1110,
      "see": 1111,
      "wall": 1112,
      "##ool": 1113,
      "##ves": 1114,
      "chec": 1115,
      "##aper": 1116,
      "japan": 1117,
      "n-1": 1118,
      "##uish": 1119,
      "##ages": 1120,
      "inclusive": 1121,
      "2n": 1122,
      "pan": 1123,
      "exists": 1124,
      "memb": 1125,
      "##uring": 1126,
      "goal": 1127,
      "look": 1128,
      "desc": 1129,
      "##ased": 1130,
      "country": 1131,
      "columns": 1132,
      "sys": 1133,
      "11": 1134,
      "back": 1135,
      "vari": 1136,
      "##ives": 1137,
      "##ules": 1138,
      "spaces": 1139,
      "system": 1140,
      "bar": 1141,
      "cut": 1142,
      "##utes": 1143,
      "##omes": 1144,
      "##sequ": 1145,
      "compan": 1146,
      "school": 1147,
      "##up": 1148,
      "##-y": 1149,
      "##imens": 1150,
      "##ected": 1151,
      "obj": 1152,
      "initially": 1153,
      "according": 1154,
      "1000": 1155,
      "assume": 1156,
      "ic": 1157,
      "inser": 1158,
      "price": 1159,
      "remaining": 1160,
      "pat": 1161,
      "##ward": 1162,
      "##ss": 1163,
      "##gative": 1164,
      "##ically": 1165,
      "vertical": 1166,
      "seconds": 1167,
      "island": 1168,
      "robot": 1169,
      "coll": 1170,
      "##ph": 1171,
      "student": 1172,
      "aiz": 1173,
      "##edi": 1174,
      "##als": 1175,
      "match": 1176,
      "students": 1177,
      "##-k": 1178,
      "base": 1179,
      "unit": 1180,
      "magic": 1181,
      "could": 1182,
      "gen": 1183,
      "name": 1184,
      "ser": 1185,
      "##alf": 1186,
      "##ape": 1187,
      "digit": 1188,
      "seg": 1189,
      "large": 1190,
      "horizon": 1191,
      "route": 1192,
      "fi": 1193,
      "##ying": 1194,
      "finish": 1195,
      "op": 1196,
      "ple": 1197,
      "rules": 1198,
      "yi": 1199,
      "##wor": 1200,
      "becomes": 1201,
      "correct": 1202,
      "list": 1203,
      "met": 1204,
      "rest": 1205,
      "sever": 1206,
      "upper": 1207,
      "colors": 1208,
      "exceed": 1209,
      "sit": 1210,
      "within": 1211,
      "height": 1212,
      "x1": 1213,
      "##ights": 1214,
      "ret": 1215,
      "##aight": 1216,
      "##ores": 1217,
      "##dd": 1218,
      "##ends": 1219,
      "stop": 1220,
      "supp": 1221,
      "straight": 1222,
      "engl": 1223,
      "painted": 1224,
      "english": 1225,
      "##ule": 1226,
      "##ank": 1227,
      "##ump": 1228,
      "subsequ": 1229,
      "special": 1230,
      "lowercase": 1231,
      "again": 1232,
      "panel": 1233,
      "horizontal": 1234,
      "divided": 1235,
      "ti": 1236,
      "##oi": 1237,
      "##ator": 1238,
      "##oring": 1239,
      "##imit": 1240,
      "process": 1241,
      "minutes": 1242,
      "imp": 1243,
      "moves": 1244,
      "defined": 1245,
      "check": 1246,
      "please": 1247,
      "several": 1248,
      "much": 1249,
      "constrain": 1250,
      "monst": 1251,
      "aizu": 1252,
      "mak": 1253,
      "wal": 1254,
      "x2": 1255,
      "##fer": 1256,
      "company": 1257,
      "bus": 1258,
      "had": 1259,
      "half": 1260,
      "##cl": 1261,
      "##-w": 1262,
      "##imes": 1263,
      "items": 1264,
      "aj": 1265,
      "satisfies": 1266,
      "arranged": 1267,
      "during": 1268,
      "king": 1269,
      "towns": 1270,
      "moving": 1271,
      "cap": 1272,
      "light": 1273,
      "pu": 1274,
      "##vers": 1275,
      "shop": 1276,
      "hel": 1277,
      "deg": 1278,
      "difference": 1279,
      "positions": 1280,
      "##ecutive": 1281,
      "occur": 1282,
      "found": 1283,
      "##ures": 1284,
      "att": 1285,
      "class": 1286,
      "largest": 1287,
      "000": 1288,
      "13": 1289,
      "tiles": 1290,
      "years": 1291,
      "datasets": 1292,
      "polyg": 1293,
      "help": 1294,
      "cro": 1295,
      "dest": 1296,
      "pare": 1297,
      "##zz": 1298,
      "stack": 1299,
      "##idth": 1300,
      "allow": 1301,
      "ends": 1302,
      "sequences": 1303,
      "construct": 1304,
      "##arch": 1305,
      "##action": 1306,
      "plane": 1307,
      "fam": 1308,
      "job": 1309,
      "center": 1310,
      "word": 1311,
      "problems": 1312,
      "kin": 1313,
      "##most": 1314,
      "rel": 1315,
      "consecutive": 1316,
      "return": 1317,
      "eat": 1318,
      "search": 1319,
      "root": 1320,
      "rectangle": 1321,
      "beginning": 1322,
      "never": 1323,
      "##ability": 1324,
      "perm": 1325,
      "compet": 1326,
      "rectangular": 1327,
      "floor": 1328,
      "ear": 1329,
      "##ivers": 1330,
      "remo": 1331,
      "buy": 1332,
      "multip": 1333,
      "gener": 1334,
      "##get": 1335,
      "##ber": 1336,
      "thin": 1337,
      "##ived": 1338,
      "chang": 1339,
      "alread": 1340,
      "##ush": 1341,
      "##struct": 1342,
      "button": 1343,
      "already": 1344,
      "mone": 1345,
      "paper": 1346,
      "yes": 1347,
      "##ness": 1348,
      "asked": 1349,
      "programming": 1350,
      "money": 1351,
      "er": 1352,
      "give": 1353,
      "jump": 1354,
      "pur": 1355,
      "term": 1356,
      "##cy": 1357,
      "rooms": 1358,
      "common": 1359,
      "correspond": 1360,
      "##imensional": 1361,
      "pattern": 1362,
      "##pc": 1363,
      "##ily": 1364,
      "##gor": 1365,
      "work": 1366,
      "types": 1367,
      "product": 1368,
      "original": 1369,
      "ldots": 1370,
      "##-+": 1371,
      "inst": 1372,
      "reads": 1373,
      "##graph": 1374,
      "repeated": 1375,
      "zero": 1376,
      "sign": 1377,
      "##ases": 1378,
      "##eter": 1379,
      "##imize": 1380,
      "south": 1381,
      "##osen": 1382,
      "prob": 1383,
      "chosen": 1384,
      "##pping": 1385,
      "format": 1386,
      "##---+": 1387,
      "brid": 1388,
      "cr": 1389,
      "##ithm": 1390,
      "level": 1391,
      "alph": 1392,
      "decimal": 1393,
      "front": 1394,
      "considered": 1395,
      "polygon": 1396,
      "-1": 1397,
      "happ": 1398,
      "##ices": 1399,
      "conf": 1400,
      "##ored": 1401,
      "und": 1402,
      "connecting": 1403,
      "##af": 1404,
      "##ne": 1405,
      "conc": 1406,
      "lets": 1407,
      "world": 1408,
      "aok": 1409,
      "press": 1410,
      "dele": 1411,
      "univers": 1412,
      "computer": 1413,
      "open": 1414,
      "ie": 1415,
      "limit": 1416,
      "##ual": 1417,
      "along": 1418,
      "symb": 1419,
      "symbol": 1420,
      "lab": 1421,
      "##ustom": 1422,
      "code": 1423,
      "flag": 1424,
      "disc": 1425,
      "fact": 1426,
      "##way": 1427,
      "##irect": 1428,
      "instruct": 1429,
      "clock": 1430,
      "replace": 1431,
      "denot": 1432,
      "triangle": 1433,
      "cross": 1434,
      "custom": 1435,
      "round": 1436,
      "##ane": 1437,
      "del": 1438,
      "played": 1439,
      "question": 1440,
      "permut": 1441,
      "eas": 1442,
      "fun": 1443,
      "meth": 1444,
      "##-ch": 1445,
      "##ared": 1446,
      "connects": 1447,
      "imm": 1448,
      "##-yen": 1449,
      "insert": 1450,
      "cour": 1451,
      "##oy": 1452,
      "##ote": 1453,
      "playing": 1454,
      "going": 1455,
      "directions": 1456,
      "satisfied": 1457,
      "wins": 1458,
      "steps": 1459,
      "dataset": 1460,
      "five": 1461,
      "math": 1462,
      "##99": 1463,
      "touch": 1464,
      "##itch": 1465,
      "##thes": 1466,
      "##idd": 1467,
      "indicated": 1468,
      "##-dimensional": 1469,
      "complete": 1470,
      "building": 1471,
      "intersection": 1472,
      "dice": 1473,
      "jud": 1474,
      "p1": 1475,
      "ri": 1476,
      "said": 1477,
      "treas": 1478,
      "##ograph": 1479,
      "##atch": 1480,
      "##ecess": 1481,
      "final": 1482,
      "query": 1483,
      "alphab": 1484,
      "aoki": 1485,
      "cy": 1486,
      "opt": 1487,
      "rail": 1488,
      "##less": 1489,
      "##he": 1490,
      "##ival": 1491,
      "##ested": 1492,
      "spe": 1493,
      "arrange": 1494,
      "selected": 1495,
      "##velop": 1496,
      "##work": 1497,
      "puzz": 1498,
      "kinds": 1499,
      "home": 1500,
      "mach": 1501,
      "pick": 1502,
      "##thing": 1503,
      "sho": 1504,
      "dev": 1505,
      "cook": 1506,
      "prints": 1507,
      "##ield": 1508,
      "compute": 1509,
      "50": 1510,
      "dont": 1511,
      "pres": 1512,
      "test": 1513,
      "##uation": 1514,
      "##ful": 1515,
      "##ized": 1516,
      "increas": 1517,
      "text": 1518,
      "starts": 1519,
      "friends": 1520,
      "hour": 1521,
      "sides": 1522,
      "##ible": 1523,
      "stre": 1524,
      "##ffic": 1525,
      "around": 1526,
      "##ific": 1527,
      "located": 1528,
      "icpc": 1529,
      "lot": 1530,
      "sk": 1531,
      "##ually": 1532,
      "##ese": 1533,
      "##oses": 1534,
      "develop": 1535,
      "array": 1536,
      "ident": 1537,
      "describ": 1538,
      "##-kun": 1539,
      "coun": 1540,
      "fac": 1541,
      "tick": 1542,
      "##osed": 1543,
      "##ula": 1544,
      "well": 1545,
      "door": 1546,
      "##rix": 1547,
      "become": 1548,
      "##aves": 1549,
      "draw": 1550,
      "cities": 1551,
      "map": 1552,
      "xor": 1553,
      "##rop": 1554,
      "cant": 1555,
      "alphabet": 1556,
      "face": 1557,
      "##rease": 1558,
      "inf": 1559,
      "exam": 1560,
      "art": 1561,
      "calculates": 1562,
      "parts": 1563,
      "boxes": 1564,
      "constraint": 1565,
      "probability": 1566,
      "##ai": 1567,
      "##+7": 1568,
      "##gg": 1569,
      "today": 1570,
      "##osts": 1571,
      "asc": 1572,
      "candid": 1573,
      "width": 1574,
      "##red": 1575,
      "lead": 1576,
      "finds": 1577,
      "substr": 1578,
      "remove": 1579,
      "including": 1580,
      "children": 1581,
      "shows": 1582,
      "15": 1583,
      "bit": 1584,
      "bal": 1585,
      "lay": 1586,
      "rad": 1587,
      "xy": 1588,
      "##iness": 1589,
      "##ections": 1590,
      "die": 1591,
      "##elf": 1592,
      "displ": 1593,
      "solve": 1594,
      "course": 1595,
      "got": 1596,
      "necess": 1597,
      "odd": 1598,
      "pack": 1599,
      "##tle": 1600,
      "##ature": 1601,
      "##icult": 1602,
      "shi": 1603,
      "difficult": 1604,
      "satisfying": 1605,
      "##negative": 1606,
      "sort": 1607,
      "##-p": 1608,
      "##-l": 1609,
      "inde": 1610,
      "uni": 1611,
      "meet": 1612,
      "paint": 1613,
      "currently": 1614,
      "hold": 1615,
      "method": 1616,
      "30": 1617,
      "av": 1618,
      "##ys": 1619,
      "##ull": 1620,
      "##que": 1621,
      "abc": 1622,
      "matrix": 1623,
      "destination": 1624,
      "##orts": 1625,
      "being": 1626,
      "##iver": 1627,
      "##chie": 1628,
      "##ilar": 1629,
      "known": 1630,
      "##coder": 1631,
      "immedi": 1632,
      "land": 1633,
      "own": 1634,
      "roll": 1635,
      "range": 1636,
      "s1": 1637,
      "thus": 1638,
      "##ume": 1639,
      "shape": 1640,
      "ener": 1641,
      "similar": 1642,
      "standard": 1643,
      "assigned": 1644,
      "trees": 1645,
      "##gn": 1646,
      "##inguish": 1647,
      "containing": 1648,
      "distinguish": 1649,
      "great": 1650,
      "parall": 1651,
      "region": 1652,
      "members": 1653,
      "degrees": 1654,
      "paren": 1655,
      "energy": 1656,
      "cast": 1657,
      "lit": 1658,
      "##port": 1659,
      "##100": 1660,
      "##ze": 1661,
      "pip": 1662,
      "specified": 1663,
      "non-negative": 1664,
      "ap": 1665,
      "ax": 1666,
      "field": 1667,
      "mess": 1668,
      "vi": 1669,
      "vill": 1670,
      "##des": 1671,
      "##ka": 1672,
      "##arr": 1673,
      "##andom": 1674,
      "##ode": 1675,
      "regard": 1676,
      "university": 1677,
      "00": 1678,
      "b1": 1679,
      "cle": 1680,
      "##side": 1681,
      "##-2": 1682,
      "##-b": 1683,
      "thir": 1684,
      "too": 1685,
      "seem": 1686,
      "pile": 1687,
      "##aving": 1688,
      "simple": 1689,
      "allowed": 1690,
      "##---+---+": 1691,
      "machine": 1692,
      "based": 1693,
      "cake": 1694,
      "rule": 1695,
      "say": 1696,
      "##xed": 1697,
      "##akes": 1698,
      "strong": 1699,
      "formula": 1700,
      "divide": 1701,
      "wind": 1702,
      "target": 1703,
      "statement": 1704,
      "location": 1705,
      "cube": 1706,
      "puzzle": 1707,
      "radi": 1708,
      "achie": 1709,
      "tile": 1710,
      "##ait": 1711,
      "##lf": 1712,
      "arbit": 1713,
      "keep": 1714,
      "expression": 1715,
      "friend": 1716,
      "corresponding": 1717,
      "arbitr": 1718,
      "able": 1719,
      "##awn": 1720,
      "##xx": 1721,
      "##atur": 1722,
      "##ational": 1723,
      "proper": 1724,
      "held": 1725,
      "indicates": 1726,
      "bro": 1727,
      "##gan": 1728,
      "##inct": 1729,
      "stick": 1730,
      "##ults": 1731,
      "come": 1732,
      "report": 1733,
      "abs": 1734,
      "interv": 1735,
      "109+7": 1736,
      "speed": 1737,
      "came": 1738,
      "miss": 1739,
      "pop": 1740,
      "##ior": 1741,
      "##kes": 1742,
      "##ought": 1743,
      "distinct": 1744,
      "contin": 1745,
      "##iew": 1746,
      "prev": 1747,
      "holds": 1748,
      "changes": 1749,
      "treasure": 1750,
      "free": 1751,
      "random": 1752,
      "##ty": 1753,
      "##ience": 1754,
      "##ject": 1755,
      "##inations": 1756,
      "exit": 1757,
      "atcoder": 1758,
      "possib": 1759,
      "adv": 1760,
      "results": 1761,
      "disapp": 1762,
      "longest": 1763,
      "higher": 1764,
      "activ": 1765,
      "ascending": 1766,
      "immediately": 1767,
      "third": 1768,
      "23": 1769,
      "old": 1770,
      "push": 1771,
      "##inite": 1772,
      "##ances": 1773,
      "##ution": 1774,
      "ord": 1775,
      "execut": 1776,
      "finally": 1777,
      "##izes": 1778,
      "record": 1779,
      "remainder": 1780,
      "guar": 1781,
      "objective": 1782,
      "##ently": 1783,
      "##iding": 1784,
      "exch": 1785,
      "##ction": 1786,
      "algor": 1787,
      "spell": 1788,
      "deck": 1789,
      "user": 1790,
      "peri": 1791,
      "##ather": 1792,
      "##----": 1793,
      "teams": 1794,
      "participants": 1795,
      "parenthes": 1796,
      "algorithm": 1797,
      "bre": 1798,
      "bag": 1799,
      "x-": 1800,
      "##led": 1801,
      "##lied": 1802,
      "##uce": 1803,
      "##xic": 1804,
      "##44": 1805,
      "##aten": 1806,
      "##old": 1807,
      "decide": 1808,
      "tem": 1809,
      "assumed": 1810,
      "sched": 1811,
      "cubes": 1812,
      "ho": 1813,
      "opp": 1814,
      "xn": 1815,
      "##ls": 1816,
      "lexic": 1817,
      "outside": 1818,
      "arrow": 1819,
      "1000000": 1820,
      "sets": 1821,
      "performed": 1822,
      "design": 1823,
      "depending": 1824,
      "purch": 1825,
      "lexicograph": 1826,
      "##gth": 1827,
      "##bs": 1828,
      "stage": 1829,
      "stren": 1830,
      "real": 1831,
      "enough": 1832,
      "entr": 1833,
      "##pped": 1834,
      "105": 1835,
      "scores": 1836,
      "contained": 1837,
      "10000": 1838,
      "frame": 1839,
      "highest": 1840,
      "month": 1841,
      "books": 1842,
      "monsters": 1843,
      "strength": 1844,
      "games": 1845,
      "kind": 1846,
      "net": 1847,
      "p2": 1848,
      "rab": 1849,
      "##ric": 1850,
      "##uk": 1851,
      "##ving": 1852,
      "##ji": 1853,
      "##ink": 1854,
      "##ante": 1855,
      "goes": 1856,
      "representation": 1857,
      "expected": 1858,
      "belong": 1859,
      "##board": 1860,
      "member": 1861,
      "segment": 1862,
      "subsequence": 1863,
      "display": 1864,
      "ij": 1865,
      "rock": 1866,
      "##ned": 1867,
      "##-t": 1868,
      "##ests": 1869,
      "##vered": 1870,
      "notation": 1871,
      "gives": 1872,
      "two-dimensional": 1873,
      "green": 1874,
      "repeat": 1875,
      "##lication": 1876,
      "japanese": 1877,
      "removed": 1878,
      "pal": 1879,
      "som": 1880,
      "enem": 1881,
      "obs": 1882,
      "##istinguish": 1883,
      "overl": 1884,
      "##arily": 1885,
      "trains": 1886,
      "segments": 1887,
      "concaten": 1888,
      "permutation": 1889,
      "parallel": 1890,
      "guarante": 1891,
      "c1": 1892,
      "cases": 1893,
      "costs": 1894,
      "fall": 1895,
      "hit": 1896,
      "##oo": 1897,
      "##dom": 1898,
      "stations": 1899,
      "prof": 1900,
      "units": 1901,
      "princess": 1902,
      "directly": 1903,
      "drawn": 1904,
      "except": 1905,
      "received": 1906,
      "situation": 1907,
      "competition": 1908,
      "deliver": 1909,
      "##-chan": 1910,
      "ign": 1911,
      "lang": 1912,
      "ve": 1913,
      "##-n": 1914,
      "##anced": 1915,
      "seat": 1916,
      "sell": 1917,
      "head": 1918,
      "weights": 1919,
      "##els": 1920,
      "prep": 1921,
      "expressed": 1922,
      "islands": 1923,
      "langu": 1924,
      "gets": 1925,
      "ten": 1926,
      "##agram": 1927,
      "##ling": 1928,
      "##+2": 1929,
      "##atter": 1930,
      "##ards": 1931,
      "##alth": 1932,
      "still": 1933,
      "##tead": 1934,
      "revers": 1935,
      "exist": 1936,
      "##ountain": 1937,
      "nothing": 1938,
      "##izz": 1939,
      "determined": 1940,
      "loves": 1941,
      "mark": 1942,
      "questions": 1943,
      "radius": 1944,
      "18": 1945,
      "bul": 1946,
      "hands": 1947,
      "rout": 1948,
      "wait": 1949,
      "##uff": 1950,
      "che": 1951,
      "struct": 1952,
      "meas": 1953,
      "expl": 1954,
      "corner": 1955,
      "log": 1956,
      "instead": 1957,
      "interest": 1958,
      "needs": 1959,
      "making": 1960,
      "##iddle": 1961,
      "disappear": 1962,
      "el": 1963,
      "fill": 1964,
      "hi": 1965,
      "wi": 1966,
      "##aut": 1967,
      "health": 1968,
      "consum": 1969,
      "minimize": 1970,
      "##unch": 1971,
      "regular": 1972,
      "queries": 1973,
      "cookies": 1974,
      "##fficient": 1975,
      "counter": 1976,
      "facing": 1977,
      "unique": 1978,
      "low": 1979,
      "section": 1980,
      "tell": 1981,
      "view": 1982,
      "war": 1983,
      "##ug": 1984,
      "##olute": 1985,
      "##ctor": 1986,
      "charge": 1987,
      "switch": 1988,
      "entered": 1989,
      "variable": 1990,
      "walk": 1991,
      "##-west": 1992,
      "described": 1993,
      "infinite": 1994,
      "substring": 1995,
      "absolute": 1996,
      "dam": 1997,
      "far": 1998,
      "grow": 1999,
      "main": 2000,
      "##ely": 2001,
      "##ood": 2002,
      "##uous": 2003,
      "ann": 2004,
      "altern": 2005,
      "trying": 2006,
      "taken": 2007,
      "maze": 2008,
      "movement": 2009,
      "winner": 2010,
      "inside": 2011,
      "##amples": 2012,
      "groups": 2013,
      "east-west": 2014,
      "hours": 2015,
      "16": 2016,
      "best": 2017,
      "due": 2018,
      "es": 2019,
      "live": 2020,
      "sent": 2021,
      "##dy": 2022,
      "##wers": 2023,
      "##gether": 2024,
      "##-m": 2025,
      "together": 2026,
      "##ash": 2027,
      "##aps": 2028,
      "nodes": 2029,
      "inputs": 2030,
      "cop": 2031,
      "##agon": 2032,
      "increase": 2033,
      "party": 2034,
      "summ": 2035,
      "circles": 2036,
      "standing": 2037,
      "meters": 2038,
      "kingdom": 2039,
      "repeatedly": 2040,
      "bridge": 2041,
      "shopping": 2042,
      "period": 2043,
      "1st": 2044,
      "faces": 2045,
      "ill": 2046,
      "##ism": 2047,
      "beaut": 2048,
      "shall": 2049,
      "##olo": 2050,
      "post": 2051,
      "appears": 2052,
      "office": 2053,
      "bom": 2054,
      "bill": 2055,
      "dish": 2056,
      "je": 2057,
      "middle": 2058,
      "vol": 2059,
      "##ret": 2060,
      "ang": 2061,
      "animal": 2062,
      "conver": 2063,
      "refer": 2064,
      "##aki": 2065,
      "##ilt": 2066,
      "##oint": 2067,
      "##sible": 2068,
      "aij": 2069,
      "##iction": 2070,
      "stars": 2071,
      "few": 2072,
      "suppose": 2073,
      "monster": 2074,
      "big": 2075,
      "bound": 2076,
      "mountain": 2077,
      "names": 2078,
      "pay": 2079,
      "s2": 2080,
      "y2": 2081,
      "##line": 2082,
      "##35": 2083,
      "##atic": 2084,
      "enc": 2085,
      "deal": 2086,
      "colored": 2087,
      "##ables": 2088,
      "pix": 2089,
      "elect": 2090,
      "flow": 2091,
      "six": 2092,
      "##tract": 2093,
      "##axis": 2094,
      "event": 2095,
      "undirect": 2096,
      "message": 2097,
      "jewe": 2098,
      "undirected": 2099,
      "25": 2100,
      "a0": 2101,
      "aut": 2102,
      "cm": 2103,
      "did": 2104,
      "sal": 2105,
      "y1": 2106,
      "##ron": 2107,
      "##ral": 2108,
      "##ods": 2109,
      "##iro": 2110,
      "##ament": 2111,
      "##oto": 2112,
      "notes": 2113,
      "negative": 2114,
      "##anging": 2115,
      "100000": 2116,
      "subs": 2117,
      "turns": 2118,
      "combinations": 2119,
      "occurren": 2120,
      "label": 2121,
      "village": 2122,
      "popular": 2123,
      "parentheses": 2124,
      "obser": 2125,
      "##istinguishable": 2126,
      "air": 2127,
      "cdots": 2128,
      "page": 2129,
      "##hip": 2130,
      "##mm": 2131,
      "##=1": 2132,
      "tour": 2133,
      "doctor": 2134,
      "##ife": 2135,
      "matter": 2136,
      "smaller": 2137,
      "depth": 2138,
      "included": 2139,
      "object": 2140,
      "fixed": 2141,
      "necessary": 2142,
      "bj": 2143,
      "fur": 2144,
      "lives": 2145,
      "y-": 2146,
      "##ian": 2147,
      "##-r": 2148,
      "##-f": 2149,
      "##rem": 2150,
      "##ars": 2151,
      "##aster": 2152,
      "##igit": 2153,
      "##stac": 2154,
      "ext": 2155,
      "obstac": 2156,
      "moved": 2157,
      "##ontally": 2158,
      "##coordin": 2159,
      "acce": 2160,
      "horizontally": 2161,
      "rotate": 2162,
      "panels": 2163,
      "family": 2164,
      "seems": 2165,
      "break": 2166,
      "language": 2167,
      "structure": 2168,
      "cat": 2169,
      "sections": 2170,
      "##oid": 2171,
      "##66": 2172,
      "##mit": 2173,
      "##oss": 2174,
      "ref": 2175,
      "rearr": 2176,
      "leaves": 2177,
      "alice": 2178,
      "neq": 2179,
      "body": 2180,
      "mean": 2181,
      "lengths": 2182,
      "vertically": 2183,
      "##ify": 2184,
      "applied": 2185,
      "calculation": 2186,
      "##avor": 2187,
      "attack": 2188,
      "customers": 2189,
      "previous": 2190,
      "entrance": 2191,
      "b2": 2192,
      "c2": 2193,
      "natur": 2194,
      "peter": 2195,
      "sour": 2196,
      "##ries": 2197,
      "##here": 2198,
      "##-c": 2199,
      "##ords": 2200,
      "##thers": 2201,
      "conven": 2202,
      "##ident": 2203,
      "leave": 2204,
      "exper": 2205,
      "operator": 2206,
      "resear": 2207,
      "scoring": 2208,
      "##ccess": 2209,
      "formed": 2210,
      "##-south": 2211,
      "north-south": 2212,
      "##indrom": 2213,
      "occup": 2214,
      "combination": 2215,
      "running": 2216,
      "collect": 2217,
      "denoted": 2218,
      "window": 2219,
      "guaranteed": 2220,
      "measure": 2221,
      "research": 2222,
      "bn": 2223,
      "cats": 2224,
      "est": 2225,
      "fest": 2226,
      "ge": 2227,
      "hous": 2228,
      "lock": 2229,
      "mi": 2230,
      "que": 2231,
      "##ale": 2232,
      "##word": 2233,
      "##br": 2234,
      "tourn": 2235,
      "##etr": 2236,
      "ask": 2237,
      "prov": 2238,
      "sun": 2239,
      "try": 2240,
      "minute": 2241,
      "##endar": 2242,
      "calendar": 2243,
      "passeng": 2244,
      "intern": 2245,
      "needed": 2246,
      "paths": 2247,
      "larger": 2248,
      "bars": 2249,
      "symbols": 2250,
      "lowest": 2251,
      "90": 2252,
      "aor": 2253,
      "bas": 2254,
      "date": 2255,
      "fare": 2256,
      "i+1": 2257,
      "##cle": 2258,
      "##xy": 2259,
      "##leq": 2260,
      "##amed": 2261,
      "stores": 2262,
      "##osing": 2263,
      "##ceed": 2264,
      "seats": 2265,
      "success": 2266,
      "writing": 2267,
      "trip": 2268,
      "itself": 2269,
      "training": 2270,
      "programmer": 2271,
      "hole": 2272,
      "palindrom": 2273,
      "further": 2274,
      "tournament": 2275,
      "500": 2276,
      "fer": 2277,
      "file": 2278,
      "hard": 2279,
      "##aur": 2280,
      "##gs": 2281,
      "##bb": 2282,
      "##ino": 2283,
      "areas": 2284,
      "conve": 2285,
      "const": 2286,
      "##aku": 2287,
      "cars": 2288,
      "mem": 2289,
      "secret": 2290,
      "built": 2291,
      "produc": 2292,
      "swap": 2293,
      "##uck": 2294,
      "instructions": 2295,
      "##ification": 2296,
      "ticket": 2297,
      "shift": 2298,
      "arbitrary": 2299,
      "40": 2300,
      "favor": 2301,
      "ice": 2302,
      "ran": 2303,
      "sou": 2304,
      "##code": 2305,
      "##20": 2306,
      "##hic": 2307,
      "##ators": 2308,
      "##eters": 2309,
      "##imm": 2310,
      "##otted": 2311,
      "##ighb": 2312,
      "teach": 2313,
      "calculated": 2314,
      "doesnt": 2315,
      "created": 2316,
      "sold": 2317,
      "participate": 2318,
      "food": 2319,
      "corresponds": 2320,
      "various": 2321,
      "err": 2322,
      "delete": 2323,
      "##aneous": 2324,
      "function": 2325,
      "device": 2326,
      "##ully": 2327,
      "vehic": 2328,
      "99": 2329,
      "ak": 2330,
      "night": 2331,
      "pict": 2332,
      "sam": 2333,
      "##go": 2334,
      "##min": 2335,
      "##-3": 2336,
      "##ency": 2337,
      "forward": 2338,
      "proced": 2339,
      "examples": 2340,
      "plant": 2341,
      "neighb": 2342,
      "ground": 2343,
      "##unately": 2344,
      "directed": 2345,
      "choice": 2346,
      "winning": 2347,
      "reaches": 2348,
      "currency": 2349,
      "added": 2350,
      "division": 2351,
      "serv": 2352,
      "achieve": 2353,
      "possibly": 2354,
      "network": 2355,
      "extrem": 2356,
      "19": 2357,
      "21": 2358,
      "doll": 2359,
      "ioi": 2360,
      "##sp": 2361,
      "##ins": 2362,
      "ent": 2363,
      "gram": 2364,
      "decides": 2365,
      "started": 2366,
      "performing": 2367,
      "##apping": 2368,
      "##tiliz": 2369,
      "completed": 2370,
      "receive": 2371,
      "restaur": 2372,
      "makes": 2373,
      "bridges": 2374,
      "clockwise": 2375,
      "street": 2376,
      "candidates": 2377,
      "rabbit": 2378,
      "enemy": 2379,
      "routes": 2380,
      "14": 2381,
      "111": 2382,
      "##ee": 2383,
      "##li": 2384,
      "##ko": 2385,
      "##ken": 2386,
      "##82": 2387,
      "ones": 2388,
      "beh": 2389,
      "organ": 2390,
      "unf": 2391,
      "##ultaneous": 2392,
      "club": 2393,
      "satisfaction": 2394,
      "image": 2395,
      "password": 2396,
      "simul": 2397,
      "simultaneous": 2398,
      "answers": 2399,
      "define": 2400,
      "depart": 2401,
      "robots": 2402,
      "zeros": 2403,
      "matches": 2404,
      "mathem": 2405,
      "index": 2406,
      "mission": 2407,
      "natural": 2408,
      "procedure": 2409,
      "24": 2410,
      "32": 2411,
      "fore": 2412,
      "han": 2413,
      "ki": 2414,
      "life": 2415,
      "pn": 2416,
      "pol": 2417,
      "##round": 2418,
      "##io": 2419,
      "##etic": 2420,
      "chair": 2421,
      "planning": 2422,
      "reached": 2423,
      "marked": 2424,
      "specific": 2425,
      "surround": 2426,
      "walls": 2427,
      "multiplication": 2428,
      "easy": 2429,
      "exchange": 2430,
      "schedule": 2431,
      "lexicographically": 2432,
      "source": 2433,
      "houses": 2434,
      "d1": 2435,
      "watch": 2436,
      "##30": 2437,
      "##itud": 2438,
      "alt": 2439,
      "dem": 2440,
      "pract": 2441,
      "jois": 2442,
      "contro": 2443,
      "solution": 2444,
      "##ailable": 2445,
      "slime": 2446,
      "##issors": 2447,
      "buttons": 2448,
      "stops": 2449,
      "layout": 2450,
      "similarly": 2451,
      "freely": 2452,
      "fertiliz": 2453,
      "favorite": 2454,
      "200": 2455,
      "ca": 2456,
      "drop": 2457,
      "others": 2458,
      "pot": 2459,
      "##sor": 2460,
      "##+b": 2461,
      "##vation": 2462,
      "##45": 2463,
      "anc": 2464,
      "tower": 2465,
      "ste": 2466,
      "stay": 2467,
      "stamp": 2468,
      "leaf": 2469,
      "chain": 2470,
      "changed": 2471,
      "##self": 2472,
      "carry": 2473,
      "uses": 2474,
      "maximize": 2475,
      "##ified": 2476,
      "cursor": 2477,
      "simpl": 2478,
      "123": 2479,
      "##-digit": 2480,
      "include": 2481,
      "foot": 2482,
      "eval": 2483,
      "uppercase": 2484,
      "think": 2485,
      "happiness": 2486,
      "denotes": 2487,
      "increasing": 2488,
      "available": 2489,
      "volume": 2490,
      "sampl": 2491,
      "simultaneously": 2492,
      "aff": 2493,
      "bat": 2494,
      "care": 2495,
      "diction": 2496,
      "fing": 2497,
      "ith": 2498,
      "norm": 2499,
      "past": 2500,
      "rate": 2501,
      "yet": 2502,
      "##her": 2503,
      "##ital": 2504,
      "##left": 2505,
      "plate": 2506,
      "amid": 2507,
      "chooses": 2508,
      "##ails": 2509,
      "201": 2510,
      "divisor": 2511,
      "surf": 2512,
      "against": 2513,
      "impos": 2514,
      "install": 2515,
      "balanced": 2516,
      "castle": 2517,
      "temper": 2518,
      "22": 2519,
      "hits": 2520,
      "named": 2521,
      "our": 2522,
      "ring": 2523,
      "tax": 2524,
      "tank": 2525,
      "var": 2526,
      "won": 2527,
      "##pr": 2528,
      "##ged": 2529,
      "##67": 2530,
      "##ma": 2531,
      "thought": 2532,
      "##ark": 2533,
      "##ako": 2534,
      "##olate": 2535,
      "valid": 2536,
      "clos": 2537,
      "working": 2538,
      "repeating": 2539,
      "action": 2540,
      "divisible": 2541,
      "denote": 2542,
      "instruction": 2543,
      "orders": 2544,
      "waiting": 2545,
      "angle": 2546,
      "festival": 2547,
      "products": 2548,
      "dictionary": 2549,
      "impossible": 2550,
      "a3": 2551,
      "gh": 2552,
      "gain": 2553,
      "loses": 2554,
      "mir": 2555,
      "##az": 2556,
      "##ited": 2557,
      "##let": 2558,
      "##iced": 2559,
      "##though": 2560,
      "##iving": 2561,
      "allotted": 2562,
      "although": 2563,
      "consist": 2564,
      "##rypt": 2565,
      "##ploy": 2566,
      "longer": 2567,
      "actions": 2568,
      "candidate": 2569,
      "overlap": 2570,
      "##coordinate": 2571,
      "temperature": 2572,
      "ven": 2573,
      "##ba": 2574,
      "throw": 2575,
      "strate": 2576,
      "spr": 2577,
      "##tend": 2578,
      "partition": 2579,
      "contests": 2580,
      "bull": 2581,
      "whole": 2582,
      "frac": 2583,
      "sheet": 2584,
      "determines": 2585,
      "pref": 2586,
      "acm": 2587,
      "2nd": 2588,
      "##clock": 2589,
      "degree": 2590,
      "earth": 2591,
      "instance": 2592,
      "optim": 2593,
      "regardless": 2594,
      "##akuji": 2595,
      "amidakuji": 2596,
      "dough": 2597,
      "mom": 2598,
      "vac": 2599,
      "##to": 2600,
      "##over": 2601,
      "##ia": 2602,
      "##his": 2603,
      "##onent": 2604,
      "##ister": 2605,
      "choc": 2606,
      "atcode": 2607,
      "sea": 2608,
      "seen": 2609,
      "reports": 2610,
      "taking": 2611,
      "101": 2612,
      "quick": 2613,
      "apples": 2614,
      "pred": 2615,
      "brack": 2616,
      "requested": 2617,
      "solved": 2618,
      "##box": 2619,
      "assignment": 2620,
      "looking": 2621,
      "finished": 2622,
      "rooted": 2623,
      "config": 2624,
      "customer": 2625,
      "balance": 2626,
      "greatest": 2627,
      "little": 2628,
      "sales": 2629,
      "extremely": 2630,
      "strategy": 2631,
      "chocolate": 2632,
      "bad": 2633,
      "camp": 2634,
      "fut": 2635,
      "fish": 2636,
      "might": 2637,
      "pen": 2638,
      "rating": 2639,
      "tre": 2640,
      "vot": 2641,
      "##tion": 2642,
      "##ners": 2643,
      "##cise": 2644,
      "##x2": 2645,
      "##onents": 2646,
      "##leep": 2647,
      "##ech": 2648,
      "##ention": 2649,
      "leg": 2650,
      "diagram": 2651,
      "dots": 2652,
      "grad": 2653,
      "recently": 2654,
      "records": 2655,
      "planet": 2656,
      "rectangles": 2657,
      "circum": 2658,
      "expressions": 2659,
      "triangles": 2660,
      "parent": 2661,
      "famous": 2662,
      "unders": 2663,
      "esc": 2664,
      "summer": 2665,
      "accept": 2666,
      "restaurant": 2667,
      "optimally": 2668,
      "1-": 2669,
      "cakes": 2670,
      "fil": 2671,
      "latter": 2672,
      "luck": 2673,
      "ok": 2674,
      "pc": 2675,
      "##+3": 2676,
      "##-h": 2677,
      "##fully": 2678,
      "##att": 2679,
      "##onut": 2680,
      "numer": 2681,
      "ship": 2682,
      "shuff": 2683,
      "##aped": 2684,
      "diagon": 2685,
      "##ried": 2686,
      "close": 2687,
      "takahashis": 2688,
      "fract": 2689,
      "symm": 2690,
      "assuming": 2691,
      "invest": 2692,
      "transport": 2693,
      "constraints": 2694,
      "walking": 2695,
      "relations": 2696,
      "terms": 2697,
      "present": 2698,
      "interval": 2699,
      "##izza": 2700,
      "alternately": 2701,
      "surface": 2702,
      "away": 2703,
      "hum": 2704,
      "having": 2705,
      "mic": 2706,
      "ui": 2707,
      "##times": 2708,
      "##sion": 2709,
      "##iguous": 2710,
      "##omial": 2711,
      "fort": 2712,
      "lear": 2713,
      "seed": 2714,
      "twice": 2715,
      "strange": 2716,
      "near": 2717,
      "minim": 2718,
      "distrib": 2719,
      "works": 2720,
      "likes": 2721,
      "forms": 2722,
      "##avers": 2723,
      "joi-kun": 2724,
      "##atsu": 2725,
      "phys": 2726,
      "subsequences": 2727,
      "import": 2728,
      "changing": 2729,
      "optimal": 2730,
      "distinguished": 2731,
      "apple": 2732,
      "subset": 2733,
      "moment": 2734,
      "configur": 2735,
      "cit": 2736,
      "eff": 2737,
      "fre": 2738,
      "fro": 2739,
      "gi": 2740,
      "hes": 2741,
      "hist": 2742,
      "medi": 2743,
      "r1": 2744,
      "x3": 2745,
      "##ex": 2746,
      "##more": 2747,
      "##bles": 2748,
      "often": 2749,
      "##tell": 2750,
      "proceed": 2751,
      "excl": 2752,
      "strict": 2753,
      "comes": 2754,
      "travers": 2755,
      "dividing": 2756,
      "##igned": 2757,
      "counted": 2758,
      "defe": 2759,
      "turned": 2760,
      "slimes": 2761,
      "candies": 2762,
      "looks": 2763,
      "##ference": 2764,
      "construction": 2765,
      "clear": 2766,
      "profess": 2767,
      "occurrences": 2768,
      "teacher": 2769,
      "investig": 2770,
      "dimens": 2771,
      "egg": 2772,
      "fight": 2773,
      "mer": 2774,
      "mater": 2775,
      "na": 2776,
      "##nomial": 2777,
      "##where": 2778,
      "##ires": 2779,
      "##bi": 2780,
      "##fl": 2781,
      "##33": 2782,
      "##ero": 2783,
      "##rote": 2784,
      "##osite": 2785,
      "chick": 2786,
      "exc": 2787,
      "hex": 2788,
      "programs": 2789,
      "##arest": 2790,
      "nearest": 2791,
      "squid": 2792,
      "span": 2793,
      "soon": 2794,
      "blow": 2795,
      "manag": 2796,
      "covered": 2797,
      "maxim": 2798,
      "became": 2799,
      "##ething": 2800,
      "disco": 2801,
      "countries": 2802,
      "persons": 2803,
      "actually": 2804,
      "magical": 2805,
      "receives": 2806,
      "guess": 2807,
      "capac": 2808,
      "arrangement": 2809,
      "increases": 2810,
      "leader": 2811,
      "axis": 2812,
      "something": 2813,
      "reverse": 2814,
      "bomb": 2815,
      "queue": 2816,
      "vehicle": 2817,
      "hanako": 2818,
      "fertilizer": 2819,
      "normal": 2820,
      "underst": 2821,
      "material": 2822,
      "00000": 2823,
      "3r": 2824,
      "done": 2825,
      "eating": 2826,
      "ide": 2827,
      "lined": 2828,
      "mass": 2829,
      "none": 2830,
      "rice": 2831,
      "sen": 2832,
      "ter": 2833,
      "vers": 2834,
      "wrote": 2835,
      "##pend": 2836,
      "##aa": 2837,
      "##of": 2838,
      "##uate": 2839,
      "##ger": 2840,
      "thread": 2841,
      "anal": 2842,
      "##order": 2843,
      "mob": 2844,
      "enj": 2845,
      "web": 2846,
      "neither": 2847,
      "##anges": 2848,
      "ordered": 2849,
      "leftmost": 2850,
      "contiguous": 2851,
      "apply": 2852,
      "passed": 2853,
      "##ember": 2854,
      "employ": 2855,
      "places": 2856,
      "specifically": 2857,
      "invad": 2858,
      "broken": 2859,
      "sticks": 2860,
      "prepared": 2861,
      "jewel": 2862,
      "geq": 2863,
      "convex": 2864,
      "service": 2865,
      "citiz": 2866,
      "bc": 2867,
      "bur": 2868,
      "fire": 2869,
      "hot": 2870,
      "jag": 2871,
      "ken": 2872,
      "lose": 2873,
      "sant": 2874,
      "##lish": 2875,
      "##ob": 2876,
      "##uced": 2877,
      "##21": 2878,
      "##xi": 2879,
      "##ouble": 2880,
      "##ashi": 2881,
      "proved": 2882,
      "leap": 2883,
      "##ounds": 2884,
      "delic": 2885,
      "##uel": 2886,
      "##ustr": 2887,
      "subst": 2888,
      "printed": 2889,
      "contestants": 2890,
      "participant": 2891,
      "replac": 2892,
      "##oioi": 2893,
      "attrib": 2894,
      "thinking": 2895,
      "pressed": 2896,
      "cycle": 2897,
      "intervals": 2898,
      "purchase": 2899,
      "concatenation": 2900,
      "delivery": 2901,
      "market": 2902,
      "filled": 2903,
      "animals": 2904,
      "constant": 2905,
      "memory": 2906,
      "mirr": 2907,
      "physical": 2908,
      "santa": 2909,
      "gem": 2910,
      "gold": 2911,
      "mill": 2912,
      "ts": 2913,
      "wr": 2914,
      "##nel": 2915,
      "##ku": 2916,
      "##itor": 2917,
      "##etimes": 2918,
      "##vey": 2919,
      "convers": 2920,
      "existing": 2921,
      "share": 2922,
      "##plement": 2923,
      "sure": 2924,
      "finite": 2925,
      "bob": 2926,
      "arc": 2927,
      "arithm": 2928,
      "decreas": 2929,
      "ability": 2930,
      "##und": 2931,
      "##key": 2932,
      "choosing": 2933,
      "##venir": 2934,
      "painting": 2935,
      "buildings": 2936,
      "reading": 2937,
      "polynomial": 2938,
      "myst": 2939,
      "rotation": 2940,
      "##idden": 2941,
      "railway": 2942,
      "##--------": 2943,
      "##4435": 2944,
      "##olog": 2945,
      "autom": 2946,
      "convenience": 2947,
      "basic": 2948,
      "souvenir": 2949,
      "9982": 2950,
      "picture": 2951,
      "mathematic": 2952,
      "practice": 2953,
      "important": 2954,
      "heshe": 2955,
      "capacity": 2956,
      "3rd": 2957,
      "enjoy": 2958,
      "delicious": 2959,
      "99824435": 2960,
      "bm": 2961,
      "jiro": 2962,
      "k-th": 2963,
      "la": 2964,
      "med": 2965,
      "wide": 2966,
      "##pose": 2967,
      "##point": 2968,
      "##duct": 2969,
      "##n-1": 2970,
      "##wards": 2971,
      "##-pl": 2972,
      "##ining": 2973,
      "##ato": 2974,
      "took": 2975,
      "reas": 2976,
      "leaving": 2977,
      "chord": 2978,
      "suit": 2979,
      "super": 2980,
      "##ili": 2981,
      "true": 2982,
      "operators": 2983,
      "mind": 2984,
      "##cular": 2985,
      "passes": 2986,
      "passing": 2987,
      "computes": 2988,
      "blackboard": 2989,
      "locations": 2990,
      "##-sc": 2991,
      "correctly": 2992,
      "general": 2993,
      "limited": 2994,
      "tickets": 2995,
      "opposite": 2996,
      "bulbs": 2997,
      "neighboring": 2998,
      "entire": 2999,
      "##itude": 3000,
      "wonder": 3001,
      "##clockwise": 3002,
      "circumference": 3003,
      "998244353": 3004,
      "aud": 3005,
      "eight": 3006,
      "gir": 3007,
      "ika": 3008,
      "lunch": 3009,
      "ra": 3010,
      "r2": 3011,
      "##rid": 3012,
      "##rict": 3013,
      "##yo": 3014,
      "##oe": 3015,
      "##miss": 3016,
      "##ised": 3017,
      "##umber": 3018,
      "onto": 3019,
      "stock": 3020,
      "seven": 3021,
      "self": 3022,
      "prices": 3023,
      "doing": 3024,
      "carp": 3025,
      "plays": 3026,
      "mansion": 3027,
      "##unic": 3028,
      "##unge": 3029,
      "resid": 3030,
      "distances": 3031,
      "elev": 3032,
      "quite": 3033,
      "corrid": 3034,
      "##1111": 3035,
      "wanted": 3036,
      "commit": 3037,
      "##123": 3038,
      "##-width": 3039,
      "capt": 3040,
      "shops": 3041,
      "relative": 3042,
      "permutations": 3043,
      "judges": 3044,
      "regarded": 3045,
      "advance": 3046,
      "infinitely": 3047,
      "beautif": 3048,
      "labeled": 3049,
      "experim": 3050,
      "occupied": 3051,
      "grams": 3052,
      "surrounded": 3053,
      "micro": 3054,
      "strictly": 3055,
      "ika-chan": 3056,
      "17": 3057,
      "110": 3058,
      "bir": 3059,
      "crit": 3060,
      "gac": 3061,
      "n+1": 3062,
      "sleep": 3063,
      "##ele": 3064,
      "##a2": 3065,
      "##ler": 3066,
      "##ii": 3067,
      "##ix": 3068,
      "##ium": 3069,
      "##house": 3070,
      "##ms": 3071,
      "##atures": 3072,
      "##icy": 3073,
      "exhi": 3074,
      "##aker": 3075,
      "##verage": 3076,
      "##ization": 3077,
      "soft": 3078,
      "##ipher": 3079,
      "##oku": 3080,
      "quant": 3081,
      "compress": 3082,
      "performance": 3083,
      "defin": 3084,
      "indicating": 3085,
      "##-sh": 3086,
      "stored": 3087,
      "phone": 3088,
      "survey": 3089,
      "constructed": 3090,
      "termin": 3091,
      "easily": 3092,
      "judge": 3093,
      "streets": 3094,
      "lotter": 3095,
      "skill": 3096,
      "necessarily": 3097,
      "sometimes": 3098,
      "bulb": 3099,
      "ancient": 3100,
      "taxi": 3101,
      "atcodeer": 3102,
      "##echn": 3103,
      "relationship": 3104,
      "gacch": 3105,
      "26": 3106,
      "27": 3107,
      "dom": 3108,
      "fuel": 3109,
      "later": 3110,
      "mbox": 3111,
      "py": 3112,
      "save": 3113,
      "techn": 3114,
      "##ties": 3115,
      "##nut": 3116,
      "##25": 3117,
      "##23": 3118,
      "##=0": 3119,
      "ing": 3120,
      "##ambo": 3121,
      "conduct": 3122,
      "##tee": 3123,
      "prop": 3124,
      "project": 3125,
      "chall": 3126,
      "##aked": 3127,
      "##aking": 3128,
      "followed": 3129,
      "noticed": 3130,
      "decrease": 3131,
      "##used": 3132,
      "figures": 3133,
      "arrives": 3134,
      "everyone": 3135,
      "counting": 3136,
      "imag": 3137,
      "commands": 3138,
      "puts": 3139,
      "himself": 3140,
      "processing": 3141,
      "half-width": 3142,
      "capital": 3143,
      "stacked": 3144,
      "factory": 3145,
      "bitwise": 3146,
      "pipe": 3147,
      "pipes": 3148,
      "property": 3149,
      "ordinary": 3150,
      "x-axis": 3151,
      "boundary": 3152,
      "pixel": 3153,
      "passengers": 3154,
      "escape": 3155,
      "mobile": 3156,
      "arithmetic": 3157,
      "myster": 3158,
      "committee": 3159,
      "beautiful": 3160,
      "cj": 3161,
      "fx": 3162,
      "full": 3163,
      "gl": 3164,
      "hyp": 3165,
      "n2": 3166,
      "song": 3167,
      "##use": 3168,
      "##ware": 3169,
      "##ik": 3170,
      "##mas": 3171,
      "##be": 3172,
      "##-se": 3173,
      "##78": 3174,
      "##50": 3175,
      "##estern": 3176,
      "an-1": 3177,
      "##arrow": 3178,
      "stands": 3179,
      "##imate": 3180,
      "##term": 3181,
      "##ilities": 3182,
      "constell": 3183,
      "##ipul": 3184,
      "remember": 3185,
      "qual": 3186,
      "appe": 3187,
      "appro": 3188,
      "equation": 3189,
      "frames": 3190,
      "planned": 3191,
      "snukes": 3192,
      "precise": 3193,
      "##ensity": 3194,
      "interested": 3195,
      "remains": 3196,
      "indices": 3197,
      "indicate": 3198,
      "access": 3199,
      "intersections": 3200,
      "series": 3201,
      "flags": 3202,
      "leading": 3203,
      "illustr": 3204,
      "encrypt": 3205,
      "pixels": 3206,
      "furthermore": 3207,
      "venue": 3208,
      "frequ": 3209,
      "understand": 3210,
      "launch": 3211,
      "definition": 3212,
      "##-shaped": 3213,
      "lottery": 3214,
      "01": 3215,
      "2d": 3216,
      "bid": 3217,
      "bank": 3218,
      "bought": 3219,
      "cup": 3220,
      "hote": 3221,
      "hidden": 3222,
      "master": 3223,
      "n-th": 3224,
      "piles": 3225,
      "sil": 3226,
      "swe": 3227,
      "saf": 3228,
      "sizes": 3229,
      "tal": 3230,
      "##por": 3231,
      "##right": 3232,
      "##lock": 3233,
      "##yan": 3234,
      "##ier": 3235,
      "though": 3236,
      "##atory": 3237,
      "tom": 3238,
      "##ories": 3239,
      "states": 3240,
      "attem": 3241,
      "##akam": 3242,
      "plans": 3243,
      "sufficient": 3244,
      "eng": 3245,
      "##oints": 3246,
      "prior": 3247,
      "manipul": 3248,
      "incor": 3249,
      "clim": 3250,
      "arranging": 3251,
      "detect": 3252,
      "performs": 3253,
      "passage": 3254,
      "park": 3255,
      "command": 3256,
      "##traction": 3257,
      "swimm": 3258,
      "fee": 3259,
      "transform": 3260,
      "rotated": 3261,
      "inserted": 3262,
      "purpose": 3263,
      "labor": 3264,
      "counts": 3265,
      "##ropri": 3266,
      "examination": 3267,
      "arbitrarily": 3268,
      "activity": 3269,
      "obstacle": 3270,
      "obstacles": 3271,
      "rearrange": 3272,
      "international": 3273,
      "palindrome": 3274,
      "500-yen": 3275,
      "error": 3276,
      "unfort": 3277,
      "finger": 3278,
      "bullet": 3279,
      "quickly": 3280,
      "chicken": 3281,
      "spanning": 3282,
      "+---+---+": 3283,
      "31": 3284,
      "dang": 3285,
      "eats": 3286,
      "ky": 3287,
      "otimes": 3288,
      "pond": 3289,
      "paid": 3290,
      "pizza": 3291,
      "rain": 3292,
      "send": 3293,
      "yell": 3294,
      "##pi": 3295,
      "##ns": 3296,
      "##hy": 3297,
      "##val": 3298,
      "##36": 3299,
      "thick": 3300,
      "##int": 3301,
      "##atically": 3302,
      "iss": 3303,
      "##lec": 3304,
      "sto": 3305,
      "##ented": 3306,
      "##ura": 3307,
      "aligned": 3308,
      "tries": 3309,
      "tried": 3310,
      "doors": 3311,
      "##ocket": 3312,
      "appropri": 3313,
      "fraction": 3314,
      "##aved": 3315,
      "study": 3316,
      "bring": 3317,
      "sij": 3318,
      "traveling": 3319,
      "marks": 3320,
      "resulting": 3321,
      "divisors": 3322,
      "phr": 3323,
      "occurs": 3324,
      "crack": 3325,
      "touching": 3326,
      "substrings": 3327,
      "##-paper": 3328,
      "##-by": 3329,
      "continue": 3330,
      "displayed": 3331,
      "##ology": 3332,
      "mountains": 3333,
      "installed": 3334,
      "ringo": 3335,
      "closest": 3336,
      "doughnut": 3337,
      "##-scissors": 3338,
      "capture": 3339,
      "+---+---+---+---+": 3340,
      "bits": 3341,
      "cd": 3342,
      "cave": 3343,
      "coc": 3344,
      "doc": 3345,
      "dance": 3346,
      "dunge": 3347,
      "gather": 3348,
      "jun": 3349,
      "km": 3350,
      "kan": 3351,
      "lt": 3352,
      "mist": 3353,
      "mond": 3354,
      "ni": 3355,
      "qi": 3356,
      "ru": 3357,
      "sound": 3358,
      "yam": 3359,
      "##aj": 3360,
      "##uy": 3361,
      "##writ": 3362,
      "##01": 3363,
      "##zero": 3364,
      "##-left": 3365,
      "thing": 3366,
      "things": 3367,
      "ant": 3368,
      "##rown": 3369,
      "##ameter": 3370,
      "##osh": 3371,
      "rele": 3372,
      "prot": 3373,
      "sug": 3374,
      "sugor": 3375,
      "susp": 3376,
      "wee": 3377,
      "##ldots": 3378,
      "unk": 3379,
      "cover": 3380,
      "rightmost": 3381,
      "clo": 3382,
      "subtract": 3383,
      "subtraction": 3384,
      "choices": 3385,
      "##empty": 3386,
      "preced": 3387,
      "insp": 3388,
      "communic": 3389,
      "holes": 3390,
      "keys": 3391,
      "phot": 3392,
      "runs": 3393,
      "pull": 3394,
      "attach": 3395,
      "destro": 3396,
      "eaten": 3397,
      "arrangements": 3398,
      "cookie": 3399,
      "sorted": 3400,
      "randomly": 3401,
      "##uki": 3402,
      "ignored": 3403,
      "prepare": 3404,
      "damage": 3405,
      "beauty": 3406,
      "electric": 3407,
      "demon": 3408,
      "control": 3409,
      "vacation": 3410,
      "human": 3411,
      "citizens": 3412,
      "birth": 3413,
      "gaccho": 3414,
      "bidirect": 3415,
      "yellow": 3416,
      "docum": 3417,
      "monday": 3418,
      "sugoroku": 3419,
      "average": 3420,
      "catch": 3421,
      "da": 3422,
      "efficient": 3423,
      "hun": 3424,
      "mor": 3425,
      "nth": 3426,
      "pub": 3427,
      "rat": 3428,
      "says": 3429,
      "sister": 3430,
      "wish": 3431,
      "##tc": 3432,
      "##cd": 3433,
      "##ipped": 3434,
      "##++": 3435,
      "##man": 3436,
      "##enn": 3437,
      "##ising": 3438,
      "sty": 3439,
      "shelf": 3440,
      "ali": 3441,
      "##istmas": 3442,
      "##oci": 3443,
      "spl": 3444,
      "finding": 3445,
      "dogs": 3446,
      "grade": 3447,
      "better": 3448,
      "##ption": 3449,
      "subt": 3450,
      "compart": 3451,
      "##ahed": 3452,
      "contr": 3453,
      "tasks": 3454,
      "bright": 3455,
      "kept": 3456,
      "includes": 3457,
      "non-empty": 3458,
      "signal": 3459,
      "happen": 3460,
      "touches": 3461,
      "judg": 3462,
      "cyl": 3463,
      "development": 3464,
      "alphabetical": 3465,
      "independ": 3466,
      "properties": 3467,
      "executed": 3468,
      "execution": 3469,
      "logical": 3470,
      "copies": 3471,
      "bills": 3472,
      "bracket": 3473,
      "future": 3474,
      "gift": 3475,
      "decreases": 3476,
      "constellation": 3477,
      "unfortunately": 3478,
      "1leq": 3479,
      "aim": 3480,
      "a+b": 3481,
      "fast": 3482,
      "hall": 3483,
      "hish": 3484,
      "love": 3485,
      "ride": 3486,
      "ss": 3487,
      "went": 3488,
      "western": 3489,
      "yu": 3490,
      "##points": 3491,
      "##ra": 3492,
      "##ristmas": 3493,
      "##yi": 3494,
      "##og": 3495,
      "##days": 3496,
      "##cm": 3497,
      "##iers": 3498,
      "toward": 3499,
      "##ami": 3500,
      "##ics": 3501,
      "##omm": 3502,
      "chem": 3503,
      "christmas": 3504,
      "tra": 3505,
      "track": 3506,
      "decl": 3507,
      "minus": 3508,
      "##abled": 3509,
      "upd": 3510,
      "cla": 3511,
      "clou": 3512,
      "##ifts": 3513,
      "##text": 3514,
      "divides": 3515,
      "arrive": 3516,
      "##plus": 3517,
      "circular": 3518,
      "parce": 3519,
      "produce": 3520,
      "knows": 3521,
      "adding": 3522,
      "earli": 3523,
      "era": 3524,
      "jumping": 3525,
      "signific": 3526,
      "##-char": 3527,
      "completely": 3528,
      "homework": 3529,
      "arrows": 3530,
      "rock-paper": 3531,
      "didnt": 3532,
      "##mitted": 3533,
      "dolls": 3534,
      "votes": 3535,
      "fortunately": 3536,
      "wrong": 3537,
      "mathematics": 3538,
      "criter": 3539,
      "mysterious": 3540,
      "incorrect": 3541,
      "laboratory": 3542,
      "dungeon": 3543,
      "attached": 3544,
      "hisher": 3545,
      "significant": 3546,
      "rock-paper-scissors": 3547,
      "3n": 3548,
      "42": 3549,
      "60": 3550,
      "80": 3551,
      "bambo": 3552,
      "dy": 3553,
      "dro": 3554,
      "dark": 3555,
      "fa": 3556,
      "fail": 3557,
      "gave": 3558,
      "ju": 3559,
      "lost": 3560,
      "laid": 3561,
      "m2": 3562,
      "men": 3563,
      "mil": 3564,
      "mus": 3565,
      "pse": 3566,
      "rank": 3567,
      "ya": 3568,
      "yn": 3569,
      "##nown": 3570,
      "##sh": 3571,
      "##cdots": 3572,
      "##ients": 3573,
      "##hatt": 3574,
      "##qr": 3575,
      "##bre": 3576,
      "##fact": 3577,
      "##86": 3578,
      "##anc": 3579,
      "##ison": 3580,
      "##aser": 3581,
      "##ety": 3582,
      "##imeters": 3583,
      "rev": 3584,
      "really": 3585,
      "##enty": 3586,
      "##ential": 3587,
      "##urs": 3588,
      "manhatt": 3589,
      "perf": 3590,
      "container": 3591,
      "representations": 3592,
      "district": 3593,
      "closed": 3594,
      "components": 3595,
      "creating": 3596,
      "implement": 3597,
      "synt": 3598,
      "requires": 3599,
      "solving": 3600,
      "desired": 3601,
      "##augh": 3602,
      "fourth": 3603,
      "visiting": 3604,
      "subsequent": 3605,
      "impro": 3606,
      "famili": 3607,
      "multiples": 3608,
      "developed": 3609,
      "avoid": 3610,
      "continuous": 3611,
      "profit": 3612,
      "180": 3613,
      "else": 3614,
      "jewels": 3615,
      "passenger": 3616,
      "joisino": 3617,
      "legend": 3618,
      "diagonally": 3619,
      "configuration": 3620,
      "discovered": 3621,
      "subtree": 3622,
      "pseud": 3623,
      "manhattan": 3624,
      "0000": 3625,
      "36": 3626,
      "4th": 3627,
      "d2": 3628,
      "fn": 3629,
      "hy": 3630,
      "hide": 3631,
      "i1": 3632,
      "ich": 3633,
      "nats": 3634,
      "pages": 3635,
      "rational": 3636,
      "##oon": 3637,
      "##cr": 3638,
      "##22": 3639,
      "##bits": 3640,
      "##-e": 3641,
      "thre": 3642,
      "##rement": 3643,
      "##anes": 3644,
      "tool": 3645,
      "##orrow": 3646,
      "##aring": 3647,
      "##ision": 3648,
      "##ama": 3649,
      "stor": 3650,
      "forg": 3651,
      "extr": 3652,
      "##ulas": 3653,
      "plum": 3654,
      "##ilater": 3655,
      "trad": 3656,
      "dead": 3657,
      "uns": 3658,
      "sub-": 3659,
      "setting": 3660,
      "libr": 3661,
      "recip": 3662,
      "flower": 3663,
      "##icks": 3664,
      "simp": 3665,
      "adjust": 3666,
      "regions": 3667,
      "depends": 3668,
      "particular": 3669,
      "reduce": 3670,
      "traveled": 3671,
      "visits": 3672,
      "complex": 3673,
      "powerful": 3674,
      "fox": 3675,
      "descending": 3676,
      "cutting": 3677,
      "icic": 3678,
      "stacking": 3679,
      "treasures": 3680,
      "railro": 3681,
      "goto": 3682,
      "##-line": 3683,
      "meeting": 3684,
      "100000000": 3685,
      "counterclockwise": 3686,
      "warp": 3687,
      "announ": 3688,
      "y-axis": 3689,
      "##-right": 3690,
      "meaning": 3691,
      "ranked": 3692,
      "ghost": 3693,
      "penal": 3694,
      "1-st": 3695,
      "fighting": 3696,
      "manager": 3697,
      "idea": 3698,
      "hotel": 3699,
      "priority": 3700,
      "climb": 3701,
      "##lects": 3702,
      "perfect": 3703,
      "1s": 3704,
      "1in": 3705,
      "2ks": 3706,
      "45": 3707,
      "999": 3708,
      "bon": 3709,
      "i-1": 3710,
      "loss": 3711,
      "mid": 3712,
      "pill": 3713,
      "ske": 3714,
      "tv": 3715,
      "tetr": 3716,
      "##oper": 3717,
      "##ng": 3718,
      "##ci": 3719,
      "##crib": 3720,
      "##-up": 3721,
      "##77": 3722,
      "##inks": 3723,
      "##onest": 3724,
      "anagram": 3725,
      "##orter": 3726,
      "##organ": 3727,
      "##utions": 3728,
      "##icity": 3729,
      "##imin": 3730,
      "##oshi": 3731,
      "asks": 3732,
      "extract": 3733,
      "##ctions": 3734,
      "##illed": 3735,
      "notice": 3736,
      "sudd": 3737,
      "##sel": 3738,
      "enorm": 3739,
      "deb": 3740,
      "##ichi": 3741,
      "blank": 3742,
      "##ably": 3743,
      "##abab": 3744,
      "meat": 3745,
      "anything": 3746,
      "scen": 3747,
      "scale": 3748,
      "cler": 3749,
      "submiss": 3750,
      "passages": 3751,
      "brain": 3752,
      "placement": 3753,
      "hero": 3754,
      "local": 3755,
      "travels": 3756,
      "additional": 3757,
      "##indistinguishable": 3758,
      "begins": 3759,
      "visited": 3760,
      "candy": 3761,
      "exceeds": 3762,
      "supply": 3763,
      "generate": 3764,
      "crab": 3765,
      "happy": 3766,
      "discard": 3767,
      "presents": 3768,
      "sky": 3769,
      "liters": 3770,
      "pipel": 3771,
      "bags": 3772,
      "purchased": 3773,
      "rabbits": 3774,
      "sells": 3775,
      "cheese": 3776,
      "consumed": 3777,
      "switches": 3778,
      "sentence": 3779,
      "behav": 3780,
      "forest": 3781,
      "simplicity": 3782,
      "learned": 3783,
      "replaced": 3784,
      "mirrors": 3785,
      "experiment": 3786,
      "coconut": 3787,
      "week": 3788,
      "destroy": 3789,
      "document": 3790,
      "ratio": 3791,
      "##abledistinguishable": 3792,
      "ichiro": 3793,
      "sudden": 3794,
      "enormous": 3795,
      "->": 3796,
      "0-": 3797,
      "35": 3798,
      "age": 3799,
      "double": 3800,
      "etc": 3801,
      "fit": 3802,
      "ful": 3803,
      "gate": 3804,
      "n1": 3805,
      "oplus": 3806,
      "rm": 3807,
      "sand": 3808,
      "tie": 3809,
      "##a1": 3810,
      "##after": 3811,
      "##west": 3812,
      "##come": 3813,
      "##cast": 3814,
      "##ike": 3815,
      "##+y": 3816,
      "##bling": 3817,
      "##><": 3818,
      "##ony": 3819,
      "ants": 3820,
      "##rod": 3821,
      "stages": 3822,
      "prom": 3823,
      "attend": 3824,
      "heights": 3825,
      "giving": 3826,
      "unc": 3827,
      "usual": 3828,
      "ai+1": 3829,
      "reser": 3830,
      "income": 3831,
      "former": 3832,
      "reco": 3833,
      "equip": 3834,
      "creature": 3835,
      "newly": 3836,
      "getting": 3837,
      "12n": 3838,
      "showing": 3839,
      "cuts": 3840,
      "collection": 3841,
      "couldnt": 3842,
      "aizu-n": 3843,
      "removing": 3844,
      "patterns": 3845,
      "fund": 3846,
      "president": 3847,
      "alphabetic": 3848,
      "difficulty": 3849,
      "clean": 3850,
      "x-coordinate": 3851,
      "concatenating": 3852,
      "falling": 3853,
      "ignore": 3854,
      "occurrence": 3855,
      "convenient": 3856,
      "provide": 3857,
      "planted": 3858,
      "chairs": 3859,
      "lucky": 3860,
      "transportation": 3861,
      "median": 3862,
      "professor": 3863,
      "reason": 3864,
      "residents": 3865,
      "software": 3866,
      "ingred": 3867,
      "precisely": 3868,
      "attempt": 3869,
      "danger": 3870,
      "split": 3871,
      "criteria": 3872,
      "syntax": 3873,
      "##aught": 3874,
      "forgot": 3875,
      "##ilateral": 3876,
      "tetrahed": 3877,
      "aizu-nyan": 3878,
      "1-th": 3879,
      "28": 3880,
      "<=": 3881,
      "bed": 3882,
      "bow": 3883,
      "c-1": 3884,
      "gard": 3885,
      "ham": 3886,
      "living": 3887,
      "pocket": 3888,
      "ram": 3889,
      "race": 3890,
      "rhy": 3891,
      "tun": 3892,
      "tag": 3893,
      "tone": 3894,
      "tired": 3895,
      "##p2": 3896,
      "##rm": 3897,
      "##lies": 3898,
      "##uit": 3899,
      "##uits": 3900,
      "##24": 3901,
      "##x1": 3902,
      "##vable": 3903,
      "##bble": 3904,
      "##-4": 3905,
      "##ju": 3906,
      "##jects": 3907,
      "##88": 3908,
      "##ert": 3909,
      "##ery": 3910,
      "##inde": 3911,
      "ink": 3912,
      "##ana": 3913,
      "##ionally": 3914,
      "##umer": 3915,
      "##the": 3916,
      "whe": 3917,
      "extend": 3918,
      "selects": 3919,
      "##uri": 3920,
      "##apes": 3921,
      "##ground": 3922,
      "weigh": 3923,
      "prize": 3924,
      "carried": 3925,
      "blood": 3926,
      "arch": 3927,
      "manju": 3928,
      "users": 3929,
      "10-yen": 3930,
      "##ished": 3931,
      "movements": 3932,
      "somewhere": 3933,
      "subjects": 3934,
      "##ended": 3935,
      "compare": 3936,
      "applic": 3937,
      "application": 3938,
      "buying": 3939,
      "arrival": 3940,
      "calculating": 3941,
      "indiv": 3942,
      "desk": 3943,
      "interp": 3944,
      "placing": 3945,
      "elementary": 3946,
      "##-satur": 3947,
      "horse": 3948,
      "idol": 3949,
      "additionally": 3950,
      "##awa": 3951,
      "##bited": 3952,
      "central": 3953,
      "combat": 3954,
      "combine": 3955,
      "entering": 3956,
      "transfer": 3957,
      "classes": 3958,
      "multiply": 3959,
      "generated": 3960,
      "deleted": 3961,
      "shoot": 3962,
      "identical": 3963,
      "identify": 3964,
      "packet": 3965,
      "packages": 3966,
      "possibility": 3967,
      "recorded": 3968,
      "illum": 3969,
      "errors": 3970,
      "prefix": 3971,
      "##-hand": 3972,
      "shuffle": 3973,
      "symmetr": 3974,
      "frog": 3975,
      "exclud": 3976,
      "attribute": 3977,
      "##ological": 3978,
      "deliciousness": 3979,
      "##-plane": 3980,
      "microorgan": 3981,
      "monday-satur": 3982,
      "morning": 3983,
      "juice": 3984,
      "natsume": 3985,
      "microorganism": 3986,
      "monday-saturday": 3987,
      "05": 3988,
      "011": 3989,
      "bun": 3990,
      "cause": 3991,
      "caves": 3992,
      "ei": 3993,
      "gam": 3994,
      "gap": 3995,
      "kil": 3996,
      "mask": 3997,
      "pach": 3998,
      "rub": 3999,
      "rounds": 4000,
      "sig": 4001,
      "site": 4002,
      "sale": 4003,
      "wire": 4004,
      "##eed": 4005,
      "##ration": 4006,
      "##uge": 4007,
      "##uces": 4008,
      "##sy": 4009,
      "##ck": 4010,
      "##hab": 4011,
      "##ki": 4012,
      "##zen": 4013,
      "##bn": 4014,
      "##32": 4015,
      "theore": 4016,
      "##reen": 4017,
      "##enge": 4018,
      "##anks": 4019,
      "todays": 4020,
      "##llent": 4021,
      "##aru": 4022,
      "##umul": 4023,
      "##ross": 4024,
      "##eterm": 4025,
      "##icted": 4026,
      "stuff": 4027,
      "##thm": 4028,
      "##imary": 4029,
      "thats": 4030,
      "##igible": 4031,
      "force": 4032,
      "##resh": 4033,
      "mole": 4034,
      "##ural": 4035,
      "twenty": 4036,
      "##ively": 4037,
      "##aded": 4038,
      "weather": 4039,
      "##izing": 4040,
      "scissors": 4041,
      "100-yen": 4042,
      "subject": 4043,
      "##ope": 4044,
      "##ops": 4045,
      "quad": 4046,
      "tele": 4047,
      "complic": 4048,
      "composed": 4049,
      "equival": 4050,
      "equilateral": 4051,
      "frag": 4052,
      "modification": 4053,
      "request": 4054,
      "computers": 4055,
      "selection": 4056,
      "##-san": 4057,
      "excellent": 4058,
      "separate": 4059,
      "invers": 4060,
      "non-zero": 4061,
      "transl": 4062,
      "surpr": 4063,
      "intersect": 4064,
      "finishes": 4065,
      "##works": 4066,
      "restore": 4067,
      "sitting": 4068,
      "checker": 4069,
      "business": 4070,
      "##-way": 4071,
      "opening": 4072,
      "discount": 4073,
      "factor": 4074,
      "crossing": 4075,
      "testim": 4076,
      "xy-plane": 4077,
      "displays": 4078,
      "sorting": 4079,
      "distinguishable": 4080,
      "prevent": 4081,
      "algorithms": 4082,
      "consumes": 4083,
      "uniquely": 4084,
      "growth": 4085,
      "convert": 4086,
      "flowers": 4087,
      "y-coordinate": 4088,
      "locked": 4089,
      "organization": 4090,
      "department": 4091,
      "controll": 4092,
      "battle": 4093,
      "ghosts": 4094,
      "treated": 4095,
      "symmet": 4096,
      "dimension": 4097,
      "analy": 4098,
      "##oeba": 4099,
      "corridor": 4100,
      "propos": 4101,
      "challenge": 4102,
      "##akamatsu": 4103,
      "phrase": 4104,
      "simply": 4105,
      "railroad": 4106,
      "1000000007": 4107,
      "penalty": 4108,
      "##cribed": 4109,
      "suddenly": 4110,
      "ramen": 4111,
      "rhythm": 4112,
      "individ": 4113,
      "equivalent": 4114,
      "0s": 4115,
      "<n": 4116,
      "bath": 4117,
      "ey": 4118,
      "e1": 4119,
      "euc": 4120,
      "fresh": 4121,
      "i2": 4122,
      "lamp": 4123,
      "laser": 4124,
      "mis": 4125,
      "nath": 4126,
      "nails": 4127,
      "narrow": 4128,
      "pin": 4129,
      "pet": 4130,
      "port": 4131,
      "tt": 4132,
      "tur": 4133,
      "wood": 4134,
      "xj": 4135,
      "x-y": 4136,
      "##ey": 4137,
      "##ram": 4138,
      "##light": 4139,
      "##lings": 4140,
      "##y2": 4141,
      "##ued": 4142,
      "##wang": 4143,
      "##s2": 4144,
      "##shi": 4145,
      "##gart": 4146,
      "##kg": 4147,
      "##my": 4148,
      "##vi": 4149,
      "##by": 4150,
      "##-z": 4151,
      "##onn": 4152,
      "anten": 4153,
      "##itted": 4154,
      "##ority": 4155,
      "##aries": 4156,
      "##ises": 4157,
      "##umes": 4158,
      "##rot": 4159,
      "##uted": 4160,
      "##oman": 4161,
      "##ids": 4162,
      "proport": 4163,
      "exer": 4164,
      "##irm": 4165,
      "##chi": 4166,
      "##oles": 4167,
      "moon": 4168,
      "integral": 4169,
      "##vert": 4170,
      "##ector": 4171,
      "encl": 4172,
      "##dergart": 4173,
      "##arent": 4174,
      "negl": 4175,
      "deep": 4176,
      "spent": 4177,
      "spot": 4178,
      "unless": 4179,
      "unlock": 4180,
      "operate": 4181,
      "operated": 4182,
      "meal": 4183,
      "someone": 4184,
      "sums": 4185,
      "formally": 4186,
      "##airs": 4187,
      "bubble": 4188,
      "detail": 4189,
      "calculator": 4190,
      "cream": 4191,
      "newline": 4192,
      "connection": 4193,
      "require": 4194,
      "requests": 4195,
      "considering": 4196,
      "a1a2": 4197,
      "contestant": 4198,
      "poor": 4199,
      "acqu": 4200,
      "centimeters": 4201,
      "assignments": 4202,
      "collected": 4203,
      "united": 4204,
      "##words": 4205,
      "kindergart": 4206,
      "returns": 4207,
      "erase": 4208,
      "universe": 4209,
      "delimit": 4210,
      "artist": 4211,
      "artwork": 4212,
      "uniform": 4213,
      "properly": 4214,
      "spells": 4215,
      "##-number": 4216,
      "tells": 4217,
      "copy": 4218,
      "reference": 4219,
      "airport": 4220,
      "tourist": 4221,
      "measured": 4222,
      "estimate": 4223,
      "i+1-th": 4224,
      "palindromes": 4225,
      "departure": 4226,
      "carefully": 4227,
      "accepted": 4228,
      "minimized": 4229,
      "proceeds": 4230,
      "substit": 4231,
      "appropriate": 4232,
      "birthday": 4233,
      "chemical": 4234,
      "behavior": 4235,
      "symmetrical": 4236,
      "stuffed": 4237,
      "complicated": 4238,
      "##wango": 4239,
      "antenn": 4240,
      "--": 4241,
      "33": 4242,
      "aar": 4243,
      "bud": 4244,
      "batter": 4245,
      "boss": 4246,
      "dv": 4247,
      "donut": 4248,
      "fly": 4249,
      "gur": 4250,
      "honest": 4251,
      "huge": 4252,
      "k1": 4253,
      "kag": 4254,
      "lights": 4255,
      "lane": 4256,
      "mot": 4257,
      "nin": 4258,
      "rj": 4259,
      "rent": 4260,
      "vending": 4261,
      "vote": 4262,
      "x0": 4263,
      "##rices": 4264,
      "##y1": 4265,
      "##ogram": 4266,
      "##off": 4267,
      "##ufact": 4268,
      "##sk": 4269,
      "##19": 4270,
      "##18": 4271,
      "##15": 4272,
      "##k-1": 4273,
      "##back": 4274,
      "##-a": 4275,
      "##40": 4276,
      "thrown": 4277,
      "isom": 4278,
      "##etition": 4279,
      "youve": 4280,
      "numoeba": 4281,
      "##ache": 4282,
      "chan": 4283,
      "##termin": 4284,
      "one-way": 4285,
      "shel": 4286,
      "suc": 4287,
      "alone": 4288,
      "reply": 4289,
      "trig": 4290,
      "sports": 4291,
      "sphere": 4292,
      "linear": 4293,
      "cargo": 4294,
      "manufact": 4295,
      "intensity": 4296,
      "upon": 4297,
      "scient": 4298,
      "moreover": 4299,
      "liqu": 4300,
      "forming": 4301,
      "associ": 4302,
      "recent": 4303,
      "recurs": 4304,
      "arrived": 4305,
      "corners": 4306,
      "grids": 4307,
      "drinks": 4308,
      "taros": 4309,
      "respon": 4310,
      "statements": 4311,
      "accumul": 4312,
      "##apped": 4313,
      "##00000": 4314,
      "repeats": 4315,
      "produced": 4316,
      "separately": 4317,
      "across": 4318,
      "participated": 4319,
      "##1011": 4320,
      "underground": 4321,
      "appearing": 4322,
      "floating": 4323,
      "evac": 4324,
      "2n-1": 4325,
      "barri": 4326,
      "companies": 4327,
      "objects": 4328,
      "metal": 4329,
      "competitive": 4330,
      "instant": 4331,
      "levels": 4332,
      "puzzles": 4333,
      "artists": 4334,
      "holding": 4335,
      "rolls": 4336,
      "broad": 4337,
      "continues": 4338,
      "activated": 4339,
      "pushed": 4340,
      "opponent": 4341,
      "designed": 4342,
      "interesting": 4343,
      "disappears": 4344,
      "bombs": 4345,
      "dealer": 4346,
      "altitude": 4347,
      "potato": 4348,
      "baton": 4349,
      "##lette": 4350,
      "spring": 4351,
      "exclusive": 4352,
      "dimensions": 4353,
      "applying": 4354,
      "conversion": 4355,
      "automatically": 4356,
      "released": 4357,
      "public": 4358,
      "brightness": 4359,
      "##-character": 4360,
      "dropped": 4361,
      "familiar": 4362,
      "bonus": 4363,
      "garden": 4364,
      "quadr": 4365,
      "eucl": 4366,
      "kindergarten": 4367,
      "-2": 4368,
      "300": 4369,
      "400": 4370,
      "aa": 4371,
      "band": 4372,
      "cipher": 4373,
      "caught": 4374,
      "du": 4375,
      "dur": 4376,
      "d-1": 4377,
      "ea": 4378,
      "eg": 4379,
      "ebi": 4380,
      "f1": 4381,
      "fizz": 4382,
      "jack": 4383,
      "lun": 4384,
      "m3": 4385,
      "oh": 4386,
      "pa": 4387,
      "pap": 4388,
      "ren": 4389,
      "t1": 4390,
      "tones": 4391,
      "uf": 4392,
      "vel": 4393,
      "wont": 4394,
      "##pe": 4395,
      "##pip": 4396,
      "##press": 4397,
      "##rip": 4398,
      "##tt": 4399,
      "##uro": 4400,
      "##ugg": 4401,
      "##gest": 4402,
      "##gun": 4403,
      "##gress": 4404,
      "##68": 4405,
      "##mn": 4406,
      "##max": 4407,
      "##-of": 4408,
      "##inder": 4409,
      "##rew": 4410,
      "inner": 4411,
      "##anch": 4412,
      "topp": 4413,
      "##ameters": 4414,
      "conv": 4415,
      "rewrit": 4416,
      "##entially": 4417,
      "##stone": 4418,
      "##uled": 4419,
      "sem": 4420,
      "seated": 4421,
      "shorter": 4422,
      "plus": 4423,
      "mother": 4424,
      "heat": 4425,
      "heap": 4426,
      "##urity": 4427,
      "sugg": 4428,
      "alloc": 4429,
      "##ada": 4430,
      "enumer": 4431,
      "repain": 4432,
      "trape": 4433,
      "neg": 4434,
      "##ocity": 4435,
      "primes": 4436,
      "spend": 4437,
      "spread": 4438,
      "##ffer": 4439,
      "gover": 4440,
      "beta": 4441,
      "perc": 4442,
      "108": 4443,
      "science": 4444,
      "increment": 4445,
      "##orta": 4446,
      "amb": 4447,
      "editor": 4448,
      "datab": 4449,
      "sumi": 4450,
      "blocked": 4451,
      "recording": 4452,
      "expens": 4453,
      "##ief": 4454,
      "images": 4455,
      "scored": 4456,
      "indent": 4457,
      "species": 4458,
      "prepar": 4459,
      "matrices": 4460,
      "model": 4461,
      "branch": 4462,
      "drink": 4463,
      "solutions": 4464,
      "respond": 4465,
      "accomm": 4466,
      "actual": 4467,
      "visual": 4468,
      "fewer": 4469,
      "##book": 4470,
      "cij": 4471,
      "roulette": 4472,
      "##120": 4473,
      "rotates": 4474,
      "descrip": 4475,
      "variables": 4476,
      "matching": 4477,
      "listed": 4478,
      "compete": 4479,
      "earn": 4480,
      "polygonal": 4481,
      "confirm": 4482,
      "pressing": 4483,
      "##head": 4484,
      "developing": 4485,
      "identified": 4486,
      "rolling": 4487,
      "##-based": 4488,
      "keeping": 4489,
      "belongs": 4490,
      "palace": 4491,
      "enemies": 4492,
      "consumption": 4493,
      "converted": 4494,
      "eventually": 4495,
      "auth": 4496,
      "observation": 4497,
      "triples": 4498,
      "convey": 4499,
      "pictures": 4500,
      "clubs": 4501,
      "evaluation": 4502,
      "evaluate": 4503,
      "fingers": 4504,
      "pasta": 4505,
      "grades": 4506,
      "minimizes": 4507,
      "distribute": 4508,
      "frozen": 4509,
      "defeat": 4510,
      "territ": 4511,
      "invaders": 4512,
      "girl": 4513,
      "carpet": 4514,
      "quantities": 4515,
      "conducted": 4516,
      "##ikuri": 4517,
      "tomorrow": 4518,
      "engine": 4519,
      "clothes": 4520,
      "daily": 4521,
      "parcel": 4522,
      "##869": 4523,
      "storage": 4524,
      "tunnel": 4525,
      "pachikuri": 4526,
      "theorem": 4527,
      "velocity": 4528,
      "toppings": 4529,
      "trapez": 4530,
      "accommod": 4531,
      "5000": 4532,
      "64": 4533,
      "ais": 4534,
      "ahead": 4535,
      "bis": 4536,
      "baked": 4537,
      "dates": 4538,
      "e869": 4539,
      "fair": 4540,
      "fold": 4541,
      "gar": 4542,
      "gifts": 4543,
      "join": 4544,
      "kg": 4545,
      "kot": 4546,
      "ms": 4547,
      "p0": 4548,
      "p3": 4549,
      "sj": 4550,
      "sounds": 4551,
      "##ps": 4552,
      "##pace": 4553,
      "##aver": 4554,
      "##rac": 4555,
      "##la": 4556,
      "##ua": 4557,
      "##usi": 4558,
      "##+a": 4559,
      "##+4": 4560,
      "##13": 4561,
      "##26": 4562,
      "##fort": 4563,
      "##fck": 4564,
      "##ja": 4565,
      "##80": 4566,
      "theory": 4567,
      "##isk": 4568,
      "##asing": 4569,
      "stat": 4570,
      "stall": 4571,
      "##thusi": 4572,
      "##imeter": 4573,
      "conject": 4574,
      "progress": 4575,
      "heav": 4576,
      "##urin": 4577,
      "##apid": 4578,
      "##adas": 4579,
      "diameter": 4580,
      "enthusi": 4581,
      "primary": 4582,
      "##actor": 4583,
      "pointer": 4584,
      "carb": 4585,
      "grand": 4586,
      "maj": 4587,
      "##astic": 4588,
      "##abe": 4589,
      "##abc": 4590,
      "introd": 4591,
      "106": 4592,
      "10100": 4593,
      "##ipal": 4594,
      "worried": 4595,
      "security": 4596,
      "calories": 4597,
      "contact": 4598,
      "contents": 4599,
      "ending": 4600,
      "flat": 4601,
      "snack": 4602,
      "passwords": 4603,
      "top-left": 4604,
      "personal": 4605,
      "putting": 4606,
      "answered": 4607,
      "depend": 4608,
      "2012": 4609,
      "magn": 4610,
      "grouping": 4611,
      "storehouse": 4612,
      "feel": 4613,
      "features": 4614,
      "cubic": 4615,
      "keyboard": 4616,
      "foods": 4617,
      "boarding": 4618,
      "surv": 4619,
      "floors": 4620,
      "descend": 4621,
      "meter": 4622,
      "support": 4623,
      "walks": 4624,
      "polygons": 4625,
      "allows": 4626,
      "centered": 4627,
      "related": 4628,
      "multiplic": 4629,
      "production": 4630,
      "happens": 4631,
      "easier": 4632,
      "mathrm": 4633,
      "ribb": 4634,
      "increased": 4635,
      "ascii": 4636,
      "##-lo": 4637,
      "##-like": 4638,
      "parallele": 4639,
      "liter": 4640,
      "##1001": 4641,
      "advanced": 4642,
      "months": 4643,
      "rocks": 4644,
      "cheap": 4645,
      "maintain": 4646,
      "angles": 4647,
      "referred": 4648,
      "popularity": 4649,
      "##-factor": 4650,
      "attacks": 4651,
      "soldiers": 4652,
      "simulation": 4653,
      "stamps": 4654,
      "varies": 4655,
      "prefect": 4656,
      "predeterm": 4657,
      "brackets": 4658,
      "fractions": 4659,
      "history": 4660,
      "##flow": 4661,
      "maximizes": 4662,
      "materials": 4663,
      "sense": 4664,
      "souvenirs": 4665,
      "launched": 4666,
      "sweets": 4667,
      "kyoto": 4668,
      "stopped": 4669,
      "crackers": 4670,
      "ruins": 4671,
      "unknown": 4672,
      "bidirectionally": 4673,
      "compartment": 4674,
      "judgment": 4675,
      "earlier": 4676,
      "music": 4677,
      "threads": 4678,
      "extra": 4679,
      "##selves": 4680,
      "brainfck": 4681,
      "pipeline": 4682,
      "interpre": 4683,
      "rubber": 4684,
      "nathan": 4685,
      "proportional": 4686,
      "aaron": 4687,
      "gururin": 4688,
      "##terminal": 4689,
      "succeed": 4690,
      "papers": 4691,
      "##piped": 4692,
      "description": 4693,
      "trapezoid": 4694,
      "bisc": 4695,
      "e869120": 4696,
      "conjecture": 4697,
      "parallelepiped": 4698,
      "predetermined": 4699,
      "44": 4700,
      ">>": 4701,
      "ath": 4702,
      "aab": 4703,
      "aka": 4704,
      "a-z": 4705,
      "ba": 4706,
      "bor": 4707,
      "bases": 4708,
      "dir": 4709,
      "fif": 4710,
      "gink": 4711,
      "gcd": 4712,
      "ir": 4713,
      "ids": 4714,
      "k+1": 4715,
      "lat": 4716,
      "lord": 4717,
      "lived": 4718,
      "mapping": 4719,
      "mention": 4720,
      "pj": 4721,
      "pitch": 4722,
      "rapid": 4723,
      "sow": 4724,
      "tall": 4725,
      "vice": 4726,
      "ware": 4727,
      "xk": 4728,
      "zi": 4729,
      "##pts": 4730,
      "##time": 4731,
      "##yu": 4732,
      "##ded": 4733,
      "##sess": 4734,
      "##cles": 4735,
      "##+d": 4736,
      "##+i": 4737,
      "##ging": 4738,
      "##ky": 4739,
      "##bd": 4740,
      "##-8": 4741,
      "##55": 4742,
      "##37": 4743,
      "##erry": 4744,
      "anime": 4745,
      "##edition": 4746,
      "tok": 4747,
      "##uth": 4748,
      "beaker": 4749,
      "##osome": 4750,
      "numbosome": 4751,
      "##oming": 4752,
      "oranges": 4753,
      "chart": 4754,
      "byte": 4755,
      "##ulation": 4756,
      "shin": 4757,
      "##olves": 4758,
      "plates": 4759,
      "possess": 4760,
      "##adab": 4761,
      "repetition": 4762,
      "trash": 4763,
      "deer": 4764,
      "unin": 4765,
      "dog": 4766,
      "boy": 4767,
      "boards": 4768,
      "arist": 4769,
      "abbre": 4770,
      "##ockets": 4771,
      "coe": 4772,
      "admin": 4773,
      "##une": 4774,
      "pie": 4775,
      "##idean": 4776,
      "screen": 4777,
      "distant": 4778,
      "clan": 4779,
      "edit": 4780,
      "educ": 4781,
      "##ousand": 4782,
      "component": 4783,
      "recover": 4784,
      "expedition": 4785,
      "corpor": 4786,
      "fris": 4787,
      "indistinguishable": 4788,
      "emer": 4789,
      "brave": 4790,
      "brun": 4791,
      "solid": 4792,
      "overflow": 4793,
      "##arian": 4794,
      "shorten": 4795,
      "##-sided": 4796,
      "produces": 4797,
      "slip": 4798,
      "marbles": 4799,
      "##away": 4800,
      "address": 4801,
      "participating": 4802,
      "bottle": 4803,
      "feet": 4804,
      "feature": 4805,
      "appearance": 4806,
      "##iously": 4807,
      "triangular": 4808,
      "events": 4809,
      "checked": 4810,
      "looked": 4811,
      "backward": 4812,
      "inserting": 4813,
      "magician": 4814,
      "returned": 4815,
      "craf": 4816,
      "methods": 4817,
      "mathit": 4818,
      "machines": 4819,
      "identification": 4820,
      "describes": 4821,
      "drawing": 4822,
      "##array": 4823,
      "parenthesis": 4824,
      "opponents": 4825,
      "1000000000": 4826,
      "veget": 4827,
      "elimin": 4828,
      "sentences": 4829,
      "observed": 4830,
      "reflect": 4831,
      "experience": 4832,
      "bnf": 4833,
      "provided": 4834,
      "ranking": 4835,
      "vehicles": 4836,
      "forever": 4837,
      "ancest": 4838,
      "stepping": 4839,
      "affect": 4840,
      "2019": 4841,
      "consistent": 4842,
      "predict": 4843,
      "configurations": 4844,
      "medium": 4845,
      "investigate": 4846,
      "blows": 4847,
      "maximized": 4848,
      "versa": 4849,
      "suitable": 4850,
      "audio": 4851,
      "self-lo": 4852,
      "sleeping": 4853,
      "compressed": 4854,
      "domino": 4855,
      "technology": 4856,
      "approx": 4857,
      "encryption": 4858,
      "silver": 4859,
      "thickness": 4860,
      "hung": 4861,
      "traffic": 4862,
      "update": 4863,
      "skewer": 4864,
      "recogn": 4865,
      "equipment": 4866,
      "negligible": 4867,
      "euclidean": 4868,
      "paired": 4869,
      "percent": 4870,
      "database": 4871,
      "ribbon": 4872,
      "ginkgo": 4873,
      "mentioned": 4874,
      "abbrevi": 4875,
      "administ": 4876,
      "crafts": 4877,
      "2000": 4878,
      "34": 4879,
      "52": 4880,
      "666": 4881,
      "<p": 4882,
      "<m": 4883,
      "aaa": 4884,
      "bing": 4885,
      "bicy": 4886,
      "cater": 4887,
      "der": 4888,
      "ded": 4889,
      "dimensional": 4890,
      "e-1": 4891,
      "ess": 4892,
      "ff": 4893,
      "fat": 4894,
      "fal": 4895,
      "files": 4896,
      "faster": 4897,
      "gues": 4898,
      "h1": 4899,
      "har": 4900,
      "ik": 4901,
      "iz": 4902,
      "kat": 4903,
      "l1": 4904,
      "lk": 4905,
      "nm": 4906,
      "psy": 4907,
      "rare": 4908,
      "sa": 4909,
      "saw": 4910,
      "worm": 4911,
      "witch": 4912,
      "##ees": 4913,
      "##pill": 4914,
      "##aff": 4915,
      "##ring": 4916,
      "##rical": 4917,
      "##tch": 4918,
      "##lo": 4919,
      "##iff": 4920,
      "##+m": 4921,
      "##gen": 4922,
      "##mg": 4923,
      "##zag": 4924,
      "##74": 4925,
      "##jun": 4926,
      "##89": 4927,
      "##rel": 4928,
      "##anos": 4929,
      "tosh": 4930,
      "##lls": 4931,
      "##uma": 4932,
      "##aled": 4933,
      "##etrom": 4934,
      "stakes": 4935,
      "why": 4936,
      "##osm": 4937,
      "##igzag": 4938,
      "forth": 4939,
      "##idays": 4940,
      "chron": 4941,
      "atom": 4942,
      "shr": 4943,
      "shock": 4944,
      "plain": 4945,
      "hell": 4946,
      "heard": 4947,
      "sup": 4948,
      "dial": 4949,
      "straw": 4950,
      "wel": 4951,
      "##ounter": 4952,
      "whenever": 4953,
      "nob": 4954,
      "trouble": 4955,
      "truth": 4956,
      "death": 4957,
      "spots": 4958,
      "rod": 4959,
      "role": 4960,
      "operates": 4961,
      "##usa": 4962,
      "minimal": 4963,
      "manner": 4964,
      "goods": 4965,
      "usually": 4966,
      "##ablish": 4967,
      "102": 4968,
      "anyone": 4969,
      "scones": 4970,
      "##elds": 4971,
      "##ermost": 4972,
      "pointing": 4973,
      "compound": 4974,
      "##string": 4975,
      "bug": 4976,
      "mayor": 4977,
      "endpoints": 4978,
      "end-of": 4979,
      "##ahashi": 4980,
      "snake": 4981,
      "calls": 4982,
      "calculations": 4983,
      "belie": 4984,
      "sheets": 4985,
      "curry": 4986,
      "load": 4987,
      "loop": 4988,
      "knaps": 4989,
      "equals": 4990,
      "inscribed": 4991,
      "parameters": 4992,
      "interior": 4993,
      "reaching": 4994,
      "swapping": 4995,
      "ago": 4996,
      "specify": 4997,
      "##101": 4998,
      "weighted": 4999,
      "programmers": 5000,
      "foo": 5001,
      "photo": 5002,
      "visitors": 5003,
      "colle": 5004,
      "##edia": 5005,
      "namely": 5006,
      "processed": 5007,
      "thinks": 5008,
      "presses": 5009,
      "deletion": 5010,
      "opened": 5011,
      "factors": 5012,
      "rounded": 5013,
      "##heap": 5014,
      "stretch": 5015,
      "layer": 5016,
      "apart": 5017,
      "villages": 5018,
      "achievable": 5019,
      "breed": 5020,
      "schedules": 5021,
      "##-tax": 5022,
      "viewed": 5023,
      "##uga": 5024,
      "anna": 5025,
      "converts": 5026,
      "fewest": 5027,
      "encounter": 5028,
      "##coordinates": 5029,
      "rearranging": 5030,
      "##bbles": 5031,
      "akabe": 5032,
      "entry": 5033,
      "simulate": 5034,
      "simulates": 5035,
      "policy": 5036,
      "drops": 5037,
      "sprink": 5038,
      "partitions": 5039,
      "numerals": 5040,
      "hexagon": 5041,
      "employee": 5042,
      "employees": 5043,
      "buried": 5044,
      "##xi-": 5045,
      "attributes": 5046,
      "gems": 5047,
      "million": 5048,
      "##----------------": 5049,
      "medals": 5050,
      "audition": 5051,
      "elevator": 5052,
      "quantity": 5053,
      "terminal": 5054,
      "imagaway": 5055,
      "appeal": 5056,
      "appeared": 5057,
      "approach": 5058,
      "frequency": 5059,
      "doughnuts": 5060,
      "niwango": 5061,
      "protect": 5062,
      "photograph": 5063,
      "efficiently": 5064,
      "aliens": 5065,
      "claus": 5066,
      "cloud": 5067,
      "##ancing": 5068,
      "##crum": 5069,
      "icicles": 5070,
      "pillars": 5071,
      "fulcrum": 5072,
      "tetrahedral": 5073,
      "bowl": 5074,
      "shooting": 5075,
      "excluding": 5076,
      "##habited": 5077,
      "testimony": 5078,
      "battery": 5079,
      "ninja": 5080,
      "recursively": 5081,
      "ebi-chan": 5082,
      "biscuits": 5083,
      "fifth": 5084,
      "bingo": 5085,
      "caterpill": 5086,
      "guests": 5087,
      "strawber": 5088,
      "end-of-line": 5089,
      "knapsack": 5090,
      "43": 5091,
      "5th": 5092,
      "ben": 5093,
      "bdd": 5094,
      "cn": 5095,
      "ck": 5096,
      "cables": 5097,
      "dn": 5098,
      "dm": 5099,
      "e2": 5100,
      "ft": 5101,
      "f2": 5102,
      "fell": 5103,
      "fits": 5104,
      "h2": 5105,
      "hom": 5106,
      "hate": 5107,
      "ko": 5108,
      "kit": 5109,
      "koto": 5110,
      "lake": 5111,
      "lists": 5112,
      "lanes": 5113,
      "mp": 5114,
      "mc": 5115,
      "m1": 5116,
      "mut": 5117,
      "nest": 5118,
      "nine": 5119,
      "nil": 5120,
      "national": 5121,
      "ol": 5122,
      "oly": 5123,
      "oxy": 5124,
      "pm": 5125,
      "sorts": 5126,
      "sqr": 5127,
      "tai": 5128,
      "van": 5129,
      "vide": 5130,
      "vict": 5131,
      "w1": 5132,
      "zigzag": 5133,
      "##eh": 5134,
      "##east": 5135,
      "##ya": 5136,
      "##yy": 5137,
      "##uzz": 5138,
      "##wh": 5139,
      "##i-": 5140,
      "##iper": 5141,
      "##+5": 5142,
      "##ha": 5143,
      "##men": 5144,
      "##ming": 5145,
      "##xn": 5146,
      "##bed": 5147,
      "##bee": 5148,
      "##-bit": 5149,
      "##90": 5150,
      "##70": 5151,
      "##=2": 5152,
      "##esc": 5153,
      "##ander": 5154,
      "##ori": 5155,
      "##llium": 5156,
      "##ara": 5157,
      "##room": 5158,
      "##asts": 5159,
      "##uta": 5160,
      "##icpc": 5161,
      "staff": 5162,
      "beam": 5163,
      "young": 5164,
      "reve": 5165,
      "reaction": 5166,
      "##entions": 5167,
      "aster": 5168,
      "cans": 5169,
      "##ivals": 5170,
      "exits": 5171,
      "shapes": 5172,
      "plot": 5173,
      "twe": 5174,
      "dies": 5175,
      "comfort": 5176,
      "almost": 5177,
      "outermost": 5178,
      "writes": 5179,
      "trou": 5180,
      "tray": 5181,
      "verify": 5182,
      "unable": 5183,
      "boat": 5184,
      "decor": 5185,
      "abab": 5186,
      "perimeter": 5187,
      "##aged": 5188,
      "theme": 5189,
      "##tends": 5190,
      "##oding": 5191,
      "cliff": 5192,
      "differences": 5193,
      "quater": 5194,
      "colorful": 5195,
      "buffer": 5196,
      "equally": 5197,
      "equations": 5198,
      "diss": 5199,
      "hereafter": 5200,
      "creatures": 5201,
      "##ryosh": 5202,
      "peach": 5203,
      "##plic": 5204,
      "prel": 5205,
      "mats": 5206,
      "matryosh": 5207,
      "movie": 5208,
      "emblem": 5209,
      "bruce": 5210,
      "solves": 5211,
      "parking": 5212,
      "evenly": 5213,
      "register": 5214,
      "account": 5215,
      "selecting": 5216,
      "holidays": 5217,
      "specifies": 5218,
      "router": 5219,
      "combined": 5220,
      "transp": 5221,
      "rotating": 5222,
      "systems": 5223,
      "##-year": 5224,
      "serve": 5225,
      "exceeding": 5226,
      "returning": 5227,
      "generator": 5228,
      "jumps": 5229,
      "commonly": 5230,
      "discs": 5231,
      "touched": 5232,
      "picks": 5233,
      "devised": 5234,
      "lotus": 5235,
      "describe": 5236,
      "##gged": 5237,
      "##ysis": 5238,
      "via": 5239,
      "exchanged": 5240,
      "periods": 5241,
      "lexicographic": 5242,
      "lexicographical": 5243,
      "booksh": 5244,
      "overlapping": 5245,
      "selling": 5246,
      "elaps": 5247,
      "esp": 5248,
      "##idential": 5249,
      "occupy": 5250,
      "measurement": 5251,
      "establish": 5252,
      "internal": 5253,
      "successfully": 5254,
      "hardness": 5255,
      "behind": 5256,
      "poles": 5257,
      "surrounding": 5258,
      "##itudes": 5259,
      "demand": 5260,
      "potential": 5261,
      "steal": 5262,
      "evalu": 5263,
      "var1": 5264,
      "gains": 5265,
      "vacant": 5266,
      "filter": 5267,
      "numerical": 5268,
      "diagonal": 5269,
      "effect": 5270,
      "analysis": 5271,
      "replacing": 5272,
      "mirror": 5273,
      "corridors": 5274,
      "quality": 5275,
      "cups": 5276,
      "sufficiently": 5277,
      "manipulates": 5278,
      "sugar": 5279,
      "communicate": 5280,
      "style": 5281,
      "cylind": 5282,
      "cylinder": 5283,
      "independent": 5284,
      "independently": 5285,
      "bamboo": 5286,
      "dye": 5287,
      "improve": 5288,
      "pseudo": 5289,
      "tradition": 5290,
      "clerk": 5291,
      "submission": 5292,
      "kilom": 5293,
      "surprising": 5294,
      "symmetric": 5295,
      "individual": 5296,
      "portion": 5297,
      "##-numbered": 5298,
      "budget": 5299,
      "kaguy": 5300,
      "scientist": 5301,
      "broadcast": 5302,
      "ciphertext": 5303,
      "duplic": 5304,
      "conveyor": 5305,
      "garage": 5306,
      "carbons": 5307,
      "warehouse": 5308,
      "frisbee": 5309,
      "ancestor": 5310,
      "false": 5311,
      "psyllium": 5312,
      "toshiz": 5313,
      "imagawayaki": 5314,
      "older": 5315,
      "olym": 5316,
      "oxygen": 5317,
      "quatern": 5318,
      "matryoshka": 5319,
      "1n": 5320,
      "29": 5321,
      "3000": 5322,
      "59": 5323,
      "<<": 5324,
      "<ex": 5325,
      "aw": 5326,
      "a=": 5327,
      "bes": 5328,
      "cou": 5329,
      "cel": 5330,
      "cry": 5331,
      "cosm": 5332,
      "dum": 5333,
      "density": 5334,
      "fine": 5335,
      "foc": 5336,
      "ha": 5337,
      "hal": 5338,
      "hang": 5339,
      "hab": 5340,
      "ileq": 5341,
      "j1": 5342,
      "jth": 5343,
      "joint": 5344,
      "koshi": 5345,
      "l2": 5346,
      "lack": 5347,
      "mn": 5348,
      "mes": 5349,
      "mall": 5350,
      "nn": 5351,
      "qt": 5352,
      "rc": 5353,
      "rac": 5354,
      "rits": 5355,
      "sr": 5356,
      "samples": 5357,
      "sockets": 5358,
      "t2": 5359,
      "tang": 5360,
      "tetrom": 5361,
      "v1": 5362,
      "vary": 5363,
      "x+1": 5364,
      "y3": 5365,
      "##tm": 5366,
      "##tes": 5367,
      "##lu": 5368,
      "##yaki": 5369,
      "##oor": 5370,
      "##oons": 5371,
      "##mar": 5372,
      "##zing": 5373,
      "##bc": 5374,
      "##bition": 5375,
      "##-5": 5376,
      "##-go": 5377,
      "##967": 5378,
      "##inner": 5379,
      "##ream": 5380,
      "##atisf": 5381,
      "##atical": 5382,
      "##ono": 5383,
      "##any": 5384,
      "tot": 5385,
      "told": 5386,
      "##aced": 5387,
      "##rodes": 5388,
      "##uting": 5389,
      "stairs": 5390,
      "bear": 5391,
      "beko": 5392,
      "reward": 5393,
      "##ayer": 5394,
      "##ivate": 5395,
      "champ": 5396,
      "##olved": 5397,
      "heads": 5398,
      "alive": 5399,
      "enters": 5400,
      "nobles": 5401,
      "deact": 5402,
      "##ocr": 5403,
      "unre": 5404,
      "union": 5405,
      "rover": 5406,
      "##sius": 5407,
      "##usion": 5408,
      "uso": 5409,
      "usage": 5410,
      "ai1": 5411,
      "square1001": 5412,
      "meets": 5413,
      "103": 5414,
      "princ": 5415,
      "##oko": 5416,
      "##okan": 5417,
      "themselves": 5418,
      "submitted": 5419,
      "tex": 5420,
      "lift": 5421,
      "coloring": 5422,
      "content": 5423,
      "assist": 5424,
      "balloons": 5425,
      "creates": 5426,
      "curve": 5427,
      "##+1-th": 5428,
      "login": 5429,
      "logged": 5430,
      "indirect": 5431,
      "knock": 5432,
      "##110": 5433,
      "bricks": 5434,
      "##onta": 5435,
      "handle": 5436,
      "coinc": 5437,
      "accur": 5438,
      "xiyi": 5439,
      "particles": 5440,
      "roux": 5441,
      "##glass": 5442,
      "bottom-right": 5443,
      "replies": 5444,
      "runner": 5445,
      "bookst": 5446,
      "panc": 5447,
      "1000-yen": 5448,
      "x1y1": 5449,
      "##oii": 5450,
      "checkpoint": 5451,
      "busy": 5452,
      "buses": 5453,
      "consecutively": 5454,
      "remote": 5455,
      "purple": 5456,
      "concent": 5457,
      "functions": 5458,
      "judged": 5459,
      "p1p2": 5460,
      "picked": 5461,
      "picking": 5462,
      "identif": 5463,
      "exams": 5464,
      "##-pizza": 5465,
      "s1s2": 5466,
      "messages": 5467,
      "clever": 5468,
      "##xxx": 5469,
      "activities": 5470,
      "231": 5471,
      "pushes": 5472,
      "pushing": 5473,
      "##initely": 5474,
      "explor": 5475,
      "warri": 5476,
      "annual": 5477,
      "alternating": 5478,
      "dishes": 5479,
      "boundaries": 5480,
      "##=1n": 5481,
      "acceler": 5482,
      "internet": 5483,
      "successful": 5484,
      "11111": 5485,
      "mathematical": 5486,
      "watches": 5487,
      "altitudes": 5488,
      "##456": 5489,
      "careful": 5490,
      "bullets": 5491,
      "fractal": 5492,
      "traverse": 5493,
      "defeated": 5494,
      "investigation": 5495,
      "eggs": 5496,
      "##floor": 5497,
      "excited": 5498,
      "reasons": 5499,
      "girls": 5500,
      "raised": 5501,
      "exhibition": 5502,
      "illustrated": 5503,
      "encrypted": 5504,
      "suspect": 5505,
      "electricity": 5506,
      "declared": 5507,
      "library": 5508,
      "promot": 5509,
      "conveniently": 5510,
      "ingredients": 5511,
      "wheel": 5512,
      "microorganisms": 5513,
      "buns": 5514,
      "gambling": 5515,
      "eyes": 5516,
      "pinh": 5517,
      "petri": 5518,
      "-->": 5519,
      "##101112": 5520,
      "barrier": 5521,
      "aisle": 5522,
      "multiplications": 5523,
      "born": 5524,
      "corporation": 5525,
      "emerg": 5526,
      "bruno": 5527,
      "self-loops": 5528,
      "izua": 5529,
      "mcxi-": 5530,
      "taiyaki": 5531,
      "elapsed": 5532,
      "celsius": 5533,
      "tangent": 5534,
      "1+2": 5535,
      "2-n": 5536,
      "98": 5537,
      "<point": 5538,
      "ay": 5539,
      "a-th": 5540,
      "bin": 5541,
      "boun": 5542,
      "burn": 5543,
      "brow": 5544,
      "bands": 5545,
      "bait": 5546,
      "bund": 5547,
      "c-2": 5548,
      "dj": 5549,
      "dim": 5550,
      "ec": 5551,
      "f3": 5552,
      "father": 5553,
      "g1": 5554,
      "hw": 5555,
      "kill": 5556,
      "k-1": 5557,
      "lenn": 5558,
      "m-kun": 5559,
      "nak": 5560,
      "overs": 5561,
      "roman": 5562,
      "tj": 5563,
      "tast": 5564,
      "tel": 5565,
      "tens": 5566,
      "uma": 5567,
      "vir": 5568,
      "w2": 5569,
      "waves": 5570,
      "x-th": 5571,
      "ye": 5572,
      "y0": 5573,
      "##eas": 5574,
      "##ae": 5575,
      "##rime": 5576,
      "##lun": 5577,
      "##yond": 5578,
      "##ole": 5579,
      "##uple": 5580,
      "##uary": 5581,
      "##di": 5582,
      "##div": 5583,
      "##n2": 5584,
      "##ww": 5585,
      "##wakamatsu": 5586,
      "##+c": 5587,
      "##16": 5588,
      "##05": 5589,
      "##mer": 5590,
      "##mark": 5591,
      "##bal": 5592,
      "##-6": 5593,
      "##75": 5594,
      "##feed": 5595,
      "##jo": 5596,
      "##jected": 5597,
      "##31": 5598,
      "##erc": 5599,
      "##erce": 5600,
      "##ina": 5601,
      "##esany": 5602,
      "##ener": 5603,
      "inp": 5604,
      "inn": 5605,
      "aniper": 5606,
      "##anked": 5607,
      "toy": 5608,
      "token": 5609,
      "##acy": 5610,
      "##roc": 5611,
      "##aste": 5612,
      "##icular": 5613,
      "stove": 5614,
      "story": 5615,
      "##imation": 5616,
      "beyond": 5617,
      "##erspace": 5618,
      "##osition": 5619,
      "cone": 5620,
      "as+1": 5621,
      "asking": 5622,
      "orbit": 5623,
      "chance": 5624,
      "attract": 5625,
      "seq": 5626,
      "shaded": 5627,
      "##chem": 5628,
      "plaz": 5629,
      "mochi": 5630,
      "intell": 5631,
      "timet": 5632,
      "notch": 5633,
      "sushi": 5634,
      "##apse": 5635,
      "##istics": 5636,
      "##ocal": 5637,
      "prism": 5638,
      "##thern": 5639,
      "linefeed": 5640,
      "consume": 5641,
      "takoy": 5642,
      "takanos": 5643,
      "operating": 5644,
      "##uses": 5645,
      "coach": 5646,
      "covers": 5647,
      "ai=": 5648,
      "yourself": 5649,
      "107": 5650,
      "upward": 5651,
      "upright": 5652,
      "scan": 5653,
      "##ager": 5654,
      "containers": 5655,
      "##tenance": 5656,
      "rightarrow": 5657,
      "##-10": 5658,
      "directory": 5659,
      "partial": 5660,
      "settle": 5661,
      "quot": 5662,
      "compared": 5663,
      "lie": 5664,
      "ended": 5665,
      "details": 5666,
      "flip": 5667,
      "flush": 5668,
      "ballat": 5669,
      "balloon": 5670,
      "snow": 5671,
      "fruit": 5672,
      "indistinguish": 5673,
      "long-": 5674,
      "emp": 5675,
      "modif": 5676,
      "modify": 5677,
      "drac": 5678,
      "parameter": 5679,
      "computed": 5680,
      "commerc": 5681,
      "wayat": 5682,
      "useful": 5683,
      "##parated": 5684,
      "reduced": 5685,
      "slight": 5686,
      "ballsbox": 5687,
      "northwest": 5688,
      "##1010": 5689,
      "cuboid": 5690,
      "offic": 5691,
      "invite": 5692,
      "transition": 5693,
      "rotations": 5694,
      "evil": 5695,
      "collapse": 5696,
      "fields": 5697,
      "opens": 5698,
      "supposed": 5699,
      "supplied": 5700,
      "aizuwakamatsu": 5701,
      "##cling": 5702,
      "constructing": 5703,
      "early": 5704,
      "generates": 5705,
      "probably": 5706,
      "craw": 5707,
      "deleting": 5708,
      "cycles": 5709,
      "cycling": 5710,
      "railways": 5711,
      "speaking": 5712,
      "abcd": 5713,
      "rolled": 5714,
      "distinguishabledistinguishable": 5715,
      "seemed": 5716,
      "missing": 5717,
      "advent": 5718,
      "realized": 5719,
      "##uko": 5720,
      "belonging": 5721,
      "##-time": 5722,
      "falls": 5723,
      "languages": 5724,
      "explos": 5725,
      "maintenance": 5726,
      "coprime": 5727,
      "##355": 5728,
      "dealt": 5729,
      "salary": 5730,
      "observe": 5731,
      "##-ranked": 5732,
      "##igit>": 5733,
      "##like": 5734,
      "specifications": 5735,
      "watching": 5736,
      "altar": 5737,
      "1018": 5738,
      "treat": 5739,
      "graduate": 5740,
      "pck": 5741,
      "learn": 5742,
      "seeds": 5743,
      "seedlings": 5744,
      "nearby": 5745,
      "distributed": 5746,
      "histogram": 5747,
      "traversing": 5748,
      "professional": 5749,
      "investigated": 5750,
      "merge": 5751,
      "invaded": 5752,
      "substance": 5753,
      "##itori": 5754,
      "polynomials": 5755,
      "generalized": 5756,
      "wondered": 5757,
      "raise": 5758,
      "elevated": 5759,
      "proposed": 5760,
      "challeng": 5761,
      "##-separated": 5762,
      "##789": 5763,
      "frequently": 5764,
      "sweet": 5765,
      "safe": 5766,
      "swimmers": 5767,
      "transforms": 5768,
      "##-byte": 5769,
      "captured": 5770,
      "cdot": 5771,
      "precedence": 5772,
      "bidirectional": 5773,
      "stylish": 5774,
      "bamboos": 5775,
      "milit": 5776,
      "legendary": 5777,
      "librarian": 5778,
      "announced": 5779,
      "##indistinguishable101112": 5780,
      "##indistinguishable789": 5781,
      "##abledistinguishable456": 5782,
      "dangerous": 5783,
      "idols": 5784,
      "fragile": 5785,
      "distinguishableindistinguishable789": 5786,
      "##onnected": 5787,
      "exercise": 5788,
      "detailed": 5789,
      "trigons": 5790,
      "responsible": 5791,
      "lunlun": 5792,
      "suggested": 5793,
      "heavy": 5794,
      "prefecture": 5795,
      "interpreted": 5796,
      "tokyo": 5797,
      "##adabra": 5798,
      "aristocr": 5799,
      "indistinguishableindistinguishable101112": 5800,
      "vegetables": 5801,
      "administr": 5802,
      "bicycle": 5803,
      "welcome": 5804,
      "akabeko": 5805,
      "caterpillar": 5806,
      "video": 5807,
      "besides": 5808,
      "mesh": 5809,
      "##tml": 5810,
      "2-nd": 5811,
      "bundle": 5812,
      "telesc": 5813,
      "umauma": 5814,
      "anipero": 5815,
      "takoyaki": 5816,
      "indistinguishabledistinguishable456": 5817,
      "ballsboxesany": 5818,
      "distinguishabledistinguishable123": 5819,
      "-3": 5820,
      "-th": 5821,
      "0th": 5822,
      "1i": 5823,
      "20000": 5824,
      "38": 5825,
      "54": 5826,
      "65": 5827,
      "700": 5828,
      "ah": 5829,
      "ats": 5830,
      "ate": 5831,
      "b-th": 5832,
      "boring": 5833,
      "c0": 5834,
      "cele": 5835,
      "dav": 5836,
      "fan": 5837,
      "fear": 5838,
      "fully": 5839,
      "f-e": 5840,
      "hat": 5841,
      "hak": 5842,
      "hint": 5843,
      "i=": 5844,
      "iron": 5845,
      "k2": 5846,
      "killed": 5847,
      "law": 5848,
      "miz": 5849,
      "nested": 5850,
      "oce": 5851,
      "pq": 5852,
      "pow": 5853,
      "pul": 5854,
      "pour": 5855,
      "qwer": 5856,
      "r3": 5857,
      "rather": 5858,
      "ruled": 5859,
      "sx": 5860,
      "sens": 5861,
      "tied": 5862,
      "vie": 5863,
      "vla": 5864,
      "w0": 5865,
      "wave": 5866,
      "xx": 5867,
      "x4": 5868,
      "ys": 5869,
      "yk": 5870,
      "yj": 5871,
      "##ew": 5872,
      "##eared": 5873,
      "##ril": 5874,
      "##lain": 5875,
      "##ov": 5876,
      "##opt": 5877,
      "##uent": 5878,
      "##uke": 5879,
      "##name": 5880,
      "##necess": 5881,
      "##ib": 5882,
      "##i+1": 5883,
      "##+6": 5884,
      "##1000": 5885,
      "##hand": 5886,
      "##html": 5887,
      "##kuch": 5888,
      "##xm": 5889,
      "##vations": 5890,
      "##ball": 5891,
      "##-j": 5892,
      "##-most": 5893,
      "##=4": 5894,
      "##312": 5895,
      "thief": 5896,
      "##eru": 5897,
      "##reg": 5898,
      "##ata": 5899,
      "##onk": 5900,
      "##enc": 5901,
      "##ense": 5902,
      "##enced": 5903,
      "##iting": 5904,
      "##itoring": 5905,
      "##orns": 5906,
      "##ows": 5907,
      "##ecially": 5908,
      "conqu": 5909,
      "orange": 5910,
      "orient": 5911,
      "##sty": 5912,
      "##stable": 5913,
      "prove": 5914,
      "chose": 5915,
      "chines": 5916,
      "chords": 5917,
      "shir": 5918,
      "##char": 5919,
      "mode": 5920,
      "##ills": 5921,
      "##ury": 5922,
      "##urred": 5923,
      "##gebr": 5924,
      "timing": 5925,
      "##ectors": 5926,
      "##apon": 5927,
      "##iled": 5928,
      "alchem": 5929,
      "algebr": 5930,
      "##ounts": 5931,
      "hash": 5932,
      "outer": 5933,
      "outcome": 5934,
      "depar": 5935,
      "##ocode": 5936,
      "priced": 5937,
      "##ured": 5938,
      "spher": 5939,
      "unary": 5940,
      "unnecess": 5941,
      "unstable": 5942,
      "roy": 5943,
      "roof": 5944,
      "boats": 5945,
      "carrot": 5946,
      "arm": 5947,
      "deciding": 5948,
      "cold": 5949,
      "manage": 5950,
      "coast": 5951,
      "ai-th": 5952,
      "ai-1": 5953,
      "aibi": 5954,
      "perpend": 5955,
      "anywhere": 5956,
      "resc": 5957,
      "scro": 5958,
      "##ipedia": 5959,
      "##ague": 5960,
      "after-tax": 5961,
      "incurred": 5962,
      "##ength-1": 5963,
      "##ody": 5964,
      "##odate": 5965,
      "elevation": 5966,
      "waste": 5967,
      "worth": 5968,
      "worry": 5969,
      "complain": 5970,
      "##textr": 5971,
      "apparent": 5972,
      "three-dimensional": 5973,
      "winter": 5974,
      "disk": 5975,
      "disks": 5976,
      "pairwise": 5977,
      "belt": 5978,
      "curse": 5979,
      "planari": 5980,
      "##plate": 5981,
      "regener": 5982,
      "respect": 5983,
      "paints": 5984,
      "120": 5985,
      "depicted": 5986,
      "##reasing": 5987,
      "schem": 5988,
      "monitoring": 5989,
      "visible": 5990,
      "downward": 5991,
      "non-d": 5992,
      "acorns": 5993,
      "ready": 5994,
      "phones": 5995,
      "originally": 5996,
      "variety": 5997,
      "collide": 5998,
      "fierce": 5999,
      "processes": 6000,
      "checkup": 6001,
      "makka": 6002,
      "companys": 6003,
      "attention": 6004,
      "classroom": 6005,
      "jobs": 6006,
      "correspondence": 6007,
      "concer": 6008,
      "crosses": 6009,
      "##999": 6010,
      "ri-th": 6011,
      "##ography": 6012,
      "facilities": 6013,
      "influ": 6014,
      "##aiku": 6015,
      "##redit": 6016,
      "layers": 6017,
      "shieru": 6018,
      "immediate": 6019,
      "parents": 6020,
      "messeng": 6021,
      "achieved": 6022,
      "##jectory": 6023,
      "disappeared": 6024,
      "competitions": 6025,
      "headqu": 6026,
      "reversed": 6027,
      "logic": 6028,
      "electron": 6029,
      "airpl": 6030,
      "##-first": 6031,
      "rearranged": 6032,
      "##-credit": 6033,
      "windowp": 6034,
      "festivals": 6035,
      "constit": 6036,
      "kipp": 6037,
      "chains": 6038,
      "2016": 6039,
      "##print": 6040,
      "closer": 6041,
      "luckily": 6042,
      "ships": 6043,
      "humans": 6044,
      "effective": 6045,
      "histor": 6046,
      "x31": 6047,
      "traversed": 6048,
      "excav": 6049,
      "discover": 6050,
      "burger": 6051,
      "medal": 6052,
      "widely": 6053,
      "wondering": 6054,
      "##umber>": 6055,
      "experiments": 6056,
      "exhibited": 6057,
      "pyram": 6058,
      "pyonk": 6059,
      "hyperspace": 6060,
      "##term>": 6061,
      "illustrates": 6062,
      "safely": 6063,
      "314": 6064,
      "##value": 6065,
      "kan-character": 6066,
      "communication": 6067,
      "compartments": 6068,
      "happened": 6069,
      "judging": 6070,
      "trajectory": 6071,
      "tracks": 6072,
      "claim": 6073,
      "menu": 6074,
      "yae": 6075,
      "pseudocode": 6076,
      "recipe": 6077,
      "hamming": 6078,
      "illumination": 6079,
      "inversion": 6080,
      "controlled": 6081,
      "proposal": 6082,
      "antenna": 6083,
      "potatoes": 6084,
      "ufo": 6085,
      "rewrite": 6086,
      "indentation": 6087,
      "stalls": 6088,
      "##-factor>": 6089,
      "66666": 6090,
      "katana": 6091,
      "supplement": 6092,
      "buggy": 6093,
      "victory": 6094,
      "troubles": 6095,
      "especially": 6096,
      "cryst": 6097,
      "cosmic": 6098,
      "koshien": 6099,
      "tetromino": 6100,
      "principal": 6101,
      "bookstore": 6102,
      "pinholes": 6103,
      "emergency": 6104,
      "lennon": 6105,
      "inpu": 6106,
      "intellig": 6107,
      "celebr": 6108,
      "f-elect": 6109,
      "hakodate": 6110,
      "ocean": 6111,
      "viewer": 6112,
      "chinese": 6113,
      "algebra": 6114,
      "departs": 6115,
      "perpendicular": 6116,
      "pyramid": 6117,
      "2-dimensional": 6118,
      "97": 6119,
      "<line": 6120,
      "==": 6121,
      "ae": 6122,
      "ao": 6123,
      "az": 6124,
      "a4": 6125,
      "a11": 6126,
      "b0": 6127,
      "b-1": 6128,
      "brough": 6129,
      "cx": 6130,
      "cult": 6131,
      "drew": 6132,
      "dinner": 6133,
      "eve": 6134,
      "eel": 6135,
      "fs": 6136,
      "fuk": 6137,
      "fenn": 6138,
      "g2": 6139,
      "htt": 6140,
      "jan": 6141,
      "kup": 6142,
      "kob": 6143,
      "latt": 6144,
      "mt": 6145,
      "m+1": 6146,
      "mouse": 6147,
      "mold": 6148,
      "moto": 6149,
      "ng": 6150,
      "n>": 6151,
      "nation": 6152,
      "nakam": 6153,
      "oct": 6154,
      "ooo": 6155,
      "oclock": 6156,
      "ooioi": 6157,
      "omitted": 6158,
      "pec": 6159,
      "poll": 6160,
      "p-th": 6161,
      "pins": 6162,
      "paved": 6163,
      "s3": 6164,
      "sap": 6165,
      "soc": 6166,
      "sights": 6167,
      "tid": 6168,
      "tables": 6169,
      "ul": 6170,
      "vat": 6171,
      "vector": 6172,
      "wolves": 6173,
      "xp": 6174,
      "##ta": 6175,
      "##dr": 6176,
      "##nels": 6177,
      "##c2": 6178,
      "##cil": 6179,
      "##iest": 6180,
      "##ique": 6181,
      "##iency": 6182,
      "##ioii": 6183,
      "##+n": 6184,
      "##+w": 6185,
      "##+k": 6186,
      "##+8": 6187,
      "##how": 6188,
      "##ga": 6189,
      "##gage": 6190,
      "##x+y": 6191,
      "##bled": 6192,
      "##79": 6193,
      "##==": 6194,
      "##atform": 6195,
      "##onven": 6196,
      "ine": 6197,
      "ange": 6198,
      "##ano": 6199,
      "towards": 6200,
      "isnt": 6201,
      "##aro": 6202,
      "##rol": 6203,
      "online": 6204,
      "##amas": 6205,
      "##icing": 6206,
      "##thi": 6207,
      "##iminary": 6208,
      "##osp": 6209,
      "congr": 6210,
      "##oms": 6211,
      "reinde": 6212,
      "##ota": 6213,
      "##otub": 6214,
      "asp": 6215,
      "cance": 6216,
      "##achi": 6217,
      "prohi": 6218,
      "protr": 6219,
      "legs": 6220,
      "chur": 6221,
      "extends": 6222,
      "##iring": 6223,
      "seating": 6224,
      "##olution": 6225,
      "platform": 6226,
      "suff": 6227,
      "twin": 6228,
      "##graved": 6229,
      "env": 6230,
      "engraved": 6231,
      "trun": 6232,
      "trace": 6233,
      "unlike": 6234,
      "##arters": 6235,
      "arms": 6236,
      "operands": 6237,
      "##using": 6238,
      "adds": 6239,
      "sequentially": 6240,
      "##udge": 6241,
      "usoper": 6242,
      "aik": 6243,
      "##ulty": 6244,
      "##abilities": 6245,
      "pi+1": 6246,
      "resour": 6247,
      "scatter": 6248,
      "##ips": 6249,
      "##agi": 6250,
      "differs": 6251,
      "incident": 6252,
      "inconven": 6253,
      "right-hand": 6254,
      "click": 6255,
      "submit": 6256,
      "subdiv": 6257,
      "obv": 6258,
      "obey": 6259,
      "tea": 6260,
      "applies": 6261,
      "arrays": 6262,
      "flies": 6263,
      "exposed": 6264,
      "winners": 6265,
      "disp": 6266,
      "##-->": 6267,
      "peop": 6268,
      "curtain": 6269,
      "planes": 6270,
      "planets": 6271,
      "throughout": 6272,
      "snuuk": 6273,
      "smart": 6274,
      "topcode": 6275,
      "emitted": 6276,
      "modified": 6277,
      "drive": 6278,
      "bij": 6279,
      "bi-th": 6280,
      "desks": 6281,
      "typing": 6282,
      "reachable": 6283,
      "adjacency": 6284,
      "xi2": 6285,
      "space-separated": 6286,
      "pole": 6287,
      "pool": 6288,
      "slot": 6289,
      "20xx": 6290,
      "swapped": 6291,
      "completing": 6292,
      "beginner": 6293,
      "combining": 6294,
      "invention": 6295,
      "invented": 6296,
      "replied": 6297,
      "single-byte": 6298,
      "##122": 6299,
      "candles": 6300,
      "guest": 6301,
      "seeing": 6302,
      "##sequence": 6303,
      "served": 6304,
      "fix": 6305,
      "finishing": 6306,
      "impress": 6307,
      "checkpoints": 6308,
      "captain": 6309,
      "destinations": 6310,
      "relation": 6311,
      "earns": 6312,
      "removal": 6313,
      "buys": 6314,
      "erased": 6315,
      "southwest": 6316,
      "##ney": 6317,
      "codebre": 6318,
      "clocks": 6319,
      "eastern": 6320,
      "devices": 6321,
      "friendship": 6322,
      "ski": 6323,
      "draws": 6324,
      "maps": 6325,
      "xyz": 6326,
      "packs": 6327,
      "avo": 6328,
      "owner": 6329,
      "##xxxx": 6330,
      "activate": 6331,
      "execute": 6332,
      "executing": 6333,
      "baggage": 6334,
      "designated": 6335,
      "##-to": 6336,
      "ignoring": 6337,
      "reversing": 6338,
      "measuring": 6339,
      "grows": 6340,
      "volumes": 6341,
      "paying": 6342,
      "electrical": 6343,
      "256": 6344,
      "y-coordinates": 6345,
      "breaking": 6346,
      "attacked": 6347,
      "locks": 6348,
      "ranks": 6349,
      "neighbor": 6350,
      "extreme": 6351,
      "restaurants": 6352,
      "##eeing": 6353,
      "32-bit": 6354,
      "fertilizers": 6355,
      "carrying": 6356,
      "var2": 6357,
      "throws": 6358,
      "1015": 6359,
      "campus": 6360,
      "acceptable": 6361,
      "guesses": 6362,
      "000001": 6363,
      "masses": 6364,
      "version": 6365,
      "versus": 6366,
      "citizen": 6367,
      "fireworks": 6368,
      "##oioiioii": 6369,
      "tsur": 6370,
      "conversely": 6371,
      "jiros": 6372,
      "carpent": 6373,
      "residence": 6374,
      "exhibit": 6375,
      "terminate": 6376,
      "hyph": 6377,
      "manipulate": 6378,
      "swimming": 6379,
      "##piad": 6380,
      "issue": 6381,
      "stopping": 6382,
      "appropriately": 6383,
      "mistakes": 6384,
      "yaman": 6385,
      "subtracting": 6386,
      "phototub": 6387,
      "earliest": 6388,
      "hyadas": 6389,
      "tools": 6390,
      "icicle": 6391,
      "9999": 6392,
      "losses": 6393,
      "debt": 6394,
      "submissions": 6395,
      "discarded": 6396,
      "reservation": 6397,
      "cleaning": 6398,
      "ingredient": 6399,
      "extending": 6400,
      "translated": 6401,
      "analyze": 6402,
      "turtle": 6403,
      "enclosed": 6404,
      "acquire": 6405,
      "channels": 6406,
      "manufacturing": 6407,
      "liquid": 6408,
      "durability": 6409,
      "enumerate": 6410,
      "engineer": 6411,
      "accommodation": 6412,
      "kotatsu": 6413,
      "enthusiastic": 6414,
      "feeling": 6415,
      "survive": 6416,
      "cheapest": 6417,
      "latest": 6418,
      "possession": 6419,
      "repetitions": 6420,
      "education": 6421,
      "slipper": 6422,
      "craftsman": 6423,
      "essential": 6424,
      "##junction": 6425,
      "strawberries": 6426,
      "revealed": 6427,
      "asterisk": 6428,
      "decorated": 6429,
      "preliminary": 6430,
      "bookshelf": 6431,
      "kilometers": 6432,
      "kaguya": 6433,
      "olympiad": 6434,
      "concentration": 6435,
      "promotion": 6436,
      "plaza": 6437,
      "timetable": 6438,
      "slightly": 6439,
      "military": 6440,
      "shiritori": 6441,
      "spheres": 6442,
      "royal": 6443,
      "rescue": 6444,
      "apparently": 6445,
      "headquarters": 6446,
      "electronic": 6447,
      "brought": 6448,
      "fennec": 6449,
      "kupc": 6450,
      "lattice": 6451,
      "ooioioioiioii": 6452,
      "sightseeing": 6453,
      "angel": 6454,
      "reindeer": 6455,
      "church": 6456,
      "usoperant": 6457,
      "resources": 6458,
      "topcodeer": 6459,
      "codebreaker": 6460,
      "-10": 6461,
      "2m": 6462,
      "41": 6463,
      "55": 6464,
      "567": 6465,
      "600": 6466,
      "86": 6467,
      "bs": 6468,
      "border": 6469,
      "crow": 6470,
      "cute": 6471,
      "dx": 6472,
      "dou": 6473,
      "d-2": 6474,
      "dash": 6475,
      "ferm": 6476,
      "fem": 6477,
      "fences": 6478,
      "gx": 6479,
      "gas": 6480,
      "gates": 6481,
      "hur": 6482,
      "hence": 6483,
      "hats": 6484,
      "hatch": 6485,
      "hope": 6486,
      "hosp": 6487,
      "ixm": 6488,
      "jp": 6489,
      "jum": 6490,
      "kaw": 6491,
      "kings": 6492,
      "kitch": 6493,
      "lc": 6494,
      "lj": 6495,
      "late": 6496,
      "lup": 6497,
      "lying": 6498,
      "lining": 6499,
      "lugg": 6500,
      "mol": 6501,
      "mine": 6502,
      "nice": 6503,
      "nights": 6504,
      "nature": 6505,
      "pab": 6506,
      "pok": 6507,
      "pink": 6508,
      "ponta": 6509,
      "r0": 6510,
      "rays": 6511,
      "rush": 6512,
      "rng": 6513,
      "s0": 6514,
      "ur": 6515,
      "u1": 6516,
      "v2": 6517,
      "vdots": 6518,
      "vocal": 6519,
      "wiz": 6520,
      "x=": 6521,
      "##ef": 6522,
      "##pn": 6523,
      "##p1": 6524,
      "##pop": 6525,
      "##rin": 6526,
      "##rig": 6527,
      "##tles": 6528,
      "##last": 6529,
      "##uic": 6530,
      "##do": 6531,
      "##drop": 6532,
      "##digit>": 6533,
      "##sn": 6534,
      "##ses": 6535,
      "##hime": 6536,
      "##hashi": 6537,
      "##gw": 6538,
      "##b1": 6539,
      "##b2": 6540,
      "##bin": 6541,
      "##bies": 6542,
      "##buzz": 6543,
      "##-9": 6544,
      "##-de": 6545,
      "##-clockwise": 6546,
      "##fi": 6547,
      "##for": 6548,
      "##=8": 6549,
      "##jag": 6550,
      "##4i": 6551,
      "##<<": 6552,
      "##iner": 6553,
      "##rements": 6554,
      "##atet": 6555,
      "##atives": 6556,
      "##onic": 6557,
      "##onom": 6558,
      "##onian": 6559,
      "##ename": 6560,
      "##eness": 6561,
      "invert": 6562,
      "##edy": 6563,
      "##ites": 6564,
      "##itle": 6565,
      "##itation": 6566,
      "##orph": 6567,
      "isono": 6568,
      "##oud": 6569,
      "##letic": 6570,
      "##acts": 6571,
      "##ason": 6572,
      "##etry": 6573,
      "##ecimal": 6574,
      "##icated": 6575,
      "std": 6576,
      "stom": 6577,
      "##vemb": 6578,
      "beat": 6579,
      "bell": 6580,
      "began": 6581,
      "##erson": 6582,
      "youll": 6583,
      "conce": 6584,
      "congest": 6585,
      "##igue": 6586,
      "reorder": 6587,
      "##stones": 6588,
      "leads": 6589,
      "league": 6590,
      "cherry": 6591,
      "byak": 6592,
      "exem": 6593,
      "##00kg": 6594,
      "one-dimensional": 6595,
      "##uli": 6596,
      "semit": 6597,
      "shifts": 6598,
      "##oline": 6599,
      "followers": 6600,
      "alli": 6601,
      "##iling": 6602,
      "##adecimal": 6603,
      "financ": 6604,
      "dials": 6605,
      "coming": 6606,
      "wearing": 6607,
      "weaver": 6608,
      "##istry": 6609,
      "noble": 6610,
      "novemb": 6611,
      "tramp": 6612,
      "prizes": 6613,
      "gray": 6614,
      "grav": 6615,
      "bloss": 6616,
      "inputout": 6617,
      "decipher": 6618,
      "playback": 6619,
      "charged": 6620,
      "ab23": 6621,
      "abrac": 6622,
      "codes": 6623,
      "adopt": 6624,
      "##unity": 6625,
      "left-hand": 6626,
      "10th": 6627,
      "scent": 6628,
      "##agons": 6629,
      "afterwards": 6630,
      "clause": 6631,
      "amounts": 6632,
      "election": 6633,
      "joh": 6634,
      "##cccc": 6635,
      "composition": 6636,
      "li-th": 6637,
      "flash": 6638,
      "expr": 6639,
      "ballots": 6640,
      "disreg": 6641,
      "pebbles": 6642,
      "lots": 6643,
      "##111": 6644,
      "studying": 6645,
      "persimm": 6646,
      "emits": 6647,
      "likely": 6648,
      "moduic": 6649,
      "desp": 6650,
      "typical": 6651,
      "handed": 6652,
      "definitely": 6653,
      "four-digit": 6654,
      "xi1": 6655,
      "xi-1": 6656,
      "##000000": 6657,
      "needless": 6658,
      "active": 6659,
      "expressing": 6660,
      "##atively": 6661,
      "slit": 6662,
      "slow": 6663,
      "sludge": 6664,
      "idle": 6665,
      "2020": 6666,
      "nonterminal": 6667,
      "sword": 6668,
      "swaps": 6669,
      "agents": 6670,
      "agari": 6671,
      "waterdrop": 6672,
      "bottles": 6673,
      "centers": 6674,
      "offer": 6675,
      "invited": 6676,
      "##ucks": 6677,
      "guard": 6678,
      "schools": 6679,
      "aizum": 6680,
      "server": 6681,
      "serving": 6682,
      "yi1": 6683,
      "restart": 6684,
      "tires": 6685,
      "##imited": 6686,
      "walked": 6687,
      "classic": 6688,
      "crop": 6689,
      "signs": 6690,
      "signboard": 6691,
      "southeast": 6692,
      "alpha": 6693,
      "-1000": 6694,
      "rounding": 6695,
      "courses": 6696,
      "optional": 6697,
      "speak": 6698,
      "shogun": 6699,
      "hourglass": 6700,
      "##fficients": 6701,
      "##fficiency": 6702,
      "identically": 6703,
      "facts": 6704,
      "infected": 6705,
      "leaders": 6706,
      "laying": 6707,
      "packets": 6708,
      "##-point": 6709,
      "axes": 6710,
      "cleared": 6711,
      "stronger": 6712,
      "strongly": 6713,
      "brothers": 6714,
      "missiles": 6715,
      "##4444": 6716,
      "temple": 6717,
      "delivered": 6718,
      "##izzas": 6719,
      "explan": 6720,
      "explain": 6721,
      "wik": 6722,
      "counter-clockwise": 6723,
      "notesa": 6724,
      "subsets": 6725,
      "breaks": 6726,
      "refers": 6727,
      "estim": 6728,
      "estate": 6729,
      "geom": 6730,
      "succession": 6731,
      "memo": 6732,
      "memor": 6733,
      "shifted": 6734,
      "neighbors": 6735,
      "behalf": 6736,
      "specification": 6737,
      "caused": 6738,
      "installation": 6739,
      "gained": 6740,
      "fracn": 6741,
      "voting": 6742,
      "filer": 6743,
      "filename": 6744,
      "##-hour": 6745,
      "shuffled": 6746,
      "fractional": 6747,
      "presented": 6748,
      "chickens": 6749,
      "hexadecimal": 6750,
      "managed": 6751,
      "000000": 6752,
      "tsuk": 6753,
      "##undant": 6754,
      "rotationally": 6755,
      "bmi": 6756,
      "bmod": 6757,
      "##mission": 6758,
      "skills": 6759,
      "qualification": 6760,
      "silk": 6761,
      "talking": 6762,
      "talented": 6763,
      "detectives": 6764,
      "swimmer": 6765,
      "bulletin": 6766,
      "phrases": 6767,
      "gathered": 6768,
      "##uyokan": 6769,
      "sugim": 6770,
      "inspection": 6771,
      "wishes": 6772,
      "alien": 6773,
      "contrast": 6774,
      "ssn": 6775,
      "yui": 6776,
      "parcels": 6777,
      "faulty": 6778,
      "hideout": 6779,
      "deadlock": 6780,
      "anagrams": 6781,
      "extracting": 6782,
      "molecular": 6783,
      "<number>": 6784,
      "uniformly": 6785,
      "substitution": 6786,
      "antennas": 6787,
      "dvds": 6788,
      "isomorph": 6789,
      "channel": 6790,
      "shelves": 6791,
      "instantly": 6792,
      "quadruple": 6793,
      "governed": 6794,
      "expenses": 6795,
      "expensive": 6796,
      "preparing": 6797,
      "preparation": 6798,
      "territory": 6799,
      "major": 6800,
      "athletic": 6801,
      "coefficients": 6802,
      "dominoes": 6803,
      "fatigue": 6804,
      "chronological": 6805,
      "hello": 6806,
      "college": 6807,
      "sprinkler": 6808,
      "tweet": 6809,
      "comfortable": 6810,
      "dissatisf": 6811,
      "cylinders": 6812,
      "toshizo": 6813,
      "habit": 6814,
      "racco": 6815,
      "ritsuko": 6816,
      "champion": 6817,
      "deactivate": 6818,
      "texts": 6819,
      "pancake": 6820,
      "brows": 6821,
      "virt": 6822,
      "takanosu": 6823,
      "long-term": 6824,
      "commercial": 6825,
      "mizuyokan": 6826,
      "qwerty": 6827,
      "##encies": 6828,
      "##style": 6829,
      "alchemy": 6830,
      "scheme": 6831,
      "pyonkichi": 6832,
      "crystals": 6833,
      "intelligence": 6834,
      "http": 6835,
      "january": 6836,
      "nakamura": 6837,
      "prohibited": 6838,
      "protrud": 6839,
      "trunc": 6840,
      "scattered": 6841,
      "peoples": 6842,
      "yamanote": 6843,
      "phototube": 6844,
      "jpy": 6845,
      "kitchen": 6846,
      "luggage": 6847,
      "pablo": 6848,
      "stomach": 6849,
      "congestion": 6850,
      "semitone": 6851,
      "november": 6852,
      "gravity": 6853,
      "inputoutput": 6854,
      "ab23d": 6855,
      "abracadabra": 6856,
      "disregard": 6857,
      "1m": 6858,
      "3d": 6859,
      "3x": 6860,
      "39": 6861,
      "3-r": 6862,
      "53": 6863,
      "61": 6864,
      "68": 6865,
      "623": 6866,
      "77": 6867,
      "88": 6868,
      "800": 6869,
      "9th": 6870,
      "<term>": 6871,
      "<digit>": 6872,
      "ages": 6873,
      "a-b": 6874,
      "aug": 6875,
      "ce": 6876,
      "cash": 6877,
      "crypt": 6878,
      "cache": 6879,
      "dol": 6880,
      "ef": 6881,
      "fd": 6882,
      "fol": 6883,
      "fence": 6884,
      "fab": 6885,
      "fountain": 6886,
      "fuga": 6887,
      "gn": 6888,
      "gimm": 6889,
      "hk": 6890,
      "hates": 6891,
      "hanging": 6892,
      "haiku": 6893,
      "iw": 6894,
      "ii": 6895,
      "j2": 6896,
      "jour": 6897,
      "k0": 6898,
      "kang": 6899,
      "kaid": 6900,
      "losing": 6901,
      "m-th": 6902,
      "muse": 6903,
      "mami": 6904,
      "nut": 6905,
      "nets": 6906,
      "nav": 6907,
      "os": 6908,
      "oi": 6909,
      "om": 6910,
      "osk": 6911,
      "pays": 6912,
      "rit": 6913,
      "rough": 6914,
      "rif": 6915,
      "rival": 6916,
      "river": 6917,
      "sor": 6918,
      "sad": 6919,
      "sard": 6920,
      "saving": 6921,
      "socket": 6922,
      "tk": 6923,
      "tape": 6924,
      "tleft": 6925,
      "taste": 6926,
      "uku": 6927,
      "wa": 6928,
      "wk": 6929,
      "wakamatsu": 6930,
      "woman": 6931,
      "xs": 6932,
      "yok": 6933,
      "yield": 6934,
      "z-": 6935,
      "zom": 6936,
      "##ples": 6937,
      "##ports": 6938,
      "##a0": 6939,
      "##aft": 6940,
      "##riction": 6941,
      "##ti": 6942,
      "##oly": 6943,
      "##othes": 6944,
      "##uv": 6945,
      "##ding": 6946,
      "##ders": 6947,
      "##ny": 6948,
      "##non": 6949,
      "##wo": 6950,
      "##sorta": 6951,
      "##c1": 6952,
      "##cer": 6953,
      "##clic": 6954,
      "##cious": 6955,
      "##iya": 6956,
      "##+j": 6957,
      "##hj": 6958,
      "##hood": 6959,
      "##gets": 6960,
      "##mets": 6961,
      "##medi": 6962,
      "##mony": 6963,
      "##xoo": 6964,
      "##xpress": 6965,
      "##vant": 6966,
      "##vous": 6967,
      "##bj": 6968,
      "##bon": 6969,
      "##-7": 6970,
      "##-ro": 6971,
      "##-and": 6972,
      "##-co": 6973,
      "##-heap": 6974,
      "##fs": 6975,
      "##jack": 6976,
      "##54": 6977,
      "theater": 6978,
      "##inos": 6979,
      "##inator": 6980,
      "##rec": 6981,
      "##rete": 6982,
      "inhabited": 6983,
      "toys": 6984,
      "##iture": 6985,
      "##orie": 6986,
      "##origin": 6987,
      "##orbed": 6988,
      "##outs": 6989,
      "##arp": 6990,
      "##isible": 6991,
      "##acle": 6992,
      "##ion>": 6993,
      "##umkuch": 6994,
      "##roke": 6995,
      "##icts": 6996,
      "stol": 6997,
      "stays": 6998,
      "##erse": 6999,
      "youre": 7000,
      "##omiya": 7001,
      "forced": 7002,
      "rejected": 7003,
      "##idge": 7004,
      "leaked": 7005,
      "chame": 7006,
      "chok": 7007,
      "executive": 7008,
      "iter": 7009,
      "##iron": 7010,
      "shes": 7011,
      "shut": 7012,
      "shared": 7013,
      "shred": 7014,
      "shaped": 7015,
      "sharp": 7016,
      "##olf": 7017,
      "##olve": 7018,
      "##olored": 7019,
      "hear": 7020,
      "heart": 7021,
      "##ecters": 7022,
      "posts": 7023,
      "##adem": 7024,
      "two-digit": 7025,
      "di1": 7026,
      "alices": 7027,
      "weak": 7028,
      "##ointed": 7029,
      "##ointing": 7030,
      "tright": 7031,
      "trick": 7032,
      "trail": 7033,
      "##aren": 7034,
      "deploy": 7035,
      "priest": 7036,
      "spin": 7037,
      "spir": 7038,
      "spending": 7039,
      "unite": 7040,
      "unread": 7041,
      "unex": 7042,
      "unbal": 7043,
      "rope": 7044,
      "carries": 7045,
      "soil": 7046,
      "whichever": 7047,
      "##sif": 7048,
      "##sile": 7049,
      "inputting": 7050,
      "arare": 7051,
      "decks": 7052,
      "mahj": 7053,
      "manages": 7054,
      "abac": 7055,
      "cool": 7056,
      "coded": 7057,
      "advert": 7058,
      "butcoder": 7059,
      "goats": 7060,
      "##unium": 7061,
      "usagi": 7062,
      "ai2": 7063,
      "##keys": 7064,
      "##antom": 7065,
      "meals": 7066,
      "anymore": 7067,
      "residential": 7068,
      "##oking": 7069,
      "##ago": 7070,
      "##agers": 7071,
      "##riority": 7072,
      "max-heap": 7073,
      "joe": 7074,
      "worse": 7075,
      "compar": 7076,
      "compass": 7077,
      "formation": 7078,
      "formulas": 7079,
      "calorie": 7080,
      "append": 7081,
      "becoming": 7082,
      "divid": 7083,
      "diverse": 7084,
      "mayan": 7085,
      "equiv": 7086,
      "arriving": 7087,
      "flipped": 7088,
      "sne": 7089,
      "calling": 7090,
      "everything": 7091,
      "disaster": 7092,
      "##iexpress": 7093,
      "##itively": 7094,
      "sheep": 7095,
      "##+12": 7096,
      "loved": 7097,
      "newsp": 7098,
      "gregor": 7099,
      "greedy": 7100,
      "informatic": 7101,
      "mrx": 7102,
      "typed": 7103,
      "targets": 7104,
      "even-numbered": 7105,
      "intermedi": 7106,
      "placements": 7107,
      "handled": 7108,
      "computation": 7109,
      "a1an": 7110,
      "wouldnt": 7111,
      "useless": 7112,
      "highly": 7113,
      "1200": 7114,
      "obtains": 7115,
      "##-dist": 7116,
      "poison": 7117,
      "idunium": 7118,
      "robert": 7119,
      "academ": 7120,
      "watering": 7121,
      "offices": 7122,
      "showed": 7123,
      "inventions": 7124,
      "invisible": 7125,
      "tribe": 7126,
      "non-in": 7127,
      "##respecters": 7128,
      "cert": 7129,
      "foots": 7130,
      "phantom": 7131,
      "receiving": 7132,
      "##1200": 7133,
      "denom": 7134,
      "intersects": 7135,
      "guy": 7136,
      "checks": 7137,
      "##phin": 7138,
      "##-kyu": 7139,
      "baseball": 7140,
      "genre": 7141,
      "restrict": 7142,
      "restriction": 7143,
      "supplies": 7144,
      "##umps": 7145,
      "aj+1": 7146,
      "searched": 7147,
      "multiplied": 7148,
      "yester": 7149,
      "erasing": 7150,
      "aokis": 7151,
      "discus": 7152,
      "instructed": 7153,
      "crossed": 7154,
      "railgun": 7155,
      "50-yen": 7156,
      "skipped": 7157,
      "150": 7158,
      "packed": 7159,
      "shipped": 7160,
      "##-pointing": 7161,
      "indexed": 7162,
      "##arrays": 7163,
      "regarding": 7164,
      "saying": 7165,
      "keeps": 7166,
      "camel": 7167,
      "population": 7168,
      "continued": 7169,
      "schedul": 7170,
      "designs": 7171,
      "monthly": 7172,
      "overlaps": 7173,
      "concatenate": 7174,
      "guarantee": 7175,
      "guarantees": 7176,
      "hitting": 7177,
      "cheaper": 7178,
      "structures": 7179,
      "consuming": 7180,
      "##ugs": 7181,
      "growing": 7182,
      "encoding": 7183,
      "tourists": 7184,
      "##-free": 7185,
      "occupies": 7186,
      "mixed": 7187,
      "provides": 7188,
      "##xyxy": 7189,
      "constants": 7190,
      "shifting": 7191,
      "southern": 7192,
      "dollars": 7193,
      "organized": 7194,
      "forecast": 7195,
      "causes": 7196,
      "##4567": 7197,
      "simplified": 7198,
      "affected": 7199,
      "2018": 7200,
      "##letter": 7201,
      "venues": 7202,
      "throwing": 7203,
      "futons": 7204,
      "penetr": 7205,
      "pencil": 7206,
      "legal": 7207,
      "shuffling": 7208,
      "##flush": 7209,
      "bombom": 7210,
      "understood": 7211,
      "senry": 7212,
      "terr": 7213,
      "decreasing": 7214,
      "automatic": 7215,
      "supermark": 7216,
      "compressing": 7217,
      "technical": 7218,
      "hypothes": 7219,
      "songs": 7220,
      "qualif": 7221,
      "2drespecters": 7222,
      "attempts": 7223,
      "engines": 7224,
      "ltd": 7225,
      "mistake": 7226,
      "unkind": 7227,
      "cloth": 7228,
      "preceding": 7229,
      "aims": 7230,
      "clouds": 7231,
      "failure": 7232,
      "milky": 7233,
      "implemented": 7234,
      "360": 7235,
      "hyper": 7236,
      "recipes": 7237,
      "adjusting": 7238,
      "foxes": 7239,
      "skewers": 7240,
      "##operation": 7241,
      "extracted": 7242,
      "tetrahedron": 7243,
      "wheels": 7244,
      "archae": 7245,
      "applications": 7246,
      "discounted": 7247,
      "controlling": 7248,
      "proposition": 7249,
      "freshly": 7250,
      "lamps": 7251,
      "a1a2an": 7252,
      "delimiter": 7253,
      "shelter": 7254,
      "associated": 7255,
      "accumulated": 7256,
      "evacuation": 7257,
      "duration": 7258,
      "##pression>": 7259,
      "semiexpress": 7260,
      "repaint": 7261,
      "neglect": 7262,
      "govern": 7263,
      "ambush": 7264,
      "fairly": 7265,
      "folding": 7266,
      "introduce": 7267,
      "magnetic": 7268,
      "descendants": 7269,
      "succeeded": 7270,
      "aabb": 7271,
      "baumkuch": 7272,
      "uninity": 7273,
      "eliminate": 7274,
      "abbreviated": 7275,
      "derived": 7276,
      "dedicated": 7277,
      "atomic": 7278,
      "apartment": 7279,
      "kitamas": 7280,
      "sqrt": 7281,
      "established": 7282,
      "surprisingly": 7283,
      "<expression>": 7284,
      "assistant": 7285,
      "indirectly": 7286,
      "knocked": 7287,
      "exploration": 7288,
      "bounce": 7289,
      "empire": 7290,
      "draculas": 7291,
      "crawling": 7292,
      "aristocrat": 7293,
      "telescope": 7294,
      "pulmn": 7295,
      "conquer": 7296,
      "unnecessary": 7297,
      "scrolls": 7298,
      "troublesome": 7299,
      "celebrate": 7300,
      "f-electrodes": 7301,
      "cultural": 7302,
      "environ": 7303,
      "subdivision": 7304,
      "dispatch": 7305,
      "fermats": 7306,
      "hospital": 7307,
      "ixmel": 7308,
      "byakko": 7309,
      "financial": 7310,
      "persimmon": 7311,
      "aizumaru": 7312,
      "explanation": 7313,
      "wikipedia": 7314,
      "isomorphic": 7315,
      "raccoon": 7316,
      "3-rd": 7317,
      "august": 7318,
      "dolphin": 7319,
      "gimmick": 7320,
      "journey": 7321,
      "museum": 7322,
      "navig": 7323,
      "rifle": 7324,
      "zombies": 7325,
      "stolen": 7326,
      "chamele": 7327,
      "mahjong": 7328,
      "gregorian": 7329,
      "informatics": 7330,
      "restrictions": 7331,
      "baumkuchen": 7332,
      "---": 7333,
      "02": 7334,
      "3c": 7335,
      "37": 7336,
      "4-th": 7337,
      "51": 7338,
      "6th": 7339,
      "70": 7340,
      "75": 7341,
      "85": 7342,
      "aid": 7343,
      "ads": 7344,
      "a-1": 7345,
      "aven": 7346,
      "bb": 7347,
      "b3": 7348,
      "bbb": 7349,
      "borrow": 7350,
      "cow": 7351,
      "cam": 7352,
      "cate": 7353,
      "cere": 7354,
      "cable": 7355,
      "c-3": 7356,
      "c++": 7357,
      "c-4": 7358,
      "dress": 7359,
      "d-m": 7360,
      "dancing": 7361,
      "efficiency": 7362,
      "fp": 7363,
      "fares": 7364,
      "gach": 7365,
      "g-1": 7366,
      "gaps": 7367,
      "grown": 7368,
      "hn": 7369,
      "hh": 7370,
      "hok": 7371,
      "hund": 7372,
      "iro": 7373,
      "jleq": 7374,
      "jerry": 7375,
      "ka": 7376,
      "kiz": 7377,
      "kaz": 7378,
      "len": 7379,
      "los": 7380,
      "lies": 7381,
      "mart": 7382,
      "nc": 7383,
      "nk": 7384,
      "n-": 7385,
      "nan": 7386,
      "nap": 7387,
      "n+2": 7388,
      "ot": 7389,
      "oth": 7390,
      "p4": 7391,
      "pid": 7392,
      "pure": 7393,
      "pun": 7394,
      "pace": 7395,
      "qd": 7396,
      "rn": 7397,
      "rk": 7398,
      "r-th": 7399,
      "ranges": 7400,
      "risk": 7401,
      "sab": 7402,
      "sake": 7403,
      "sage": 7404,
      "soci": 7405,
      "t+": 7406,
      "tic": 7407,
      "t+1": 7408,
      "tub": 7409,
      "tanks": 7410,
      "taver": 7411,
      "ut": 7412,
      "u2": 7413,
      "util": 7414,
      "vin": 7415,
      "ves": 7416,
      "vamp": 7417,
      "vectors": 7418,
      "wo": 7419,
      "wf": 7420,
      "wed": 7421,
      "wake": 7422,
      "wakes": 7423,
      "x-1": 7424,
      "x+y": 7425,
      "z1": 7426,
      "z2": 7427,
      "zab": 7428,
      "##pg": 7429,
      "##pent": 7430,
      "##priority": 7431,
      "##aab": 7432,
      "##aven": 7433,
      "##rr": 7434,
      "##ru": 7435,
      "##ton": 7436,
      "##list": 7437,
      "##land": 7438,
      "##lines": 7439,
      "##lict": 7440,
      "##lapping": 7441,
      "##yx": 7442,
      "##y3": 7443,
      "##ymm": 7444,
      "##yrin": 7445,
      "##ook": 7446,
      "##uac": 7447,
      "##ugh": 7448,
      "##dits": 7449,
      "##num": 7450,
      "##count": 7451,
      "##iable": 7452,
      "##iji": 7453,
      "##+z": 7454,
      "##28": 7455,
      "##har": 7456,
      "##hash": 7457,
      "##gment": 7458,
      "##q=": 7459,
      "##kl": 7460,
      "##k2": 7461,
      "##koo": 7462,
      "##mx": 7463,
      "##xc": 7464,
      "##zes": 7465,
      "##zan": 7466,
      "##bing": 7467,
      "##bar": 7468,
      "##bers": 7469,
      "##-q": 7470,
      "##-uac": 7471,
      "##76": 7472,
      "##frac": 7473,
      "##=r": 7474,
      "##=l": 7475,
      "##jp": 7476,
      "##joint": 7477,
      "##3t": 7478,
      "thousand": 7479,
      "##rep": 7480,
      "##reads": 7481,
      "##esar": 7482,
      "##ening": 7483,
      "##en-p": 7484,
      "inu": 7485,
      "inorder": 7486,
      "##ann": 7487,
      "##an-1": 7488,
      "topping": 7489,
      "towers": 7490,
      "tough": 7491,
      "andor": 7492,
      "andro": 7493,
      "##lex": 7494,
      "##roku": 7495,
      "##rostone": 7496,
      "##assif": 7497,
      "##alid": 7498,
      "oni": 7499,
      "onoff": 7500,
      "##owed": 7501,
      "##uton": 7502,
      "##etti": 7503,
      "##ecreasing": 7504,
      "##ication": 7505,
      "storing": 7506,
      "stability": 7507,
      "##thest": 7508,
      "##thetic": 7509,
      "beak": 7510,
      "##osit": 7511,
      "##igs": 7512,
      "##igami": 7513,
      "##tep": 7514,
      "forces": 7515,
      "forget": 7516,
      "reel": 7517,
      "##aying": 7518,
      "##entional": 7519,
      "##iday": 7520,
      "##quake": 7521,
      "cannon": 7522,
      "orbs": 7523,
      "origami": 7524,
      "##ivity": 7525,
      "proof": 7526,
      "chest": 7527,
      "excess": 7528,
      "##001": 7529,
      "##ains": 7530,
      "sep": 7531,
      "##aka": 7532,
      "##aken": 7533,
      "shot": 7534,
      "shad": 7535,
      "shares": 7536,
      "##chick": 7537,
      "plots": 7538,
      "mo3t": 7539,
      "hearing": 7540,
      "heaven": 7541,
      "##urai": 7542,
      "##grid": 7543,
      "##adam": 7544,
      "di2": 7545,
      "diam": 7546,
      "alength-1": 7547,
      "ens": 7548,
      "enh": 7549,
      "##dera": 7550,
      "##istic": 7551,
      "noon": 7552,
      "novel": 7553,
      "trays": 7554,
      "truck": 7555,
      "traced": 7556,
      "trucks": 7557,
      "proud": 7558,
      "spac": 7559,
      "spare": 7560,
      "sport": 7561,
      "spreads": 7562,
      "unl": 7563,
      "unus": 7564,
      "unused": 7565,
      "##ueling": 7566,
      "blanks": 7567,
      "##ffle": 7568,
      "ordering": 7569,
      "decrypt": 7570,
      "december": 7571,
      "decrement": 7572,
      "##ushi": 7573,
      "maed": 7574,
      "mini": 7575,
      "charger": 7576,
      "##usted": 7577,
      "adam": 7578,
      "##asters": 7579,
      "god": 7580,
      "##unyan": 7581,
      "##rectang": 7582,
      "aika": 7583,
      "intu": 7584,
      "mel": 7585,
      "104": 7586,
      "1024": 7587,
      "scr": 7588,
      "scal": 7589,
      "##ipt": 7590,
      "##ipel": 7591,
      "##isho": 7592,
      "##elt": 7593,
      "increments": 7594,
      "##riage": 7595,
      "maximal": 7596,
      "classif": 7597,
      "amuse": 7598,
      "sato": 7599,
      "subm": 7600,
      "subgraph": 7601,
      "subway": 7602,
      "eleven": 7603,
      "obstruct": 7604,
      "worst": 7605,
      "parties": 7606,
      "printing": 7607,
      "caldera": 7608,
      "##ordinary": 7609,
      "buzz": 7610,
      "cellular": 7611,
      "assass": 7612,
      "maybe": 7613,
      "recur": 7614,
      "recomm": 7615,
      "equipped": 7616,
      "detected": 7617,
      "flumes": 7618,
      "exponent": 7619,
      "three-": 7620,
      "characteristics": 7621,
      "everywhere": 7622,
      "differently": 7623,
      "disput": 7624,
      "disjoint": 7625,
      "performances": 7626,
      "credits": 7627,
      "positional": 7628,
      "impl": 7629,
      "peak": 7630,
      "peace": 7631,
      "##ava": 7632,
      "determination": 7633,
      "joioi": 7634,
      "grid-like": 7635,
      "knew": 7636,
      "##1110": 7637,
      "prefer": 7638,
      "##ype": 7639,
      "syll": 7640,
      "topic": 7641,
      "brick": 7642,
      "personnel": 7643,
      "sink": 7644,
      "desire": 7645,
      "regist": 7646,
      "siroku": 7647,
      "secondhand": 7648,
      "commuting": 7649,
      "accom": 7650,
      "accident": 7651,
      "highlight": 7652,
      "xij": 7653,
      "128": 7654,
      "##00000000": 7655,
      "needle": 7656,
      "redundant": 7657,
      "##-section": 7658,
      "slate": 7659,
      "slash": 7660,
      "knowled": 7661,
      "marble": 7662,
      "swim": 7663,
      "swamp": 7664,
      "specifying": 7665,
      "completion": 7666,
      "completes": 7667,
      "##boards": 7668,
      "taro-kun": 7669,
      "offers": 7670,
      "##gling": 7671,
      "invalid": 7672,
      "triple": 7673,
      "divisions": 7674,
      "visitor": 7675,
      "transmit": 7676,
      "guide": 7677,
      "##uples": 7678,
      "##-ken-p": 7679,
      "base-line": 7680,
      "seriously": 7681,
      "digital": 7682,
      "opi": 7683,
      "yi2": 7684,
      "metron": 7685,
      "sites": 7686,
      "x2y2": 7687,
      "aj-1": 7688,
      "occurred": 7689,
      "136": 7690,
      "1325": 7691,
      "crops": 7692,
      "allowing": 7693,
      "permitted": 7694,
      "competing": 7695,
      "buyers": 7696,
      "instit": 7697,
      "probabilities": 7698,
      "craft": 7699,
      "confined": 7700,
      "conflict": 7701,
      "delet": 7702,
      "labyrin": 7703,
      "flagstone": 7704,
      "cross-section": 7705,
      "round-ro": 7706,
      "delay": 7707,
      "insertion": 7708,
      "riffle": 7709,
      "alphabets": 7710,
      "cyan": 7711,
      "devil": 7712,
      "skin": 7713,
      "well-": 7714,
      "widths": 7715,
      "151200": 7716,
      "packing": 7717,
      "package": 7718,
      "shiba": 7719,
      "abcde": 7720,
      "similarity": 7721,
      "villagers": 7722,
      "friendly": 7723,
      "brother": 7724,
      "camels": 7725,
      "exchanges": 7726,
      "template": 7727,
      "holy": 7728,
      "hoge": 7729,
      "opport": 7730,
      "purchasing": 7731,
      "entries": 7732,
      "entrances": 7733,
      "##ricts": 7734,
      "##jiro": 7735,
      "routers": 7736,
      "explore": 7737,
      "filling": 7738,
      "views": 7739,
      "viewers": 7740,
      "damaged": 7741,
      "farthest": 7742,
      "160": 7743,
      "1600": 7744,
      "summon": 7745,
      "summons": 7746,
      "bomber": 7747,
      "##iltonian": 7748,
      "biggest": 7749,
      "encour": 7750,
      "flows": 7751,
      "sixth": 7752,
      "250": 7753,
      "255": 7754,
      "airports": 7755,
      "tourism": 7756,
      "depth-first": 7757,
      "attacking": 7758,
      "naturally": 7759,
      "windows": 7760,
      "mix": 7761,
      "queen": 7762,
      "sunlight": 7763,
      "palindromic": 7764,
      "dollar": 7765,
      "##speed": 7766,
      "organiz": 7767,
      "24-hour": 7768,
      "polish": 7769,
      "2007": 7770,
      "caesar": 7771,
      "1234": 7772,
      "affects": 7773,
      "affili": 7774,
      "2017": 7775,
      "tanka": 7776,
      "closet": 7777,
      "miracle": 7778,
      "partitioned": 7779,
      "earthquake": 7780,
      "##overlapping": 7781,
      "treap": 7782,
      "##x2y2": 7783,
      "okay": 7784,
      "okaren": 7785,
      "transported": 7786,
      "fortune": 7787,
      "nearly": 7788,
      "distribution": 7789,
      "effects": 7790,
      "defeats": 7791,
      "exciting": 7792,
      "hexer": 7793,
      "hexagons": 7794,
      "jagjag": 7795,
      "kenkoo": 7796,
      "ken-ken-p": 7797,
      "surely": 7798,
      "arcs": 7799,
      "arcade": 7800,
      "paintings": 7801,
      "automated": 7802,
      "mathematician": 7803,
      "medic": 7804,
      "##-player": 7805,
      "wonderful": 7806,
      "carpets": 7807,
      "critical": 7808,
      "270": 7809,
      "remembered": 7810,
      "understanding": 7811,
      "passageway": 7812,
      "issued": 7813,
      "junior": 7814,
      "junction": 7815,
      "kan-char": 7816,
      "ruin": 7817,
      "yamada": 7818,
      "##ldotsn": 7819,
      "contrad": 7820,
      "a+b+c": 7821,
      "darkness": 7822,
      "failed": 7823,
      "##factor": 7824,
      "implementation": 7825,
      "familiars": 7826,
      "continuously": 7827,
      "##ulasis": 7828,
      "unsigned": 7829,
      "sub-array": 7830,
      "announces": 7831,
      "midterm": 7832,
      "pillar": 7833,
      "scenery": 7834,
      "destroyed": 7835,
      "0-origin": 7836,
      "fulf": 7837,
      "attendance": 7838,
      "uncolored": 7839,
      "equipments": 7840,
      "hamiltonian": 7841,
      "weighed": 7842,
      "weighing": 7843,
      "archipel": 7844,
      "applicants": 7845,
      "multiplying": 7846,
      "sigma": 7847,
      "teleport": 7848,
      "translation": 7849,
      "symmetry": 7850,
      "individually": 7851,
      "mischie": 7852,
      "missile": 7853,
      "exerc": 7854,
      "delimiters": 7855,
      "chemicals": 7856,
      "donuts": 7857,
      "isomer": 7858,
      "evacuate": 7859,
      "bandai": 7860,
      "fizzbuzz": 7861,
      "ufos": 7862,
      "allocated": 7863,
      "negation": 7864,
      "incremented": 7865,
      "sumi=1n": 7866,
      "respondents": 7867,
      "confirmed": 7868,
      "mathrmpop": 7869,
      "extraordinary": 7870,
      "441111": 7871,
      "dirty": 7872,
      "uninhabited": 7873,
      "approxim": 7874,
      "recognize": 7875,
      "ikuta": 7876,
      "worms": 7877,
      "shrine": 7878,
      "nobody": 7879,
      "believes": 7880,
      "niwango-kun": 7881,
      "vanish": 7882,
      "##what": 7883,
      "transparent": 7884,
      "evaluated": 7885,
      "quaternions": 7886,
      "coupl": 7887,
      "accurate": 7888,
      "identifies": 7889,
      "warriors": 7890,
      "dimple": 7891,
      "nakahashi": 7892,
      "settlements": 7893,
      "quotient": 7894,
      "explosion": 7895,
      "administrative": 7896,
      "sensors": 7897,
      "orientation": 7898,
      "##textrmx": 7899,
      "regenerate": 7900,
      "non-decreasing": 7901,
      "influence": 7902,
      "kippo": 7903,
      "historic": 7904,
      "aoj": 7905,
      "peculi": 7906,
      "ult": 7907,
      "congruent": 7908,
      "dashed": 7909,
      "female": 7910,
      "lupine": 7911,
      "poker": 7912,
      "wizard": 7913,
      "alliance": 7914,
      "blossoms": 7915,
      "waterdrops": 7916,
      "dissatisfied": 7917,
      "browser": 7918,
      "stomachache": 7919,
      "disregarding": 7920,
      "fdp": 7921,
      "nutrit": 7922,
      "sardines": 7923,
      "yokari": 7924,
      "shredder": 7925,
      "unbalanced": 7926,
      "advertise": 7927,
      "dividend": 7928,
      "newspaper": 7929,
      "intermediate": 7930,
      "hypothesis": 7931,
      "government": 7932,
      "kitamasa": 7933,
      "environment": 7934,
      "camer": 7935,
      "ceremony": 7936,
      "iroha": 7937,
      "kizahashi": 7938,
      "othell": 7939,
      "society": 7940,
      "tavern": 7941,
      "vessel": 7942,
      "zabuton": 7943,
      "##-uacjp": 7944,
      "beakers": 7945,
      "##chicken": 7946,
      "implies": 7947,
      "sirokurostone": 7948,
      "knowledge": 7949,
      "labyrinth": 7950,
      "round-robin": 7951,
      "kenkoooo": 7952,
      "ken-ken-pa": 7953,
      "kan-characters": 7954,
      "archipelago": 7955,
      "mathrmpopcount": 7956,
      "##textrmxor": 7957,
      "peculiar": 7958,
      "1th": 7959,
      "1im": 7960,
      "1-3": 7961,
      "2k": 7962,
      "2x": 7963,
      "50000": 7964,
      "62": 7965,
      "71": 7966,
      "72": 7967,
      "7-se": 7968,
      "8th": 7969,
      "<c": 7970,
      "a5": 7971,
      "aes": 7972,
      "a+1": 7973,
      "a+a": 7974,
      "bk": 7975,
      "bou": 7976,
      "c6": 7977,
      "cas": 7978,
      "cic": 7979,
      "cine": 7980,
      "cart": 7981,
      "cord": 7982,
      "cab": 7983,
      "cnt": 7984,
      "caf": 7985,
      "dos": 7986,
      "dot": 7987,
      "dxy": 7988,
      "dotted": 7989,
      "dream": 7990,
      "e3": 7991,
      "e-m": 7992,
      "fk": 7993,
      "furn": 7994,
      "fights": 7995,
      "fought": 7996,
      "gv": 7997,
      "gal": 7998,
      "gest": 7999
    }
  }
}