{
  "version": "1.0",
  "truncation": null,
  "padding": {
    "strategy": "BatchLongest",
    "direction": "Right",
    "pad_to_multiple_of": null,
    "pad_id": 0,
    "pad_type_id": 0,
    "pad_token": "[PAD]"
  },
  "added_tokens": [
    {
      "id": 0,
      "content": "[PAD]",
      "single_word": false,
      "lstrip": false,
      "rstrip": false,
      "normalized": false,
      "special": true
    },
    {
      "id": 1,
      "content": "[UNK]",
      "single_word": false,
      "lstrip": false,
      "rstrip": false,
      "normalized": false,
      "special": true
    },
    {
      "id": 2,
      "content": "[CLS]",
      "single_word": false,
      "lstrip": false,
      "rstrip": false,
      "normalized": false,
      "special": true
    },
    {
      "id": 3,
      "content": "[SEP]",
      "single_word": false,
      "lstrip": false,
      "rstrip": false,
      "normalized": false,
      "special": true
    }
  ],
  "normalizer": {
    "type": "BertNormalizer",
    "clean_text": false,
    "handle_chinese_chars": true,
    "strip_accents": null,
    "lowercase": true
  },
  "pre_tokenizer": {
    "type": "WhitespaceSplit"
  },
  "post_processor": {
    "type": "BertProcessing",
    "sep": [
      "[CLS]",
      2
    ],
    "cls": [
      "[SEP]",
      3
    ]
  },
  "decoder": {
    "type": "WordPiece",
    "prefix": "##",
    "cleanup": true
  },
  "model": {
    "type": "WordPiece",
    "unk_token": "[UNK]",
    "continuing_subword_prefix": "##",
    "max_input_chars_per_word": 100,
    "vocab": {
      "[PAD]": 0,
      "[UNK]": 1,
      "[CLS]": 2,
      "[SEP]": 3,
      "\u0000": 4,
      "\u0002": 5,
      "\u000f": 6,
      "\u0016": 7,
      "!": 8,
      "\"": 9,
      "#": 10,
      "$": 11,
      "%": 12,
      "&": 13,
      "'": 14,
      "(": 15,
      ")": 16,
      "*": 17,
      "+": 18,
      ",": 19,
      "-": 20,
      ".": 21,
      "/": 22,
      "0": 23,
      "1": 24,
      "2": 25,
      "3": 26,
      "4": 27,
      "5": 28,
      "6": 29,
      "7": 30,
      "8": 31,
      "9": 32,
      ":": 33,
      ";": 34,
      "<": 35,
      "=": 36,
      ">": 37,
      "?": 38,
      "@": 39,
      "[": 40,
      "]": 41,
      "^": 42,
      "_": 43,
      "`": 44,
      "a": 45,
      "b": 46,
      "c": 47,
      "d": 48,
      "e": 49,
      "f": 50,
      "g": 51,
      "h": 52,
      "i": 53,
      "j": 54,
      "k": 55,
      "l": 56,
      "m": 57,
      "n": 58,
      "o": 59,
      "p": 60,
      "q": 61,
      "r": 62,
      "s": 63,
      "t": 64,
      "u": 65,
      "v": 66,
      "w": 67,
      "x": 68,
      "y": 69,
      "z": 70,
      "{": 71,
      "|": 72,
      "}": 73,
      "~": 74,
      "##s": 75,
      "##c": 76,
      "##a": 77,
      "##u": 78,
      "##t": 79,
      "##h": 80,
      "##e": 81,
      "##n": 82,
      "##i": 83,
      "##o": 84,
      "##l": 85,
      "##d": 86,
      "##f": 87,
      "##r": 88,
      "##m": 89,
      "##x": 90,
      "##g": 91,
      "##z": 92,
      "##q": 93,
      "##k": 94,
      "##y": 95,
      "##p": 96,
      "##w": 97,
      "##b": 98,
      "##v": 99,
      "##_": 100,
      "##2": 101,
      "##1": 102,
      "##0": 103,
      "##5": 104,
      "##3": 105,
      "##6": 106,
      "##j": 107,
      "##4": 108,
      "##7": 109,
      "##9": 110,
      "##8": 111,
      "##\u0000": 112,
      "##'": 113,
      "##|": 114,
      "##.": 115,
      "##>": 116,
      "##&": 117,
      "##$": 118,
      "##-": 119,
      "##=": 120,
      "##(": 121,
      "##%": 122,
      "##:": 123,
      "##{": 124,
      "##<": 125,
      "##?": 126,
      "##+": 127,
      "##]": 128,
      "##\u000f": 129,
      "##/": 130,
      "##*": 131,
      "##)": 132,
      "##[": 133,
      "##}": 134,
      "##\"": 135,
      "##;": 136,
      "##\u0002": 137,
      "##`": 138,
      "##,": 139,
      "##\u0016": 140,
      "###": 141,
      "##!": 142,
      "##@": 143,
      "##~": 144,
      "##rg": 145,
      "arg": 146,
      "##on": 147,
      "##ti": 148,
      "##in": 149,
      "arg0": 150,
      "##et": 151,
      "##tion": 152,
      "##nc": 153,
      "##oc": 154,
      "##unc": 155,
      "##unction": 156,
      "function": 157,
      "loc": 158,
      "##rin": 159,
      "##er": 160,
      "##ur": 161,
      "##etur": 162,
      "##eturn": 163,
      "return": 164,
      "##ring": 165,
      "##tring": 166,
      "loc0": 167,
      "##te": 168,
      "##le": 169,
      "##is": 170,
      "##nt": 171,
      "##id": 172,
      "string": 173,
      "##al": 174,
      "##es": 175,
      "##or": 176,
      "##oid": 177,
      "void": 178,
      "arg1": 179,
      "th": 180,
      "##an": 181,
      "get": 182,
      "##at": 183,
      "this": 184,
      "##ul": 185,
      "##re": 186,
      "int": 187,
      "##ew": 188,
      "##string": 189,
      "##ec": 190,
      "##me": 191,
      "loc1": 192,
      "new": 193,
      "##ar": 194,
      "##ull": 195,
      "if": 196,
      "##st": 197,
      "##_string": 198,
      "##rini": 199,
      "\"s": 200,
      "##_string\"": 201,
      "##rini_string\"": 202,
      "\"srini_string\"": 203,
      "null": 204,
      "##se": 205,
      "##ce": 206,
      "##ro": 207,
      "##en": 208,
      "##as": 209,
      "##oo": 210,
      "##de": 211,
      "##ac": 212,
      "##ate": 213,
      "##ut": 214,
      "##lean": 215,
      "##oolean": 216,
      "##it": 217,
      "##ist": 218,
      "##ser": 219,
      "boolean": 220,
      "##ue": 221,
      "arg2": 222,
      "##ble": 223,
      "##ect": 224,
      "##ag": 225,
      "##ad": 226,
      "##ap": 227,
      "##ri": 228,
      "##yp": 229,
      "##am": 230,
      "##fi": 231,
      "==": 232,
      "##om": 233,
      "in": 234,
      "##ch": 235,
      "fin": 236,
      "##ption": 237,
      "##ou": 238,
      "##ject": 239,
      "##il": 240,
      "##el": 241,
      "##ed": 242,
      "##ay": 243,
      "##ess": 244,
      "##lo": 245,
      "##ame": 246,
      "##ex": 247,
      "final": 248,
      "##bject": 249,
      "##ation": 250,
      "tr": 251,
      "##bu": 252,
      "##con": 253,
      "##qu": 254,
      "##ol": 255,
      "re": 256,
      "##ode": 257,
      "##ass": 258,
      "set": 259,
      "##iz": 260,
      "##th": 261,
      "##ong": 262,
      "##ype": 263,
      "##able": 264,
      "##ception": 265,
      "con": 266,
      "loc2": 267,
      "st": 268,
      "##vi": 269,
      "!=": 270,
      "##tex": 271,
      "##ter": 272,
      "##ent": 273,
      "##der": 274,
      "##lass": 275,
      "##per": 276,
      "long": 277,
      "##ment": 278,
      "for": 279,
      "object": 280,
      "##ing": 281,
      "##av": 282,
      "##yte": 283,
      "##name": 284,
      "ad": 285,
      "##ion": 286,
      "##row": 287,
      "##ic": 288,
      "##pp": 289,
      "##tem": 290,
      "##fer": 291,
      "##nce": 292,
      "##od": 293,
      "##est": 294,
      "##val": 295,
      "list": 296,
      "##ang": 297,
      "lo": 298,
      "##res": 299,
      "add": 300,
      "throw": 301,
      "##ava": 302,
      "##ray": 303,
      "##ver": 304,
      "##text": 305,
      "to": 306,
      "##nd": 307,
      "##age": 308,
      "java": 309,
      "##ult": 310,
      "com": 311,
      "##gth": 312,
      "as": 313,
      "byte": 314,
      "##pl": 315,
      "##list": 316,
      "##alse": 317,
      "ex": 318,
      "##pro": 319,
      "log": 320,
      "##ile": 321,
      "##ouble": 322,
      "##um": 323,
      "##ger": 324,
      "##and": 325,
      "false": 326,
      "##ty": 327,
      "##sta": 328,
      "##ize": 329,
      "class": 330,
      "ch": 331,
      "len": 332,
      "##ort": 333,
      "##atch": 334,
      "double": 335,
      "length": 336,
      "##ey": 337,
      "##tt": 338,
      "##ig": 339,
      "##tor": 340,
      "##end": 341,
      "##im": 342,
      "##til": 343,
      "##tin": 344,
      "##vice": 345,
      "true": 346,
      "asser": 347,
      "##of": 348,
      "##als": 349,
      "##ator": 350,
      "##os": 351,
      "##ata": 352,
      "##our": 353,
      "##type": 354,
      "arg3": 355,
      "##par": 356,
      "is": 357,
      "app": 358,
      "##ath": 359,
      "##exception": 360,
      "##ain": 361,
      "##lec": 362,
      "##set": 363,
      "##ilder": 364,
      "##ot": 365,
      "##ream": 366,
      "##put": 367,
      "##ack": 368,
      "ar": 369,
      "el": 370,
      "##un": 371,
      "##ers": 372,
      "val": 373,
      "##us": 374,
      "##map": 375,
      "##quals": 376,
      "##stance": 377,
      "else": 378,
      "de": 379,
      "##value": 380,
      "bu": 381,
      "##time": 382,
      "##ve": 383,
      "##loc": 384,
      "++": 385,
      "##ten": 386,
      "##for": 387,
      "##up": 388,
      "##ase": 389,
      "##ys": 390,
      "##ach": 391,
      "array": 392,
      "res": 393,
      "##stream": 394,
      "##ace": 395,
      "file": 396,
      "lang": 397,
      "##service": 398,
      "##ress": 399,
      "map": 400,
      "##teger": 401,
      "pro": 402,
      "append": 403,
      "has": 404,
      "col": 405,
      "##ount": 406,
      "##all": 407,
      "##ub": 408,
      "##builder": 409,
      "##esc": 410,
      "##ource": 411,
      "try": 412,
      "&&": 413,
      "##vent": 414,
      "##ted": 415,
      "##pon": 416,
      "##ext": 417,
      "##key": 418,
      "##context": 419,
      "##lement": 420,
      "##loat": 421,
      "##op": 422,
      "##dex": 423,
      "##ry": 424,
      "##ystem": 425,
      "catch": 426,
      "tostring": 427,
      "getc": 428,
      "##fig": 429,
      "##li": 430,
      "float": 431,
      "cre": 432,
      "size": 433,
      "##tory": 434,
      "ser": 435,
      "##arg": 436,
      "##ffer": 437,
      "##fac": 438,
      "##out": 439,
      "##fa": 440,
      "##ax": 441,
      "integer": 442,
      "##essage": 443,
      "##quest": 444,
      "##ity": 445,
      "##ader": 446,
      "##ord": 447,
      "##rent": 448,
      "##mo": 449,
      "##fo": 450,
      "##mat": 451,
      "ge": 452,
      "ac": 453,
      "##lection": 454,
      "##di": 455,
      "##ow": 456,
      "##lis": 457,
      "##art": 458,
      "##int": 459,
      "##file": 460,
      "##rint": 461,
      "equals": 462,
      "##ale": 463,
      "##util": 464,
      "##ff": 465,
      "##putstream": 466,
      "##ror": 467,
      "put": 468,
      "##object": 469,
      "##ans": 470,
      "par": 471,
      "m_": 472,
      "##odel": 473,
      "##date": 474,
      "##enti": 475,
      "create": 476,
      "##tr": 477,
      "##sion": 478,
      "##state": 479,
      "##anag": 480,
      "system": 481,
      "##ab": 482,
      "##mp": 483,
      "print": 484,
      "out": 485,
      "##ache": 486,
      "##array": 487,
      "##result": 488,
      "sh": 489,
      "##ial": 490,
      "##ection": 491,
      "##atus": 492,
      "se": 493,
      "##leg": 494,
      "||": 495,
      "##ler": 496,
      "##ribu": 497,
      "##factory": 498,
      "##iter": 499,
      "##fault": 500,
      "arraylist": 501,
      "value": 502,
      "name": 503,
      "remo": 504,
      "##men": 505,
      "##com": 506,
      "un": 507,
      "##str": 508,
      "##eck": 509,
      "##be": 510,
      "instance": 511,
      "##anager": 512,
      "##gin": 513,
      "char": 514,
      "hash": 515,
      "li": 516,
      "##data": 517,
      "##null": 518,
      "##00": 519,
      "loc3": 520,
      "assert": 521,
      "##rec": 522,
      "##tent": 523,
      "date": 524,
      "##count": 525,
      "##read": 526,
      "##son": 527,
      "##urrent": 528,
      "state": 529,
      "util": 530,
      "##proper": 531,
      "##rite": 532,
      "##buffer": 533,
      "##eld": 534,
      "##escri": 535,
      "##ber": 536,
      "id": 537,
      "##tain": 538,
      "##ribute": 539,
      "collection": 540,
      "##ml": 541,
      "##manager": 542,
      "##path": 543,
      "##message": 544,
      "##tener": 545,
      "##let": 546,
      "run": 547,
      "##po": 548,
      "##amet": 549,
      "##lock": 550,
      "##nection": 551,
      "##ern": 552,
      "##ure": 553,
      "##sh": 554,
      "##ition": 555,
      "##not": 556,
      "##ties": 557,
      "##ith": 558,
      "##met": 559,
      "##inter": 560,
      "##request": 561,
      "##to": 562,
      "##ail": 563,
      "##action": 564,
      "##legal": 565,
      "en": 566,
      "##feray": 567,
      "type": 568,
      "liferay": 569,
      "il": 570,
      "##su": 571,
      "##pos": 572,
      "##ession": 573,
      "read": 574,
      "##ir": 575,
      "illegal": 576,
      "##ory": 577,
      "##ild": 578,
      "write": 579,
      "er": 580,
      "##ttp": 581,
      "##sc": 582,
      "remove": 583,
      ">=": 584,
      "##fere": 585,
      "##ati": 586,
      "##byte": 587,
      "##em": 588,
      "port": 589,
      "key": 590,
      "model": 591,
      "data": 592,
      "user": 593,
      "##ock": 594,
      "ap": 595,
      "##uc": 596,
      "##add": 597,
      "##ren": 598,
      "##ast": 599,
      "##roup": 600,
      "##texception": 601,
      "##ken": 602,
      "##reg": 603,
      "org": 604,
      "##vel": 605,
      "##red": 606,
      "##ip": 607,
      "##ponse": 608,
      "enc": 609,
      "##one": 610,
      "##ine": 611,
      "##argu": 612,
      "##mpty": 613,
      "check": 614,
      "##ery": 615,
      "##att": 616,
      "##ask": 617,
      "##lu": 618,
      "default": 619,
      "##nam": 620,
      "typ": 621,
      "iter": 622,
      "##uration": 623,
      "##code": 624,
      "##info": 625,
      "##form": 626,
      "##ting": 627,
      "##riter": 628,
      "##igh": 629,
      "##ob": 630,
      "context": 631,
      "##view": 632,
      "##config": 633,
      "##econ": 634,
      "##lient": 635,
      "##hod": 636,
      "##umber": 637,
      "wh": 638,
      "##lose": 639,
      "##tid": 640,
      "##class": 641,
      "contain": 642,
      "##ple": 643,
      "##ind": 644,
      "##node": 645,
      "##que": 646,
      "##ector": 647,
      "##ary": 648,
      "arg4": 649,
      "##size": 650,
      "xml": 651,
      "##ron": 652,
      "##ync": 653,
      "##ard": 654,
      "##user": 655,
      "##event": 656,
      "##ign": 657,
      ">>": 658,
      "##ifi": 659,
      "##ues": 660,
      "current": 661,
      "json": 662,
      "stringbuilder": 663,
      "start": 664,
      "##utils": 665,
      "##sp": 666,
      "##lic": 667,
      "error": 668,
      "##ln": 669,
      "##ore": 670,
      "##rap": 671,
      "instanceof": 672,
      "##property": 673,
      "##oding": 674,
      "##mentexception": 675,
      "ax": 676,
      "##port": 677,
      "##address": 678,
      "##tequals": 679,
      "##log": 680,
      "##anc": 681,
      "##izer": 682,
      "pre": 683,
      "##ork": 684,
      "##vid": 685,
      "##ener": 686,
      "assertequals": 687,
      "##hand": 688,
      "next": 689,
      "##tic": 690,
      "+=": 691,
      "sub": 692,
      "##aw": 693,
      "println": 694,
      "exception": 695,
      "axis": 696,
      "logger": 697,
      "getname": 698,
      "##ost": 699,
      "##ule": 700,
      "##bug": 701,
      "max": 702,
      "##ized": 703,
      "##argumentexception": 704,
      "portal": 705,
      "##uth": 706,
      "illegalargumentexception": 707,
      "##escription": 708,
      "or": 709,
      "sc": 710,
      "##.0": 711,
      "while": 712,
      "close": 713,
      "http": 714,
      "##item": 715,
      "##attribute": 716,
      "##listener": 717,
      "apache": 718,
      "##ime": 719,
      "##back": 720,
      "##ange": 721,
      "config": 722,
      "0x": 723,
      "he": 724,
      "##pre": 725,
      "##status": 726,
      "item": 727,
      "##etype": 728,
      "##tinstance": 729,
      "##pa": 730,
      "##low": 731,
      "contains": 732,
      "path": 733,
      "##col": 734,
      "##with": 735,
      "##field": 736,
      "cle": 737,
      "##ao": 738,
      "format": 739,
      "##he": 740,
      "##ntry": 741,
      "..": 742,
      "##ly": 743,
      "...": 744,
      "##ink": 745,
      "##query": 746,
      "met": 747,
      "trans": 748,
      "time": 749,
      "##ponent": 750,
      "im": 751,
      "del": 752,
      "iterator": 753,
      "##pt": 754,
      "##ight": 755,
      "proper": 756,
      "##paramet": 757,
      "gets": 758,
      "fi": 759,
      "node": 760,
      "index": 761,
      "up": 762,
      "##format": 763,
      "##alend": 764,
      "al": 765,
      "case": 766,
      "fac": 767,
      "ise": 768,
      "##roc": 769,
      "math": 770,
      "##tern": 771,
      "##nds": 772,
      "##ndle": 773,
      "status": 774,
      "##rom": 775,
      "##tiv": 776,
      "an": 777,
      "su": 778,
      "kern": 779,
      "att": 780,
      "##vider": 781,
      "##fic": 782,
      "kernel": 783,
      "getclass": 784,
      "##ument": 785,
      "##writer": 786,
      "debug": 787,
      "be": 788,
      "##by": 789,
      "clear": 790,
      "typed": 791,
      "##rid": 792,
      "##rol": 793,
      "##alendar": 794,
      "##ocket": 795,
      "##local": 796,
      "##ializer": 797,
      "min": 798,
      "ur": 799,
      "di": 800,
      "##mod": 801,
      "parse": 802,
      "not": 803,
      "##tim": 804,
      "##ak": 805,
      "encoding": 806,
      "##arch": 807,
      "io": 808,
      "##supp": 809,
      "##fin": 810,
      "##ference": 811,
      "##ute": 812,
      "uri": 813,
      "##group": 814,
      "reg": 815,
      "##dat": 816,
      "getservice": 817,
      "##level": 818,
      "##len": 819,
      "builder": 820,
      "##point": 821,
      "##ook": 822,
      "##server": 823,
      "##version": 824,
      "sync": 825,
      "##eb": 826,
      "##act": 827,
      "##ool": 828,
      "##loader": 829,
      "##abel": 830,
      "##handler": 831,
      "test": 832,
      "dis": 833,
      "##abled": 834,
      "url": 835,
      "##xy": 836,
      "exec": 837,
      "##ttr": 838,
      "throwable": 839,
      "##tific": 840,
      "fil": 841,
      "##esp": 842,
      "##peration": 843,
      "##ite": 844,
      "valid": 845,
      "connection": 846,
      "##cess": 847,
      "##error": 848,
      "cl": 849,
      "dat": 850,
      "inputstream": 851,
      "##own": 852,
      "##iti": 853,
      "session": 854,
      "##response": 855,
      "message": 856,
      "##table": 857,
      "asserttr": 858,
      "asserttrue": 859,
      "##xception": 860,
      "##resource": 861,
      "##press": 862,
      "##ces": 863,
      "##next": 864,
      "##lay": 865,
      "typedesc": 866,
      "qu": 867,
      "##base": 868,
      "thread": 869,
      "##ateg": 870,
      "##essag": 871,
      "##bytes": 872,
      "##element": 873,
      "##ann": 874,
      "isempty": 875,
      "buffer": 876,
      "delet": 877,
      "big": 878,
      "##rim": 879,
      "##arget": 880,
      "##method": 881,
      "##mand": 882,
      "dy": 883,
      "##if": 884,
      "entry": 885,
      "##word": 886,
      "##rocess": 887,
      "request": 888,
      "result": 889,
      "event": 890,
      "rec": 891,
      "##url": 892,
      "##hron": 893,
      "##ocument": 894,
      "##line": 895,
      "##ptions": 896,
      "my": 897,
      "<=": 898,
      "le": 899,
      "##namic": 900,
      "pos": 901,
      "##ound": 902,
      "##entity": 903,
      "##ere": 904,
      "##raph": 905,
      "##index": 906,
      "##fix": 907,
      "##entry": 908,
      "##ies": 909,
      "##arn": 910,
      "##orted": 911,
      "##lugin": 912,
      "vi": 913,
      "build": 914,
      "resource": 915,
      "##ublic": 916,
      "##play": 917,
      "##bo": 918,
      "##umn": 919,
      "nam": 920,
      "##client": 921,
      "dynamic": 922,
      "##content": 923,
      "no": 924,
      "##its": 925,
      "element": 926,
      "color": 927,
      "tag": 928,
      "##bean": 929,
      "##uct": 930,
      "##illis": 931,
      "gener": 932,
      "##fil": 933,
      "getp": 934,
      "view": 935,
      "##connection": 936,
      "##idth": 937,
      "find": 938,
      "match": 939,
      "##auth": 940,
      "##dec": 941,
      "##vis": 942,
      "##elper": 943,
      "count": 944,
      "##ated": 945,
      "##espace": 946,
      "ab": 947,
      "plugin": 948,
      "##oint": 949,
      "##notation": 950,
      "##ative": 951,
      "synchron": 952,
      "##stant": 953,
      "##older": 954,
      "hashcode": 955,
      "runtime": 956,
      "##pen": 957,
      "##ash": 958,
      "update": 959,
      "##fe": 960,
      "##ark": 961,
      "##eser": 962,
      "##opy": 963,
      "##ms": 964,
      "notnull": 965,
      "##vlet": 966,
      "field": 967,
      "##pression": 968,
      "short": 969,
      "##provider": 970,
      "synchronized": 971,
      "##trol": 972,
      "##work": 973,
      "##nces": 974,
      "##allback": 975,
      "##dition": 976,
      "##tint": 977,
      "bundle": 978,
      "##itor": 979,
      "##place": 980,
      "##parameter": 981,
      "<<": 982,
      "sp": 983,
      "##ded": 984,
      "getinstance": 985,
      "##min": 986,
      "##andom": 987,
      "action": 988,
      "##mis": 989,
      "##og": 990,
      "exte": 991,
      "##ust": 992,
      "ioexception": 993,
      "##ptor": 994,
      "##localservice": 995,
      "##parator": 996,
      "number": 997,
      "##typ": 998,
      "##stack": 999,
      "extends": 1000,
      "##imple": 1001,
      "attribute": 1002,
      "##az": 1003,
      "##load": 1004,
      "text": 1005,
      "description": 1006,
      "dynamicquery": 1007,
      "dao": 1008,
      "values": 1009,
      "collections": 1010,
      "##valid": 1011,
      "regist": 1012,
      "##model": 1013,
      "##length": 1014,
      "##trans": 1015,
      "getb": 1016,
      "inter": 1017,
      "##entifi": 1018,
      "public": 1019,
      "##ecur": 1020,
      "getvalue": 1021,
      "faces": 1022,
      "vector": 1023,
      "##teners": 1024,
      "info": 1025,
      "##ref": 1026,
      "##operation": 1027,
      "##modifi": 1028,
      "##fl": 1029,
      "content": 1030,
      "runtimeexception": 1031,
      "calendar": 1032,
      "lis": 1033,
      "##uid": 1034,
      "##yle": 1035,
      "##default": 1036,
      "end": 1037,
      "##ree": 1038,
      "##impl": 1039,
      "##eto": 1040,
      "getd": 1041,
      "##olic": 1042,
      "##tivity": 1043,
      "jax": 1044,
      "##instance": 1045,
      "intern": 1046,
      "##ush": 1047,
      "##belement": 1048,
      "fl": 1049,
      "##pan": 1050,
      "##entifier": 1051,
      "##helper": 1052,
      "##ution": 1053,
      "javax": 1054,
      "##tension": 1055,
      "ver": 1056,
      "##face": 1057,
      "##sed": 1058,
      "configuration": 1059,
      "sw": 1060,
      "##filter": 1061,
      "##tity": 1062,
      "substring": 1063,
      "##reader": 1064,
      "##unit": 1065,
      "##render": 1066,
      "hashmap": 1067,
      "sq": 1068,
      "##from": 1069,
      "dec": 1070,
      "##ams": 1071,
      "##millis": 1072,
      "method": 1073,
      "ob": 1074,
      "##mode": 1075,
      "##ric": 1076,
      "pa": 1077,
      "##ge": 1078,
      "table": 1079,
      "##2d": 1080,
      "##long": 1081,
      "##order": 1082,
      "am": 1083,
      "##rix": 1084,
      "getid": 1085,
      "##values": 1086,
      "empty": 1087,
      "##block": 1088,
      "##properties": 1089,
      "orm": 1090,
      "##socket": 1091,
      "##token": 1092,
      "##vector": 1093,
      "0xff": 1094,
      "##sum": 1095,
      "##host": 1096,
      "##plic": 1097,
      "##ari": 1098,
      "hand": 1099,
      "runn": 1100,
      "delete": 1101,
      "##s_": 1102,
      "hasnext": 1103,
      "##outputstream": 1104,
      "##itial": 1105,
      "mod": 1106,
      "properties": 1107,
      "load": 1108,
      "##gress": 1109,
      "##mon": 1110,
      "jaxbelement": 1111,
      "qname": 1112,
      "##enabled": 1113,
      "##aint": 1114,
      "##regist": 1115,
      "##annel": 1116,
      "##no": 1117,
      "##edi": 1118,
      "replace": 1119,
      "filter": 1120,
      "namespace": 1121,
      "##stants": 1122,
      "##configuration": 1123,
      "internal": 1124,
      "send": 1125,
      "##ps": 1126,
      "per": 1127,
      "##match": 1128,
      "selec": 1129,
      "##mission": 1130,
      "##are": 1131,
      "cur": 1132,
      "##attern": 1133,
      "##location": 1134,
      "server": 1135,
      "##ature": 1136,
      "##toc": 1137,
      "##thread": 1138,
      "##off": 1139,
      "##ance": 1140,
      "##inding": 1141,
      "link": 1142,
      "##itch": 1143,
      "##chang": 1144,
      "##assword": 1145,
      "##vic": 1146,
      "##intern": 1147,
      "task": 1148,
      "arg5": 1149,
      "point": 1150,
      "##reen": 1151,
      "##etail": 1152,
      "web": 1153,
      "##tings": 1154,
      "##plu": 1155,
      "##econd": 1156,
      "##olicy": 1157,
      "##plugin": 1158,
      "getn": 1159,
      "response": 1160,
      "##raw": 1161,
      "##gr": 1162,
      "service": 1163,
      "##adata": 1164,
      "##get": 1165,
      "##verrid": 1166,
      "##br": 1167,
      "--": 1168,
      "sch": 1169,
      "stream": 1170,
      "serial": 1171,
      "##enc": 1172,
      "##notnull": 1173,
      "##session": 1174,
      "##integer": 1175,
      "last": 1176,
      "##test": 1177,
      "loglevel": 1178,
      "##oord": 1179,
      "##odes": 1180,
      "##fr": 1181,
      "##project": 1182,
      "##position": 1183,
      "simple": 1184,
      "tim": 1185,
      "##ant": 1186,
      "##tification": 1187,
      "num": 1188,
      "##char": 1189,
      "##_c": 1190,
      "stringbuffer": 1191,
      "##posit": 1192,
      "##defin": 1193,
      "valueof": 1194,
      "main": 1195,
      "##supported": 1196,
      "local": 1197,
      "##led": 1198,
      "##mem": 1199,
      "##ss": 1200,
      "##task": 1201,
      "##zone": 1202,
      "##ulti": 1203,
      "arrays": 1204,
      "document": 1205,
      "##oot": 1206,
      "token": 1207,
      "##direc": 1208,
      "##escriptor": 1209,
      "##cept": 1210,
      "##scri": 1211,
      "trace": 1212,
      "##quence": 1213,
      "##renderer": 1214,
      "##ke": 1215,
      "##uri": 1216,
      "##ecurity": 1217,
      "client": 1218,
      "on": 1219,
      "property": 1220,
      "##identifier": 1221,
      "##mit": 1222,
      "mat": 1223,
      "##use": 1224,
      "##tag": 1225,
      "##reference": 1226,
      "##internal": 1227,
      "##case": 1228,
      "##amp": 1229,
      "position": 1230,
      "facescontext": 1231,
      "##ont": 1232,
      "##dexception": 1233,
      "bean": 1234,
      "100": 1235,
      "pluginresult": 1236,
      "##options": 1237,
      "work": 1238,
      "##image": 1239,
      "random": 1240,
      "##pository": 1241,
      "auth": 1242,
      "##ved": 1243,
      "##ources": 1244,
      "messag": 1245,
      "##ph": 1246,
      "##ategory": 1247,
      "getmessage": 1248,
      "##ersion": 1249,
      "bit": 1250,
      "nex": 1251,
      "paramet": 1252,
      "##start": 1253,
      "##olver": 1254,
      "cache": 1255,
      "##names": 1256,
      "##ferences": 1257,
      "##ee": 1258,
      "##inputstream": 1259,
      "##eserializer": 1260,
      "##gener": 1261,
      "##selec": 1262,
      "##aders": 1263,
      "##imal": 1264,
      "##ustom": 1265,
      "##ov": 1266,
      "##ping": 1267,
      "##verride": 1268,
      "##ender": 1269,
      "##fir": 1270,
      "##azon": 1271,
      "##source": 1272,
      "getex": 1273,
      "address": 1274,
      "##fs": 1275,
      "##control": 1276,
      "amazon": 1277,
      "##servlet": 1278,
      "##greg": 1279,
      "biginteger": 1280,
      "version": 1281,
      "##dis": 1282,
      "##angle": 1283,
      "##ments": 1284,
      "containskey": 1285,
      "source": 1286,
      "##ities": 1287,
      "lock": 1288,
      "##number": 1289,
      "##jec": 1290,
      "##lob": 1291,
      "##tocol": 1292,
      "##cache": 1293,
      "tot": 1294,
      "##tindex": 1295,
      "ed": 1296,
      "##eres": 1297,
      "comp": 1298,
      "fir": 1299,
      "##plate": 1300,
      "super": 1301,
      "compar": 1302,
      "##files": 1303,
      "##trace": 1304,
      "entity": 1305,
      "##stateexception": 1306,
      "##label": 1307,
      "##titem": 1308,
      "abstr": 1309,
      "##http": 1310,
      "##ech": 1311,
      "##region": 1312,
      "locale": 1313,
      "getproperty": 1314,
      "##progress": 1315,
      "block": 1316,
      "getstring": 1317,
      "##definition": 1318,
      "##access": 1319,
      "##valu": 1320,
      "##sl": 1321,
      "##function": 1322,
      "##onnull": 1323,
      "##ility": 1324,
      "##record": 1325,
      "getm": 1326,
      "##reak": 1327,
      "##cre": 1328,
      "illegalstateexception": 1329,
      "##description": 1330,
      "##parser": 1331,
      "##queue": 1332,
      "##oordin": 1333,
      "##utable": 1334,
      "process": 1335,
      "row": 1336,
      "##dir": 1337,
      "outputstream": 1338,
      "label": 1339,
      "pl": 1340,
      "##ft": 1341,
      "image": 1342,
      "open": 1343,
      "##ared": 1344,
      "##ternal": 1345,
      "validate": 1346,
      "fail": 1347,
      "##sor": 1348,
      "##callback": 1349,
      "##color": 1350,
      "10": 1351,
      "##prefix": 1352,
      "gl": 1353,
      "override": 1354,
      "##sch": 1355,
      "switch": 1356,
      "warn": 1357,
      "##istener": 1358,
      "from": 1359,
      "##rig": 1360,
      "query": 1361,
      "job": 1362,
      "##width": 1363,
      "graph": 1364,
      "##hash": 1365,
      "##qui": 1366,
      "##viron": 1367,
      "##plication": 1368,
      "##run": 1369,
      "nullable": 1370,
      "level": 1371,
      "##db": 1372,
      "pack": 1373,
      "##sub": 1374,
      "init": 1375,
      "##ariable": 1376,
      "me": 1377,
      "##cation": 1378,
      "register": 1379,
      "rect": 1380,
      "##condition": 1381,
      "base": 1382,
      "##down": 1383,
      "##aset": 1384,
      "accept": 1385,
      "##oder": 1386,
      "jsonobject": 1387,
      "##tu": 1388,
      "##swith": 1389,
      "##ope": 1390,
      "16": 1391,
      "bundlecontext": 1392,
      "ok": 1393,
      "order": 1394,
      "clone": 1395,
      "first": 1396,
      "option": 1397,
      "group": 1398,
      "##rou": 1399,
      "##ret": 1400,
      "##spec": 1401,
      "##utor": 1402,
      "##flow": 1403,
      "##ertific": 1404,
      "##flag": 1405,
      "total": 1406,
      "##_value": 1407,
      "target": 1408,
      "component": 1409,
      "exp": 1410,
      "##json": 1411,
      "input": 1412,
      "##vironment": 1413,
      "##apter": 1414,
      "##indow": 1415,
      "native": 1416,
      "##ive": 1417,
      "##detail": 1418,
      "##acter": 1419,
      "##ample": 1420,
      "##loy": 1421,
      "##contain": 1422,
      "startswith": 1423,
      "inc": 1424,
      "##omain": 1425,
      "command": 1426,
      "##track": 1427,
      "##ancel": 1428,
      "##pool": 1429,
      "##output": 1430,
      "sd": 1431,
      "default_": 1432,
      "execute": 1433,
      "##stacktrace": 1434,
      "##target": 1435,
      "##ques": 1436,
      "##offset": 1437,
      "##check": 1438,
      "##ached": 1439,
      "unsupported": 1440,
      "conver": 1441,
      "bytebuffer": 1442,
      "##ourc": 1443,
      "##attributes": 1444,
      "##parent": 1445,
      "##link": 1446,
      "##pri": 1447,
      "##ations": 1448,
      "apply": 1449,
      "pers": 1450,
      "##last": 1451,
      "##ries": 1452,
      "##estamp": 1453,
      "##component": 1454,
      "##etwork": 1455,
      "##child": 1456,
      "##ous": 1457,
      "##timemillis": 1458,
      "##annotation": 1459,
      "##ages": 1460,
      "break": 1461,
      "##oken": 1462,
      "##rans": 1463,
      "##current": 1464,
      "##ait": 1465,
      "initial": 1466,
      "##oun": 1467,
      "proxy": 1468,
      "##lust": 1469,
      "sav": 1470,
      "##orm": 1471,
      "##ists": 1472,
      "indexof": 1473,
      "##box": 1474,
      "##ertificate": 1475,
      "##metadata": 1476,
      "##header": 1477,
      "ct": 1478,
      "mem": 1479,
      "abstract": 1480,
      "1.0": 1481,
      "##copy": 1482,
      "##ryp": 1483,
      "##atur": 1484,
      "##struct": 1485,
      "##tics": 1486,
      "##decimal": 1487,
      "##keys": 1488,
      "##operationexception": 1489,
      "##redic": 1490,
      "##stor": 1491,
      "addall": 1492,
      "##part": 1493,
      "##pointer": 1494,
      "buffered": 1495,
      "socket": 1496,
      "##store": 1497,
      "##sequence": 1498,
      "conn": 1499,
      "buf": 1500,
      "unsupportedoperationexception": 1501,
      "off": 1502,
      "##ql": 1503,
      "reset": 1504,
      "##layout": 1505,
      "parent": 1506,
      "call": 1507,
      "##eed": 1508,
      "iterable": 1509,
      "gr": 1510,
      "##messag": 1511,
      "##ori": 1512,
      "##atet": 1513,
      "##constants": 1514,
      "trim": 1515,
      "##bundle": 1516,
      "##command": 1517,
      "root": 1518,
      "##oin": 1519,
      "##ody": 1520,
      "applic": 1521,
      "line": 1522,
      "##mark": 1523,
      "##resent": 1524,
      "search": 1525,
      "##logger": 1526,
      "##_key": 1527,
      "##plet": 1528,
      "bigdecimal": 1529,
      "##generator": 1530,
      "sign": 1531,
      "encode": 1532,
      "##aws": 1533,
      "record": 1534,
      "##_b": 1535,
      "##tive": 1536,
      "getkey": 1537,
      "##omponent": 1538,
      "##interface": 1539,
      "main_": 1540,
      "rectangle": 1541,
      "##pack": 1542,
      "bytearray": 1543,
      "##update": 1544,
      "##ape": 1545,
      "application": 1546,
      "##lexception": 1547,
      "##ority": 1548,
      "##cent": 1549,
      "nonnull": 1550,
      "##_id": 1551,
      "hashset": 1552,
      "main_region": 1553,
      "gettime": 1554,
      "inet": 1555,
      "##elistener": 1556,
      "annotation": 1557,
      "diag": 1558,
      "##ton": 1559,
      "##ole": 1560,
      "##range": 1561,
      "##_name": 1562,
      "bytes": 1563,
      "amazonaws": 1564,
      "pri": 1565,
      "width": 1566,
      "##ncy": 1567,
      "getuser": 1568,
      "toarray": 1569,
      "classloader": 1570,
      "child": 1571,
      "printstacktrace": 1572,
      "->": 1573,
      "copy": 1574,
      "##parameters": 1575,
      "custom": 1576,
      "fr": 1577,
      "sing": 1578,
      "##process": 1579,
      "##policy": 1580,
      "##matrix": 1581,
      "show": 1582,
      "##rimary": 1583,
      "bin": 1584,
      "##rit": 1585,
      "ref": 1586,
      "activity": 1587,
      "##bound": 1588,
      "##resh": 1589,
      "##ordov": 1590,
      "##over": 1591,
      "##adapter": 1592,
      "##preferences": 1593,
      "display": 1594,
      "##first": 1595,
      "column": 1596,
      "mon": 1597,
      "##ix": 1598,
      "##dao": 1599,
      "##descriptor": 1600,
      "##ell": 1601,
      "##oordinate": 1602,
      "##eg": 1603,
      "##change": 1604,
      "##ner": 1605,
      "##_s": 1606,
      "##search": 1607,
      "lay": 1608,
      "##holder": 1609,
      "##ible": 1610,
      "output": 1611,
      "gettype": 1612,
      "##atype": 1613,
      "##chart": 1614,
      "items": 1615,
      "supp": 1616,
      "##qual": 1617,
      "##plit": 1618,
      "api": 1619,
      "getre": 1620,
      "expression": 1621,
      "##listeners": 1622,
      "cam": 1623,
      "##urren": 1624,
      "##orec": 1625,
      "##ization": 1626,
      "##rect": 1627,
      "currenttimemillis": 1628,
      "listeners": 1629,
      "runnable": 1630,
      "security": 1631,
      "##max": 1632,
      "##anch": 1633,
      "##lim": 1634,
      "location": 1635,
      "header": 1636,
      "##io": 1637,
      "##iste": 1638,
      "##style": 1639,
      "finally": 1640,
      "##pers": 1641,
      "##modifiable": 1642,
      "bas": 1643,
      "##opp": 1644,
      "##mb": 1645,
      "##permission": 1646,
      "extension": 1647,
      "##column": 1648,
      "mock": 1649,
      "##ffff": 1650,
      "keyset": 1651,
      "medi": 1652,
      "loc4": 1653,
      "##channel": 1654,
      "##proxy": 1655,
      "getint": 1656,
      "##space": 1657,
      "getbytes": 1658,
      "##igest": 1659,
      "##luster": 1660,
      "##num": 1661,
      "##bit": 1662,
      "##input": 1663,
      "reader": 1664,
      "reference": 1665,
      "##ick": 1666,
      ">>>": 1667,
      "mark": 1668,
      "##nos": 1669,
      "##application": 1670,
      "##redicate": 1671,
      "cordov": 1672,
      "##mutable": 1673,
      "str": 1674,
      "stack": 1675,
      "##resolver": 1676,
      "##mapping": 1677,
      "getcurren": 1678,
      "##ema": 1679,
      "transaction": 1680,
      "##ookup": 1681,
      "flush": 1682,
      "multi": 1683,
      "##orecase": 1684,
      "##pattern": 1685,
      "##tit": 1686,
      "unmodifiable": 1687,
      "##ancalendar": 1688,
      "##types": 1689,
      "attributes": 1690,
      "sdk": 1691,
      "##oriancalendar": 1692,
      "##cl": 1693,
      "##anaged": 1694,
      "checknotnull": 1695,
      "mo": 1696,
      "##avi": 1697,
      "##controller": 1698,
      "options": 1699,
      "##af": 1700,
      "##tep": 1701,
      "##utton": 1702,
      "##lip": 1703,
      "##ify": 1704,
      "##container": 1705,
      "getcurrentinstance": 1706,
      "##graph": 1707,
      "##01": 1708,
      "##ected": 1709,
      "##ename": 1710,
      "stop": 1711,
      "##ical": 1712,
      "matcher": 1713,
      "eobject": 1714,
      "##ade": 1715,
      "##her": 1716,
      "##lin": 1717,
      "##height": 1718,
      "0.0": 1719,
      "cancel": 1720,
      "##nap": 1721,
      "arraycopy": 1722,
      "md": 1723,
      "of": 1724,
      "##sing": 1725,
      "##lot": 1726,
      "##ignorecase": 1727,
      "##vision": 1728,
      "##ormal": 1729,
      "pd": 1730,
      "##vo": 1731,
      "##iterator": 1732,
      "charat": 1733,
      "##udi": 1734,
      "##option": 1735,
      "##rup": 1736,
      "##rule": 1737,
      "##serializer": 1738,
      "##ics": 1739,
      "##rapper": 1740,
      "##binding": 1741,
      "##activity": 1742,
      "##old": 1743,
      "ip": 1744,
      "##timeout": 1745,
      "##leton": 1746,
      "parameter": 1747,
      "ph": 1748,
      "##ervice": 1749,
      "##adi": 1750,
      "httpservlet": 1751,
      "db": 1752,
      "sort": 1753,
      "##mar": 1754,
      "##job": 1755,
      "##legate": 1756,
      "##lower": 1757,
      "compareto": 1758,
      "##delement": 1759,
      "servlet": 1760,
      "all": 1761,
      "offset": 1762,
      "que": 1763,
      "##ud": 1764,
      "##exec": 1765,
      "##param": 1766,
      "height": 1767,
      "##matcher": 1768,
      "##atform": 1769,
      "##conn": 1770,
      "top": 1771,
      "##utilities": 1772,
      "##duct": 1773,
      "##rel": 1774,
      "##gine": 1775,
      "##econds": 1776,
      "_s": 1777,
      "password": 1778,
      "##yc": 1779,
      "##variable": 1780,
      "##vices": 1781,
      "##frame": 1782,
      "stringutils": 1783,
      "##tinfo": 1784,
      "cos": 1785,
      "host": 1786,
      "##ls": 1787,
      "arg6": 1788,
      "jsonarray": 1789,
      "##sumer": 1790,
      "##ib": 1791,
      "##tif": 1792,
      "##les": 1793,
      "transform": 1794,
      "linked": 1795,
      "##tracker": 1796,
      "##ie": 1797,
      "notification": 1798,
      "handler": 1799,
      "diagnos": 1800,
      "camer": 1801,
      "##ocon": 1802,
      "##sexception": 1803,
      "##argument": 1804,
      "any": 1805,
      "##istence": 1806,
      "mode": 1807,
      "##ploy": 1808,
      "##struc": 1809,
      "##bytearray": 1810,
      "factory": 1811,
      "##ategy": 1812,
      "##qname": 1813,
      "stor": 1814,
      "##unk": 1815,
      "render": 1816,
      "timezone": 1817,
      "module": 1818,
      "##ish": 1819,
      "##repository": 1820,
      "##ecode": 1821,
      "##acity": 1822,
      "##verter": 1823,
      "##protocol": 1824,
      "enum": 1825,
      "##_type": 1826,
      "##tevent": 1827,
      "exists": 1828,
      "serializer": 1829,
      "##ifier": 1830,
      "ag": 1831,
      "##river": 1832,
      "##iled": 1833,
      "sched": 1834,
      "bo": 1835,
      "##aut": 1836,
      "##top": 1837,
      "##folder": 1838,
      "##ges": 1839,
      "##_size": 1840,
      "##ide": 1841,
      "files": 1842,
      "##mension": 1843,
      "##pare": 1844,
      "getexternal": 1845,
      "##pointerexception": 1846,
      "at": 1847,
      "##ear": 1848,
      "##ld": 1849,
      "##ank": 1850,
      "nullpointerexception": 1851,
      "##obj": 1852,
      "25": 1853,
      "##sql": 1854,
      "##root": 1855,
      "##statement": 1856,
      "##comp": 1857,
      "##transaction": 1858,
      "##ht": 1859,
      "##gor": 1860,
      "##pc": 1861,
      "##device": 1862,
      "style": 1863,
      "##open": 1864,
      "##opping": 1865,
      "play": 1866,
      "##template": 1867,
      "##comparator": 1868,
      "##gorith": 1869,
      "getdefault": 1870,
      "##apacity": 1871,
      "we": 1872,
      "##bar": 1873,
      "##ings": 1874,
      "extr": 1875,
      "##0000": 1876,
      "container": 1877,
      "selected": 1878,
      "sdkinternal": 1879,
      "##page": 1880,
      "equalsignorecase": 1881,
      "##uuid": 1882,
      "##false": 1883,
      "##ration": 1884,
      "##gle": 1885,
      "##bers": 1886,
      "matrix": 1887,
      "##_n": 1888,
      "##_2": 1889,
      "getpath": 1890,
      "##sert": 1891,
      "resol": 1892,
      "aut": 1893,
      "rou": 1894,
      "##present": 1895,
      "##sets": 1896,
      "##modified": 1897,
      "##registry": 1898,
      "##bin": 1899,
      "##50": 1900,
      "sendplugin": 1901,
      "sdkinternallist": 1902,
      "sendpluginresult": 1903,
      "##ui": 1904,
      "conf": 1905,
      "access": 1906,
      "##alc": 1907,
      "##izable": 1908,
      "##collection": 1909,
      "code": 1910,
      "rest": 1911,
      "writer": 1912,
      "##etry": 1913,
      "##telement": 1914,
      "getcontent": 1915,
      "##cen": 1916,
      "##app": 1917,
      "##straint": 1918,
      "##support": 1919,
      "##conditions": 1920,
      "managed": 1921,
      "##iod": 1922,
      "##ket": 1923,
      "##boolean": 1924,
      "##imum": 1925,
      "assertion": 1926,
      "project": 1927,
      "listener": 1928,
      "sql": 1929,
      "##selector": 1930,
      "0.": 1931,
      "category": 1932,
      "dist": 1933,
      "##tedexception": 1934,
      "##sen": 1935,
      "getin": 1936,
      "immutable": 1937,
      "##account": 1938,
      "##items": 1939,
      "children": 1940,
      "diagnostics": 1941,
      "uuid": 1942,
      "##_qname": 1943,
      "##ocial": 1944,
      "channel": 1945,
      "##params": 1946,
      "character": 1947,
      "direc": 1948,
      "interrup": 1949,
      "##pany": 1950,
      "##directory": 1951,
      "##tual": 1952,
      "doc": 1953,
      "las": 1954,
      "##emp": 1955,
      "##_d": 1956,
      "getg": 1957,
      "##ats": 1958,
      "##debug": 1959,
      "aslist": 1960,
      "err": 1961,
      "generator": 1962,
      "##napsh": 1963,
      "##ves": 1964,
      "##iction": 1965,
      "##ttoken": 1966,
      "myhost": 1967,
      "##gregoriancalendar": 1968,
      "##iver": 1969,
      "##main": 1970,
      "##window": 1971,
      "getf": 1972,
      "database": 1973,
      "##handle": 1974,
      "##eme": 1975,
      "##f_": 1976,
      "##jection": 1977,
      "##alog": 1978,
      "intent": 1979,
      "objec": 1980,
      "draw": 1981,
      "##return": 1982,
      "##por": 1983,
      "newinstance": 1984,
      "##ferenc": 1985,
      "xmlgregoriancalendar": 1986,
      "##headers": 1987,
      "##roll": 1988,
      "##memory": 1989,
      "##details": 1990,
      "statevector": 1991,
      "op": 1992,
      "##sol": 1993,
      "##ater": 1994,
      "##cel": 1995,
      "deserializer": 1996,
      "##64": 1997,
      "##fields": 1998,
      "generate": 1999,
      "operation": 2000,
      "split": 2001,
      "chang": 2002,
      "provider": 2003,
      "##strategy": 2004,
      "binary": 2005,
      "use": 2006,
      "##mask": 2007,
      "##enum": 2008,
      "datetime": 2009,
      "preconditions": 2010,
      "beand": 2011,
      "validator": 2012,
      "running": 2013,
      "singleton": 2014,
      "##ictionary": 2015,
      "rel": 2016,
      "##ep": 2017,
      "##esource": 2018,
      "##enumber": 2019,
      "stand": 2020,
      "##perator": 2021,
      "assertfalse": 2022,
      "timeunit": 2023,
      "camera": 2024,
      "##document": 2025,
      "##man": 2026,
      "##patch": 2027,
      "##rgroup": 2028,
      "condition": 2029,
      "##vious": 2030,
      "##econfig": 2031,
      "##pair": 2032,
      "##round": 2033,
      "##rimarykey": 2034,
      "##lowercase": 2035,
      "iproject": 2036,
      "pattern": 2037,
      "getx": 2038,
      "##asc": 2039,
      "getcom": 2040,
      "beandeserializer": 2041,
      "fe": 2042,
      "role": 2043,
      "##selection": 2044,
      "##stanc": 2045,
      "##mapper": 2046,
      "binding": 2047,
      "ter": 2048,
      "vis": 2049,
      "##istory": 2050,
      "requi": 2051,
      "parser": 2052,
      "headers": 2053,
      "beanserializer": 2054,
      "##tify": 2055,
      "av": 2056,
      "em": 2057,
      "##ume": 2058,
      "##web": 2059,
      "settings": 2060,
      "resources": 2061,
      "##formation": 2062,
      "tree": 2063,
      "##tact": 2064,
      "servic": 2065,
      "cor": 2066,
      "normal": 2067,
      "sk": 2068,
      "##password": 2069,
      "##only": 2070,
      "getattribute": 2071,
      "##dent": 2072,
      "##utdown": 2073,
      "username": 2074,
      "##changelistener": 2075,
      "##rigger": 2076,
      "main_region_": 2077,
      "12": 2078,
      "join": 2079,
      "|=": 2080,
      "##gment": 2081,
      "##iservice": 2082,
      "##asource": 2083,
      "##respon": 2084,
      "##metric": 2085,
      "decode": 2086,
      "lookup": 2087,
      "##cur": 2088,
      "##estate": 2089,
      "account": 2090,
      "##module": 2091,
      "parseint": 2092,
      "permission": 2093,
      "page": 2094,
      "pop": 2095,
      "##sign": 2096,
      "##rc": 2097,
      "##ker": 2098,
      "##kale": 2099,
      "##ript": 2100,
      "tolowercase": 2101,
      "lin": 2102,
      "mis": 2103,
      "##nown": 2104,
      "##buf": 2105,
      "getcurrent": 2106,
      "##monitor": 2107,
      "cs": 2108,
      "grid": 2109,
      "push": 2110,
      "##ome": 2111,
      "getresource": 2112,
      "##stype": 2113,
      "##ason": 2114,
      "params": 2115,
      "font": 2116,
      "writ": 2117,
      "##expression": 2118,
      "##avail": 2119,
      "head": 2120,
      "##elements": 2121,
      "##brary": 2122,
      "2.0": 2123,
      "core": 2124,
      "ent": 2125,
      "ms": 2126,
      "sample": 2127,
      "xy": 2128,
      "##denc": 2129,
      "statement": 2130,
      "standard": 2131,
      "##ids": 2132,
      "##oll": 2133,
      "##ability": 2134,
      "##gorithm": 2135,
      "can": 2136,
      "os": 2137,
      "getfile": 2138,
      "##call": 2139,
      "##lease": 2140,
      "##entication": 2141,
      "cursor": 2142,
      "##marsh": 2143,
      "network": 2144,
      "##ma": 2145,
      "##ocation": 2146,
      "##ures": 2147,
      "##entid": 2148,
      "max_value": 2149,
      "1000": 2150,
      "convert": 2151,
      "layout": 2152,
      "##ause": 2153,
      "##exp": 2154,
      "valu": 2155,
      "environment": 2156,
      "##napshot": 2157,
      "coordinate": 2158,
      "sy": 2159,
      "##way": 2160,
      "##bas": 2161,
      "##vc": 2162,
      "getos": 2163,
      "##ceptor": 2164,
      "exit": 2165,
      "##settings": 2166,
      "executor": 2167,
      "##persistence": 2168,
      "mc": 2169,
      "##duc": 2170,
      "##series": 2171,
      "##that": 2172,
      "star": 2173,
      "stati": 2174,
      "##iteral": 2175,
      "execution": 2176,
      "and": 2177,
      "##ecret": 2178,
      "##active": 2179,
      "##dateformat": 2180,
      "##ake": 2181,
      "graphics": 2182,
      "callback": 2183,
      "ec": 2184,
      "jav": 2185,
      "##ttype": 2186,
      "assertthat": 2187,
      "##board": 2188,
      "##dbc": 2189,
      "optional": 2190,
      "##cip": 2191,
      "##och": 2192,
      "getrequest": 2193,
      "intvalue": 2194,
      "##role": 2195,
      "previous": 2196,
      "queue": 2197,
      "##category": 2198,
      "##ert": 2199,
      "##fail": 2200,
      "charsequence": 2201,
      "##timestamp": 2202,
      "##socketaddress": 2203,
      "handle": 2204,
      "packet": 2205,
      "##ram": 2206,
      "##giservice": 2207,
      "invalid": 2208,
      "##ill": 2209,
      "-=": 2210,
      "with": 2211,
      "##hex": 2212,
      "##vol": 2213,
      "##extension": 2214,
      "track": 2215,
      "compare": 2216,
      "matches": 2217,
      "##reenode": 2218,
      "cach": 2219,
      "ssl": 2220,
      "##ient": 2221,
      "##warn": 2222,
      "##button": 2223,
      "##servic": 2224,
      "setp": 2225,
      "##classloader": 2226,
      "workflow": 2227,
      "platform": 2228,
      "_d": 2229,
      "kale": 2230,
      "oauth": 2231,
      "verify": 2232,
      "basic": 2233,
      "httpservletrequest": 2234,
      "getosgiservice": 2235,
      "man": 2236,
      "##tition": 2237,
      "getpersistence": 2238,
      "param": 2239,
      "xmlstream": 2240,
      "##suppor": 2241,
      "fill": 2242,
      "dynamicquerycount": 2243,
      "back": 2244,
      "post": 2245,
      "predicate": 2246,
      "##si": 2247,
      "##estin": 2248,
      "delegate": 2249,
      "##uple": 2250,
      "protocol": 2251,
      "##dataset": 2252,
      "##ookie": 2253,
      "##aredpreferences": 2254,
      "getosgiserviceidentifier": 2255,
      "##xml": 2256,
      "##pe": 2257,
      "##write": 2258,
      "##vate": 2259,
      "control": 2260,
      "store": 2261,
      "getcol": 2262,
      "##fact": 2263,
      "##title": 2264,
      "do": 2265,
      "##_in": 2266,
      "##reques": 2267,
      "resourc": 2268,
      "remote": 2269,
      "replaceall": 2270,
      "wait": 2271,
      "##pag": 2272,
      "##wh": 2273,
      "##star": 2274,
      "##ounds": 2275,
      "std": 2276,
      "##ablet": 2277,
      "nativeobj": 2278,
      "save": 2279,
      "##double": 2280,
      "getcontext": 2281,
      "async": 2282,
      "##short": 2283,
      "##observer": 2284,
      "##econtext": 2285,
      "ends": 2286,
      "##tool": 2287,
      "##we": 2288,
      "##3d": 2289,
      "##arion": 2290,
      "##ometry": 2291,
      "##stances": 2292,
      "nextint": 2293,
      "##avig": 2294,
      "24": 2295,
      "##tis": 2296,
      "##oly": 2297,
      "setname": 2298,
      "##interval": 2299,
      "##feature": 2300,
      "flag": 2301,
      "##hashmap": 2302,
      "getexternalcontext": 2303,
      "rule": 2304,
      "tit": 2305,
      "##certificate": 2306,
      "##oogle": 2307,
      "##osu": 2308,
      "interval": 2309,
      "##changed": 2310,
      "endswith": 2311,
      "hsql": 2312,
      "tem": 2313,
      "us": 2314,
      "##bits": 2315,
      "##panel": 2316,
      "domain": 2317,
      "gety": 2318,
      "isc": 2319,
      "assertnotnull": 2320,
      "clarion": 2321,
      "##itive": 2322,
      "rece": 2323,
      "bitmap": 2324,
      "##ped": 2325,
      "##nch": 2326,
      "##uture": 2327,
      "##odec": 2328,
      "##ending": 2329,
      "iss": 2330,
      "##ublis": 2331,
      "notify": 2332,
      "cluster": 2333,
      "nosu": 2334,
      "##a_": 2335,
      "##api": 2336,
      "##ereg": 2337,
      "pair": 2338,
      "##eresult": 2339,
      "##runn": 2340,
      "##roid": 2341,
      "##zer": 2342,
      "##delet": 2343,
      "##uby": 2344,
      "##featur": 2345,
      "##solute": 2346,
      "batch": 2347,
      "bits": 2348,
      "digest": 2349,
      "range": 2350,
      "##cp": 2351,
      "##ture": 2352,
      "##ors": 2353,
      "getj": 2354,
      "setuser": 2355,
      "##args": 2356,
      "printwriter": 2357,
      "##erequest": 2358,
      "##alcul": 2359,
      "##panyid": 2360,
      "aw": 2361,
      "sv": 2362,
      "##rinfo": 2363,
      "##urch": 2364,
      "getparameter": 2365,
      "repository": 2366,
      "##datetime": 2367,
      "##ification": 2368,
      "timestamp": 2369,
      "bytearrayoutputstream": 2370,
      "month": 2371,
      "nosuch": 2372,
      "descri": 2373,
      "getur": 2374,
      "wrap": 2375,
      "##dist": 2376,
      "##ypes": 2377,
      "##ttpp": 2378,
      "metric": 2379,
      "inetaddress": 2380,
      "##ployment": 2381,
      "card": 2382,
      "mn": 2383,
      "mp": 2384,
      "net": 2385,
      "setproperty": 2386,
      "hashtable": 2387,
      "types": 2388,
      "##losed": 2389,
      "starttime": 2390,
      "sqlexception": 2391,
      "##estination": 2392,
      "right": 2393,
      "ut": 2394,
      "##ai": 2395,
      "##ier": 2396,
      "##gn": 2397,
      "getall": 2398,
      "##iler": 2399,
      "##plan": 2400,
      "##profile": 2401,
      "##aller": 2402,
      "dimension": 2403,
      "255": 2404,
      "fs": 2405,
      "ori": 2406,
      "prin": 2407,
      "paint": 2408,
      "##ised": 2409,
      "##imit": 2410,
      "##ribution": 2411,
      "keys": 2412,
      "subscri": 2413,
      "##decl": 2414,
      "parameters": 2415,
      "##available": 2416,
      "google": 2417,
      "##upp": 2418,
      "##tip": 2419,
      "##elist": 2420,
      "##ffect": 2421,
      "sever": 2422,
      "imag": 2423,
      "##014": 2424,
      "schedule": 2425,
      "##ating": 2426,
      "##multi": 2427,
      "##ging": 2428,
      "##ecount": 2429,
      "##resources": 2430,
      "allow": 2431,
      "entryset": 2432,
      "registry": 2433,
      "facesmessage": 2434,
      "evalu": 2435,
      "po": 2436,
      "pag": 2437,
      "spar": 2438,
      "##uage": 2439,
      "gett": 2440,
      "getwidth": 2441,
      "##ypar": 2442,
      "constants": 2443,
      "##rowser": 2444,
      "##ticip": 2445,
      "getsession": 2446,
      "title": 2447,
      "fa": 2448,
      "tab": 2449,
      "##rt": 2450,
      "##known": 2451,
      "##left": 2452,
      "##activ": 2453,
      "report": 2454,
      "##assign": 2455,
      "ass": 2456,
      "isdebug": 2457,
      "shard": 2458,
      "abs": 2459,
      "endpoint": 2460,
      "##notification": 2461,
      "##branch": 2462,
      "##create": 2463,
      "##package": 2464,
      "jdbc": 2465,
      "##ele": 2466,
      "##environment": 2467,
      "##bose": 2468,
      "##right": 2469,
      "##mach": 2470,
      "##remo": 2471,
      "##sentry": 2472,
      "##ply": 2473,
      "product": 2474,
      "##entials": 2475,
      "##eek": 2476,
      "##subscri": 2477,
      "route": 2478,
      "lastindex": 2479,
      "high": 2480,
      "nan": 2481,
      "policy": 2482,
      "##wrapper": 2483,
      "##_t": 2484,
      "##eration": 2485,
      "##ision": 2486,
      "getheight": 2487,
      "invo": 2488,
      "##terface": 2489,
      "##absolute": 2490,
      "##arraylist": 2491,
      "##menu": 2492,
      "##anner": 2493,
      "left": 2494,
      "actionevent": 2495,
      "bufferedimage": 2496,
      "32": 2497,
      "cached": 2498,
      "##dto": 2499,
      "##wer": 2500,
      "##body": 2501,
      "##_error": 2502,
      "##etch": 2503,
      "##etrans": 2504,
      "##oci": 2505,
      "##eset": 2506,
      "##icomponent": 2507,
      "responseentity": 2508,
      "##member": 2509,
      "##509": 2510,
      "isdebugenabled": 2511,
      "audi": 2512,
      "word": 2513,
      "##icon": 2514,
      "##lers": 2515,
      "##domain": 2516,
      "##mary": 2517,
      "##adat": 2518,
      "##scale": 2519,
      "##ativ": 2520,
      "##lick": 2521,
      "simpledateformat": 2522,
      "merg": 2523,
      "##ished": 2524,
      "##urchase": 2525,
      "##df": 2526,
      "##inf": 2527,
      "commit": 2528,
      "##actions": 2529,
      "##author": 2530,
      "##limit": 2531,
      "##light": 2532,
      "##mt": 2533,
      "##init": 2534,
      "getdata": 2535,
      "##agment": 2536,
      "insert": 2537,
      "##setype": 2538,
      "shutdown": 2539,
      "##ialog": 2540,
      "separator": 2541,
      "##counter": 2542,
      "region": 2543,
      "##display": 2544,
      "ws": 2545,
      "getparent": 2546,
      "##uler": 2547,
      "##ypro": 2548,
      "##faul": 2549,
      "getitem": 2550,
      "##plex": 2551,
      "validation": 2552,
      "dataset": 2553,
      "timer": 2554,
      "certificate": 2555,
      "ic": 2556,
      "##codes": 2557,
      "##cket": 2558,
      "##ited": 2559,
      "objects": 2560,
      "complet": 2561,
      "##lect": 2562,
      "##scope": 2563,
      "##register": 2564,
      "##messages": 2565,
      "##ual": 2566,
      "##history": 2567,
      "##ns": 2568,
      "##nodes": 2569,
      "##draw": 2570,
      "##eclass": 2571,
      "##dering": 2572,
      "##services": 2573,
      "##ouse": 2574,
      "##estro": 2575,
      "##lier": 2576,
      "##outof": 2577,
      "##methods": 2578,
      "select": 2579,
      "extract": 2580,
      "*=": 2581,
      "tick": 2582,
      "##nan": 2583,
      "##ins": 2584,
      "##estring": 2585,
      "##achment": 2586,
      "geometry": 2587,
      "empty_": 2588,
      "orderby": 2589,
      "signature": 2590,
      "body": 2591,
      "httpp": 2592,
      "##new": 2593,
      "##tifact": 2594,
      "##initial": 2595,
      "##alle": 2596,
      "##medi": 2597,
      "##serv": 2598,
      "cred": 2599,
      "##pose": 2600,
      "engine": 2601,
      "results": 2602,
      "elements": 2603,
      "##lobal": 2604,
      "##mbol": 2605,
      "##ibility": 2606,
      "##eregist": 2607,
      "istr": 2608,
      "s_": 2609,
      "v2": 2610,
      "window": 2611,
      "x509": 2612,
      "##tree": 2613,
      "##10": 2614,
      "##3f": 2615,
      "##ested": 2616,
      "##ecom": 2617,
      "##devent": 2618,
      "##constraint": 2619,
      "##arge": 2620,
      "##axis": 2621,
      "acc": 2622,
      "encryp": 2623,
      "##quenc": 2624,
      "prepar": 2625,
      "metadata": 2626,
      "testutilities": 2627,
      "##feed": 2628,
      "serialised": 2629,
      "sorted": 2630,
      "##afe": 2631,
      "##lue": 2632,
      "##inal": 2633,
      "##acy": 2634,
      "##consumer": 2635,
      "sets": 2636,
      "##ified": 2637,
      "##timer": 2638,
      "datasource": 2639,
      "getboolean": 2640,
      "verbose": 2641,
      "##direct": 2642,
      "##boundsexception": 2643,
      "struct": 2644,
      "unmodifiablelist": 2645,
      "##execution": 2646,
      "avail": 2647,
      "##outofboundsexception": 2648,
      "day": 2649,
      "pay": 2650,
      "temp": 2651,
      "variable": 2652,
      "##dm": 2653,
      "##pi": 2654,
      "##inmillis": 2655,
      "##tinputstream": 2656,
      "##otal": 2657,
      "##locale": 2658,
      "ens": 2659,
      "marker": 2660,
      "orderbycomparator": 2661,
      "pool": 2662,
      "second": 2663,
      "##full": 2664,
      "args": 2665,
      "##isplay": 2666,
      "fix": 2667,
      "failure": 2668,
      "##cipal": 2669,
      "##avigation": 2670,
      "##machine": 2671,
      "om": 2672,
      "tre": 2673,
      "tou": 2674,
      "##cat": 2675,
      "##rate": 2676,
      "##zon": 2677,
      "arg7": 2678,
      "setvalue": 2679,
      "comparator": 2680,
      "utils": 2681,
      "jsonbuilder": 2682,
      "edge": 2683,
      "filesystem": 2684,
      "lastindexof": 2685,
      "##ique": 2686,
      "##font": 2687,
      "contact": 2688,
      "##percase": 2689,
      "##imp": 2690,
      "createt": 2691,
      "unknown": 2692,
      "checkargument": 2693,
      "subject": 2694,
      "serializable": 2695,
      "##schema": 2696,
      "##processor": 2697,
      "refresh": 2698,
      "##ycle": 2699,
      "pi": 2700,
      "ret": 2701,
      "sys": 2702,
      "##ground": 2703,
      "##tions": 2704,
      "##lector": 2705,
      "##email": 2706,
      "nexttoken": 2707,
      "package": 2708,
      "##autocon": 2709,
      "generatorentry": 2710,
      "20": 2711,
      "blob": 2712,
      "es": 2713,
      "eclass": 2714,
      "##_state": 2715,
      "##11": 2716,
      "##jav": 2717,
      "getde": 2718,
      "getmethod": 2719,
      "##stats": 2720,
      "##oop": 2721,
      "##yph": 2722,
      "##build": 2723,
      "release": 2724,
      "##objectreference": 2725,
      "##post": 2726,
      "prefix": 2727,
      "vertex": 2728,
      "interruptedexception": 2729,
      "##maining": 2730,
      "previousprogress": 2731,
      "cell": 2732,
      "cookie": 2733,
      "hex": 2734,
      "proc": 2735,
      "suc": 2736,
      "##clu": 2737,
      "##audi": 2738,
      "##ia": 2739,
      "##la": 2740,
      "##foun": 2741,
      "##tec": 2742,
      "##temp": 2743,
      "sequence": 2744,
      "unmarsh": 2745,
      "transport": 2746,
      "##character": 2747,
      "##progressmonitor": 2748,
      "memory": 2749,
      "inetsocketaddress": 2750,
      "'a": 2751,
      "imp": 2752,
      "ign": 2753,
      "##bl": 2754,
      "##vocation": 2755,
      "##cend": 2756,
      "##converter": 2757,
      "##period": 2758,
      "common": 2759,
      "unit": 2760,
      "##shopping": 2761,
      "##aster": 2762,
      "linkedlist": 2763,
      "email": 2764,
      "##autoconstruct": 2765,
      "'a'": 2766,
      "200": 2767,
      "cm": 2768,
      "millis": 2769,
      "##used": 2770,
      "##stall": 2771,
      "##roke": 2772,
      "##entries": 2773,
      "##upload": 2774,
      "activ": 2775,
      "named": 2776,
      "typecode": 2777,
      "fire": 2778,
      "##formatter": 2779,
      "getclassloader": 2780,
      "##socketfactory": 2781,
      "##encoding": 2782,
      "entries": 2783,
      "by": 2784,
      "pu": 2785,
      "social": 2786,
      "vec": 2787,
      "##float": 2788,
      "##ured": 2789,
      "ind": 2790,
      "##imetype": 2791,
      "##factor": 2792,
      "geti": 2793,
      "shape": 2794,
      "datatype": 2795,
      "numberof": 2796,
      "##bitmap": 2797,
      "##cover": 2798,
      "##aded": 2799,
      "##doc": 2800,
      "##_of": 2801,
      "##orld": 2802,
      "getroot": 2803,
      "##rement": 2804,
      "##rency": 2805,
      "##rip": 2806,
      "##objects": 2807,
      "writeattribute": 2808,
      "currentthread": 2809,
      "messages": 2810,
      "##selected": 2811,
      "##foundexception": 2812,
      "_kale": 2813,
      "limit": 2814,
      "xm": 2815,
      "##cas": 2816,
      "##ward": 2817,
      "argument": 2818,
      "gettext": 2819,
      "##tick": 2820,
      "timeout": 2821,
      "resultmatcher": 2822,
      "counter": 2823,
      "##marker": 2824,
      "rectangle2d": 2825,
      "servletcontext": 2826,
      "player": 2827,
      "android": 2828,
      "31": 2829,
      "ast": 2830,
      "msize": 2831,
      "uicomponent": 2832,
      "year": 2833,
      "##kind": 2834,
      "##brid": 2835,
      "##_se": 2836,
      "##ali": 2837,
      "##allow": 2838,
      "##esh": 2839,
      "##formate": 2840,
      "##words": 2841,
      "sqrt": 2842,
      "point2d": 2843,
      "##lipboard": 2844,
      "storage": 2845,
      "distance": 2846,
      "##metrics": 2847,
      "writable": 2848,
      "'.": 2849,
      "gen": 2850,
      "xpath": 2851,
      "##pth": 2852,
      "##_p": 2853,
      "getabsolute": 2854,
      "##route": 2855,
      "ads": 2856,
      "##fore": 2857,
      "preview": 2858,
      "##groups": 2859,
      "##visible": 2860,
      "person": 2861,
      "objectinputstream": 2862,
      "main_region_a": 2863,
      "'.'": 2864,
      "driver": 2865,
      "icon": 2866,
      "raw": 2867,
      "##card": 2868,
      "##rest": 2869,
      "##_prefix": 2870,
      "settime": 2871,
      "tobytearray": 2872,
      "##props": 2873,
      "##setting": 2874,
      "progress": 2875,
      "##vents": 2876,
      "remov": 2877,
      "##complet": 2878,
      "identity": 2879,
      "##msg": 2880,
      "##storage": 2881,
      "##ffffff": 2882,
      "##structor": 2883,
      "managedobjectreference": 2884,
      "##cell": 2885,
      "##failure": 2886,
      "origin": 2887,
      "##formatexception": 2888,
      "eresource": 2889,
      "step": 2890,
      "snapshot": 2891,
      "##lang": 2892,
      "gettarget": 2893,
      "##arb": 2894,
      "device": 2895,
      "charset": 2896,
      "enabled": 2897,
      "jsonwriter": 2898,
      "linktable": 2899,
      "##gram": 2900,
      "##script": 2901,
      "resolve": 2902,
      "tuple": 2903,
      "##o_": 2904,
      "##arams": 2905,
      "##serial": 2906,
      "##product": 2907,
      "mapping": 2908,
      "##ventory": 2909,
      "checkstate": 2910,
      "##objec": 2911,
      "scal": 2912,
      "##area": 2913,
      "##httpclient": 2914,
      "##children": 2915,
      "##reshold": 2916,
      "##estroy": 2917,
      "preparest": 2918,
      "_j": 2919,
      "fre": 2920,
      "mouse": 2921,
      "round": 2922,
      "tod": 2923,
      "trigger": 2924,
      "##sin": 2925,
      "##site": 2926,
      "##ived": 2927,
      "##witch": 2928,
      "##jb": 2929,
      "##onical": 2930,
      "##ocal": 2931,
      "##ito": 2932,
      "stat": 2933,
      "##liver": 2934,
      "##suite": 2935,
      "portlet": 2936,
      "##registration": 2937,
      "##edirec": 2938,
      "comparable": 2939,
      "##atetest": 2940,
      "featur": 2941,
      "##responsetype": 2942,
      "spark": 2943,
      "##ticipant": 2944,
      "preparestatetest": 2945,
      "gc": 2946,
      "vir": 2947,
      "##gl": 2948,
      "##paint": 2949,
      "##ading": 2950,
      "##login": 2951,
      "##results": 2952,
      "##resultset": 2953,
      "##database": 2954,
      "##namespace": 2955,
      "##vide": 2956,
      "scope": 2957,
      "##filesystem": 2958,
      "##price": 2959,
      "bytearrayinputstream": 2960,
      "enumeration": 2961,
      "agent": 2962,
      "kaleo": 2963,
      "success": 2964,
      "ow": 2965,
      "vol": 2966,
      "stringwriter": 2967,
      "##acon": 2968,
      "##agent": 2969,
      "##apro": 2970,
      "##conf": 2971,
      "reques": 2972,
      "##asset": 2973,
      "comment": 2974,
      "writeint": 2975,
      "##addresses": 2976,
      "fields": 2977,
      "obj": 2978,
      "authentication": 2979,
      "edit": 2980,
      "entitymanager": 2981,
      "##flags": 2982,
      "customer": 2983,
      "cip": 2984,
      "zip": 2985,
      "##sresult": 2986,
      "##ppercase": 2987,
      "##var": 2988,
      "##report": 2989,
      "##aggreg": 2990,
      "##jector": 2991,
      "##editor": 2992,
      "##econverter": 2993,
      "transition": 2994,
      "getsimple": 2995,
      "##connect": 2996,
      "##modifieddate": 2997,
      "##running": 2998,
      "virtual": 2999,
      "_user": 3000,
      "calcul": 3001,
      "##air": 3002,
      "##net": 3003,
      "##operator": 3004,
      "getport": 3005,
      "getfirst": 3006,
      "##revision": 3007,
      "##ames": 3008,
      "##ave": 3009,
      "##tended": 3010,
      "##ffin": 3011,
      "##abler": 3012,
      "##notfoundexception": 3013,
      "##spac": 3014,
      "upload": 3015,
      "##pane": 3016,
      "base64": 3017,
      "inclu": 3018,
      "##priority": 3019,
      "md5": 3020,
      "atom": 3021,
      "bind": 3022,
      "dos": 3023,
      "down": 3024,
      "sum": 3025,
      "##iv": 3026,
      "##driver": 3027,
      "##mock": 3028,
      "##aml": 3029,
      "##los": 3030,
      "contin": 3031,
      "forname": 3032,
      "##ortype": 3033,
      "##usage": 3034,
      "##filename": 3035,
      "##pletion": 3036,
      "schema": 3037,
      "connect": 3038,
      "suppress": 3039,
      "##econfiguration": 3040,
      "##ducer": 3041,
      "touppercase": 3042,
      "book": 3043,
      "mail": 3044,
      "pix": 3045,
      "##cap": 3046,
      "##has": 3047,
      "##hint": 3048,
      "##bro": 3049,
      "getlocal": 3050,
      "##deliver": 3051,
      "##ateway": 3052,
      "real": 3053,
      "revision": 3054,
      "chunk": 3055,
      "alloc": 3056,
      "##beanidentifier": 3057,
      "##storag": 3058,
      "priority": 3059,
      "pe": 3060,
      "secur": 3061,
      "##_f": 3062,
      "##99": 3063,
      "##ise": 3064,
      "##aly": 3065,
      "##algorithm": 3066,
      "getlocation": 3067,
      "##med": 3068,
      "##contex": 3069,
      "tojson": 3070,
      "chart": 3071,
      "depen": 3072,
      "##tentry": 3073,
      "statechart": 3074,
      "##ipel": 3075,
      "##econnection": 3076,
      "anim": 3077,
      "##finder": 3078,
      "##groupid": 3079,
      "##points": 3080,
      "tags": 3081,
      "numberformatexception": 3082,
      "##sched": 3083,
      "expected": 3084,
      "##adius": 3085,
      "invoke": 3086,
      "httpparams": 3087,
      "##servable": 3088,
      "dir": 3089,
      "full": 3090,
      "feed": 3091,
      "pow": 3092,
      "##dy": 3093,
      "##pk": 3094,
      "##information": 3095,
      "getr": 3096,
      "getobject": 3097,
      "##ework": 3098,
      "##actor": 3099,
      "##admin": 3100,
      "form": 3101,
      "change": 3102,
      "##ttom": 3103,
      "##parse": 3104,
      "cleare": 3105,
      "attribu": 3106,
      "##visitor": 3107,
      "vector2": 3108,
      "getdisplay": 3109,
      "direction": 3110,
      "template": 3111,
      "getabsolutepath": 3112,
      "cap": 3113,
      "hm": 3114,
      "mcurrent": 3115,
      "sle": 3116,
      "sas": 3117,
      "sol": 3118,
      "##now": 3119,
      "##writ": 3120,
      "##_1": 3121,
      "##etext": 3122,
      "##ores": 3123,
      "##rop": 3124,
      "##ases": 3125,
      "lists": 3126,
      "##dialog": 3127,
      "shopping": 3128,
      "httpstatus": 3129,
      "minor": 3130,
      "##etoken": 3131,
      "saved": 3132,
      "topic": 3133,
      "##ochar": 3134,
      "issue": 3135,
      "getsimplename": 3136,
      "clearevents": 3137,
      "aler": 3138,
      "treenode": 3139,
      "vm": 3140,
      "##dictionary": 3141,
      "##print": 3142,
      "##book": 3143,
      "##erandom": 3144,
      "getlength": 3145,
      "##apsed": 3146,
      "##rib": 3147,
      "referenc": 3148,
      "##thand": 3149,
      "respon": 3150,
      "projection": 3151,
      "##extr": 3152,
      "##shard": 3153,
      "##scroll": 3154,
      "screen": 3155,
      "generic": 3156,
      "emptylist": 3157,
      "##encoder": 3158,
      "##tags": 3159,
      "author": 3160,
      "##runtime": 3161,
      "persis": 3162,
      "##dencoding": 3163,
      "##olyg": 3164,
      "js": 3165,
      "mak": 3166,
      "mvalues": 3167,
      "wri": 3168,
      "##ho": 3169,
      "##erypar": 3170,
      "created": 3171,
      "##attachment": 3172,
      "##center": 3173,
      "copyof": 3174,
      "##warnings": 3175,
      "##olygon": 3176,
      "cent": 3177,
      "css": 3178,
      "df": 3179,
      "duration": 3180,
      "dialog": 3181,
      "mbuffer": 3182,
      "ns": 3183,
      "##cast": 3184,
      "##lation": 3185,
      "##batch": 3186,
      "##_array": 3187,
      "##ocus": 3188,
      "getlong": 3189,
      "##ecomponent": 3190,
      "##rie": 3191,
      "##resol": 3192,
      "throws": 3193,
      "logging": 3194,
      "putall": 3195,
      "##entic": 3196,
      "##suc": 3197,
      "scinterface": 3198,
      "findall": 3199,
      "perform": 3200,
      "box": 3201,
      "##ascript": 3202,
      "esc": 3203,
      "##cred": 3204,
      "##ied": 3205,
      "##pr": 3206,
      "##pay": 3207,
      "##_m": 3208,
      "##unce": 3209,
      "getconnection": 3210,
      "##sto": 3211,
      "##asure": 3212,
      "##elog": 3213,
      "##this": 3214,
      "login": 3215,
      "##partition": 3216,
      "fileinputstream": 3217,
      "##posite": 3218,
      "##riteria": 3219,
      "impl": 3220,
      "selector": 3221,
      "svg": 3222,
      "red": 3223,
      "ss": 3224,
      "##ts": 3225,
      "##ice": 3226,
      "##33": 3227,
      "##identity": 3228,
      "##ese": 3229,
      "getwork": 3230,
      "##segment": 3231,
      "##dency": 3232,
      "deployment": 3233,
      "dateformat": 3234,
      "##tices": 3235,
      "0x7": 3236,
      "minute": 3237,
      "##eserial": 3238,
      "editor": 3239,
      "bufpos": 3240,
      "aggreg": 3241,
      "0.5": 3242,
      "severity": 3243,
      "##etransform": 3244,
      "hel": 3245,
      "prim": 3246,
      "##lab": 3247,
      "##gges": 3248,
      "##lex": 3249,
      "geth": 3250,
      "##reason": 3251,
      "##asstring": 3252,
      "##delay": 3253,
      "##ollection": 3254,
      "fileoutputstream": 3255,
      "##library": 3256,
      "read_": 3257,
      "##addr": 3258,
      "script": 3259,
      "##background": 3260,
      "0x0": 3261,
      "##without": 3262,
      "messaged": 3263,
      "##porter": 3264,
      "term": 3265,
      "##ociation": 3266,
      "_o": 3267,
      "_shopping": 3268,
      "bad": 3269,
      "clock": 3270,
      "det": 3271,
      "##vm": 3272,
      "##_length": 3273,
      "getred": 3274,
      "##attr": 3275,
      "##terator": 3276,
      "##units": 3277,
      "sharedpreferences": 3278,
      "assertnull": 3279,
      "beandefinition": 3280,
      "immutablelist": 3281,
      "mg": 3282,
      "sax": 3283,
      "tochar": 3284,
      "ui": 3285,
      "##ffix": 3286,
      "##_uri": 3287,
      "##java": 3288,
      "##eric": 3289,
      "##tes": 3290,
      "getstatus": 3291,
      "getapplication": 3292,
      "##ular": 3293,
      "##omp": 3294,
      "ins": 3295,
      "##verse": 3296,
      "chat": 3297,
      "artifact": 3298,
      "getsystem": 3299,
      "##byid": 3300,
      "dispose": 3301,
      "getblue": 3302,
      "period": 3303,
      "registered": 3304,
      "initialize": 3305,
      "##packet": 3306,
      "##anchor": 3307,
      "##struction": 3308,
      "getgreen": 3309,
      "setprimarykey": 3310,
      "##success": 3311,
      "1.": 3312,
      "f0": 3313,
      "global": 3314,
      "men": 3315,
      "so": 3316,
      "sm": 3317,
      "##havi": 3318,
      "##f8": 3319,
      "getproject": 3320,
      "##aresource": 3321,
      "##oom": 3322,
      "remaining": 3323,
      "##endpoint": 3324,
      "isvalid": 3325,
      "removed": 3326,
      "unlock": 3327,
      "##begin": 3328,
      "library": 3329,
      "key_": 3330,
      "##ategor": 3331,
      "##transform": 3332,
      "frame": 3333,
      "mediatype": 3334,
      "##volume": 3335,
      "geturi": 3336,
      "##_of_": 3337,
      "##ocalservice": 3338,
      "affin": 3339,
      "dr": 3340,
      "dig": 3341,
      "equal": 3342,
      "##scount": 3343,
      "##fec": 3344,
      "##_default": 3345,
      "gete": 3346,
      "getsh": 3347,
      "##ooled": 3348,
      "##depen": 3349,
      "##amount": 3350,
      "finest": 3351,
      "setcom": 3352,
      "stage": 3353,
      "addelement": 3354,
      "##irc": 3355,
      "##logy": 3356,
      "indexoutofboundsexception": 3357,
      "algorithm": 3358,
      "begin": 3359,
      "##finished": 3360,
      "quo": 3361,
      "elementat": 3362,
      "getmax": 3363,
      "movi": 3364,
      "httpservletresponse": 3365,
      "##udit": 3366,
      "##presentation": 3367,
      "ec2": 3368,
      "##supporte": 3369,
      "_w": 3370,
      "fetch": 3371,
      "none": 3372,
      "opt": 3373,
      "operator": 3374,
      "rot": 3375,
      "tool": 3376,
      "##safe": 3377,
      "##_file": 3378,
      "##_path": 3379,
      "##titerator": 3380,
      "##atere": 3381,
      "##reate": 3382,
      "newarraylist": 3383,
      "booleanvalue": 3384,
      "consumer": 3385,
      "##ing_": 3386,
      "addmessage": 3387,
      "classname": 3388,
      "active": 3389,
      "scanner": 3390,
      "##owner": 3391,
      "##layer": 3392,
      "##validator": 3393,
      "rows": 3394,
      "##eedle": 3395,
      "main_region_b": 3396,
      "##permissions": 3397,
      "interrupt": 3398,
      "statis": 3399,
      "utf_": 3400,
      "##lipboardsupport": 3401,
      "suppresswarnings": 3402,
      "40": 3403,
      "clean": 3404,
      "ir": 3405,
      "non": 3406,
      "sen": 3407,
      "##eth": 3408,
      "getlast": 3409,
      "setstatus": 3410,
      "##the": 3411,
      "##tils": 3412,
      "reser": 3413,
      "unsupporte": 3414,
      "##classname": 3415,
      "prepa": 3416,
      "##handlers": 3417,
      "submit": 3418,
      "maximum": 3419,
      "##timage": 3420,
      "resultset": 3421,
      "vector3": 3422,
      "cosname": 3423,
      "##cene": 3424,
      "feature": 3425,
      "##upport": 3426,
      "failed": 3427,
      "##dencodingexception": 3428,
      "##uncements": 3429,
      "unsupportedencodingexception": 3430,
      "::": 3431,
      "ali": 3432,
      "cat": 3433,
      "done": 3434,
      "mk": 3435,
      "##udent": 3436,
      "##ni": 3437,
      "##otification": 3438,
      "##fre": 3439,
      "##_int": 3440,
      "##alph": 3441,
      "getnext": 3442,
      "##engine": 3443,
      "##acc": 3444,
      "##agement": 3445,
      "filename": 3446,
      "##uction": 3447,
      "white": 3448,
      "dispatch": 3449,
      "leg": 3450,
      "##eservice": 3451,
      "##etails": 3452,
      "warning": 3453,
      "##signed": 3454,
      "xmlstreamwriter": 3455,
      "##ierarch": 3456,
      "##ciler": 3457,
      "##tl": 3458,
      "##tx": 3459,
      "##dl": 3460,
      "##instanc": 3461,
      "##etup": 3462,
      "##anti": 3463,
      "##anim": 3464,
      "##filer": 3465,
      "##ilities": 3466,
      "##ainterface": 3467,
      "##locator": 3468,
      "segment": 3469,
      "##viewer": 3470,
      "##classes": 3471,
      "##eventlistener": 3472,
      "connections": 3473,
      "##ift": 3474,
      "##fill": 3475,
      "cordovainterface": 3476,
      "##distribution": 3477,
      "mnative": 3478,
      "respons": 3479,
      "15": 3480,
      "cli": 3481,
      "der": 3482,
      "des": 3483,
      "free": 3484,
      "navigation": 3485,
      "over": 3486,
      "peek": 3487,
      "##cr": 3488,
      "##pec": 3489,
      "##wrap": 3490,
      "getsize": 3491,
      "##aces": 3492,
      "##chunk": 3493,
      "##estyle": 3494,
      "##platform": 3495,
      "jsonexception": 3496,
      "##head": 3497,
      "threadfactory": 3498,
      "##edirect": 3499,
      "curr": 3500,
      "getnew": 3501,
      "getnumber": 3502,
      "okhttpclient": 3503,
      "##lines": 3504,
      "flags": 3505,
      "##ublisher": 3506,
      "evaluate": 3507,
      "tochararray": 3508,
      "movie": 3509,
      "bound": 3510,
      "emp": 3511,
      "gv": 3512,
      "nodes": 3513,
      "pending": 3514,
      "##gen": 3515,
      "##ged": 3516,
      "getpro": 3517,
      "##ther": 3518,
      "##vileg": 3519,
      "##avor": 3520,
      "listwith": 3521,
      "external": 3522,
      "##oft": 3523,
      "language": 3524,
      "profile": 3525,
      "##faces": 3526,
      "##failed": 3527,
      "getsch": 3528,
      "##times": 3529,
      "curren": 3530,
      "webview": 3531,
      "##echange": 3532,
      "processor": 3533,
      "plan": 3534,
      "gettimezone": 3535,
      "##started": 3536,
      "section": 3537,
      "tl": 3538,
      "##system": 3539,
      "##tab": 3540,
      "##non": 3541,
      "##namet": 3542,
      "##da": 3543,
      "##ful": 3544,
      "##_char": 3545,
      "##instances": 3546,
      "##orig": 3547,
      "##antity": 3548,
      "##rece": 3549,
      "##requi": 3550,
      "##seq": 3551,
      "setc": 3552,
      "##terror": 3553,
      "lower": 3554,
      "##vertex": 3555,
      "dead": 3556,
      "setid": 3557,
      "##000": 3558,
      "##authentication": 3559,
      "##summary": 3560,
      "serversocket": 3561,
      "##changes": 3562,
      "documentview": 3563,
      "callable": 3564,
      "##delete": 3565,
      "##autoconstructflag": 3566,
      "sleep": 3567,
      "listwithautoconstructflag": 3568,
      "1l": 3569,
      "br": 3570,
      "bro": 3571,
      "capacity": 3572,
      "hour": 3573,
      "mask": 3574,
      "make": 3575,
      "ruby": 3576,
      "tx": 3577,
      "tri": 3578,
      "##sby": 3579,
      "##step": 3580,
      "##tp": 3581,
      "##ok": 3582,
      "getaddress": 3583,
      "getfield": 3584,
      "getlabel": 3585,
      "##amap": 3586,
      "inventory": 3587,
      "##upper": 3588,
      "getcount": 3589,
      "errorcodes": 3590,
      "scale": 3591,
      "heap": 3592,
      "deliver": 3593,
      "##errors": 3594,
      "naming": 3595,
      "no_": 3596,
      "interceptor": 3597,
      "observable": 3598,
      "##fragment": 3599,
      "##members": 3600,
      "##eresource": 3601,
      "increment": 3602,
      "gran": 3603,
      "termin": 3604,
      "visit": 3605,
      "##hexstring": 3606,
      "##white": 3607,
      "stdout": 3608,
      "##elementexception": 3609,
      "pas": 3610,
      "tes": 3611,
      "##sf": 3612,
      "##eet": 3613,
      "##des": 3614,
      "##future": 3615,
      "##predicate": 3616,
      "##va": 3617,
      "##32": 3618,
      "##unch": 3619,
      "##ntax": 3620,
      "getlogger": 3621,
      "##essment": 3622,
      "##exttoken": 3623,
      "##person": 3624,
      "##rows": 3625,
      "##estatus": 3626,
      "putstring": 3627,
      "sequenc": 3628,
      "##aware": 3629,
      "max_": 3630,
      "sessionfactory": 3631,
      "names": 3632,
      "getpack": 3633,
      "bufferedreader": 3634,
      "##layoutbranch": 3635,
      "##relation": 3636,
      "##barrenderer": 3637,
      "static": 3638,
      "xmlstreamreader": 3639,
      "v2014": 3640,
      "available": 3641,
      "ensur": 3642,
      "3.0": 3643,
      "_c": 3644,
      "button": 3645,
      "den": 3646,
      "ra": 3647,
      "ren": 3648,
      "##capacity": 3649,
      "##ipp": 3650,
      "##dx": 3651,
      "##mun": 3652,
      "##bal": 3653,
      "##vas": 3654,
      "##24": 3655,
      "##etable": 3656,
      "##ncon": 3657,
      "getl": 3658,
      "getcon": 3659,
      "getdecl": 3660,
      "##amanager": 3661,
      "##oud": 3662,
      "##olist": 3663,
      "##imag": 3664,
      "##ential": 3665,
      "##resultcallback": 3666,
      "##comma": 3667,
      "errors": 3668,
      "##archive": 3669,
      "resourceadapter": 3670,
      "spring": 3671,
      "##anceled": 3672,
      "##positions": 3673,
      "1.0f": 3674,
      "##adient": 3675,
      "assertionerror": 3676,
      "##supportedexception": 3677,
      "waitfor": 3678,
      "##ublish": 3679,
      "nosuchelementexception": 3680,
      "##covery": 3681,
      "##_separator": 3682,
      "##delivery": 3683,
      "sasl": 3684,
      "##fecycle": 3685,
      "36": 3686,
      "browser": 3687,
      "sb": 3688,
      "##uted": 3689,
      "##ef": 3690,
      "##day": 3691,
      "##rs": 3692,
      "##my": 3693,
      "##prin": 3694,
      "##_not": 3695,
      "getsu": 3696,
      "getversion": 3697,
      "instanc": 3698,
      "##chain": 3699,
      "arc": 3700,
      "##facade": 3701,
      "##filepath": 3702,
      "shared": 3703,
      "##requestbuilder": 3704,
      "readint": 3705,
      "removeall": 3706,
      "closeable": 3707,
      "##player": 3708,
      "actions": 3709,
      "##validation": 3710,
      "proxyselector": 3711,
      "recordref": 3712,
      "binarysearch": 3713,
      "requiren": 3714,
      "await": 3715,
      "syssession": 3716,
      "securerandom": 3717,
      "dependency": 3718,
      "messagedigest": 3719,
      "utf_8": 3720,
      "ejb": 3721,
      "game": 3722,
      "mar": 3723,
      "part": 3724,
      "r1": 3725,
      "tw": 3726,
      "tom": 3727,
      "xcontent": 3728,
      "##uff": 3729,
      "##ence": 3730,
      "##oul": 3731,
      "##bed": 3732,
      "##_set": 3733,
      "##20": 3734,
      "##levent": 3735,
      "##referenc": 3736,
      "##throw": 3737,
      "##ressed": 3738,
      "extended": 3739,
      "getindex": 3740,
      "##screen": 3741,
      "updat": 3742,
      "##tokener": 3743,
      "##eresponse": 3744,
      "##agesize": 3745,
      "private": 3746,
      "##html": 3747,
      "griddata": 3748,
      "getcolumn": 3749,
      "resourcetype": 3750,
      "##implement": 3751,
      "##alias": 3752,
      "doswitch": 3753,
      "##eserialize": 3754,
      "requirenonnull": 3755,
      "dom": 3756,
      "fast": 3757,
      "ld": 3758,
      "mid": 3759,
      "mutable": 3760,
      "sel": 3761,
      "world": 3762,
      "##sync": 3763,
      "##dig": 3764,
      "##watch": 3765,
      "##_stream": 3766,
      "##ewrapper": 3767,
      "##stroke": 3768,
      "##cep": 3769,
      "##delegate": 3770,
      "##loaded": 3771,
      "forward": 3772,
      "adj": 3773,
      "hasm": 3774,
      "##dimension": 3775,
      "pars": 3776,
      "##abstr": 3777,
      "##shape": 3778,
      "inputstreamreader": 3779,
      "eventtype": 3780,
      "getprimarykey": 3781,
      "##accessor": 3782,
      "failures": 3783,
      "##graphic": 3784,
      "##rules": 3785,
      "_social": 3786,
      "valuechange": 3787,
      "##tooltip": 3788,
      "merge": 3789,
      "getdisplayname": 3790,
      "alert": 3791,
      "0l": 3792,
      "_k": 3793,
      "eps": 3794,
      "ijav": 3795,
      "rx": 3796,
      "##sb": 3797,
      "##security": 3798,
      "##aj": 3799,
      "##network": 3800,
      "##otime": 3801,
      "##lator": 3802,
      "##go": 3803,
      "##12": 3804,
      "##etypes": 3805,
      "##iding": 3806,
      "##ecution": 3807,
      "setattribute": 3808,
      "##termin": 3809,
      "##resourc": 3810,
      "##tto": 3811,
      "##tedata": 3812,
      "printstream": 3813,
      "##requests": 3814,
      "##bytebuffer": 3815,
      "checksum": 3816,
      "align": 3817,
      "##month": 3818,
      "##defined": 3819,
      "compute": 3820,
      "firstname": 3821,
      "members": 3822,
      "single": 3823,
      "supplier": 3824,
      "hostname": 3825,
      "getcompanyid": 3826,
      "##ubyobject": 3827,
      "fixed": 3828,
      "##_state_": 3829,
      "calculate": 3830,
      "_return": 3831,
      "bar": 3832,
      "ea": 3833,
      "future": 3834,
      "used": 3835,
      "##tos": 3836,
      "##_address": 3837,
      "##1f": 3838,
      "arg8": 3839,
      "##esult": 3840,
      "##aration": 3841,
      "##sent": 3842,
      "##send": 3843,
      "##delim": 3844,
      "##vertices": 3845,
      "isdirectory": 3846,
      "mapper": 3847,
      "##entities": 3848,
      "##abilities": 3849,
      "modelnode": 3850,
      "minimum": 3851,
      "country": 3852,
      "##tinter": 3853,
      "swing": 3854,
      "decimal": 3855,
      "compile": 3856,
      "##httpservlet": 3857,
      "gl_": 3858,
      "##private": 3859,
      "ipaddress": 3860,
      "skip": 3861,
      "x509certificate": 3862,
      "unmarshaller": 3863,
      "##hoach": 3864,
      "affinetransform": 3865,
      "setcompanyid": 3866,
      "irubyobject": 3867,
      "gp": 3868,
      "ht": 3869,
      "istatus": 3870,
      "lat": 3871,
      "mac": 3872,
      "rs": 3873,
      "rank": 3874,
      "##hip": 3875,
      "##ng": 3876,
      "##late": 3877,
      "##destination": 3878,
      "##pix": 3879,
      "##_h": 3880,
      "##_format": 3881,
      "##timet": 3882,
      "##etr": 3883,
      "##idget": 3884,
      "getun": 3885,
      "gethost": 3886,
      "##arm": 3887,
      "##stat": 3888,
      "##blem": 3889,
      "##aper": 3890,
      "injector": 3891,
      "##eliteral": 3892,
      "##conciler": 3893,
      "settext": 3894,
      "constant": 3895,
      "##lib": 3896,
      "##lite": 3897,
      "actor": 3898,
      "##atives": 3899,
      "userid": 3900,
      "##ific": 3901,
      "httprequest": 3902,
      "##preview": 3903,
      "delay": 3904,
      "##worker": 3905,
      "##blocking": 3906,
      "getnum": 3907,
      "##dirs": 3908,
      "##tude": 3909,
      "move": 3910,
      "directory": 3911,
      "executorservice": 3912,
      "proces": 3913,
      "##ipeline": 3914,
      "bad_": 3915,
      "##havior": 3916,
      "##ould": 3917,
      "'/": 3918,
      "destroy": 3919,
      "poll": 3920,
      "##cor": 3921,
      "##tod": 3922,
      "##itiv": 3923,
      "##mail": 3924,
      "##ymbol": 3925,
      "##bounds": 3926,
      "##80": 3927,
      "##inh": 3928,
      "loc5": 3929,
      "##erec": 3930,
      "the": 3931,
      "##any": 3932,
      "##async": 3933,
      "##exists": 3934,
      "##bucket": 3935,
      "##ters": 3936,
      "##andset": 3937,
      "##participant": 3938,
      "defin": 3939,
      "defaul": 3940,
      "##timezone": 3941,
      "##formed": 3942,
      "##ipient": 3943,
      "timevalue": 3944,
      "isen": 3945,
      "sessionid": 3946,
      "##urls": 3947,
      "##mode_": 3948,
      "##ootstr": 3949,
      "##creator": 3950,
      "1024": 3951,
      "##schem": 3952,
      "initialized": 3953,
      "columns": 3954,
      "##changeevent": 3955,
      "##chartmodel": 3956,
      "routing": 3957,
      "##allowed": 3958,
      "scala": 3959,
      "cipher": 3960,
      "'/'": 3961,
      "60": 3962,
      "effect": 3963,
      "gdx": 3964,
      "ps": 3965,
      "psi": 3966,
      "rval": 3967,
      "var": 3968,
      "##literal": 3969,
      "##dr": 3970,
      "##qlexception": 3971,
      "##pect": 3972,
      "##public": 3973,
      "##ba": 3974,
      "##ven": 3975,
      "getlog": 3976,
      "##assert": 3977,
      "##del": 3978,
      "##adcast": 3979,
      "##edge": 3980,
      "reinit": 3981,
      "constraint": 3982,
      "##acket": 3983,
      "bucket": 3984,
      "##comment": 3985,
      "identifier": 3986,
      "##iration": 3987,
      "##riterion": 3988,
      "errorkeys": 3989,
      "deleted": 3990,
      "##transport": 3991,
      "contenttype": 3992,
      "##tasks": 3993,
      "##direction": 3994,
      "abstrac": 3995,
      "##after": 3996,
      "relation": 3997,
      "sslsocketfactory": 3998,
      "subscription": 3999,
      "encryption": 4000,
      "##edirectory": 4001,
      "soap": 4002,
      "_re": 4003,
      "href": 4004,
      "oc": 4005,
      "##den": 4006,
      "##ra": 4007,
      "##_r": 4008,
      "##tial": 4009,
      "##etest": 4010,
      "##anonical": 4011,
      "getpre": 4012,
      "##ecol": 4013,
      "##ecutor": 4014,
      "##rott": 4015,
      "stats": 4016,
      "##odetype": 4017,
      "##anged": 4018,
      "##umul": 4019,
      "##andget": 4020,
      "doublevalue": 4021,
      "##tories": 4022,
      "isin": 4023,
      "isassign": 4024,
      "##valuepair": 4025,
      "##achange": 4026,
      "prop": 4027,
      "getcomponent": 4028,
      "partition": 4029,
      "shell": 4030,
      "##emon": 4031,
      "##econtrol": 4032,
      "##classpath": 4033,
      "##viders": 4034,
      "##ticket": 4035,
      "pathvariable": 4036,
      "datas": 4037,
      "amount": 4038,
      "webservices": 4039,
      "servicename": 4040,
      "##eep": 4041,
      "##records": 4042,
      "phone": 4043,
      "##binder": 4044,
      "netsuite": 4045,
      "##014_2": 4046,
      "##eregistry": 4047,
      "owner": 4048,
      "##ribut": 4049,
      "valuechangeevent": 4050,
      "##tooltipgenerator": 4051,
      "##ootstrap": 4052,
      "are": 4053,
      "cert": 4054,
      "other": 4055,
      "secret": 4056,
      "##custom": 4057,
      "##ta": 4058,
      "##ik": 4059,
      "##iom": 4060,
      "##ds": 4061,
      "##rtual": 4062,
      "##proc": 4063,
      "##_node": 4064,
      "##alive": 4065,
      "getresponse": 4066,
      "getelement": 4067,
      "##def": 4068,
      "fine": 4069,
      "##virtual": 4070,
      "##peri": 4071,
      "longvalue": 4072,
      "isnull": 4073,
      "resize": 4074,
      "readline": 4075,
      "##rendering": 4076,
      "##enerator": 4077,
      "closed": 4078,
      "httpsession": 4079,
      "qual": 4080,
      "span": 4081,
      "currency": 4082,
      "scheme": 4083,
      "beanfactory": 4084,
      "##structure": 4085,
      "layer": 4086,
      "cordova": 4087,
      "##clus": 4088,
      "##executor": 4089,
      "##_2014_2": 4090,
      "##presenter": 4091,
      "missing": 4092,
      "graphics2d": 4093,
      "clarionobject": 4094,
      "##language": 4095,
      "_jir": 4096,
      "center": 4097,
      "documentviewcontroller": 4098,
      "v20140": 4099,
      "_f": 4100,
      "_this": 4101,
      "af": 4102,
      "co": 4103,
      "hs": 4104,
      "ml": 4105,
      "present": 4106,
      "tile": 4107,
      "tmp": 4108,
      "##lookup": 4109,
      "##mgr": 4110,
      "##tee": 4111,
      "install": 4112,
      "setparent": 4113,
      "##ablefrom": 4114,
      "objectoutputstream": 4115,
      "admin": 4116,
      "complex": 4117,
      "##ally": 4118,
      "##ditem": 4119,
      "##recision": 4120,
      "when": 4121,
      "attr": 4122,
      "##byname": 4123,
      "##timpl": 4124,
      "getblock": 4125,
      "observer": 4126,
      "##blocks": 4127,
      "persist": 4128,
      "getexternalstorag": 4129,
      "assertioninfo": 4130,
      "##respons": 4131,
      "msg": 4132,
      "symbol": 4133,
      "nanotime": 4134,
      "##initialized": 4135,
      "mouseevent": 4136,
      "atomic": 4137,
      "attributed": 4138,
      "persistent": 4139,
      "dfp": 4140,
      "menu": 4141,
      "prepared": 4142,
      "paste": 4143,
      "marsh": 4144,
      "ldap": 4145,
      "_entry": 4146,
      "bl": 4147,
      "cv": 4148,
      "city": 4149,
      "emit": 4150,
      "greg": 4151,
      "jn": 4152,
      "purchase": 4153,
      "seconds": 4154,
      "##ude": 4155,
      "##t_": 4156,
      "##ling": 4157,
      "##mx": 4158,
      "##mut": 4159,
      "##zip": 4160,
      "##wait": 4161,
      "##_to": 4162,
      "##_class": 4163,
      "##_mask": 4164,
      "##18": 4165,
      "getannotation": 4166,
      "##ecure": 4167,
      "##acces": 4168,
      "##ampl": 4169,
      "##ilon": 4170,
      "##contact": 4171,
      "setup": 4172,
      "addr": 4173,
      "##texture": 4174,
      "asset": 4175,
      "setin": 4176,
      "type_": 4177,
      "checked": 4178,
      "##configur": 4179,
      "ord": 4180,
      "general": 4181,
      "##ryption": 4182,
      "##processing": 4183,
      "required": 4184,
      "##cursor": 4185,
      "remoteexception": 4186,
      "##pagate": 4187,
      "payload": 4188,
      "##clude": 4189,
      "##tected": 4190,
      "##complete": 4191,
      "##fffffff": 4192,
      "0x7fffffff": 4193,
      "0x0f": 4194,
      "delivery": 4195,
      "##idingmenu": 4196,
      "_asset": 4197,
      "cour": 4198,
      "cast": 4199,
      "cms": 4200,
      "clos": 4201,
      "flow": 4202,
      "hit": 4203,
      "mlisteners": 4204,
      "redirect": 4205,
      "s2": 4206,
      "src": 4207,
      "soft": 4208,
      "##und": 4209,
      "##_0": 4210,
      "##_index": 4211,
      "##_dir": 4212,
      "##jar": 4213,
      "##onode": 4214,
      "##anode": 4215,
      "##ewriter": 4216,
      "##ecache": 4217,
      "##ecapacity": 4218,
      "cons": 4219,
      "stub": 4220,
      "objectname": 4221,
      "composite": 4222,
      "export": 4223,
      "##iget": 4224,
      "getcause": 4225,
      "##statemachine": 4226,
      "statemachine": 4227,
      "##requesttype": 4228,
      "getclassname": 4229,
      "datum": 4230,
      "recent": 4231,
      "viewgroup": 4232,
      "##encode": 4233,
      "fram": 4234,
      "normalize": 4235,
      "##remote": 4236,
      "getworkspace": 4237,
      "getnewvalue": 4238,
      "gvt": 4239,
      "isassignablefrom": 4240,
      "bus": 4241,
      "car": 4242,
      "click": 4243,
      "dou": 4244,
      "manager": 4245,
      "mvc": 4246,
      "##uite": 4247,
      "##total": 4248,
      "##dn": 4249,
      "##pol": 4250,
      "##pop": 4251,
      "##_get": 4252,
      "##lev": 4253,
      "##alth": 4254,
      "##oriz": 4255,
      "getresources": 4256,
      "getbeanidentifier": 4257,
      "##ulation": 4258,
      "nullprogressmonitor": 4259,
      "##deployment": 4260,
      "##apoint": 4261,
      "##ices": 4262,
      "exif": 4263,
      "##timed": 4264,
      "##mentid": 4265,
      "under": 4266,
      "unique": 4267,
      "writeobject": 4268,
      "##atitude": 4269,
      "typeliteral": 4270,
      "##events": 4271,
      "jsontokener": 4272,
      "upper": 4273,
      "alph": 4274,
      "##defaults": 4275,
      "##enderer": 4276,
      "##dispatch": 4277,
      "##labelgenerator": 4278,
      "##scheme": 4279,
      "inputsource": 4280,
      "persistence": 4281,
      "##ransition": 4282,
      "support": 4283,
      "##mappings": 4284,
      "changed": 4285,
      "getrequestparameter": 4286,
      "isclosed": 4287,
      "describ": 4288,
      "import": 4289,
      "##blank": 4290,
      "activation": 4291,
      "volume": 4292,
      "gregoriancalendar": 4293,
      "^=": 4294,
      "audit": 4295,
      "deserialize": 4296,
      "history": 4297,
      "sin": 4298,
      "tail": 4299,
      "uid": 4300,
      "##cal": 4301,
      "##clean": 4302,
      "##cart": 4303,
      "##ian": 4304,
      "##duration": 4305,
      "##xpression": 4306,
      "##kit": 4307,
      "##pnames": 4308,
      "##_re": 4309,
      "##_buffer": 4310,
      "##esponse": 4311,
      "##meetup": 4312,
      "##ompress": 4313,
      "##outils": 4314,
      "##entation": 4315,
      "##aver": 4316,
      "bytestring": 4317,
      "##andview": 4318,
      "##statis": 4319,
      "##ttls": 4320,
      "collect": 4321,
      "##strain": 4322,
      "##ship": 4323,
      "enti": 4324,
      "##ifiers": 4325,
      "errorcode": 4326,
      "##propertychangelistener": 4327,
      "##portal": 4328,
      "##tical": 4329,
      "itemstack": 4330,
      "sugges": 4331,
      "##based": 4332,
      "##entitymanager": 4333,
      "##ereference": 4334,
      "##visibility": 4335,
      "##arker": 4336,
      "spec": 4337,
      "publickey": 4338,
      "##s_mode_": 4339,
      "getnexttoken": 4340,
      "##kehoach": 4341,
      "##firs": 4342,
      "glyph": 4343,
      "##hashset": 4344,
      "##loyee": 4345,
      "member": 4346,
      "connected": 4347,
      "getusername": 4348,
      "mockhttpservlet": 4349,
      "cordovap": 4350,
      "phase": 4351,
      "bottom": 4352,
      "controller": 4353,
      "##observers": 4354,
      "##zero": 4355,
      "getjsf": 4356,
      "##subscription": 4357,
      "##authorization": 4358,
      "credentials": 4359,
      "##aggregation": 4360,
      "include": 4361,
      "##thandler": 4362,
      "##labor": 4363,
      "tls_mode_": 4364,
      "getjsfel": 4365,
      "'?": 4366,
      "fpresenter": 4367,
      "la": 4368,
      "llog": 4369,
      "##clock": 4370,
      "##tre": 4371,
      "##hers": 4372,
      "##effect": 4373,
      "##ired": 4374,
      "##ligh": 4375,
      "##fc": 4376,
      "##pu": 4377,
      "##ww": 4378,
      "##bon": 4379,
      "##vn": 4380,
      "##_message": 4381,
      "##25": 4382,
      "##4j": 4383,
      "##ocity": 4384,
      "##team": 4385,
      "getout": 4386,
      "inters": 4387,
      "##amil": 4388,
      "setcolor": 4389,
      "tohexstring": 4390,
      "##updat": 4391,
      "arrayof": 4392,
      "propagate": 4393,
      "tostringhelper": 4394,
      "getcanonical": 4395,
      "##states": 4396,
      "ship": 4397,
      "##metadat": 4398,
      "##interceptor": 4399,
      "##atient": 4400,
      "users": 4401,
      "min_value": 4402,
      "events": 4403,
      "##contents": 4404,
      "##olicies": 4405,
      "##tokenizer": 4406,
      "##firm": 4407,
      "jobid": 4408,
      "rectangleconstraint": 4409,
      "extensionlist": 4410,
      "##columns": 4411,
      "##adians": 4412,
      "##compati": 4413,
      "describe": 4414,
      "assessment": 4415,
      "##tempty": 4416,
      "'?'": 4417,
      "17": 4418,
      "4.0": 4419,
      "f1": 4420,
      "mnext": 4421,
      "r2": 4422,
      "vtype": 4423,
      "##sr": 4424,
      "##ses": 4425,
      "##slist": 4426,
      "##cs": 4427,
      "##coding": 4428,
      "##closed": 4429,
      "##blet": 4430,
      "##border": 4431,
      "stringdata": 4432,
      "##ross": 4433,
      "##itude": 4434,
      "##amel": 4435,
      "##querypar": 4436,
      "concurrent": 4437,
      "##ferred": 4438,
      "##ysize": 4439,
      "##tract": 4440,
      "shuff": 4441,
      "should": 4442,
      "selection": 4443,
      "env": 4444,
      "##suffix": 4445,
      "write_": 4446,
      "##tables": 4447,
      "spi": 4448,
      "##azz": 4449,
      "schem": 4450,
      "serialize": 4451,
      "worker": 4452,
      "##starttime": 4453,
      "##select": 4454,
      "gl10": 4455,
      "##titution": 4456,
      "unmodifiableset": 4457,
      "0.0f": 4458,
      "##connected": 4459,
      "resourcesplugin": 4460,
      "core_2014_2": 4461,
      "hsqlproperties": 4462,
      "##arbage": 4463,
      "mgarbage": 4464,
      "##orizont": 4465,
      "_get": 4466,
      "hi": 4467,
      "retry": 4468,
      "siz": 4469,
      "unc": 4470,
      "vide": 4471,
      "##co": 4472,
      "##au": 4473,
      "##uplic": 4474,
      "##neg": 4475,
      "##ii": 4476,
      "##org": 4477,
      "##det": 4478,
      "##byp": 4479,
      "##browser": 4480,
      "##vari": 4481,
      "##_is": 4482,
      "##_count": 4483,
      "##erial": 4484,
      "##annot": 4485,
      "getnode": 4486,
      "##enot": 4487,
      "##ypair": 4488,
      "##lobject": 4489,
      "reverse": 4490,
      "conversion": 4491,
      "constructor": 4492,
      "force": 4493,
      "##icator": 4494,
      "##anges": 4495,
      "issu": 4496,
      "isnan": 4497,
      "elapsed": 4498,
      "##mote": 4499,
      "##final": 4500,
      "##datal": 4501,
      "##fixture": 4502,
      "resourcebundle": 4503,
      "fieldmask": 4504,
      "spdy": 4505,
      "##filters": 4506,
      "lastname": 4507,
      "##eresolver": 4508,
      "##routing": 4509,
      "getuserid": 4510,
      "fragment": 4511,
      "reflection": 4512,
      "getinter": 4513,
      "scheduler": 4514,
      "board": 4515,
      "callbackcontext": 4516,
      "shardid": 4517,
      "##bridge": 4518,
      "##credentials": 4519,
      "alias": 4520,
      "_kb": 4521,
      "'0": 4522,
      "circ": 4523,
      "destination": 4524,
      "mview": 4525,
      "oh": 4526,
      "rpc": 4527,
      "zer": 4528,
      "##cluster": 4529,
      "##erin": 4530,
      "##native": 4531,
      "##ology": 4532,
      "##du": 4533,
      "##desc": 4534,
      "##mic": 4535,
      "##_len": 4536,
      "##16": 4537,
      "##ider": 4538,
      "##orator": 4539,
      "then": 4540,
      "getprovider": 4541,
      "getprefix": 4542,
      "getbundle": 4543,
      "##stoken": 4544,
      "##utf8": 4545,
      "reason": 4546,
      "setmodifieddate": 4547,
      "asserterror": 4548,
      "##ourn": 4549,
      "isre": 4550,
      "props": 4551,
      "##diff": 4552,
      "##behavior": 4553,
      "lib": 4554,
      "##ready": 4555,
      "writestring": 4556,
      "modelandview": 4557,
      "##ignature": 4558,
      "preferences": 4559,
      "##pref": 4560,
      "minim": 4561,
      "##ebview": 4562,
      "disk": 4563,
      "##operations": 4564,
      "getdescription": 4565,
      "sendmessage": 4566,
      "bitset": 4567,
      "getstringvalue": 4568,
      "ctx": 4569,
      "diagram": 4570,
      "media": 4571,
      "unmodifiablemap": 4572,
      "##clone": 4573,
      "##binary": 4574,
      "##dencies": 4575,
      "compareandset": 4576,
      "completed": 4577,
      "socialcoding": 4578,
      "download": 4579,
      "allocate": 4580,
      "##extractor": 4581,
      "mvcresult": 4582,
      "##ttlsmode": 4583,
      "'0'": 4584,
      "&=": 4585,
      "crc": 4586,
      "dt": 4587,
      "dum": 4588,
      "nil": 4589,
      "rate": 4590,
      "roll": 4591,
      "sl": 4592,
      "www": 4593,
      "##coordinate": 4594,
      "##umen": 4595,
      "##gb": 4596,
      "##kent": 4597,
      "##pend": 4598,
      "##bind": 4599,
      "##_list": 4600,
      "##_time": 4601,
      "##_data": 4602,
      "##_user": 4603,
      "##_version": 4604,
      "##join": 4605,
      "##etag": 4606,
      "stringutil": 4607,
      "getdat": 4608,
      "getmin": 4609,
      "##ece": 4610,
      "##itpart": 4611,
      "##adoop": 4612,
      "##yper": 4613,
      "replication": 4614,
      "setcreate": 4615,
      "##term": 4616,
      "##derror": 4617,
      "##perty": 4618,
      "##ict": 4619,
      "loader": 4620,
      "##reset": 4621,
      "##igure": 4622,
      "collector": 4623,
      "seg": 4624,
      "setitem": 4625,
      "##before": 4626,
      "##ameter": 4627,
      "##show": 4628,
      "##shutdown": 4629,
      "readobject": 4630,
      "##arguments": 4631,
      "##userid": 4632,
      "##awebview": 4633,
      "##izedtype": 4634,
      "httpresponse": 4635,
      "getsub": 4636,
      "annot": 4637,
      "##azel": 4638,
      "##eground": 4639,
      "cordovawebview": 4640,
      "##topic": 4641,
      "webelement": 4642,
      "##warning": 4643,
      "_ddm": 4644,
      "##weight": 4645,
      "geturl": 4646,
      "principal": 4647,
      "##fully": 4648,
      "previewing": 4649,
      "continue": 4650,
      "##_found": 4651,
      "issue_state_": 4652,
      "catalog": 4653,
      "clientid": 4654,
      "grantee": 4655,
      "##principal": 4656,
      "epsilon": 4657,
      "##delimiter": 4658,
      "isenabled": 4659,
      "##hersuite": 4660,
      "issue_state_without": 4661,
      "37": 4662,
      "cal": 4663,
      "dn": 4664,
      "eof": 4665,
      "itimed": 4666,
      "lex": 4667,
      "mmat": 4668,
      "msl": 4669,
      "te": 4670,
      "tax": 4671,
      "##cach": 4672,
      "##nex": 4673,
      "##random": 4674,
      "##master": 4675,
      "##pages": 4676,
      "##ventid": 4677,
      "##_info": 4678,
      "##96": 4679,
      "arg9": 4680,
      "##ncode": 4681,
      "##istic": 4682,
      "##align": 4683,
      "##anis": 4684,
      "getend": 4685,
      "getstate": 4686,
      "gettag": 4687,
      "getstart": 4688,
      "##atable": 4689,
      "##sever": 4690,
      "##rift": 4691,
      "##exit": 4692,
      "##bus": 4693,
      "##percent": 4694,
      "##verifier": 4695,
      "##umb": 4696,
      "##endor": 4697,
      "##ofocus": 4698,
      "mapcommand": 4699,
      "##aled": 4700,
      "##strans": 4701,
      "##beans": 4702,
      "states": 4703,
      "enable": 4704,
      "##score": 4705,
      "httpurl": 4706,
      "##itemprice": 4707,
      "0xf": 4708,
      "anno": 4709,
      "generated": 4710,
      "countdown": 4711,
      "pluginmanager": 4712,
      "##typro": 4713,
      "##rict": 4714,
      "##tokens": 4715,
      "##chars": 4716,
      "##usergroup": 4717,
      "##jsonobject": 4718,
      "linear": 4719,
      "##numbers": 4720,
      "##buttonid": 4721,
      "##abletype": 4722,
      "metrics": 4723,
      "##argeting": 4724,
      "sortedset": 4725,
      "##schedule": 4726,
      "griddatafactory": 4727,
      "after": 4728,
      "##18n": 4729,
      "itimedstatemachine": 4730,
      "mslidingmenu": 4731,
      "mapcommandbuttonid": 4732,
      "_resource": 4733,
      "_kehoach": 4734,
      "coordin": 4735,
      "foo": 4736,
      "mtype": 4737,
      "mimetype": 4738,
      "nod": 4739,
      "pid": 4740,
      "polygon": 4741,
      "spl": 4742,
      "##aring": 4743,
      "##each": 4744,
      "##ergroup": 4745,
      "##dk": 4746,
      "##gre": 4747,
      "##grid": 4748,
      "##yntax": 4749,
      "##plot": 4750,
      "##_server": 4751,
      "##_table": 4752,
      "##_target": 4753,
      "##js": 4754,
      "##etyp": 4755,
      "##ison": 4756,
      "strings": 4757,
      "##esize": 4758,
      "getdate": 4759,
      "gettyp": 4760,
      "getchild": 4761,
      "##mevent": 4762,
      "##stur": 4763,
      "##depth": 4764,
      "##filec": 4765,
      "cont": 4766,
      "##reser": 4767,
      "lognode": 4768,
      "##unique": 4769,
      "##lice": 4770,
      "##trac": 4771,
      "transfer": 4772,
      "timezon": 4773,
      "##datatype": 4774,
      "##pointspec": 4775,
      "clon": 4776,
      "sessionmap": 4777,
      "##rocessor": 4778,
      "##ogram": 4779,
      "documentbuilder": 4780,
      "totals": 4781,
      "displayname": 4782,
      "##mbed": 4783,
      "_sync": 4784,
      "##windows": 4785,
      "objectid": 4786,
      "corba": 4787,
      "exitpointspec": 4788,
      "mpurchase": 4789,
      "##planation": 4790,
      "complete": 4791,
      "payment": 4792,
      "##cending": 4793,
      "arcrole": 4794,
      "##ajor": 4795,
      "html": 4796,
      "nilreason": 4797,
      "mpurchasemap": 4798,
      "1e": 4799,
      "11": 4800,
      "holder": 4801,
      "itype": 4802,
      "iresource": 4803,
      "jnd": 4804,
      "jir": 4805,
      "keep": 4806,
      "mal": 4807,
      "mbean": 4808,
      "old": 4809,
      "pk": 4810,
      "same": 4811,
      "t1": 4812,
      "##cli": 4813,
      "##tuple": 4814,
      "##oice": 4815,
      "##_service": 4816,
      "##rinterface": 4817,
      "##iss": 4818,
      "##ismet": 4819,
      "geterror": 4820,
      "##stage": 4821,
      "##enode": 4822,
      "##acl": 4823,
      "##adap": 4824,
      "##added": 4825,
      "##external": 4826,
      "setvisible": 4827,
      "construct": 4828,
      "stock": 4829,
      "objectmapper": 4830,
      "##ppro": 4831,
      "##producer": 4832,
      "##andid": 4833,
      "chain": 4834,
      "##otask": 4835,
      "size2d": 4836,
      "##diag": 4837,
      "##commit": 4838,
      "unsafe": 4839,
      "##bench": 4840,
      "##ernal": 4841,
      "##sheet": 4842,
      "##emplate": 4843,
      "checkrange": 4844,
      "##attribu": 4845,
      "defaultvalue": 4846,
      "##quency": 4847,
      "##spi": 4848,
      "##span": 4849,
      "prev": 4850,
      "testcase": 4851,
      "discovery": 4852,
      "##authority": 4853,
      "updateprogress": 4854,
      "##s_id": 4855,
      "numeric": 4856,
      "##created": 4857,
      "mean": 4858,
      "grant": 4859,
      "queu": 4860,
      "listenerlist": 4861,
      "enter": 4862,
      "standardxy": 4863,
      "osstur": 4864,
      "pointer": 4865,
      "milliseconds": 4866,
      "xmpp": 4867,
      "previewcallback": 4868,
      "##enticator": 4869,
      "deadbytes": 4870,
      "hsqlexception": 4871,
      "ordinal": 4872,
      "doublet": 4873,
      "spdyconnection": 4874,
      "bounds": 4875,
      "categor": 4876,
      "descriptor": 4877,
      "joption": 4878,
      "nested": 4879,
      "scene": 4880,
      "##ek": 4881,
      "##fx": 4882,
      "##m_": 4883,
      "##blob": 4884,
      "##_no": 4885,
      "##rgb": 4886,
      "##inner": 4887,
      "##alys": 4888,
      "getbyte": 4889,
      "getselection": 4890,
      "##references": 4891,
      "##strings": 4892,
      "##stop": 4893,
      "##rot": 4894,
      "##edata": 4895,
      "setenabled": 4896,
      "setmax": 4897,
      "added": 4898,
      "comput": 4899,
      "exchange": 4900,
      "logwriter": 4901,
      "##andkey": 4902,
      "isinstance": 4903,
      "deploy": 4904,
      "depth": 4905,
      "arrayutil": 4906,
      "resolver": 4907,
      "getcode": 4908,
      "unregister": 4909,
      "##recur": 4910,
      "##poin": 4911,
      "readonly": 4912,
      "currentchartmodel": 4913,
      "metadat": 4914,
      "statuscode": 4915,
      "##datag": 4916,
      "##workflow": 4917,
      "##ricted": 4918,
      "compiled": 4919,
      "##runner": 4920,
      "##updated": 4921,
      "displaynamet": 4922,
      "monitor": 4923,
      "multiply": 4924,
      "autofocus": 4925,
      "##append": 4926,
      "##multipl": 4927,
      "evaluation": 4928,
      "istrue": 4929,
      "variables": 4930,
      "omg": 4931,
      "help": 4932,
      "_oauth": 4933,
      "4096": 4934,
      "mkdirs": 4935,
      "currvalue": 4936,
      "##vileged": 4937,
      "##munic": 4938,
      "getdeclared": 4939,
      "##hiprequest": 4940,
      "getrequestparametermap": 4941,
      "##amily": 4942,
      "joptionpane": 4943,
      "codec": 4944,
      "ds": 4945,
      "dictionary": 4946,
      "flip": 4947,
      "lu": 4948,
      "pipeline": 4949,
      "sus": 4950,
      "saml": 4951,
      "vel": 4952,
      "##cversion": 4953,
      "##utex": 4954,
      "##tom": 4955,
      "##trigger": 4956,
      "##hread": 4957,
      "##ire": 4958,
      "##dom": 4959,
      "##radius": 4960,
      "##mi": 4961,
      "##war": 4962,
      "##blog": 4963,
      "##onotification": 4964,
      "##tile": 4965,
      "##incre": 4966,
      "##invocation": 4967,
      "##ocom": 4968,
      "##tend": 4969,
      "stringreader": 4970,
      "getw": 4971,
      "getand": 4972,
      "getevent": 4973,
      "getmodel": 4974,
      "getattributes": 4975,
      "getjob": 4976,
      "##dentry": 4977,
      "##istogram": 4978,
      "indent": 4979,
      "review": 4980,
      "setn": 4981,
      "setdata": 4982,
      "##ables": 4983,
      "concat": 4984,
      "##program": 4985,
      "arch": 4986,
      "getclient": 4987,
      "##outer": 4988,
      "##trash": 4989,
      "valuebuilder": 4990,
      "##common": 4991,
      "lifecycle": 4992,
      "runtim": 4993,
      "datainputstream": 4994,
      "##oback": 4995,
      "configur": 4996,
      "paths": 4997,
      "formatter": 4998,
      "images": 4999,
      "notsupported": 5000,
      "##decoder": 5001,
      "##mise": 5002,
      "##transition": 5003,
      "##refresh": 5004,
      "jaxb": 5005,
      "tasks": 5006,
      "tokenbegin": 5007,
      "##phon": 5008,
      "edges": 5009,
      "##callbacks": 5010,
      "activityresultcallback": 5011,
      "multiple": 5012,
      "resolv": 5013,
      "##marshaller": 5014,
      "_dl": 5015,
      "received": 5016,
      "setuserid": 5017,
      "##feedback": 5018,
      "statfs": 5019,
      "##writable": 5020,
      "##alpha": 5021,
      "##ierarchy": 5022,
      "hasmore": 5023,
      "ijavascript": 5024,
      "##periment": 5025,
      "##amelcontext": 5026,
      "##uplicate": 5027,
      "setcreatedate": 5028,
      "29": 5029,
      "_mb": 5030,
      "func": 5031,
      "gson": 5032,
      "helper": 5033,
      "ke": 5034,
      "mkeys": 5035,
      "sip": 5036,
      "t2": 5037,
      "wrapper": 5038,
      "zk": 5039,
      "##hos": 5040,
      "##high": 5041,
      "##nu": 5042,
      "##nom": 5043,
      "##dd": 5044,
      "##mvc": 5045,
      "##year": 5046,
      "##ncoding": 5047,
      "thing": 5048,
      "getresult": 5049,
      "##reame": 5050,
      "##ewith": 5051,
      "##ecess": 5052,
      "##merg": 5053,
      "##melement": 5054,
      "##adow": 5055,
      "trash": 5056,
      "stroke": 5057,
      "student": 5058,
      "##tempt": 5059,
      "touri": 5060,
      "compress": 5061,
      "example": 5062,
      "##unn": 5063,
      "##tentity": 5064,
      "fileutils": 5065,
      "protected": 5066,
      "##dextension": 5067,
      "getcache": 5068,
      "actual": 5069,
      "m_s": 5070,
      "m_n": 5071,
      "##readonly": 5072,
      "readfully": 5073,
      "encoder": 5074,
      "##econstants": 5075,
      "next_c": 5076,
      "scop": 5077,
      "direct": 5078,
      "messageformat": 5079,
      "##ifest": 5080,
      "note": 5081,
      "##ograph": 5082,
      "publicclone": 5083,
      "lastmodified": 5084,
      "localdate": 5085,
      "propertychangelistener": 5086,
      "##phone": 5087,
      "##generic": 5088,
      "processing": 5089,
      "expiration": 5090,
      "##links": 5091,
      "##components": 5092,
      "##okenizer": 5093,
      "signal": 5094,
      "applicationcontext": 5095,
      "gettimeinmillis": 5096,
      "getreal": 5097,
      "securityhandler": 5098,
      "weak": 5099,
      "##management": 5100,
      "require": 5101,
      "subscriber": 5102,
      "##declaration": 5103,
      "severe": 5104,
      "allowed": 5105,
      "association": 5106,
      "##_tc": 5107,
      "retrie": 5108,
      "ignore": 5109,
      "arguments": 5110,
      "freconciler": 5111,
      "##broker": 5112,
      "realm": 5113,
      "##alyzer": 5114,
      "branch": 5115,
      "getpackage": 5116,
      "ensurecapacity": 5117,
      "##_streamable": 5118,
      "cordovaplugin": 5119,
      "getcanonicalpath": 5120,
      "##orizontal": 5121,
      "##enotsupportedexception": 5122,
      "##ournal": 5123,
      "##mbedded": 5124,
      "##issue": 5125,
      "next_cs_id": 5126,
      "publiccloneable": 5127,
      "bill": 5128,
      "dim": 5129,
      "dot": 5130,
      "folder": 5131,
      "gu": 5132,
      "mx": 5133,
      "mob": 5134,
      "mov": 5135,
      "nio": 5136,
      "primary": 5137,
      "s3": 5138,
      "vn": 5139,
      "##coord": 5140,
      "##n1": 5141,
      "##lat": 5142,
      "##xpath": 5143,
      "##pass": 5144,
      "##pooled": 5145,
      "##publisher": 5146,
      "##vp": 5147,
      "##_g": 5148,
      "##_port": 5149,
      "##err": 5150,
      "stringtokenizer": 5151,
      "getrow": 5152,
      "##reet": 5153,
      "##eclient": 5154,
      "##room": 5155,
      "trunc": 5156,
      "##association": 5157,
      "setlength": 5158,
      "completion": 5159,
      "##prop": 5160,
      "log_": 5161,
      "isrunning": 5162,
      "##ather": 5163,
      "##forc": 5164,
      "filepath": 5165,
      "##escope": 5166,
      "##ops": 5167,
      "services": 5168,
      "##move": 5169,
      "getimage": 5170,
      "m_transaction": 5171,
      "##meta": 5172,
      "ready": 5173,
      "##ips": 5174,
      "##attribut": 5175,
      "##username": 5176,
      "scan": 5177,
      "##cols": 5178,
      "getsource": 5179,
      "beans": 5180,
      "parselong": 5181,
      "##datas": 5182,
      "cloud": 5183,
      "clazz": 5184,
      "numberformat": 5185,
      "getdocument": 5186,
      "##fram": 5187,
      "##httprequest": 5188,
      "##accessible": 5189,
      "measure": 5190,
      "groups": 5191,
      "expand": 5192,
      "converter": 5193,
      "transformer": 5194,
      "linkedhashmap": 5195,
      "##gesecret": 5196,
      "##cense": 5197,
      "usergroup": 5198,
      "##tissu": 5199,
      "templ": 5200,
      "availability": 5201,
      "vec2": 5202,
      "##bridgesecret": 5203,
      "settimeinmillis": 5204,
      "original": 5205,
      "expectedbridgesecret": 5206,
      "##parseexception": 5207,
      "##resolution": 5208,
      "##origin": 5209,
      "##changesupport": 5210,
      "area": 5211,
      "entities": 5212,
      "announcements": 5213,
      "##alysis": 5214,
      "displaynametokenizer": 5215,
      "30": 5216,
      "bal": 5217,
      "cr": 5218,
      "etag": 5219,
      "guid": 5220,
      "jr": 5221,
      "mut": 5222,
      "mdata": 5223,
      "ne": 5224,
      "nativ": 5225,
      "ques": 5226,
      "sr": 5227,
      "sock": 5228,
      "sourc": 5229,
      "tex": 5230,
      "zz": 5231,
      "##sav": 5232,
      "##tol": 5233,
      "##do": 5234,
      "##dav": 5235,
      "##math": 5236,
      "##_pattern": 5237,
      "getconfig": 5238,
      "getserver": 5239,
      "getdevice": 5240,
      "gettimestamp": 5241,
      "getfirs": 5242,
      "##ital": 5243,
      "##adle": 5244,
      "##edescriptor": 5245,
      "trust": 5246,
      "##constrain": 5247,
      "##quantity": 5248,
      "setcontent": 5249,
      "setbackground": 5250,
      "foreach": 5251,
      "##problem": 5252,
      "appender": 5253,
      "filewriter": 5254,
      "appendcomma": 5255,
      "##compar": 5256,
      "##completion": 5257,
      "##strument": 5258,
      "writelock": 5259,
      "##emodel": 5260,
      "##velope": 5261,
      "##ticle": 5262,
      "0x1f": 5263,
      "itemset": 5264,
      "formatcurrent": 5265,
      "disable": 5266,
      "##anno": 5267,
      "##ereader": 5268,
      "getpri": 5269,
      "vector3f": 5270,
      "decoder": 5271,
      "runner": 5272,
      "webservice": 5273,
      "##encryption": 5274,
      "##valuestyle": 5275,
      "##lusters": 5276,
      "socketaddresses": 5277,
      "connector": 5278,
      "phon": 5279,
      "cosdictionary": 5280,
      "rendermanager": 5281,
      "weight": 5282,
      "csv": 5283,
      "startindex": 5284,
      "##requestid": 5285,
      "receiver": 5286,
      "empty_list": 5287,
      "astnode": 5288,
      "##aproject": 5289,
      "virtualfile": 5290,
      "continu": 5291,
      "feedback": 5292,
      "writen": 5293,
      "mbuffersb": 5294,
      "primitiv": 5295,
      "_socialactivity": 5296,
      "_recent": 5297,
      "##classpathentries": 5298,
      "preparedstatement": 5299,
      "##davprops": 5300,
      "appendcommaandkey": 5301,
      "formatcurrenttime": 5302,
      "mbuffersbysize": 5303,
      "iprogressmonitor": 5304,
      "mq": 5305,
      "mul": 5306,
      "myp": 5307,
      "mmap": 5308,
      "major": 5309,
      "neg": 5310,
      "pic": 5311,
      "rew": 5312,
      "simpl": 5313,
      "tor": 5314,
      "##criteria": 5315,
      "##pending": 5316,
      "##_date": 5317,
      "##tice": 5318,
      "##tifi": 5319,
      "##etop": 5320,
      "##etemplate": 5321,
      "##tel": 5322,
      "##alt": 5323,
      "threshold": 5324,
      "getconfiguration": 5325,
      "getheader": 5326,
      "getchildren": 5327,
      "getnamespace": 5328,
      "getruntime": 5329,
      "##mexception": 5330,
      "newbuilder": 5331,
      "##stag": 5332,
      "##seg": 5333,
      "##roov": 5334,
      "##roles": 5335,
      "##dem": 5336,
      "##seri": 5337,
      "##agename": 5338,
      "##adj": 5339,
      "##amespace": 5340,
      "##filet": 5341,
      "##omet": 5342,
      "instruction": 5343,
      "finish": 5344,
      "##ayer": 5345,
      "setlast": 5346,
      "islog": 5347,
      "##ainfo": 5348,
      "##under": 5349,
      "##usted": 5350,
      "arrayindex": 5351,
      "produc": 5352,
      "getcreate": 5353,
      "creation": 5354,
      "##argin": 5355,
      "create_": 5356,
      "##legacy": 5357,
      "##complex": 5358,
      "##bern": 5359,
      "##interfac": 5360,
      "##tostring": 5361,
      "preference": 5362,
      "httpclient": 5363,
      "##paign": 5364,
      "##fixed": 5365,
      "##gradient": 5366,
      "one": 5367,
      "messagelog": 5368,
      "bitmatrix": 5369,
      "##jected": 5370,
      "##echart": 5371,
      "totalresultset": 5372,
      "##_bits": 5373,
      "pdf": 5374,
      "##delements": 5375,
      "##_new": 5376,
      "changes": 5377,
      "##currency": 5378,
      "canonical": 5379,
      "executionflow": 5380,
      "wrapped": 5381,
      "highlight": 5382,
      "iclipboardsupport": 5383,
      "##objectid": 5384,
      "dialogmessage": 5385,
      "##3333": 5386,
      "##theader": 5387,
      "legacy": 5388,
      "##receiver": 5389,
      "##whitespace": 5390,
      "definition": 5391,
      "##ampler": 5392,
      "##aggregationbuilder": 5393,
      "##kentype": 5394,
      "clonenotsupportedexception": 5395,
      "##increment": 5396,
      "hasmoreelements": 5397,
      "totalresultsetsize": 5398,
      "cp": 5399,
      "canceled": 5400,
      "da": 5401,
      "dtt": 5402,
      "ep": 5403,
      "literal": 5404,
      "mlast": 5405,
      "mmax": 5406,
      "rgb": 5407,
      "site": 5408,
      "vari": 5409,
      "##same": 5410,
      "##sation": 5411,
      "##sample": 5412,
      "##aim": 5413,
      "##iem": 5414,
      "##overrid": 5415,
      "##grou": 5416,
      "##_sh": 5417,
      "##_attribute": 5418,
      "##_feature": 5419,
      "##rinter": 5420,
      "##ispatch": 5421,
      "getproxy": 5422,
      "getavailable": 5423,
      "getvertices": 5424,
      "##real": 5425,
      "##measure": 5426,
      "##ullparser": 5427,
      "ifile": 5428,
      "ifigure": 5429,
      "##ens": 5430,
      "finished": 5431,
      "##elp": 5432,
      "##elink": 5433,
      "##losing": 5434,
      "settype": 5435,
      "setbeanidentifier": 5436,
      "adwords": 5437,
      "ext": 5438,
      "##osition": 5439,
      "##osession": 5440,
      "deal": 5441,
      "##timezon": 5442,
      "##foreground": 5443,
      "promise": 5444,
      "uni": 5445,
      "##dataevent": 5446,
      "##dataitem": 5447,
      "##posed": 5448,
      "writebyte": 5449,
      "errormessage": 5450,
      "##ancon": 5451,
      "orb": 5452,
      "httpmethod": 5453,
      "configure": 5454,
      "itemtype": 5455,
      "parseexception": 5456,
      "urlclassloader": 5457,
      "##eref": 5458,
      "findby": 5459,
      "texture": 5460,
      "registration": 5461,
      "getbody": 5462,
      "getdictionary": 5463,
      "##locations": 5464,
      "webdriver": 5465,
      "localizable": 5466,
      "nextelement": 5467,
      "getexpression": 5468,
      "##lobals": 5469,
      "incr": 5470,
      "##ransaction": 5471,
      "##ounted": 5472,
      "price": 5473,
      "getuseruuid": 5474,
      "mockito": 5475,
      "##trackerpath": 5476,
      "##ocondition": 5477,
      "sky": 5478,
      "canvas": 5479,
      "getparametervalue": 5480,
      "accoun": 5481,
      "treeset": 5482,
      "putint": 5483,
      "aggregation": 5484,
      "reserved": 5485,
      "##required": 5486,
      "##previewcallback": 5487,
      "secretkey": 5488,
      "marshal": 5489,
      "thenreturn": 5490,
      "##azelcas": 5491,
      "##severity": 5492,
      "httpurlconnection": 5493,
      "dc": 5494,
      "elist": 5495,
      "f2": 5496,
      "ioutils": 5497,
      "jar": 5498,
      "mname": 5499,
      "onc": 5500,
      "ts": 5501,
      "talend": 5502,
      "##slot": 5503,
      "##cause": 5504,
      "##tle": 5505,
      "##targeting": 5506,
      "##ness": 5507,
      "##ll": 5508,
      "##d_": 5509,
      "##dfs": 5510,
      "##rar": 5511,
      "##gt": 5512,
      "##gest": 5513,
      "##ze": 5514,
      "##bb": 5515,
      "##break": 5516,
      "##_a": 5517,
      "##_property": 5518,
      "##_max": 5519,
      "##rindex": 5520,
      "##tegr": 5521,
      "##isting": 5522,
      "##idmap": 5523,
      "##alk": 5524,
      "##algorith": 5525,
      "thrott": 5526,
      "##artifact": 5527,
      "##asstream": 5528,
      "##ister": 5529,
      "##amodel": 5530,
      "inf": 5531,
      "inst": 5532,
      "instances": 5533,
      "##ilation": 5534,
      "setautoconstruct": 5535,
      "setgroupid": 5536,
      "##estype": 5537,
      "addattribute": 5538,
      "addclasspathentries": 5539,
      "asn1": 5540,
      "##plain": 5541,
      "##plus": 5542,
      "##projection": 5543,
      "##unsigned": 5544,
      "actu": 5545,
      "removel": 5546,
      "##comb": 5547,
      "##ildcard": 5548,
      "http_": 5549,
      "httpheaders": 5550,
      "translate": 5551,
      "getsecurity": 5552,
      "##versions": 5553,
      "throwables": 5554,
      "requestparam": 5555,
      "requestbody": 5556,
      "eventlistener": 5557,
      "recur": 5558,
      "resourceadap": 5559,
      "##azy": 5560,
      "loadclass": 5561,
      "filters": 5562,
      "percent": 5563,
      "##testutil": 5564,
      "workspac": 5565,
      "messagetype": 5566,
      "warnings": 5567,
      "components": 5568,
      "nativeget": 5569,
      "commandline": 5570,
      "##structured": 5571,
      "##aderinterface": 5572,
      "getfull": 5573,
      "bindings": 5574,
      "visible": 5575,
      "main_region_state": 5576,
      "##basic": 5577,
      "started": 5578,
      "##features": 5579,
      "setuseruuid": 5580,
      "##activator": 5581,
      "distanceunit": 5582,
      "##hints": 5583,
      "peer": 5584,
      "dirty": 5585,
      "savedresult": 5586,
      "##payment": 5587,
      "statistic": 5588,
      "##tedatabase": 5589,
      "##_target_": 5590,
      "##azelcastinstance": 5591,
      "_web": 5592,
      "cook": 5593,
      "criteria": 5594,
      "istructured": 5595,
      "kind": 5596,
      "latch": 5597,
      "otp": 5598,
      "pvector": 5599,
      "ring": 5600,
      "tu": 5601,
      "tech": 5602,
      "vpc": 5603,
      "##core": 5604,
      "##home": 5605,
      "##empty": 5606,
      "##needle": 5607,
      "##oad": 5608,
      "##lap": 5609,
      "##md": 5610,
      "##gateway": 5611,
      "##ym": 5612,
      "##pain": 5613,
      "##prim": 5614,
      "##ware": 5615,
      "##bs": 5616,
      "##_out": 5617,
      "##_mode": 5618,
      "##on_": 5619,
      "##inbytes": 5620,
      "##teps": 5621,
      "##orter": 5622,
      "getbuffer": 5623,
      "##stringarray": 5624,
      "##stand": 5625,
      "##ros": 5626,
      "##amb": 5627,
      "##elite": 5628,
      "##ollow": 5629,
      "setmessage": 5630,
      "setparameter": 5631,
      "setrender": 5632,
      "##izard": 5633,
      "company": 5634,
      "##pletype": 5635,
      "fileinfo": 5636,
      "##ower": 5637,
      "##ffec": 5638,
      "##entific": 5639,
      "createentry": 5640,
      "shadow": 5641,
      "##ameters": 5642,
      "##sharedpreferences": 5643,
      "##ithread": 5644,
      "##subject": 5645,
      "readstring": 5646,
      "##infotype": 5647,
      "startdate": 5648,
      "##lng": 5649,
      "axiom": 5650,
      "##ances": 5651,
      "sc_key": 5652,
      "##heap": 5653,
      "##aker": 5654,
      "regex": 5655,
      "##loaderfactory": 5656,
      "##xydataset": 5657,
      "querypar": 5658,
      "threadvar": 5659,
      "##models": 5660,
      "endtime": 5661,
      "modified": 5662,
      "##charset": 5663,
      "propertychangesupport": 5664,
      "getextension": 5665,
      "##echeck": 5666,
      "graphic": 5667,
      "ordered": 5668,
      "bufferedinputstream": 5669,
      "##layoutset": 5670,
      "encoded": 5671,
      "supported": 5672,
      "##quality": 5673,
      "securityexception": 5674,
      "extensions": 5675,
      "##variables": 5676,
      "256": 5677,
      "lastevent": 5678,
      "openc": 5679,
      "sslcontext": 5680,
      "stdin": 5681,
      "##deleted": 5682,
      "##distance": 5683,
      "scheduled": 5684,
      "##infom": 5685,
      "##itoring": 5686,
      "features": 5687,
      "##glyph": 5688,
      "##nowled": 5689,
      "##filerank": 5690,
      "saslclient": 5691,
      "360": 5692,
      "self": 5693,
      "processed": 5694,
      "cordovaargs": 5695,
      "##meetupsentry": 5696,
      "##bonet": 5697,
      "##firmation": 5698,
      "##aleditpart": 5699,
      "##announcements": 5700,
      "arrayindexoutofboundsexception": 5701,
      "istructuredselection": 5702,
      "/=": 5703,
      "64": 5704,
      "embedded": 5705,
      "hadoop": 5706,
      "igraphic": 5707,
      "mig": 5708,
      "mselection": 5709,
      "orel": 5710,
      "poly": 5711,
      "pagesize": 5712,
      "##can": 5713,
      "##aus": 5714,
      "##erinfo": 5715,
      "##mos": 5716,
      "##gable": 5717,
      "##bility": 5718,
      "##vendor": 5719,
      "##_map": 5720,
      "##_url": 5721,
      "##15": 5722,
      "##jo": 5723,
      "##uncher": 5724,
      "##rinput": 5725,
      "##temevent": 5726,
      "##isteners": 5727,
      "getlist": 5728,
      "getquery": 5729,
      "gettable": 5730,
      "getbase": 5731,
      "getentity": 5732,
      "getproperties": 5733,
      "getmodule": 5734,
      "##asser": 5735,
      "##ooth": 5736,
      "##istance": 5737,
      "##edvalue": 5738,
      "##cont": 5739,
      "##viation": 5740,
      "##mento": 5741,
      "low": 5742,
      "tofile": 5743,
      "isnotnull": 5744,
      "##oto": 5745,
      "elas": 5746,
      "participant": 5747,
      "outof": 5748,
      "outlet": 5749,
      "seq": 5750,
      "setint": 5751,
      "namevaluepair": 5752,
      "##country": 5753,
      "##letfeatur": 5754,
      "##atis": 5755,
      "##emode": 5756,
      "dataoutputstream": 5757,
      "userlist": 5758,
      "##anced": 5759,
      "itemsets": 5760,
      "nodelist": 5761,
      "attach": 5762,
      "##ficient": 5763,
      "before": 5764,
      "parseboolean": 5765,
      "not_": 5766,
      "connectionevent": 5767,
      "datat": 5768,
      "myelements": 5769,
      "colors": 5770,
      "counters": 5771,
      "plugins": 5772,
      "##validate": 5773,
      "##modification": 5774,
      "decision": 5775,
      "filterstatement": 5776,
      "nexttlsmode": 5777,
      "getmimetype": 5778,
      "##loye": 5779,
      "##poolsize": 5780,
      "##ransform": 5781,
      "money": 5782,
      "securitymanager": 5783,
      "media_": 5784,
      "parameterizedtype": 5785,
      "getcontenttype": 5786,
      "distribution": 5787,
      "optim": 5788,
      "##ascii": 5789,
      "csidmap": 5790,
      "writeto": 5791,
      "executionenvironment": 5792,
      "javac": 5793,
      "invalidate": 5794,
      "##runnable": 5795,
      "auditevent": 5796,
      "##registered": 5797,
      "##drawable": 5798,
      "accumul": 5799,
      "##emailaddress": 5800,
      "##arbon": 5801,
      "referencetype": 5802,
      "##resolved": 5803,
      "hostnameverifier": 5804,
      "_foo": 5805,
      "exifinterface": 5806,
      "##statistics": 5807,
      "getoutletfeatur": 5808,
      "hibern": 5809,
      "issue_state_without_name": 5810,
      "eofexception": 5811,
      "weakreference": 5812,
      "##iemdem": 5813,
      "##_feature_target_": 5814,
      "igraphicaleditpart": 5815,
      "outlet_feature_target_": 5816,
      "getoutletfeatureconfiguration": 5817,
      "_log": 5818,
      "cause": 5819,
      "ddm": 5820,
      "hav": 5821,
      "jms": 5822,
      "ktype": 5823,
      "pg": 5824,
      "pq": 5825,
      "patient": 5826,
      "sim": 5827,
      "sender": 5828,
      "tcp": 5829,
      "wa": 5830,
      "xaresource": 5831,
      "##sk": 5832,
      "##sort": 5833,
      "##sib": 5834,
      "##codec": 5835,
      "##evalu": 5836,
      "##override": 5837,
      "##lc": 5838,
      "##mbean": 5839,
      "##managed": 5840,
      "##game": 5841,
      "##gui": 5842,
      "##pret": 5843,
      "##primary": 5844,
      "##bos": 5845,
      "##_param": 5846,
      "##_protocol": 5847,
      "##19": 5848,
      "##ines": 5849,
      "##intent": 5850,
      "##ets": 5851,
      "##idx": 5852,
      "##ident": 5853,
      "getaction": 5854,
      "gettrans": 5855,
      "getoptions": 5856,
      "getserial": 5857,
      "getgroupid": 5858,
      "##atal": 5859,
      "##atom": 5860,
      "##arter": 5861,
      "##ched": 5862,
      "##edit": 5863,
      "##cons": 5864,
      "##ablefuture": 5865,
      "const": 5866,
      "##ingbox": 5867,
      "adapter": 5868,
      "##estricted": 5869,
      "listfiles": 5870,
      "toplatform": 5871,
      "classes": 5872,
      "##tinf": 5873,
      "##party": 5874,
      "deleg": 5875,
      "devic": 5876,
      "##tende": 5877,
      "filenotfoundexception": 5878,
      "proto": 5879,
      "##opoint": 5880,
      "creater": 5881,
      "##mob": 5882,
      "##ints": 5883,
      "putlong": 5884,
      "createvalue": 5885,
      "##readobject": 5886,
      "readlock": 5887,
      "defaultreadobject": 5888,
      "##speed": 5889,
      "subnet": 5890,
      "orbr": 5891,
      "testutil": 5892,
      "datag": 5893,
      "##visor": 5894,
      "number_of_": 5895,
      "sqli": 5896,
      "loadstate": 5897,
      "last_": 5898,
      "##charsets": 5899,
      "##mitted": 5900,
      "##valuetype": 5901,
      "##dirty": 5902,
      "registerprefix": 5903,
      "##specification": 5904,
      "##checks": 5905,
      "##checksum": 5906,
      "searchresult": 5907,
      "getremote": 5908,
      "stopwatch": 5909,
      "##jobs": 5910,
      "##connector": 5911,
      "storag": 5912,
      "##compound": 5913,
      "getcontents": 5914,
      "managedconnection": 5915,
      "getinputstream": 5916,
      "drawable": 5917,
      "permissions": 5918,
      "coreexception": 5919,
      "ecore": 5920,
      "##servicecomponent": 5921,
      "usage": 5922,
      "merged": 5923,
      "day_of_": 5924,
      "##cluded": 5925,
      "unmarshal": 5926,
      "millisecond": 5927,
      "##routes": 5928,
      "##since": 5929,
      "##scheduler": 5930,
      "power": 5931,
      "getsharedpreferences": 5932,
      "quote": 5933,
      "##animation": 5934,
      "getnumberof": 5935,
      "employee": 5936,
      "privatekey": 5937,
      "##blockingqueue": 5938,
      "##updater": 5939,
      "##compatible": 5940,
      "timezonewrapper": 5941,
      "##rotation": 5942,
      "##constrainttype": 5943,
      "toplatformstring": 5944,
      "orbrestricted": 5945,
      "13": 5946,
      "50": 5947,
      "_n": 5948,
      "cc": 5949,
      "dh": 5950,
      "dns": 5951,
      "flo": 5952,
      "green": 5953,
      "home": 5954,
      "mm": 5955,
      "more": 5956,
      "now": 5957,
      "nati": 5958,
      "need": 5959,
      "onch": 5960,
      "ping": 5961,
      "publish": 5962,
      "ti": 5963,
      "xs": 5964,
      "zon": 5965,
      "##car": 5966,
      "##cost": 5967,
      "##cert": 5968,
      "##click": 5969,
      "##ich": 5970,
      "##ives": 5971,
      "##ox": 5972,
      "##lon": 5973,
      "##dp": 5974,
      "##done": 5975,
      "##free": 5976,
      "##ral": 5977,
      "##ban": 5978,
      "##bre": 5979,
      "##48": 5980,
      "##instruction": 5981,
      "##etarget": 5982,
      "locate": 5983,
      "##erate": 5984,
      "##lelement": 5985,
      "##letitem": 5986,
      "##isdn": 5987,
      "##esolver": 5988,
      "arg10": 5989,
      "##aniti": 5990,
      "getle": 5991,
      "getor": 5992,
      "getbean": 5993,
      "getuuid": 5994,
      "##ecap": 5995,
      "newstring": 5996,
      "##stamp": 5997,
      "##student": 5998,
      "##devices": 5999,
      "##itter": 6000,
      "##fice": 6001,
      "##oudf": 6002,
      "##edis": 6003,
      "##ayout": 6004,
      "##constructor": 6005,
      "repe": 6006,
      "##thelper": 6007,
      "##perature": 6008,
      "toast": 6009,
      "experiment": 6010,
      "isfile": 6011,
      "program": 6012,
      "##escape": 6013,
      "##lish": 6014,
      "parcel": 6015,
      "createemp": 6016,
      "sha": 6017,
      "##recipient": 6018,
      "dateutil": 6019,
      "##actiontype": 6020,
      "checkbox": 6021,
      "##lux": 6022,
      "##tingdomain": 6023,
      "##views": 6024,
      "##propertychange": 6025,
      "scrip": 6026,
      "##lying": 6027,
      "getservicename": 6028,
      "<<=": 6029,
      "hashmapped": 6030,
      "decompress": 6031,
      "##ordered": 6032,
      "modifier": 6033,
      "filterconfig": 6034,
      "taskid": 6035,
      "websocket": 6036,
      "##sessions": 6037,
      "num_": 6038,
      "compiler": 6039,
      "getmarker": 6040,
      "##colors": 6041,
      "##retry": 6042,
      "incom": 6043,
      "##partment": 6044,
      "iterables": 6045,
      "getcontentresolver": 6046,
      "getresourceasstream": 6047,
      "management": 6048,
      "backup": 6049,
      "getcolor": 6050,
      "##ween": 6051,
      "notifyall": 6052,
      "cards": 6053,
      "pagetext": 6054,
      "##nanos": 6055,
      "##allentry": 6056,
      "getdefaul": 6057,
      "getmethodname": 6058,
      "previousprogresslabel": 6059,
      "firepropertychange": 6060,
      "revisionutils": 6061,
      "escape": 6062,
      "_wsr": 6063,
      "sections": 6064,
      "broker": 6065,
      "##digit": 6066,
      "##abstract": 6067,
      "psielement": 6068,
      "circle": 6069,
      "minimized": 6070,
      "rollback": 6071,
      "##andidate": 6072,
      "ossturbonet": 6073,
      "velocity": 6074,
      "##nomial": 6075,
      "mqtt": 6076,
      "##seriesc": 6077,
      "getcreatedate": 6078,
      "##layoutsetbranch": 6079,
      "hashmappedlist": 6080,
      "0f": 6081,
      "_password": 6082,
      "border": 6083,
      "bootstrap": 6084,
      "dop": 6085,
      "dial": 6086,
      "detail": 6087,
      "drop": 6088,
      "mstate": 6089,
      "oss": 6090,
      "pass": 6091,
      "plot": 6092,
      "rating": 6093,
      "router": 6094,
      "slot": 6095,
      "va": 6096,
      "##sive": 6097,
      "##equals": 6098,
      "##dle": 6099,
      "##ktop": 6100,
      "##policies": 6101,
      "##bill": 6102,
      "##v2": 6103,
      "##_end": 6104,
      "##_un": 6105,
      "##_code": 6106,
      "##ncoder": 6107,
      "##uncated": 6108,
      "##tering": 6109,
      "##alert": 6110,
      "##estim": 6111,
      "getas": 6112,
      "getby": 6113,
      "##aries": 6114,
      "##env": 6115,
      "##devic": 6116,
      "infl": 6117,
      "inner": 6118,
      "invocation": 6119,
      "##aylight": 6120,
      "##explanation": 6121,
      "##quare": 6122,
      "reaction": 6123,
      "street": 6124,
      "objectobject": 6125,
      "##estor": 6126,
      "##resul": 6127,
      "##resstype": 6128,
      "javafx": 6129,
      "##umin": 6130,
      "##ummary": 6131,
      "##lected": 6132,
      "##uni": 6133,
      "maps": 6134,
      "hastext": 6135,
      "hasnex": 6136,
      "series": 6137,
      "acces": 6138,
      "m_map": 6139,
      "seed": 6140,
      "dateutils": 6141,
      "##sume": 6142,
      "##positor": 6143,
      "##ighb": 6144,
      "##logging": 6145,
      "pref": 6146,
      "score": 6147,
      "pathparam": 6148,
      "attachment": 6149,
      "typedvalue": 6150,
      "##ridge": 6151,
      "uris": 6152,
      "parsed": 6153,
      "clas": 6154,
      "quantity": 6155,
      "resourceloader": 6156,
      "##bottom": 6157,
      "##connections": 6158,
      "##placement": 6159,
      "registers": 6160,
      "getvaluebinding": 6161,
      "##flush": 6162,
      "emptyitems": 6163,
      "##plicit": 6164,
      "servername": 6165,
      "serverproperties": 6166,
      "times": 6167,
      "authority": 6168,
      "##eeper": 6169,
      "##eeded": 6170,
      "##disabled": 6171,
      "##labels": 6172,
      "##function2d": 6173,
      "labels": 6174,
      "place": 6175,
      "fromstring": 6176,
      "##linked": 6177,
      "bufferedwriter": 6178,
      "bytesreference": 6179,
      "##policyrel": 6180,
      "##channels": 6181,
      "##patterns": 6182,
      "sdk_int": 6183,
      "mote": 6184,
      "mdm": 6185,
      "phys": 6186,
      "mode_": 6187,
      "timezonebean": 6188,
      "##_network": 6189,
      "##sensor": 6190,
      "immutableset": 6191,
      "##_dig": 6192,
      "##rollback": 6193,
      "binarybitmap": 6194,
      "lines": 6195,
      "linenumber": 6196,
      "standardcharsets": 6197,
      "1000l": 6198,
      "##socketaddressindex": 6199,
      "##volution": 6200,
      "gettotal": 6201,
      "##assignment": 6202,
      "##eclassloaderfactory": 6203,
      "encrypt": 6204,
      "ignite": 6205,
      "pixel": 6206,
      "tojsonarray": 6207,
      "##scrolling": 6208,
      "##runtimeexception": 6209,
      "cleanup": 6210,
      "whitebox": 6211,
      "##efficient": 6212,
      "##encoded": 6213,
      "glyphtext": 6214,
      "launch": 6215,
      "1e-": 6216,
      "computer": 6217,
      "##munication": 6218,
      "question": 6219,
      "##timezonelist": 6220,
      "getsecuritymanager": 6221,
      "workspaceclassloaderfactory": 6222,
      "loadstatechart": 6223,
      "##aylighttime": 6224,
      "'\"": 6225,
      "auction": 6226,
      "equ": 6227,
      "i18n": 6228,
      "mservice": 6229,
      "mcontext": 6230,
      "oid": 6231,
      "pr": 6232,
      "ptr": 6233,
      "radius": 6234,
      "vp": 6235,
      "##sn": 6236,
      "##smap": 6237,
      "##section": 6238,
      "##cup": 6239,
      "##come": 6240,
      "##categor": 6241,
      "##uithread": 6242,
      "##tf": 6243,
      "##tot": 6244,
      "##oper": 6245,
      "##zoom": 6246,
      "##wd": 6247,
      "##_min": 6248,
      "##_io": 6249,
      "##invo": 6250,
      "##ermin": 6251,
      "##urface": 6252,
      "##isker": 6253,
      "getreference": 6254,
      "getshort": 6255,
      "getupper": 6256,
      "##reator": 6257,
      "##redirect": 6258,
      "##ecl": 6259,
      "##separator": 6260,
      "##sequenc": 6261,
      "findelement": 6262,
      "##elabel": 6263,
      "##quer": 6264,
      "setstate": 6265,
      "sethandler": 6266,
      "setlocation": 6267,
      "##ingtracker": 6268,
      "##odule": 6269,
      "##resence": 6270,
      "addfirst": 6271,
      "##pli": 6272,
      "##andler": 6273,
      "##andwh": 6274,
      "classcas": 6275,
      "classnotfoundexception": 6276,
      "##import": 6277,
      "iswhitespace": 6278,
      "##streams": 6279,
      "filehelper": 6280,
      "##optim": 6281,
      "getim": 6282,
      "createinterfac": 6283,
      "seti": 6284,
      "##legend": 6285,
      "idx": 6286,
      "##locked": 6287,
      "readable": 6288,
      "readbyte": 6289,
      "databas": 6290,
      "userservice": 6291,
      "##econtent": 6292,
      "##orempty": 6293,
      "nextsocketaddressindex": 6294,
      "##.0f": 6295,
      "##itemlabelgenerator": 6296,
      "0x00": 6297,
      "0x80": 6298,
      "timeperiod": 6299,
      "diff": 6300,
      "##decision": 6301,
      "spann": 6302,
      "##typename": 6303,
      "getbas": 6304,
      "emptymap": 6305,
      "handlers": 6306,
      "selectitem": 6307,
      "points": 6308,
      "serialization": 6309,
      "##frag": 6310,
      "simpleh": 6311,
      "workspace": 6312,
      "##phase": 6313,
      "cache_key": 6314,
      "##functions": 6315,
      "10.0": 6316,
      "targetsearch": 6317,
      "expect": 6318,
      "##markers": 6319,
      "##updates": 6320,
      "bytesref": 6321,
      "immutablemap": 6322,
      "changelistener": 6323,
      "123": 6324,
      "packetbuffer": 6325,
      "invok": 6326,
      "audio": 6327,
      "##media": 6328,
      "tempor": 6329,
      "ensure": 6330,
      "##video": 6331,
      "ciphersuite": 6332,
      "authorization": 6333,
      "_org": 6334,
      "drag": 6335,
      "##ateref": 6336,
      "##avorite": 6337,
      "rubyclass": 6338,
      "##membershiprequest": 6339,
      "sequencer": 6340,
      "##balance": 6341,
      "##days": 6342,
      "##implementation": 6343,
      "sessionidcount": 6344,
      "##ecolor": 6345,
      "otherattributes": 6346,
      "##virtualhost": 6347,
      "##_data_": 6348,
      "compiledstatement": 6349,
      "##ographic": 6350,
      "getrealpath": 6351,
      "mobile": 6352,
      "actuate": 6353,
      "orelse": 6354,
      "hibernate": 6355,
      "'\"'": 6356,
      "##andwhisker": 6357,
      "classcastexception": 6358,
      "createinterfacescope": 6359,
      "blue": 6360,
      "cron": 6361,
      "cryp": 6362,
      "cover": 6363,
      "eval": 6364,
      "fq": 6365,
      "git": 6366,
      "hal": 6367,
      "jtext": 6368,
      "mwriter": 6369,
      "mutex": 6370,
      "nb": 6371,
      "offer": 6372,
      "py": 6373,
      "rand": 6374,
      "simp": 6375,
      "t3": 6376,
      "wai": 6377,
      "##sible": 6378,
      "##close": 6379,
      "##ulec": 6380,
      "##hrow": 6381,
      "##hour": 6382,
      "##hard": 6383,
      "##hook": 6384,
      "##eh": 6385,
      "##normal": 6386,
      "##otid": 6387,
      "##mounted": 6388,
      "##gh": 6389,
      "##gp": 6390,
      "##publish": 6391,
      "##widget": 6392,
      "##vs": 6393,
      "##_per": 6394,
      "##_object": 6395,
      "##_byte": 6396,
      "##_layout": 6397,
      "##onesh": 6398,
      "##install": 6399,
      "##etask": 6400,
      "##ncount": 6401,
      "##rinstance": 6402,
      "getview": 6403,
      "getactivity": 6404,
      "getcharacter": 6405,
      "getmodifieddate": 6406,
      "##ulate": 6407,
      "##rence": 6408,
      "##streame": 6409,
      "##eno": 6410,
      "##oole": 6411,
      "##ooper": 6412,
      "injection": 6413,
      "##oupon": 6414,
      "##elocation": 6415,
      "##elocalservice": 6416,
      "##edges": 6417,
      "##ationcontext": 6418,
      "##olong": 6419,
      "setprefix": 6420,
      "settitle": 6421,
      "setforeground": 6422,
      "conten": 6423,
      "##perclass": 6424,
      "##estack": 6425,
      "##plocalservice": 6426,
      "##ators": 6427,
      "isactive": 6428,
      "arti": 6429,
      "bund": 6430,
      "##poned": 6431,
      "getcached": 6432,
      "##fab": 6433,
      "acl": 6434,
      "##answer": 6435,
      "##abet": 6436,
      "seek": 6437,
      "##ithub": 6438,
      "##toint": 6439,
      "keystore": 6440,
      "datainput": 6441,
      "##indicator": 6442,
      "##portlet": 6443,
      "pref_": 6444,
      "maxsize": 6445,
      "##backup": 6446,
      "0x3f": 6447,
      "translation": 6448,
      "allocation": 6449,
      "alway": 6450,
      "differ": 6451,
      "disconnect": 6452,
      "counts": 6453,
      "##placeholder": 6454,
      "##flater": 6455,
      "##etostring": 6456,
      "##instanceid": 6457,
      "deleteon": 6458,
      "modifiers": 6459,
      "##fsb": 6460,
      "##disable": 6461,
      "blocks": 6462,
      "##accessidentity": 6463,
      "##creation": 6464,
      "##parserfactory": 6465,
      "componentname": 6466,
      "inputs": 6467,
      "##tracks": 6468,
      "convertto": 6469,
      "connec": 6470,
      "gradient": 6471,
      "##qualifier": 6472,
      "##limits": 6473,
      "cosarray": 6474,
      "handlermethod": 6475,
      "stored": 6476,
      "styled": 6477,
      "matrix4": 6478,
      "##modifiedsince": 6479,
      "##502": 6480,
      "restore": 6481,
      "getfont": 6482,
      "##returnvalue": 6483,
      "receive": 6484,
      "##directbuf": 6485,
      "##audio": 6486,
      "transportserver": 6487,
      "##completed": 6488,
      "successful": 6489,
      "bookmark": 6490,
      "solution": 6491,
      "##written": 6492,
      "##successful": 6493,
      "rotate": 6494,
      "##ierarchical": 6495,
      "mnativepix": 6496,
      "##_charset": 6497,
      "##balanc": 6498,
      "getexternalstoragestate": 6499,
      "course": 6500,
      "malformed": 6501,
      "##multiplier": 6502,
      "configurable": 6503,
      "##nuoc": 6504,
      "##strumentation": 6505,
      "migration": 6506,
      "media_mounted": 6507,
      "floor": 6508,
      "##seriescollection": 6509,
      "##_digits": 6510,
      "'i": 6511,
      "1f": 6512,
      "14": 6513,
      "_trash": 6514,
      "clip": 6515,
      "criterion": 6516,
      "cross": 6517,
      "ele": 6518,
      "hive": 6519,
      "jen": 6520,
      "recon": 6521,
      "sn": 6522,
      "sink": 6523,
      "sinstance": 6524,
      "watch": 6525,
      "##cm": 6526,
      "##cut": 6527,
      "##alect": 6528,
      "##tail": 6529,
      "##ote": 6530,
      "##oauth": 6531,
      "##latch": 6532,
      "##dnode": 6533,
      "##mac": 6534,
      "##gi": 6535,
      "##gap": 6536,
      "##global": 6537,
      "##polygon": 6538,
      "##_start": 6539,
      "##_logger": 6540,
      "##22": 6541,
      "##iness": 6542,
      "##integr": 6543,
      "getel": 6544,
      "gettest": 6545,
      "getoutput": 6546,
      "getkind": 6547,
      "##attempt": 6548,
      "##ooser": 6549,
      "##deventid": 6550,
      "##actinstance": 6551,
      "##serror": 6552,
      "##export": 6553,
      "replic": 6554,
      "setlong": 6555,
      "##threshold": 6556,
      "stax": 6557,
      "##ingdistribution": 6558,
      "##ions": 6559,
      "compression": 6560,
      "##plist": 6561,
      "##office": 6562,
      "ison": 6563,
      "isopen": 6564,
      "collator": 6565,
      "##lements": 6566,
      "sizeof": 6567,
      "##motion": 6568,
      "geo": 6569,
      "putboolean": 6570,
      "##arrays": 6571,
      "uns": 6572,
      "##ecked": 6573,
      "chars": 6574,
      "##tainer": 6575,
      "dataoutput": 6576,
      "##regex": 6577,
      "nextdouble": 6578,
      "##oster": 6579,
      "httphost": 6580,
      "allux": 6581,
      "angle": 6582,
      "##response_qname": 6583,
      "##ifn": 6584,
      "requestpermissions": 6585,
      "##hronous": 6586,
      "matchers": 6587,
      "fieldtype": 6588,
      "space": 6589,
      "attributefield": 6590,
      "textutils": 6591,
      "getbit": 6592,
      "vector3d": 6593,
      "##refs": 6594,
      "##modifiers": 6595,
      "configurationservice": 6596,
      "swt": 6597,
      "##orderitem": 6598,
      "##hostname": 6599,
      "modify": 6600,
      "##notex": 6601,
      "##matching": 6602,
      "##getter": 6603,
      "serialized": 6604,
      "##keyp": 6605,
      "##phan": 6606,
      "##question": 6607,
      "##structur": 6608,
      "##messaged": 6609,
      "##messagetype": 6610,
      "##ixel": 6611,
      "campaign": 6612,
      "##rectangle": 6613,
      "##single": 6614,
      "selectedtimezone": 6615,
      "autom": 6616,
      "categorylabel": 6617,
      "##senger": 6618,
      "##vesinh": 6619,
      "128": 6620,
      "permissionhelper": 6621,
      "networking": 6622,
      "networkinterface": 6623,
      "hsqlbytearray": 6624,
      "clarionstring": 6625,
      "nosuchalgorith": 6626,
      "utf8": 6627,
      "getsessionmap": 6628,
      "shardrouting": 6629,
      "istrace": 6630,
      "structmember": 6631,
      "estim": 6632,
      "vec3f": 6633,
      "##arearenderer": 6634,
      "##aprovider": 6635,
      "getrandom": 6636,
      "attributem": 6637,
      "referenced": 6638,
      "persisted": 6639,
      "##payload": 6640,
      "read_long": 6641,
      "getsystemservice": 6642,
      "tooltip": 6643,
      "statistics": 6644,
      "##frequency": 6645,
      "dispatcher": 6646,
      "boundingbox": 6647,
      "getscheme": 6648,
      "xcontentbuilder": 6649,
      "##resseddirectbuf": 6650,
      "##cepted": 6651,
      "##negative": 6652,
      "##annotated": 6653,
      "reflectionutils": 6654,
      "ohlc": 6655,
      "##yntaxexception": 6656,
      "##attributen": 6657,
      "autofocusmanager": 6658,
      "##roovy": 6659,
      "##mobile": 6660,
      "sqlitedatabase": 6661,
      "ecoreutil": 6662,
      "##ographicpoint": 6663,
      "'i'": 6664,
      "##actinstancemanager": 6665,
      "nosuchalgorithmexception": 6666,
      "'o": 6667,
      "cst": 6668,
      "clo": 6669,
      "cang": 6670,
      "cost": 6671,
      "dfs": 6672,
      "effec": 6673,
      "hass": 6674,
      "horizontal": 6675,
      "hierarchical": 6676,
      "maz": 6677,
      "rb": 6678,
      "ssh": 6679,
      "sound": 6680,
      "ttable": 6681,
      "unch": 6682,
      "win": 6683,
      "##cus": 6684,
      "##calcul": 6685,
      "##tow": 6686,
      "##oth": 6687,
      "##fetch": 6688,
      "##rad": 6689,
      "##gree": 6690,
      "##ptr": 6691,
      "##push": 6692,
      "##ws": 6693,
      "##_log": 6694,
      "##_provider": 6695,
      "##_offset": 6696,
      "##_priority": 6697,
      "##_aware": 6698,
      "##ination": 6699,
      "##inaccessidentity": 6700,
      "##erator": 6701,
      "returnval": 6702,
      "##idle": 6703,
      "getlayout": 6704,
      "getelements": 6705,
      "##ulk": 6706,
      "##ecallback": 6707,
      "##aspect": 6708,
      "instant": 6709,
      "##edure": 6710,
      "trac": 6711,
      "##quot": 6712,
      "##quared": 6713,
      "##olumn": 6714,
      "setstring": 6715,
      "setnext": 6716,
      "##izes": 6717,
      "##tholder": 6718,
      "contex": 6719,
      "strict": 6720,
      "adv": 6721,
      "adderror": 6722,
      "##estore": 6723,
      "listdataevent": 6724,
      "addaction": 6725,
      "addinfom": 6726,
      "##vert": 6727,
      "assign": 6728,
      "loginternal": 6729,
      "##andvalues": 6730,
      "##static": 6731,
      "##ttl": 6732,
      "##iginaccessidentity": 6733,
      "##toriginaccessidentity": 6734,
      "##oftype": 6735,
      "##parsed": 6736,
      "##parcel": 6737,
      "is_data_": 6738,
      "filechannel": 6739,
      "producer": 6740,
      "##fileversion": 6741,
      "##utility": 6742,
      "m_data": 6743,
      "createuser": 6744,
      "systemclock": 6745,
      "nameaddress": 6746,
      "##ametype": 6747,
      "enroll": 6748,
      "##posal": 6749,
      "##scal": 6750,
      "##rontoriginaccessidentity": 6751,
      "##orequest": 6752,
      "##ancesource": 6753,
      "prepare": 6754,
      "subsub": 6755,
      "##prev": 6756,
      "##paid": 6757,
      "##parametergroup": 6758,
      "nodeid": 6759,
      "ans": 6760,
      "typedescriptor": 6761,
      "##akismet": 6762,
      "##datamap": 6763,
      "##espaces": 6764,
      "connectioneventlistener": 6765,
      "threadlocal": 6766,
      "myvis": 6767,
      "tagged": 6768,
      "##beandefinition": 6769,
      "##flavor": 6770,
      "##panded": 6771,
      "0xffffffff": 6772,
      "serialutilities": 6773,
      "simplematrix": 6774,
      "mainapp": 6775,
      "##usenum": 6776,
      "working": 6777,
      "memento": 6778,
      "##annotations": 6779,
      "resettables": 6780,
      "##orientation": 6781,
      "records": 6782,
      "##applicationcontext": 6783,
      "##affic": 6784,
      "##graphics": 6785,
      "ipv": 6786,
      "notificationtype": 6787,
      "cameramanager": 6788,
      "##unknown": 6789,
      "enumset": 6790,
      "schedul": 6791,
      "##sens": 6792,
      "conditionally": 6793,
      "##signature": 6794,
      "##callable": 6795,
      "##requestinfo": 6796,
      "rules": 6797,
      "setusername": 6798,
      "##subscriber": 6799,
      "fixture": 6800,
      "omconstants": 6801,
      "##tection": 6802,
      "##factories": 6803,
      "##serializable": 6804,
      "today": 6805,
      "spark_network": 6806,
      "animation": 6807,
      "##handlers_aware": 6808,
      "namingexception": 6809,
      "namesandvalues": 6810,
      "##going": 6811,
      "##etrack": 6812,
      "##publickey": 6813,
      "certpath": 6814,
      "presenter": 6815,
      "getexternalstoragedirectory": 6816,
      "video": 6817,
      "issuer": 6818,
      "##micro": 6819,
      "##appendcomma": 6820,
      "ijavascriptunit": 6821,
      "##forcer": 6822,
      "##framework": 6823,
      "##entification": 6824,
      "searchresultcache": 6825,
      "##oudfrontoriginaccessidentity": 6826,
      "vault": 6827,
      "##uminancesource": 6828,
      "mode_private": 6829,
      "styledtext": 6830,
      "'o'": 6831,
      "addinfomessage": 6832,
      "is_data_handlers_aware": 6833,
      "conditionallyappendcomma": 6834,
      "spark_network_io": 6835,
      "':": 6836,
      "19": 6837,
      "500": 6838,
      "_value": 6839,
      "cas": 6840,
      "cod": 6841,
      "dspace": 6842,
      "duplicate": 6843,
      "hid": 6844,
      "ist": 6845,
      "jj": 6846,
      "mgr": 6847,
      "oper": 6848,
      "pb": 6849,
      "rq": 6850,
      "secure": 6851,
      "tolist": 6852,
      "und": 6853,
      "v1": 6854,
      "xyc": 6855,
      "##cd": 6856,
      "##uce": 6857,
      "##uit": 6858,
      "##tc": 6859,
      "##tou": 6860,
      "##iry": 6861,
      "##lf": 6862,
      "##digest": 6863,
      "##fine": 6864,
      "##rang": 6865,
      "##xcontent": 6866,
      "##ggle": 6867,
      "##glish": 6868,
      "##week": 6869,
      "##bid": 6870,
      "##_unit": 6871,
      "##2g": 6872,
      "##jax": 6873,
      "##84": 6874,
      "##etween": 6875,
      "##erm": 6876,
      "##isk": 6877,
      "thrift": 6878,
      "##anization": 6879,
      "getgroup": 6880,
      "gettoken": 6881,
      "getservlet": 6882,
      "getopen": 6883,
      "getkale": 6884,
      "getlocale": 6885,
      "##mend": 6886,
      "##ente": 6887,
      "##asbytes": 6888,
      "##deque": 6889,
      "##acao": 6890,
      "booleanvaluestyle": 6891,
      "##agraph": 6892,
      "##amer": 6893,
      "##eddatetime": 6894,
      "##bui": 6895,
      "reply": 6896,
      "seterror": 6897,
      "stopp": 6898,
      "##ingleton": 6899,
      "##named": 6900,
      "ascending": 6901,
      "exclus": 6902,
      "##providers": 6903,
      "##ump": 6904,
      "assertissu": 6905,
      "isle": 6906,
      "isprocessing": 6907,
      "##force": 6908,
      "##achable": 6909,
      "mapped": 6910,
      "##figuration": 6911,
      "##faile": 6912,
      "##moder": 6913,
      "geographicpoint": 6914,
      "partial": 6915,
      "createnew": 6916,
      "printf": 6917,
      "unset": 6918,
      "datetick": 6919,
      "ids": 6920,
      "##paths": 6921,
      "keyed": 6922,
      "defaults": 6923,
      "nextbytes": 6924,
      "##backoff": 6925,
      "health": 6926,
      "##collector": 6927,
      "factor": 6928,
      "attached": 6929,
      "##datapoint": 6930,
      "test_": 6931,
      "executable": 6932,
      "##espec": 6933,
      "##itedelements": 6934,
      "datanode": 6935,
      "threadcontext": 6936,
      "##decode": 6937,
      "sprite": 6938,
      "##transformation": 6939,
      "getbounds": 6940,
      "contents": 6941,
      "fld": 6942,
      "flat": 6943,
      "methodname": 6944,
      "##geometry": 6945,
      "0xffff": 6946,
      "##monitoring": 6947,
      "##scrip": 6948,
      "matof": 6949,
      "bitcount": 6950,
      "##echang": 6951,
      "blockcontainer": 6952,
      "##descriptions": 6953,
      "querybuilder": 6954,
      "##rypted": 6955,
      "##rangement": 6956,
      "privileged": 6957,
      "##overy": 6958,
      "stacktrace": 6959,
      "##afk": 6960,
      "##01502": 6961,
      "servletcontex": 6962,
      "resolved": 6963,
      "channels": 6964,
      "##extensions": 6965,
      "##peer": 6966,
      "getcontextclassloader": 6967,
      "##intervalseries": 6968,
      "hsqlname": 6969,
      "dimensions": 6970,
      "##notifications": 6971,
      "nanos": 6972,
      "ticket": 6973,
      "##constraints": 6974,
      "createtransition": 6975,
      "esiget": 6976,
      "_kaleonode": 6977,
      "##shards": 6978,
      "##credential": 6979,
      "deploymentunit": 6980,
      "##accoun": 6981,
      "##dlfileversion": 6982,
      "overlay": 6983,
      "broadcast": 6984,
      "rendering": 6985,
      "bad_operation": 6986,
      "defaulth": 6987,
      "_jira": 6988,
      "business": 6989,
      "intersect": 6990,
      "shuffle": 6991,
      "spiimpl": 6992,
      "mbeanserver": 6993,
      "setbackgroundcolor": 6994,
      "phonenumber": 6995,
      "primitivetype": 6996,
      "picture": 6997,
      "throttle": 6998,
      "zoneddatetime": 6999,
      "accesstoken": 7000,
      "setforegroundcolor": 7001,
      "##fabsent": 7002,
      "myvisitedelements": 7003,
      "':'": 7004,
      "assertissuecount": 7005,
      "##dlfileversiondiff": 7006,
      "_sc": 7007,
      "_account": 7008,
      "_attachment": 7009,
      "ak": 7010,
      "best": 7011,
      "cw": 7012,
      "coord": 7013,
      "clob": 7014,
      "ear": 7015,
      "eai": 7016,
      "gam": 7017,
      "hy": 7018,
      "hdfs": 7019,
      "it": 7020,
      "iv": 7021,
      "jp": 7022,
      "jedis": 7023,
      "look": 7024,
      "mime": 7025,
      "master": 7026,
      "ni": 7027,
      "natives": 7028,
      "pan": 7029,
      "rad": 7030,
      "setur": 7031,
      "sam": 7032,
      "t4": 7033,
      "tap": 7034,
      "uh": 7035,
      "war": 7036,
      "zook": 7037,
      "##side": 7038,
      "##tur": 7039,
      "##treenode": 7040,
      "##hit": 7041,
      "##hierarchy": 7042,
      "##ne": 7043,
      "##nod": 7044,
      "##loop": 7045,
      "##dget": 7046,
      "##fortype": 7047,
      "##mgt": 7048,
      "##vale": 7049,
      "##_x": 7050,
      "##_for": 7051,
      "##_image": 7052,
      "##rge": 7053,
      "##iname": 7054,
      "##include": 7055,
      "##etty": 7056,
      "##erange": 7057,
      "getv": 7058,
      "geton": 7059,
      "getmap": 7060,
      "getraw": 7061,
      "getposition": 7062,
      "##atter": 7063,
      "##ataset": 7064,
      "##refix": 7065,
      "##remaining": 7066,
      "newc": 7067,
      "##aret": 7068,
      "##arizer": 7069,
      "##rout": 7070,
      "##enetwork": 7071,
      "##deploy": 7072,
      "##defaul": 7073,
      "##aclient": 7074,
      "##advisor": 7075,
      "##apler": 7076,
      "##chooser": 7077,
      "##ed_": 7078,
      "##confirmation": 7079,
      "repaint": 7080,
      "setview": 7081,
      "##izing": 7082,
      "stapler": 7083,
      "##inger": 7084,
      "##aval": 7085,
      "##estr": 7086,
      "addition": 7087,
      "##tinput": 7088,
      "isnot": 7089,
      "isblank": 7090,
      "isconnected": 7091,
      "##setup": 7092,
      "##otpreviewcallback": 7093,
      "elcontext": 7094,
      "##unmarshaller": 7095,
      "##timeperiod": 7096,
      "fileclean": 7097,
      "langu": 7098,
      "##serviceexception": 7099,
      "##lifecycle": 7100,
      "m_size": 7101,
      "m_last": 7102,
      "createstate": 7103,
      "##ablean": 7104,
      "##databas": 7105,
      "##messageexception": 7106,
      "##requestcode": 7107,
      "##actionlocalservice": 7108,
      "readfrom": 7109,
      "##scan": 7110,
      "##sclient": 7111,
      "##scanner": 7112,
      "##adding": 7113,
      "##redentials": 7114,
      "##ipe": 7115,
      "contexts": 7116,
      "##users": 7117,
      "portalpreferences": 7118,
      "##fieldid": 7119,
      "##health": 7120,
      "##ights": 7121,
      "getsk": 7122,
      "iselection": 7123,
      "suit": 7124,
      "##umentries": 7125,
      "##timest": 7126,
      "quarter": 7127,
      "recipient": 7128,
      "getph": 7129,
      "getpolicy": 7130,
      "##visited": 7131,
      "##working": 7132,
      "getbinding": 7133,
      "vector2d": 7134,
      "##fromstring": 7135,
      "obtain": 7136,
      "tables": 7137,
      "##s_per": 7138,
      "hasnextproxy": 7139,
      "##pluginhost": 7140,
      "##fraction": 7141,
      "##ants": 7142,
      "##fsr": 7143,
      "compound": 7144,
      "##echar": 7145,
      "rowto": 7146,
      "##quiet": 7147,
      "##quivale": 7148,
      "##download": 7149,
      "##ancelled": 7150,
      "##rypt": 7151,
      "gradle": 7152,
      "showfeedback": 7153,
      "##egment": 7154,
      "strategy": 7155,
      "multipart": 7156,
      "##optional": 7157,
      "_svn": 7158,
      "linkedhashset": 7159,
      "atmos": 7160,
      "##compat": 7161,
      "##_none": 7162,
      "##senabled": 7163,
      "##_day": 7164,
      "relative": 7165,
      "getcommand": 7166,
      "permissionresultcallback": 7167,
      "##availability": 7168,
      "javascript": 7169,
      "##failures": 7170,
      "basicstroke": 7171,
      "backend": 7172,
      "orientation": 7173,
      "tabs": 7174,
      "##activation": 7175,
      "##removed": 7176,
      "##infos": 7177,
      "istruncated": 7178,
      "##ecomp": 7179,
      "transportclient": 7180,
      "severity_error": 7181,
      "beandefinitionbuilder": 7182,
      "##ethreshold": 7183,
      "legend": 7184,
      "##nconnection": 7185,
      "adjust": 7186,
      "alignment": 7187,
      "barcode": 7188,
      "decimalformat": 7189,
      "##econtroller": 7190,
      "##customer": 7191,
      "isnullorempty": 7192,
      "##ditems": 7193,
      "black": 7194,
      "##accessexception": 7195,
      "activationspec": 7196,
      "mockhttpservletrequestbuilder": 7197,
      "##queryparameter": 7198,
      "##typroject": 7199,
      "documentbuilderfactory": 7200,
      "_oauthtoken": 7201,
      "getandincrement": 7202,
      "truncate": 7203,
      "templateref": 7204,
      "writenamespace": 7205,
      "number_of_items": 7206,
      "##oneshotpreviewcallback": 7207,
      "answer": 7208,
      "filecleaningtracker": 7209,
      "'k": 7210,
      "']": 7211,
      "90": 7212,
      "ai": 7213,
      "cf": 7214,
      "cart": 7215,
      "camelcontext": 7216,
      "carbon": 7217,
      "dm": 7218,
      "dri": 7219,
      "dof": 7220,
      "dow": 7221,
      "einstance": 7222,
      "fsource": 7223,
      "fatal": 7224,
      "gui": 7225,
      "github": 7226,
      "hbas": 7227,
      "kafk": 7228,
      "late": 7229,
      "lazy": 7230,
      "l2g": 7231,
      "may": 7232,
      "mlog": 7233,
      "mmin": 7234,
      "mmarkers": 7235,
      "norm": 7236,
      "overrid": 7237,
      "sid": 7238,
      "sig": 7239,
      "sun": 7240,
      "slice": 7241,
      "t5": 7242,
      "tbase": 7243,
      "uuser": 7244,
      "wildcard": 7245,
      "zone": 7246,
      "##cope": 7247,
      "##atings": 7248,
      "##audit": 7249,
      "##nested": 7250,
      "##bability": 7251,
      "##vec": 7252,
      "##_factory": 7253,
      "##_order": 7254,
      "##_source": 7255,
      "##_suffix": 7256,
      "##2f": 7257,
      "##23": 7258,
      "##55": 7259,
      "##invalid": 7260,
      "##urlexception": 7261,
      "##ored": 7262,
      "arg11": 7263,
      "##analyzer": 7264,
      "getstream": 7265,
      "gettr": 7266,
      "getfactory": 7267,
      "getvalues": 7268,
      "getjson": 7269,
      "##ula": 7270,
      "##stringbuilder": 7271,
      "##arrangement": 7272,
      "##enable": 7273,
      "##enforcer": 7274,
      "##dence": 7275,
      "##deleg": 7276,
      "##serve": 7277,
      "##apon": 7278,
      "initi": 7279,
      "##oute": 7280,
      "##edimage": 7281,
      "repo": 7282,
      "setkey": 7283,
      "setout": 7284,
      "setrequest": 7285,
      "##than": 7286,
      "##texp": 7287,
      "objecttype": 7288,
      "##pport": 7289,
      "comma": 7290,
      "##prox": 7291,
      "##profiles": 7292,
      "##ouri": 7293,
      "isinfo": 7294,
      "issp": 7295,
      "##ersrequest": 7296,
      "filestatus": 7297,
      "colum": 7298,
      "##escount": 7299,
      "##keyvalue": 7300,
      "##dexecutor": 7301,
      "creat": 7302,
      "##fake": 7303,
      "m_id": 7304,
      "m_read": 7305,
      "valueenforcer": 7306,
      "remover": 7307,
      "##comm": 7308,
      "charsets": 7309,
      "idle": 7310,
      "##interfaces": 7311,
      "##tokentype": 7312,
      "##suser": 7313,
      "##sugges": 7314,
      "##subui": 7315,
      "data_": 7316,
      "##attached": 7317,
      "containing": 7318,
      "nextlong": 7319,
      "ordering": 7320,
      "##imednode": 7321,
      "0x0000": 7322,
      "##heel": 7323,
      "factories": 7324,
      "status_": 7325,
      "analy": 7326,
      "##datasource": 7327,
      "disabled": 7328,
      "messageid": 7329,
      "quer": 7330,
      "recla": 7331,
      "elementcount": 7332,
      "tagname": 7333,
      "##beanfactory": 7334,
      "getpassword": 7335,
      "findone": 7336,
      "##authenticator": 7337,
      "##pended": 7338,
      "##ogn": 7339,
      "contentlength": 7340,
      "listen": 7341,
      "listiterator": 7342,
      "##riction": 7343,
      "ami": 7344,
      "##matches": 7345,
      "##grp": 7346,
      "##gran": 7347,
      "##testart": 7348,
      "propertyeditor": 7349,
      "##titems": 7350,
      "getmain": 7351,
      "groupid": 7352,
      "targeted": 7353,
      "bufferedoutputstream": 7354,
      "##messagelite": 7355,
      "binder": 7356,
      "getinternal": 7357,
      "motion": 7358,
      "pdaction": 7359,
      "queues": 7360,
      "##idence": 7361,
      "auto": 7362,
      "##sender": 7363,
      "generatorutils": 7364,
      "getfloat": 7365,
      "patterns": 7366,
      "treemap": 7367,
      "popstate": 7368,
      "pushstate": 7369,
      "2.0f": 7370,
      "fillgradient": 7371,
      "background": 7372,
      "sparse": 7373,
      "tabindex": 7374,
      "##remove": 7375,
      "highlow": 7376,
      "##memberrequest": 7377,
      "##eregistration": 7378,
      "v201502": 7379,
      "retain": 7380,
      "emailaddress": 7381,
      "genf": 7382,
      "statusenum": 7383,
      "requested": 7384,
      "mcurrentsize": 7385,
      "escap": 7386,
      "severity_info": 7387,
      "_shoppingitemprice": 7388,
      "chatstate": 7389,
      "equalto": 7390,
      "quotestart": 7391,
      "rotation": 7392,
      "planes": 7393,
      "##seqholder": 7394,
      "##ipping": 7395,
      "getdeclaring": 7396,
      "saslserver": 7397,
      "##dimensions": 7398,
      "##tinterval": 7399,
      "##achangegroup": 7400,
      "presentation": 7401,
      "observers": 7402,
      "pasteaction": 7403,
      "jniget": 7404,
      "console": 7405,
      "underlying": 7406,
      "##byprimarykey": 7407,
      "##_server_error": 7408,
      "doubletolong": 7409,
      "usergroupinformation": 7410,
      "continuous": 7411,
      "##tifier": 7412,
      "epoll": 7413,
      "instanti": 7414,
      "datagr": 7415,
      "createemptyproject": 7416,
      "whiteboxpluginhost": 7417,
      "_orglabor": 7418,
      "malformedurlexception": 7419,
      "##messagedialog": 7420,
      "uhh": 7421,
      "zookeeper": 7422,
      "'k'": 7423,
      "']'": 7424,
      "fsourceviewer": 7425,
      "isinfoenabled": 7426,
      "##subuivisibility": 7427,
      "##imednodepointer": 7428,
      "reclaimednodepointer": 7429,
      "'}": 7430,
      "age": 7431,
      "bid": 7432,
      "blu": 7433,
      "cmemory": 7434,
      "clusters": 7435,
      "hss": 7436,
      "hold": 7437,
      "hazelcastinstance": 7438,
      "jcomponent": 7439,
      "jbos": 7440,
      "mr": 7441,
      "mre": 7442,
      "mim": 7443,
      "mtest": 7444,
      "mix": 7445,
      "mypro": 7446,
      "omelement": 7447,
      "pooled": 7448,
      "sent": 7449,
      "sources": 7450,
      "safe": 7451,
      "tup": 7452,
      "tls": 7453,
      "veh": 7454,
      "was": 7455,
      "xid": 7456,
      "##sw": 7457,
      "##sig": 7458,
      "##seconds": 7459,
      "##cn": 7460,
      "##eference": 7461,
      "##lys": 7462,
      "##fro": 7463,
      "##family": 7464,
      "##rati": 7465,
      "##rpc": 7466,
      "##xtext": 7467,
      "##pconsumer": 7468,
      "##big": 7469,
      "##bootstrap": 7470,
      "##_ex": 7471,
      "##_pre": 7472,
      "##_parent": 7473,
      "##_timeout": 7474,
      "##_ok": 7475,
      "##75": 7476,
      "##ones": 7477,
      "##tinc": 7478,
      "returnvalue": 7479,
      "##tencoding": 7480,
      "##identifi": 7481,
      "##orversion": 7482,
      "getz": 7483,
      "getres": 7484,
      "getformat": 7485,
      "getoffset": 7486,
      "getprotocol": 7487,
      "getwindow": 7488,
      "getbyname": 7489,
      "intlist": 7490,
      "newdocument": 7491,
      "##stable": 7492,
      "##stos": 7493,
      "##stub": 7494,
      "##sex": 7495,
      "##asur": 7496,
      "##ood": 7497,
      "##blems": 7498,
      "##agic": 7499,
      "inher": 7500,
      "##edescription": 7501,
      "##ayload": 7502,
      "setdescription": 7503,
      "##izations": 7504,
      "##ongenerator": 7505,
      "objectutils": 7506,
      "adgroup": 7507,
      "##tems": 7508,
      "##estream": 7509,
      "addlistener": 7510,
      "addholder": 7511,
      "classutils": 7512,
      "doubles": 7513,
      "##endian": 7514,
      "##tinstanc": 7515,
      "ish": 7516,
      "ism": 7517,
      "##ersection": 7518,
      "dep": 7519,
      "buil": 7520,
      "arraytype": 7521,
      "mappolygon": 7522,
      "prox": 7523,
      "##escal": 7524,
      "##escale": 7525,
      "##ponen": 7526,
      "getcoordinate": 7527,
      "##life": 7528,
      "m_c": 7529,
      "shap": 7530,
      "hashutilities": 7531,
      "##managerfactory": 7532,
      "english": 7533,
      "readchar": 7534,
      "typeconverter": 7535,
      "where": 7536,
      "##queu": 7537,
      "##queues": 7538,
      "currentx": 7539,
      "currentnode": 7540,
      "jsonnode": 7541,
      "subtract": 7542,
      "scrol": 7543,
      "itemview": 7544,
      "getssl": 7545,
      "fitestutil": 7546,
      "indexshard": 7547,
      "alg": 7548,
      "isex": 7549,
      "filetype": 7550,
      "datapoint": 7551,
      "quit": 7552,
      "entrykind": 7553,
      "requestcode": 7554,
      "leaf": 7555,
      "notempty": 7556,
      "generation": 7557,
      "##authhandler": 7558,
      "##loading": 7559,
      "contentvalues": 7560,
      "enddate": 7561,
      "getdetails": 7562,
      "vertx": 7563,
      "methodparameter": 7564,
      "tablename": 7565,
      "streamposition": 7566,
      "##_codes": 7567,
      "randomuuid": 7568,
      "getexecution": 7569,
      "openstream": 7570,
      "jobconf": 7571,
      "levels": 7572,
      "##checked": 7573,
      "##checkout": 7574,
      "##rediction": 7575,
      "gram": 7576,
      "showmessagedialog": 7577,
      "expressionfactory": 7578,
      "##numeric": 7579,
      "matcherassert": 7580,
      "cancelable": 7581,
      "all_": 7582,
      "offsets": 7583,
      "##lesecret": 7584,
      "diagnostic": 7585,
      "##protocolpnames": 7586,
      "selectedpanel": 7587,
      "assertions": 7588,
      "linestring": 7589,
      "coreprotocolpnames": 7590,
      "msisdn": 7591,
      "syntax": 7592,
      "executors": 7593,
      "##volum": 7594,
      "filldefaults": 7595,
      "##planations": 7596,
      "fsm": 7597,
      "fault": 7598,
      "##deventattributes": 7599,
      "packagemanager": 7600,
      "indices": 7601,
      "_kaleocondition": 7602,
      "allocated": 7603,
      "_shoppingcart": 7604,
      "removedpositions": 7605,
      "deroutputstream": 7606,
      "getschema": 7607,
      "##varint": 7608,
      "getsubject": 7609,
      "decimaltype": 7610,
      "##initializedmessageexception": 7611,
      "menuview": 7612,
      "##256": 7613,
      "intersection": 7614,
      "_kehoachvesinh": 7615,
      "resolvabletype": 7616,
      "##unnable": 7617,
      "retrieve": 7618,
      "getdictionaryobject": 7619,
      "getexpressionfactory": 7620,
      "##ilationunit": 7621,
      "##announcementsflag": 7622,
      "##sibling": 7623,
      "##preter": 7624,
      "simplehistogram": 7625,
      "jenk": 7626,
      "##cussion": 7627,
      "amiactive": 7628,
      "getdeclaringclass": 7629,
      "doubletolongbits": 7630,
      "'}'": 7631,
      "cmemoryimpl": 7632,
      "vehic": 7633,
      "filldefaultsinternal": 7634,
      "'-": 7635,
      "',": 7636,
      "_is": 7637,
      "_name": 7638,
      "_list": 7639,
      "_lock": 7640,
      "_port": 7641,
      "_status": 7642,
      "_layoutbranch": 7643,
      "_my": 7644,
      "_meetupsentry": 7645,
      "_emailaddress": 7646,
      "aver": 7647,
      "bi": 7648,
      "dst": 7649,
      "desc": 7650,
      "ev": 7651,
      "evolution": 7652,
      "fmap": 7653,
      "globals": 7654,
      "hard": 7655,
      "ipath": 7656,
      "jvm": 7657,
      "jfre": 7658,
      "lon": 7659,
      "lim": 7660,
      "lamb": 7661,
      "mvalue": 7662,
      "must": 7663,
      "pt": 7664,
      "pin": 7665,
      "snapsh": 7666,
      "saniti": 7667,
      "sfsb": 7668,
      "t6": 7669,
      "ubyte": 7670,
      "water": 7671,
      "##coder": 7672,
      "##circ": 7673,
      "##criterion": 7674,
      "##tet": 7675,
      "##tax": 7676,
      "##han": 7677,
      "##equal": 7678,
      "##ning": 7679,
      "##dot": 7680,
      "##found": 7681,
      "##ru": 7682,
      "##ranges": 7683,
      "##kiemdem": 7684,
      "##bi": 7685,
      "##voc": 7686,
      "##_8": 7687,
      "##_null": 7688,
      "##_base": 7689,
      "##_enabled": 7690,
      "##_flag": 7691,
      "##jir": 7692,
      "##etector": 7693,
      "##etree": 7694,
      "##least": 7695,
      "##alloc": 7696,
      "##alled": 7697,
      "##allocator": 7698,
      "##essed": 7699,
      "##ormat": 7700,
      "getsp": 7701,
      "getoutputstream": 7702,
      "gethttp": 7703,
      "gettop": 7704,
      "getapp": 7705,
      "getright": 7706,
      "getrespons": 7707,
      "##ato": 7708,
      "##rements": 7709,
      "##seud": 7710,
      "##accept": 7711,
      "##ittle": 7712,
      "##ommand": 7713,
      "insets": 7714,
      "inverse": 7715,
      "instrumentation": 7716,
      "##choice": 7717,
      "##illi": 7718,
      "##edate": 7719,
      "train": 7720,
      "##butils": 7721,
      "##conver": 7722,
      "##conversion": 7723,
      "replay": 7724,
      "repositor": 7725,
      "concept": 7726,
      "##textension": 7727,
      "##texecution": 7728,
      "##ingle": 7729,
      "##ingkey": 7730,
      "##avers": 7731,
      "addresstype": 7732,
      "throwing": 7733,
      "aspect": 7734,
      "bytevector": 7735,
      "expanded": 7736,
      "log4j": 7737,
      "classnode": 7738,
      "##ttable": 7739,
      "iso": 7740,
      "##otransition": 7741,
      "##until": 7742,
      "##allayer": 7743,
      "##ponentid": 7744,
      "##lementation": 7745,
      "getcl": 7746,
      "##factid": 7747,
      "##material": 7748,
      "act": 7749,
      "##dial": 7750,
      "##intf": 7751,
      "##fileentry": 7752,
      "##filefilter": 7753,
      "putshort": 7754,
      "m_is": 7755,
      "m_first": 7756,
      "outfile": 7757,
      "##resultrequestcode": 7758,
      "sheet": 7759,
      "##ributed": 7760,
      "##iterable": 7761,
      "collectionutils": 7762,
      "##ithme": 7763,
      "##actionpair": 7764,
      "readstream": 7765,
      "writestream": 7766,
      "userbuf": 7767,
      "##redund": 7768,
      "defaultcase": 7769,
      "##tids": 7770,
      "##classifier": 7771,
      "##quences": 7772,
      "currenty": 7773,
      "currentstate": 7774,
      "currentstyle": 7775,
      "jsonpath": 7776,
      "##orefeatur": 7777,
      "sc_default": 7778,
      "##itemrenderer": 7779,
      "##fieldtype": 7780,
      "diallayer": 7781,
      "##datap": 7782,
      "##xytooltipgenerator": 7783,
      "##espac": 7784,
      "connectionrequestinfo": 7785,
      "cloudfrontoriginaccessidentity": 7786,
      "##methodtype": 7787,
      "eventlog": 7788,
      "eventhandler": 7789,
      "resourceid": 7790,
      "getpresent": 7791,
      "viewer": 7792,
      "##ustome": 7793,
      "decl": 7794,
      "decor": 7795,
      "emptyset": 7796,
      "##tingsstats": 7797,
      "simpleselector": 7798,
      "tokenstream": 7799,
      "material": 7800,
      "##startdate": 7801,
      "version_codes": 7802,
      "comparison": 7803,
      "##submit": 7804,
      "initcause": 7805,
      "commands": 7806,
      "memintf": 7807,
      "bufsize": 7808,
      "##parameterspec": 7809,
      "activityresultrequestcode": 7810,
      "##qualified": 7811,
      "##ioexception": 7812,
      "multimap": 7813,
      "##lipse": 7814,
      "ofy": 7815,
      "##singleton": 7816,
      "servletrequest": 7817,
      "alltimezonelist": 7818,
      "accessibility": 7819,
      "getcontentlength": 7820,
      "##support_": 7821,
      "##returntype": 7822,
      "servicecontext": 7823,
      "servicecomponent": 7824,
      "coreconnection": 7825,
      "sym": 7826,
      "mcf": 7827,
      "javas": 7828,
      "cachecontrol": 7829,
      "manifest": 7830,
      "protocolversion": 7831,
      "##_initial": 7832,
      "flag_": 7833,
      "clusterstate": 7834,
      "awt": 7835,
      "svn": 7836,
      "imaged": 7837,
      "cachedobject": 7838,
      "insert_streamable": 7839,
      "##yproperty": 7840,
      "getitems": 7841,
      "icordov": 7842,
      "icorefeatur": 7843,
      "tickunits": 7844,
      "credit": 7845,
      "##postprocessor": 7846,
      "##launcher": 7847,
      "##temptid": 7848,
      "storagelevel": 7849,
      "writablenative": 7850,
      "gettargetproject": 7851,
      "_journal": 7852,
      "##aggregator": 7853,
      "##enticated": 7854,
      "logintimeout": 7855,
      "##transformer": 7856,
      "##ethread": 7857,
      "##wrapped": 7858,
      "##daemon": 7859,
      "triple": 7860,
      "incrementandget": 7861,
      "sequencenumber": 7862,
      "twitter": 7863,
      "tomillis": 7864,
      "extendedentitymanager": 7865,
      "##resourcetype": 7866,
      "swingworker": 7867,
      "##pixel": 7868,
      "##todate": 7869,
      "resizearray": 7870,
      "##renderinginfo": 7871,
      "atomiclong": 7872,
      "tls_mode_compatible": 7873,
      "shufflesecret": 7874,
      "write_long": 7875,
      "zero": 7876,
      "keepalive": 7877,
      "##recursive": 7878,
      "jaxbcontext": 7879,
      "balance": 7880,
      "##adjust": 7881,
      "##samples": 7882,
      "reservedinstances": 7883,
      "accumulator": 7884,
      "outlet_feature_target_folder": 7885,
      "urisyntaxexception": 7886,
      "##queries": 7887,
      "connectivity": 7888,
      "istraceenabled": 7889,
      "subsubcategory": 7890,
      "styledtextxtext": 7891,
      "jj_": 7892,
      "fldfilter": 7893,
      "isnotblank": 7894,
      "hssf": 7895,
      "grammar": 7896,
      "cancelableprint": 7897,
      "'-'": 7898,
      "','": 7899,
      "jfreechart": 7900,
      "coreconnectionpnames": 7901,
      "icorefeatureconstants": 7902,
      "shufflesecretmap": 7903,
      "styledtextxtextadapter": 7904,
      "150": 7905,
      "23": 7906,
      "_usergroup": 7907,
      "_membershiprequest": 7908,
      "_memberrequest": 7909,
      "bank": 7910,
      "bbuf": 7911,
      "bridge": 7912,
      "ce": 7913,
      "cn": 7914,
      "cmp": 7915,
      "calc": 7916,
      "clipboard": 7917,
      "dor": 7918,
      "dro": 7919,
      "eq": 7920,
      "fron": 7921,
      "grow": 7922,
      "iaction": 7923,
      "iwork": 7924,
      "jmx": 7925,
      "k2": 7926,
      "most": 7927,
      "mmatrix": 7928,
      "mbitmap": 7929,
      "nom": 7930,
      "p2": 7931,
      "pol": 7932,
      "ro": 7933,
      "rm": 7934,
      "roo": 7935,
      "slevel": 7936,
      "ten": 7937,
      "tditems": 7938,
      "##coordin": 7939,
      "##cret": 7940,
      "##ah": 7941,
      "##afer": 7942,
      "##aff": 7943,
      "##ufact": 7944,
      "##hider": 7945,
      "##eper": 7946,
      "##earch": 7947,
      "##oic": 7948,
      "##large": 7949,
      "##fall": 7950,
      "##mpl": 7951,
      "##gu": 7952,
      "##ynce": 7953,
      "##wt": 7954,
      "##wise": 7955,
      "##bot": 7956,
      "##between": 7957,
      "##vation": 7958,
      "##veto": 7959,
      "##_event": 7960,
      "##_group": 7961,
      "##_style": 7962,
      "##_comparator": 7963,
      "##jdbc": 7964,
      "##instant": 7965,
      "##ette": 7966,
      "##etaddress": 7967,
      "##etooth": 7968,
      "locals": 7969,
      "##erance": 7970,
      "##erenderer": 7971,
      "##uricomponent": 7972,
      "##tence": 7973,
      "##lef": 7974,
      "##lear": 7975,
      "##less": 7976,
      "##allocation": 7977,
      "##anew": 7978,
      "##analysis": 7979,
      "get_": 7980,
      "getread": 7981,
      "getstack": 7982,
      "getparameters": 7983,
      "getlower": 7984,
      "getservic": 7985,
      "##atalog": 7986,
      "##ulator": 7987,
      "##review": 7988,
      "##ecurrent": 7989,
      "##stock": 7990,
      "##cedence": 7991,
      "##enames": 7992,
      "##itation": 7993,
      "##riend": 7994,
      "##chema": 7995,
      "##outexception": 7996,
      "##elimit": 7997,
      "##lour": 7998,
      "trusted": 7999
    }
  }
}