{
  "version": "1.0",
  "truncation": null,
  "padding": null,
  "added_tokens": [
    {
      "id": 0,
      "content": "[PAD]",
      "single_word": false,
      "lstrip": false,
      "rstrip": false,
      "normalized": false,
      "special": true
    },
    {
      "id": 1,
      "content": "[UNK]",
      "single_word": false,
      "lstrip": false,
      "rstrip": false,
      "normalized": false,
      "special": true
    },
    {
      "id": 2,
      "content": "[CLS]",
      "single_word": false,
      "lstrip": false,
      "rstrip": false,
      "normalized": false,
      "special": true
    },
    {
      "id": 3,
      "content": "[SEP]",
      "single_word": false,
      "lstrip": false,
      "rstrip": false,
      "normalized": false,
      "special": true
    }
  ],
  "normalizer": {
    "type": "BertNormalizer",
    "clean_text": false,
    "handle_chinese_chars": true,
    "strip_accents": null,
    "lowercase": true
  },
  "pre_tokenizer": {
    "type": "WhitespaceSplit"
  },
  "post_processor": {
    "type": "BertProcessing",
    "sep": [
      "[CLS]",
      2
    ],
    "cls": [
      "[SEP]",
      3
    ]
  },
  "decoder": {
    "type": "WordPiece",
    "prefix": "##",
    "cleanup": true
  },
  "model": {
    "type": "WordPiece",
    "unk_token": "[UNK]",
    "continuing_subword_prefix": "##",
    "max_input_chars_per_word": 100,
    "vocab": {
      "[PAD]": 0,
      "[UNK]": 1,
      "[CLS]": 2,
      "[SEP]": 3,
      "\u0001": 4,
      "\u0005": 5,
      "\u0006": 6,
      "\u0007": 7,
      "!": 8,
      "\"": 9,
      "#": 10,
      "$": 11,
      "%": 12,
      "&": 13,
      "'": 14,
      "(": 15,
      ")": 16,
      "*": 17,
      "+": 18,
      ",": 19,
      "-": 20,
      ".": 21,
      "/": 22,
      "0": 23,
      "1": 24,
      "2": 25,
      "3": 26,
      "4": 27,
      "5": 28,
      "6": 29,
      "7": 30,
      "8": 31,
      "9": 32,
      ":": 33,
      ";": 34,
      "<": 35,
      "=": 36,
      ">": 37,
      "?": 38,
      "@": 39,
      "[": 40,
      "\\": 41,
      "]": 42,
      "^": 43,
      "_": 44,
      "`": 45,
      "a": 46,
      "b": 47,
      "c": 48,
      "d": 49,
      "e": 50,
      "f": 51,
      "g": 52,
      "h": 53,
      "i": 54,
      "j": 55,
      "k": 56,
      "l": 57,
      "m": 58,
      "n": 59,
      "o": 60,
      "p": 61,
      "q": 62,
      "r": 63,
      "s": 64,
      "t": 65,
      "u": 66,
      "v": 67,
      "w": 68,
      "x": 69,
      "y": 70,
      "z": 71,
      "{": 72,
      "|": 73,
      "}": 74,
      "~": 75,
      "ð": 76,
      "׋": 77,
      "の": 78,
      "上": 79,
      "分": 80,
      "数": 81,
      "点": 82,
      "線": 83,
      "##5": 84,
      "##0": 85,
      "##3": 86,
      "##.": 87,
      "##2": 88,
      "##f": 89,
      "##\\": 90,
      "##n": 91,
      "##d": 92,
      "##9": 93,
      "##%": 94,
      "##*": 95,
      "##7": 96,
      "##x": 97,
      "##e": 98,
      "##t": 99,
      "##i": 100,
      "##u": 101,
      "##m": 102,
      "##a": 103,
      "##+": 104,
      "##)": 105,
      "##l": 106,
      "##o": 107,
      "##w": 108,
      "##1": 109,
      "##6": 110,
      "##8": 111,
      "##4": 112,
      "##r": 113,
      "##s": 114,
      "##c": 115,
      "##b": 116,
      "##g": 117,
      "##k": 118,
      "##h": 119,
      "##-": 120,
      "##>": 121,
      "##]": 122,
      "##q": 123,
      "##p": 124,
      "##y": 125,
      "##;": 126,
      "##'": 127,
      "##/": 128,
      "##(": 129,
      "##\"": 130,
      "##,": 131,
      "##j": 132,
      "##~": 133,
      "##v": 134,
      "##z": 135,
      "##[": 136,
      "##^": 137,
      "##?": 138,
      "##_": 139,
      "##|": 140,
      "##$": 141,
      "##`": 142,
      "##:": 143,
      "##=": 144,
      "##!": 145,
      "##<": 146,
      "##&": 147,
      "###": 148,
      "##@": 149,
      "##{": 150,
      "##\u0001": 151,
      "##\u0006": 152,
      "##\u0007": 153,
      "##ð": 154,
      "##\u0005": 155,
      "id": 156,
      "id1": 157,
      "id2": 158,
      "id3": 159,
      "id4": 160,
      "##nt": 161,
      "id5": 162,
      "id0": 163,
      "int": 164,
      "id6": 165,
      "id7": 166,
      "id8": 167,
      "++": 168,
      "##\\n": 169,
      "id9": 170,
      "if": 171,
      "##or": 172,
      "for": 173,
      "id10": 174,
      "##et": 175,
      "##1\\n": 176,
      "##1\\n-": 177,
      "##1\\n-1\\n-": 178,
      "id11": 179,
      "##00": 180,
      "id15": 181,
      "id14": 182,
      "##rn": 183,
      "ret": 184,
      "##urn": 185,
      "return": 186,
      "id12": 187,
      "id16": 188,
      "id13": 189,
      "##on": 190,
      "id17": 191,
      "id18": 192,
      "##ong": 193,
      "long": 194,
      "%d": 195,
      "//": 196,
      "id19": 197,
      "id21": 198,
      "==": 199,
      "id20": 200,
      "##1\\n-1\\n-1\\n-1\\n-": 201,
      "id22": 202,
      "->": 203,
      "##le": 204,
      "##an": 205,
      "##de": 206,
      "id23": 207,
      "##can": 208,
      "##canf": 209,
      "scanf": 210,
      "id24": 211,
      "id26": 212,
      "##lu": 213,
      "id25": 214,
      "##nc": 215,
      "inc": 216,
      "##lude": 217,
      "include": 218,
      "id27": 219,
      "##int": 220,
      "pr": 221,
      "##intf": 222,
      "printf": 223,
      "##in": 224,
      "id31": 225,
      "id28": 226,
      "id30": 227,
      "id29": 228,
      "id32": 229,
      "<=": 230,
      "##oi": 231,
      "id33": 232,
      "voi": 233,
      "void": 234,
      "##se": 235,
      "##lse": 236,
      "else": 237,
      "##ha": 238,
      "&&": 239,
      "##hi": 240,
      "##har": 241,
      "whi": 242,
      "while": 243,
      "##ine": 244,
      "+=": 245,
      "de": 246,
      "def": 247,
      "define": 248,
      "##1\\n-1\\n-1\\n-1\\n-1\\n-1\\n-1\\n-1\\n-": 249,
      "id35": 250,
      "id37": 251,
      "--": 252,
      "##0000": 253,
      "char": 254,
      "id36": 255,
      "id34": 256,
      "do": 257,
      "##%d": 258,
      "id38": 259,
      "##ble": 260,
      "id39": 261,
      "id53": 262,
      "10": 263,
      "##ll": 264,
      "##uble": 265,
      "double": 266,
      "id40": 267,
      ">=": 268,
      "si": 269,
      "<<": 270,
      "##of": 271,
      "##ze": 272,
      "size": 273,
      "sizeof": 274,
      "id41": 275,
      "st": 276,
      "id42": 277,
      "id43": 278,
      "id49": 279,
      "id44": 280,
      "!=": 281,
      "str": 282,
      "id50": 283,
      "##st": 284,
      "##10": 285,
      "id48": 286,
      "con": 287,
      "const": 288,
      "%d\\n": 289,
      "id58": 290,
      "id55": 291,
      "id47": 292,
      "id52": 293,
      "##1\\n-1\\n-1\\n-1\\n-1\\n-1\\n-1\\n-1\\n-1\\n-1\\n-1\\n-1\\n-1\\n-1\\n-1\\n-1\\n-": 294,
      "id56": 295,
      "100": 296,
      "id46": 297,
      "id54": 298,
      "||": 299,
      "id45": 300,
      "%d%d": 301,
      "##lld": 302,
      "id60": 303,
      "##ut": 304,
      "id51": 305,
      "put": 306,
      "##def": 307,
      "##re": 308,
      "##pe": 309,
      "##ype": 310,
      "type": 311,
      "typedef": 312,
      "##ct": 313,
      "%lld": 314,
      "##uct": 315,
      "struct": 316,
      "10000": 317,
      "id63": 318,
      "##em": 319,
      "mem": 320,
      "id59": 321,
      "##ak": 322,
      "bre": 323,
      "break": 324,
      "id57": 325,
      "id61": 326,
      "co": 327,
      "puts": 328,
      "id67": 329,
      "##ue": 330,
      "##ntin": 331,
      "contin": 332,
      "continue": 333,
      "##oc": 334,
      "##all": 335,
      "##alloc": 336,
      "##010": 337,
      "id89": 338,
      "id62": 339,
      "##set": 340,
      "memset": 341,
      "-=": 342,
      "id65": 343,
      "##1\\n-1\\n-1\\n-1\\n-1\\n-1\\n-1\\n-1\\n-1\\n-1\\n-1\\n-1\\n-1\\n-1\\n-1\\n-1\\n-1\\n-1\\n-1\\n-1\\n-1\\n-1\\n-1\\n-1\\n-1\\n-1\\n-1\\n-1\\n-1\\n-1\\n-1\\n-1\\n-": 344,
      "0x": 345,
      "id77": 346,
      "id82": 347,
      "id76": 348,
      "%s": 349,
      "id69": 350,
      "malloc": 351,
      "##ort": 352,
      ">>": 353,
      "id68": 354,
      "id85": 355,
      "id66": 356,
      "id72": 357,
      "id64": 358,
      "id90": 359,
      "id79": 360,
      "qs": 361,
      "id70": 362,
      "qsort": 363,
      "*=": 364,
      "id91": 365,
      "%l": 366,
      "%d%d%d": 367,
      "##char": 368,
      "100010": 369,
      "id80": 370,
      "0xf": 371,
      "20": 372,
      "%lld\\n": 373,
      "##ets": 374,
      "id78": 375,
      "id84": 376,
      "##mp": 377,
      "1e": 378,
      "##99": 379,
      "200": 380,
      "id92": 381,
      "strc": 382,
      "id74": 383,
      "*/": 384,
      "/*": 385,
      "id116": 386,
      "##bs": 387,
      "id103": 388,
      "##1\\n-1\\n-1\\n-1\\n-1\\n-1\\n-1\\n-1\\n-1\\n-1\\n-1\\n-1\\n-1\\n-1\\n-1\\n-1\\n-1\\n-1\\n-1\\n-1\\n-1\\n-1\\n-1\\n-1\\n-1\\n-1\\n-1\\n-1\\n-1\\n-1\\n-1\\n-1\\n-1\\n-1\\n-1\\n-1\\n-1\\n-1\\n-1\\n-1\\n-1\\n-1\\n-1\\n-1\\n-1\\n-1\\n-1\\n-1\\n-1\\n-1\\n-1\\n-1\\n-1\\n-1\\n-1\\n-1\\n-1\\n-1\\n-1\\n-1\\n-1\\n-1\\n-1\\n-1\\n-": 389,
      "20000": 390,
      "id71": 391,
      "id88": 392,
      "%=": 393,
      "no": 394,
      "id83": 395,
      "12": 396,
      "id87": 397,
      "\\n": 398,
      "id108": 399,
      "##es": 400,
      "id148": 401,
      "strcmp": 402,
      "fg": 403,
      "id73": 404,
      "fgets": 405,
      "yes": 406,
      "id81": 407,
      "id97": 408,
      "##it": 409,
      "%ld": 410,
      "100000000": 411,
      "##%lld": 412,
      "30": 413,
      "##24": 414,
      "1000": 415,
      "##ff": 416,
      "50": 417,
      "11": 418,
      "id75": 419,
      "id115": 420,
      "##lf": 421,
      "##di": 422,
      "putchar": 423,
      "##at": 424,
      "id98": 425,
      "16": 426,
      "##ed": 427,
      "id109": 428,
      "id93": 429,
      "id105": 430,
      "%.": 431,
      "##py": 432,
      "##000": 433,
      "id155": 434,
      "##ned": 435,
      "##si": 436,
      "^=": 437,
      "##gned": 438,
      "32": 439,
      "##len": 440,
      "strlen": 441,
      "get": 442,
      "getchar": 443,
      "en": 444,
      "id107": 445,
      "ex": 446,
      "id150": 447,
      "|=": 448,
      "memc": 449,
      "id96": 450,
      "##dif": 451,
      "endif": 452,
      "id141": 453,
      "99": 454,
      "exit": 455,
      "fa": 456,
      "un": 457,
      "id86": 458,
      "101": 459,
      "id104": 460,
      "id110": 461,
      "calloc": 462,
      "id159": 463,
      "id113": 464,
      "id153": 465,
      "id146": 466,
      "15": 467,
      "25": 468,
      "abs": 469,
      "fabs": 470,
      "id151": 471,
      "##1\\n-1\\n-1\\n-1\\n-1\\n-1\\n-1\\n-1\\n-1\\n-1\\n-1\\n-1\\n-1\\n-1\\n-1\\n-1\\n-1\\n-1\\n-1\\n-1\\n-1\\n-1\\n-1\\n-1\\n-1\\n-1\\n-1\\n-1\\n-1\\n-1\\n-1\\n-1\\n-1\\n-1\\n-1\\n-1\\n-1\\n-1\\n-1\\n-1\\n-1\\n-1\\n-1\\n-1\\n-1\\n-1\\n-1\\n-1\\n-1\\n-1\\n-1\\n-1\\n-1\\n-1\\n-1\\n-1\\n-1\\n-1\\n-1\\n-1\\n-1\\n-1\\n-1\\n-1\\n-1\\n-1\\n-1\\n-1\\n-1\\n-1\\n-1\\n-1\\n-1\\n-1\\n-1\\n-1\\n-1\\n-1\\n-1\\n-1\\n-1\\n-1\\n-1\\n-1\\n-1\\n-1\\n-1\\n-1\\n-1\\n-1\\n-1\\n-1\\n-1\\n-1\\n-1\\n-1\\n-1\\n-1\\n-1\\n-1\\n-1\\n-1\\n-1\\n-1\\n-1\\n-1\\n-1\\n-1\\n-1\\n-1\\n-1\\n-1\\n-1\\n-1\\n-1\\n-1\\n-1\\n-1\\n-1\\n-1\\n-1\\n-1\\n-1\\n-1\\n-1\\n-1\\n-1\\n-1\\n-": 472,
      "##53": 473,
      "1000000007": 474,
      "##43": 475,
      "id142": 476,
      "40": 477,
      "id95": 478,
      "id149": 479,
      "26": 480,
      "id144": 481,
      "id160": 482,
      "1e9": 483,
      "13": 484,
      "memcpy": 485,
      "##signed": 486,
      "unsigned": 487,
      "##14": 488,
      "##%d%d": 489,
      "200010": 490,
      "id167": 491,
      "##ow": 492,
      "id112": 493,
      "110": 494,
      "51": 495,
      "%lld%lld": 496,
      "100000": 497,
      "60": 498,
      "##ati": 499,
      "id94": 500,
      "##ree": 501,
      "##to": 502,
      "id140": 503,
      "102": 504,
      "1010": 505,
      "free": 506,
      "##%s": 507,
      "999": 508,
      "17": 509,
      "ca": 510,
      "id145": 511,
      "100001": 512,
      "go": 513,
      "pow": 514,
      "id122": 515,
      "case": 516,
      "id114": 517,
      "goto": 518,
      "##%lf": 519,
      "id106": 520,
      "300": 521,
      "500": 522,
      "##f\\n": 523,
      "gets": 524,
      "##rt": 525,
      "id147": 526,
      "id119": 527,
      "##sh": 528,
      "id99": 529,
      "sq": 530,
      "##.0": 531,
      "##15": 532,
      "stati": 533,
      "sqrt": 534,
      "static": 535,
      "id100": 536,
      "id157": 537,
      "ff": 538,
      "##88": 539,
      "##lush": 540,
      "fflush": 541,
      "31": 542,
      "##55": 543,
      "id163": 544,
      "sh": 545,
      "##33": 546,
      "id123": 547,
      "id125": 548,
      "id127": 549,
      "1001": 550,
      "short": 551,
      "id111": 552,
      "id152": 553,
      "%d%d%d%d": 554,
      "id172": 555,
      "105": 556,
      "22": 557,
      "##*d": 558,
      "%c": 559,
      "##288": 560,
      "id120": 561,
      "id175": 562,
      "##1010": 563,
      "18": 564,
      "524": 565,
      "##19": 566,
      "100005": 567,
      "##%l": 568,
      "id156": 569,
      "%lf": 570,
      "524288": 571,
      "21": 572,
      "at": 573,
      "id143": 574,
      "##79": 575,
      "id117": 576,
      "##lf\\n": 577,
      "is": 578,
      "id162": 579,
      "1e-": 580,
      "48": 581,
      "##23": 582,
      "id158": 583,
      "id161": 584,
      "200001": 585,
      "##26": 586,
      ">>=": 587,
      "##1\\n-1\\n-1\\n-1\\n-1\\n-1\\n-1\\n-1\\n-1\\n-1\\n-1\\n-1\\n-1\\n-1\\n-1\\n-1\\n-1\\n-1\\n-1\\n-1\\n-1\\n-1\\n-1\\n-1\\n-1\\n-1\\n-1\\n-1\\n-1\\n-1\\n-1\\n-1\\n-1\\n-1\\n-1\\n-1\\n-1\\n-1\\n-1\\n-1\\n-1\\n-1\\n-1\\n-1\\n-1\\n-1\\n-1\\n-1\\n-1\\n-1\\n-1\\n-1\\n-1\\n-1\\n-1\\n-1\\n-1\\n-1\\n-1\\n-1\\n-1\\n-1\\n-1\\n-1\\n-1\\n-1\\n-1\\n-1\\n-1\\n-1\\n-1\\n-1\\n-1\\n-1\\n-1\\n-1\\n-1\\n-1\\n-1\\n-1\\n-1\\n-1\\n-1\\n-1\\n-1\\n-1\\n-1\\n-1\\n-1\\n-1\\n-1\\n-1\\n-1\\n-1\\n-1\\n-1\\n-1\\n-1\\n-1\\n-1\\n-1\\n-1\\n-1\\n-1\\n-1\\n-1\\n-1\\n-1\\n-1\\n-1\\n-1\\n-1\\n-1\\n-1\\n-1\\n-1\\n-1\\n-1\\n-1\\n-1\\n-1\\n-1\\n-1\\n-1\\n-1\\n-1\\n-1\\n-1\\n-1\\n-1\\n-1\\n-1\\n-1\\n-1\\n-1\\n-1\\n-1\\n-1\\n-1\\n-1\\n-1\\n-1\\n-1\\n-1\\n-1\\n-1\\n-1\\n-1\\n-1\\n-1\\n-1\\n-1\\n-1\\n-1\\n-1\\n-1\\n-1\\n-1\\n-1\\n-1\\n-1\\n-1\\n-1\\n-1\\n-1\\n-1\\n-1\\n-1\\n-1\\n-1\\n-1\\n-1\\n-1\\n-1\\n-1\\n-1\\n-1\\n-1\\n-1\\n-1\\n-1\\n-1\\n-1\\n-1\\n-1\\n-1\\n-1\\n-1\\n-1\\n-1\\n-1\\n-1\\n-1\\n-1\\n-1\\n-1\\n-1\\n-1\\n-1\\n-1\\n-1\\n-1\\n-1\\n-1\\n-1\\n-1\\n-1\\n-1\\n-1\\n-1\\n-1\\n-1\\n-1\\n-1\\n-1\\n-1\\n-1\\n-1\\n-1\\n-1\\n-1\\n-1\\n-1\\n-1\\n-1\\n-1\\n-1\\n-1\\n-1\\n-1\\n-1\\n-1\\n-1\\n-1\\n-1\\n-1\\n-1\\n-1\\n-1\\n-1\\n-1\\n-1\\n-1\\n-1\\n-1\\n-1\\n-1\\n-1\\n-1\\n-1\\n-1\\n-1\\n-1\\n-1\\n-1\\n-1\\n-": 588,
      "id118": 589,
      "1002": 590,
      "id137": 591,
      "##%ld": 592,
      "id168": 593,
      "id134": 594,
      "200000000": 595,
      "100002": 596,
      "52": 597,
      "##48": 598,
      "##ffff": 599,
      "53": 600,
      "30000": 601,
      "##76": 602,
      "id164": 603,
      "998": 604,
      "14": 605,
      "id102": 606,
      "id136": 607,
      "##os": 608,
      "id138": 609,
      "%*d": 610,
      "-1": 611,
      "##18": 612,
      "id126": 613,
      "27": 614,
      "id174": 615,
      "64": 616,
      "##er": 617,
      "##89": 618,
      "1000000": 619,
      "##2443": 620,
      "atoi": 621,
      "9982443": 622,
      "998244353": 623,
      "##84": 624,
      "id121": 625,
      "1024": 626,
      "##lo": 627,
      "200000": 628,
      "id129": 629,
      "id101": 630,
      "2000": 631,
      "400": 632,
      "<<=": 633,
      "41": 634,
      "%s\\n": 635,
      "24": 636,
      "36": 637,
      "##..": 638,
      "##me": 639,
      "id165": 640,
      "%d%": 641,
      "##50": 642,
      "##1415": 643,
      "##%lf%lf": 644,
      "##14159": 645,
      "3.": 646,
      "sin": 647,
      "##and": 648,
      "0.": 649,
      "19": 650,
      "line": 651,
      "id133": 652,
      "id132": 653,
      "##1415926": 654,
      "flo": 655,
      "##20": 656,
      "3.1415926": 657,
      "ifdef": 658,
      "id128": 659,
      "id139": 660,
      "cos": 661,
      "%llu": 662,
      "256": 663,
      "##535": 664,
      "5000": 665,
      "##0f": 666,
      "##64": 667,
      "3.1415926535": 668,
      "##30": 669,
      "##323": 670,
      "3.141592653589": 671,
      "##3f": 672,
      "strcpy": 673,
      "128": 674,
      "3.14159265358979": 675,
      "id124": 676,
      "signed": 677,
      "%ld\\n": 678,
      "##sible": 679,
      "%lld%lld%lld": 680,
      "##ossible": 681,
      "3.14159265358979323": 682,
      "&=": 683,
      "50000": 684,
      "##git": 685,
      "id131": 686,
      "%d%d%d%d%d": 687,
      "no\\n": 688,
      "##digit": 689,
      "isdigit": 690,
      "3.1415926535897932384": 691,
      "1000000000": 692,
      "1.0": 693,
      "42": 694,
      "##9999": 695,
      "-1\\n": 696,
      "3000": 697,
      "##aa": 698,
      "##45": 699,
      "%s%s": 700,
      "re": 701,
      "##66": 702,
      "103": 703,
      "1000010": 704,
      "501": 705,
      "float": 706,
      "75": 707,
      "##ime": 708,
      "##cc": 709,
      "%d:": 710,
      "107": 711,
      "%ld%ld": 712,
      "%.9": 713,
      "55": 714,
      "62": 715,
      "202": 716,
      "##1\\n-1\\n-1\\n-1\\n-1\\n-1\\n-1\\n-1\\n-1\\n-1\\n-1\\n-1\\n-1\\n-1\\n-1\\n-1\\n-1\\n-1\\n-1\\n-1\\n-1\\n-1\\n-1\\n-1\\n-1\\n-1\\n-1\\n-1\\n-1\\n-1\\n-1\\n-1\\n-1\\n-1\\n-1\\n-1\\n-1\\n-1\\n-1\\n-1\\n-1\\n-1\\n-1\\n-1\\n-1\\n-1\\n-1\\n-1\\n-1\\n-1\\n-1\\n-1\\n-1\\n-1\\n-1\\n-1\\n-1\\n-1\\n-1\\n-1\\n-1\\n-1\\n-1\\n-1\\n-1\\n-1\\n-1\\n-1\\n-1\\n-1\\n-1\\n-1\\n-1\\n-1\\n-1\\n-1\\n-1\\n-1\\n-1\\n-1\\n-1\\n-1\\n-1\\n-1\\n-1\\n-1\\n-1\\n-1\\n-1\\n-1\\n-1\\n-1\\n-1\\n-1\\n-1\\n-1\\n-1\\n-1\\n-1\\n-1\\n-1\\n-1\\n-1\\n-1\\n-1\\n-1\\n-1\\n-1\\n-1\\n-1\\n-1\\n-1\\n-1\\n-1\\n-1\\n-1\\n-1\\n-1\\n-1\\n-1\\n-1\\n-1\\n-1\\n-1\\n-1\\n-1\\n-1\\n-1\\n-1\\n-1\\n-1\\n-1\\n-1\\n-1\\n-1\\n-1\\n-1\\n-1\\n-1\\n-1\\n-1\\n-1\\n-1\\n-1\\n-1\\n-1\\n-1\\n-1\\n-1\\n-1\\n-1\\n-1\\n-1\\n-1\\n-1\\n-1\\n-1\\n-1\\n-1\\n-1\\n-1\\n-1\\n-1\\n-1\\n-1\\n-1\\n-1\\n-1\\n-1\\n-1\\n-1\\n-1\\n-1\\n-1\\n-1\\n-1\\n-1\\n-1\\n-1\\n-1\\n-1\\n-1\\n-1\\n-1\\n-1\\n-1\\n-1\\n-1\\n-1\\n-1\\n-1\\n-1\\n-1\\n-1\\n-1\\n-1\\n-1\\n-1\\n-1\\n-1\\n-1\\n-1\\n-1\\n-1\\n-1\\n-1\\n-1\\n-1\\n-1\\n-1\\n-1\\n-1\\n-1\\n-1\\n-1\\n-1\\n-1\\n-1\\n-1\\n-1\\n-1\\n-1\\n-1\\n-1\\n-1\\n-1\\n-1\\n-1\\n-1\\n-1\\n-1\\n-1\\n-1\\n-1\\n-1\\n-1\\n-1\\n-1\\n-1\\n-1\\n-1\\n-1\\n-1\\n-1\\n-1\\n-1\\n-1\\n-1\\n-1\\n-1\\n-1\\n-1\\n-1\\n-1\\n-1\\n-1\\n-1\\n-1\\n-1\\n-1\\n-1\\n-1\\n-1\\n-1\\n-1\\n-1\\n-1\\n-1\\n-1\\n-1\\n-1\\n-1\\n-1\\n-1\\n-1\\n-1\\n-1\\n-1\\n-1\\n-1\\n-1\\n-1\\n-1\\n-1\\n-1\\n-1\\n-1\\n-1\\n-1\\n-1\\n-1\\n-1\\n-1\\n-1\\n-1\\n-1\\n-1\\n-1\\n-1\\n-1\\n-1\\n-1\\n-1\\n-1\\n-1\\n-1\\n-1\\n-1\\n-1\\n-1\\n-1\\n-1\\n-1\\n-1\\n-1\\n-1\\n-1\\n-1\\n-1\\n-1\\n-1\\n-1\\n-1\\n-1\\n-1\\n-1\\n-1\\n-1\\n-1\\n-1\\n-1\\n-1\\n-1\\n-1\\n-1\\n-1\\n-1\\n-1\\n-1\\n-1\\n-1\\n-1\\n-1\\n-1\\n-1\\n-1\\n-1\\n-1\\n-1\\n-1\\n-1\\n-1\\n-1\\n-1\\n-1\\n-1\\n-1\\n-1\\n-1\\n-1\\n-1\\n-1\\n-1\\n-1\\n-1\\n-1\\n-1\\n-1\\n-1\\n-1\\n-1\\n-1\\n-1\\n-1\\n-1\\n-1\\n-1\\n-1\\n-1\\n-1\\n-1\\n-1\\n-1\\n-1\\n-1\\n-1\\n-1\\n-1\\n-1\\n-1\\n-1\\n-1\\n-1\\n-1\\n-1\\n-1\\n-1\\n-1\\n-1\\n-1\\n-1\\n-1\\n-1\\n-1\\n-1\\n-1\\n-1\\n-1\\n-1\\n-1\\n-1\\n-1\\n-1\\n-1\\n-1\\n-1\\n-1\\n-1\\n-1\\n-1\\n-1\\n-1\\n-1\\n-1\\n-1\\n-1\\n-1\\n-1\\n-1\\n-1\\n-1\\n-1\\n-1\\n-1\\n-1\\n-1\\n-1\\n-1\\n-1\\n-1\\n-1\\n-1\\n-1\\n-1\\n-1\\n-1\\n-1\\n-1\\n-1\\n-1\\n-1\\n-1\\n-1\\n-1\\n-1\\n-1\\n-1\\n-1\\n-1\\n-1\\n-1\\n-1\\n-1\\n-1\\n-1\\n-1\\n-1\\n-1\\n-1\\n-1\\n-1\\n-1\\n-1\\n-1\\n-1\\n-1\\n-1\\n-1\\n-1\\n-1\\n-1\\n-1\\n-1\\n-1\\n-1\\n-1\\n-1\\n-1\\n-1\\n-1\\n-1\\n-1\\n-1\\n-1\\n-1\\n-1\\n-1\\n-1\\n-1\\n-1\\n-1\\n-1\\n-1\\n-1\\n-1\\n-1\\n-1\\n-1\\n-1\\n-1\\n-1\\n-1\\n-": 717,
      "rand": 718,
      "##36": 719,
      "##ma": 720,
      "##12": 721,
      "##0f0f": 722,
      "65": 723,
      "?:": 724,
      "na": 725,
      "##21": 726,
      "id130": 727,
      "%d%s": 728,
      "##%d\\n": 729,
      "10010": 730,
      "2002": 731,
      "##5555": 732,
      "%f\\n": 733,
      "\\0": 734,
      "##576": 735,
      "##11": 736,
      "1e-8": 737,
      "%f": 738,
      "33": 739,
      "time": 740,
      "id169": 741,
      "##00000000": 742,
      "imp": 743,
      "##%f": 744,
      "##83": 745,
      "id135": 746,
      "1048": 747,
      "yes\\n": 748,
      "9999": 749,
      "impossible": 750,
      "210": 751,
      "97": 752,
      "##xx": 753,
      "##ei": 754,
      "##ag": 755,
      "##wi": 756,
      "##ch": 757,
      "1005": 758,
      "##3f3f": 759,
      "0\\n": 760,
      "2e": 761,
      "35": 762,
      "%d%c": 763,
      "realloc": 764,
      "in": 765,
      "##scanf": 766,
      "##pr": 767,
      "prag": 768,
      "0x7": 769,
      "memcmp": 770,
      "3005": 771,
      "1048576": 772,
      "pragma": 773,
      "##po": 774,
      "id154": 775,
      "-wi": 776,
      "1\\n": 777,
      "sscanf": 778,
      "##\\0": 779,
      "##type": 780,
      "##omp": 781,
      "##-po": 782,
      "##-type": 783,
      "##ncomp": 784,
      "##inter": 785,
      "##ble-po": 786,
      "2005": 787,
      "##atible-po": 788,
      "2000000007": 789,
      "2000000000000": 790,
      "-wincomp": 791,
      "##-types": 792,
      "##inter-types": 793,
      "##atible-pointer-types": 794,
      "-wincompatible-pointer-types": 795,
      "0.0": 796,
      "90": 797,
      "cei": 798,
      "##al": 799,
      "##41": 800,
      "id173": 801,
      "%d,": 802,
      "1e18": 803,
      "2000010": 804,
      "0.5": 805,
      "29": 806,
      "2010": 807,
      "##29": 808,
      "##4364": 809,
      "512": 810,
      "5001": 811,
      "##3333": 812,
      "##10101010": 813,
      "##364364": 814,
      "ceil": 815,
      "3010": 816,
      "49": 817,
      "40000": 818,
      "5010": 819,
      "80": 820,
      "##ve": 821,
      "##str": 822,
      "%s%d": 823,
      "10001": 824,
      "##433": 825,
      "##1919": 826,
      "415": 827,
      "57": 828,
      "##514": 829,
      "##ac": 830,
      "id166": 831,
      "id177": 832,
      "##101919": 833,
      "10005": 834,
      "10002": 835,
      "##14514": 836,
      "%lf%lf%lf": 837,
      "atan": 838,
      "##18101919": 839,
      "10721": 840,
      "0x7ffff": 841,
      "##4118101919": 842,
      "4154118101919": 843,
      "1072114514": 844,
      "4154118101919364364": 845,
      "4000": 846,
      "id171": 847,
      "2001": 848,
      "409": 849,
      "300000": 850,
      "##printf": 851,
      "sw": 852,
      "##25": 853,
      "##hr": 854,
      "##00ff": 855,
      "##itch": 856,
      "%.12": 857,
      "400010": 858,
      "switch": 859,
      "23": 860,
      "28": 861,
      "sprintf": 862,
      "##01": 863,
      "##67": 864,
      "##001": 865,
      "strstr": 866,
      "0x10101010": 867,
      "%lf\\n": 868,
      "1e8": 869,
      "strchr": 870,
      "200005": 871,
      "##795": 872,
      "##3030": 873,
      "atan2": 874,
      "0x7ffffff": 875,
      "37": 876,
      "310": 877,
      "600": 878,
      "ac": 879,
      "##02": 880,
      "##07": 881,
      "##17": 882,
      "##626": 883,
      "##--": 884,
      "10000000": 885,
      "200002": 886,
      "3.1415926535897932384626": 887,
      "%.9f\\n": 888,
      "##832": 889,
      "##433832": 890,
      "3.1415926535897932384626433832": 891,
      "ab": 892,
      "##%c": 893,
      "##ic": 894,
      "##mo": 895,
      "0xff": 896,
      "301": 897,
      "%.8": 898,
      "%.10": 899,
      "99999": 900,
      "2e9": 901,
      "2.0": 902,
      "510": 903,
      "##77": 904,
      "##ou": 905,
      "##[^": 906,
      "####": 907,
      "205": 908,
      "111": 909,
      "%ld%ld%ld": 910,
      "##1\\n-1\\n-1\\n-1\\n-1\\n-1\\n-1\\n-1\\n-1\\n-1\\n-1\\n-1\\n-1\\n-1\\n-1\\n-1\\n-1\\n-1\\n-1\\n-1\\n-1\\n-1\\n-1\\n-1\\n-1\\n-1\\n-1\\n-1\\n-1\\n-1\\n-1\\n-1\\n-1\\n-1\\n-1\\n-1\\n-1\\n-1\\n-1\\n-1\\n-1\\n-1\\n-1\\n-1\\n-1\\n-1\\n-1\\n-1\\n-1\\n-1\\n-1\\n-1\\n-1\\n-1\\n-1\\n-1\\n-1\\n-1\\n-1\\n-1\\n-1\\n-1\\n-1\\n-1\\n-1\\n-1\\n-1\\n-1\\n-1\\n-1\\n-1\\n-1\\n-1\\n-1\\n-1\\n-1\\n-1\\n-1\\n-1\\n-1\\n-1\\n-1\\n-1\\n-1\\n-1\\n-1\\n-1\\n-1\\n-1\\n-1\\n-1\\n-1\\n-1\\n-1\\n-1\\n-1\\n-1\\n-1\\n-1\\n-1\\n-1\\n-1\\n-1\\n-1\\n-1\\n-1\\n-1\\n-1\\n-1\\n-1\\n-1\\n-1\\n-1\\n-1\\n-1\\n-1\\n-1\\n-1\\n-1\\n-1\\n-1\\n-1\\n-1\\n-1\\n-1\\n-1\\n-1\\n-1\\n-1\\n-1\\n-1\\n-1\\n-1\\n-1\\n-1\\n-1\\n-1\\n-1\\n-1\\n-1\\n-1\\n-1\\n-1\\n-1\\n-1\\n-1\\n-1\\n-1\\n-1\\n-1\\n-1\\n-1\\n-1\\n-1\\n-1\\n-1\\n-1\\n-1\\n-1\\n-1\\n-1\\n-1\\n-1\\n-1\\n-1\\n-1\\n-1\\n-1\\n-1\\n-1\\n-1\\n-1\\n-1\\n-1\\n-1\\n-1\\n-1\\n-1\\n-1\\n-1\\n-1\\n-1\\n-1\\n-1\\n-1\\n-1\\n-1\\n-1\\n-1\\n-1\\n-1\\n-1\\n-1\\n-1\\n-1\\n-1\\n-1\\n-1\\n-1\\n-1\\n-1\\n-1\\n-1\\n-1\\n-1\\n-1\\n-1\\n-1\\n-1\\n-1\\n-1\\n-1\\n-1\\n-1\\n-1\\n-1\\n-1\\n-1\\n-1\\n-1\\n-1\\n-1\\n-1\\n-1\\n-1\\n-1\\n-1\\n-1\\n-1\\n-1\\n-1\\n-1\\n-1\\n-1\\n-1\\n-1\\n-1\\n-1\\n-1\\n-1\\n-1\\n-1\\n-1\\n-1\\n-1\\n-1\\n-1\\n-1\\n-1\\n-1\\n-1\\n-1\\n-1\\n-1\\n-1\\n-1\\n-1\\n-1\\n-1\\n-1\\n-1\\n-1\\n-1\\n-1\\n-1\\n-1\\n-1\\n-1\\n-1\\n-1\\n-1\\n-1\\n-1\\n-1\\n-1\\n-1\\n-1\\n-1\\n-1\\n-1\\n-1\\n-1\\n-1\\n-1\\n-1\\n-1\\n-1\\n-1\\n-1\\n-1\\n-1\\n-1\\n-1\\n-1\\n-1\\n-1\\n-1\\n-1\\n-1\\n-1\\n-1\\n-1\\n-1\\n-1\\n-1\\n-1\\n-1\\n-1\\n-1\\n-1\\n-1\\n-1\\n-1\\n-1\\n-1\\n-1\\n-1\\n-1\\n-1\\n-1\\n-1\\n-1\\n-1\\n-1\\n-1\\n-1\\n-1\\n-1\\n-1\\n-1\\n-1\\n-1\\n-1\\n-1\\n-1\\n-1\\n-1\\n-1\\n-1\\n-1\\n-1\\n-1\\n-1\\n-1\\n-1\\n-1\\n-1\\n-1\\n-1\\n-1\\n-1\\n-1\\n-1\\n-1\\n-1\\n-1\\n-1\\n-1\\n-1\\n-1\\n-1\\n-1\\n-1\\n-1\\n-1\\n-1\\n-1\\n-1\\n-1\\n-1\\n-1\\n-1\\n-1\\n-1\\n-1\\n-1\\n-1\\n-1\\n-1\\n-1\\n-1\\n-1\\n-1\\n-1\\n-1\\n-1\\n-1\\n-1\\n-1\\n-1\\n-1\\n-1\\n-1\\n-1\\n-1\\n-1\\n-1\\n-1\\n-1\\n-1\\n-1\\n-1\\n-1\\n-1\\n-1\\n-1\\n-1\\n-1\\n-1\\n-1\\n-1\\n-1\\n-1\\n-1\\n-1\\n-1\\n-1\\n-1\\n-1\\n-1\\n-1\\n-1\\n-1\\n-1\\n-1\\n-1\\n-1\\n-1\\n-1\\n-1\\n-1\\n-1\\n-1\\n-1\\n-1\\n-1\\n-1\\n-1\\n-1\\n-1\\n-1\\n-1\\n-1\\n-1\\n-1\\n-1\\n-1\\n-1\\n-1\\n-1\\n-1\\n-1\\n-1\\n-1\\n-1\\n-1\\n-1\\n-1\\n-1\\n-1\\n-1\\n-1\\n-1\\n-1\\n-1\\n-1\\n-1\\n-1\\n-1\\n-1\\n-1\\n-1\\n-1\\n-1\\n-1\\n-1\\n-1\\n-1\\n-1\\n-1\\n-1\\n-1\\n-1\\n-1\\n-1\\n-1\\n-1\\n-1\\n-1\\n-1\\n-1\\n-1\\n-1\\n-1\\n-1\\n-1\\n-1\\n-1\\n-1\\n-1\\n-1\\n-1\\n-1\\n-1\\n-1\\n-1\\n-1\\n-1\\n-1\\n-1\\n-1\\n-1\\n-1\\n-1\\n-1\\n-1\\n-1\\n-1\\n-1\\n-1\\n-1\\n-1\\n-1\\n-1\\n-1\\n-1\\n-1\\n-1\\n-1\\n-1\\n-1\\n-1\\n-1\\n-1\\n-1\\n-1\\n-1\\n-1\\n-1\\n-1\\n-1\\n-1\\n-1\\n-1\\n-1\\n-1\\n-1\\n-1\\n-1\\n-1\\n-1\\n-1\\n-1\\n-1\\n-1\\n-1\\n-1\\n-1\\n-1\\n-1\\n-1\\n-1\\n-1\\n-1\\n-1\\n-1\\n-1\\n-1\\n-1\\n-1\\n-1\\n-1\\n-1\\n-1\\n-1\\n-1\\n-1\\n-1\\n-1\\n-1\\n-1\\n-1\\n-1\\n-1\\n-1\\n-1\\n-1\\n-1\\n-1\\n-1\\n-1\\n-1\\n-1\\n-1\\n-1\\n-1\\n-1\\n-1\\n-1\\n-1\\n-1\\n-1\\n-1\\n-1\\n-1\\n-1\\n-1\\n-1\\n-1\\n-1\\n-1\\n-1\\n-1\\n-1\\n-1\\n-1\\n-1\\n-1\\n-1\\n-1\\n-1\\n-1\\n-1\\n-1\\n-1\\n-1\\n-1\\n-1\\n-1\\n-1\\n-1\\n-1\\n-1\\n-1\\n-1\\n-1\\n-1\\n-1\\n-1\\n-1\\n-1\\n-1\\n-1\\n-1\\n-1\\n-1\\n-1\\n-1\\n-1\\n-1\\n-1\\n-1\\n-1\\n-1\\n-1\\n-1\\n-1\\n-1\\n-1\\n-1\\n-1\\n-1\\n-1\\n-1\\n-1\\n-1\\n-1\\n-1\\n-1\\n-1\\n-1\\n-1\\n-1\\n-1\\n-1\\n-1\\n-1\\n-1\\n-1\\n-1\\n-1\\n-1\\n-1\\n-1\\n-1\\n-1\\n-1\\n-1\\n-1\\n-1\\n-1\\n-1\\n-1\\n-1\\n-1\\n-1\\n-1\\n-1\\n-1\\n-1\\n-1\\n-1\\n-1\\n-1\\n-1\\n-1\\n-1\\n-1\\n-1\\n-1\\n-1\\n-1\\n-1\\n-1\\n-1\\n-1\\n-1\\n-1\\n-1\\n-1\\n-1\\n-1\\n-1\\n-1\\n-1\\n-1\\n-1\\n-1\\n-1\\n-1\\n-1\\n-1\\n-1\\n-1\\n-1\\n-1\\n-1\\n-1\\n-1\\n-1\\n-1\\n-1\\n-1\\n-1\\n-1\\n-1\\n-1\\n-1\\n-1\\n-1\\n-1\\n-1\\n-1\\n-1\\n-1\\n-1\\n-1\\n-1\\n-1\\n-1\\n-1\\n-1\\n-1\\n-1\\n-1\\n-1\\n-1\\n-1\\n-1\\n-1\\n-1\\n-1\\n-1\\n-1\\n-1\\n-1\\n-1\\n-1\\n-1\\n-1\\n-1\\n-1\\n-1\\n-1\\n-1\\n-1\\n-1\\n-1\\n-1\\n-1\\n-1\\n-1\\n-1\\n-1\\n-1\\n-1\\n-1\\n-1\\n-1\\n-1\\n-1\\n-1\\n-1\\n-1\\n-1\\n-1\\n-1\\n-1\\n-1\\n-1\\n-1\\n-1\\n-1\\n-1\\n-1\\n-1\\n-1\\n-1\\n-1\\n-1\\n-1\\n-1\\n-1\\n-1\\n-1\\n-1\\n-1\\n-1\\n-1\\n-1\\n-1\\n-1\\n-1\\n-1\\n-1\\n-1\\n-1\\n-1\\n-1\\n-1\\n-1\\n-1\\n-1\\n-1\\n-1\\n-1\\n-1\\n-1\\n-1\\n-1\\n-1\\n-1\\n-1\\n-1\\n-1\\n-1\\n-1\\n-1\\n-1\\n-1\\n-1\\n-1\\n-1\\n-1\\n-1\\n-1\\n-1\\n-1\\n-1\\n-1\\n-1\\n-1\\n-1\\n-1\\n-1\\n-1\\n-1\\n-1\\n-1\\n-1\\n-1\\n-1\\n-1\\n-1\\n-1\\n-1\\n-1\\n-1\\n-1\\n-1\\n-1\\n-1\\n-1\\n-1\\n-1\\n-1\\n-1\\n-1\\n-1\\n-1\\n-1\\n-1\\n-1\\n-1\\n-1\\n-1\\n-1\\n-1\\n-1\\n-1\\n-1\\n-1\\n-1\\n-1\\n-1\\n-1\\n-1\\n-1\\n-1\\n-1\\n-1\\n-1\\n-1\\n-1\\n-1\\n-1\\n-1\\n-1\\n-1\\n-1\\n-1\\n-1\\n-1\\n-1\\n-1\\n-1\\n-1\\n-1\\n-1\\n-1\\n-1\\n-1\\n-1\\n-1\\n-1\\n-1\\n-1\\n-1\\n-1\\n-1\\n-1\\n-1\\n-1\\n-1\\n-1\\n-1\\n-1\\n-1\\n-1\\n-1\\n-1\\n-1\\n-1\\n-1\\n-1\\n-1\\n-1\\n-1\\n-1\\n-1\\n-1\\n-1\\n-1\\n-1\\n-1\\n-1\\n-1\\n-1\\n-1\\n-1\\n-1\\n-1\\n-1\\n-1\\n-1\\n-1\\n-1\\n-1\\n-1\\n-1\\n-1\\n-1\\n-1\\n-1\\n-1\\n-1\\n-1\\n-1\\n-1\\n-1\\n-1\\n-1\\n-1\\n-1\\n-1\\n-1\\n-1\\n-1\\n-1\\n-1\\n-1\\n-1\\n-1\\n-1\\n-1\\n-1\\n-1\\n-1\\n-1\\n-1\\n-1\\n-1\\n-1\\n-1\\n-": 911,
      "70": 912,
      "##40": 913,
      "##%d]": 914,
      "memmo": 915,
      "%.15": 916,
      "5005": 917,
      "500010": 918,
      "360": 919,
      "%.12lf\\n": 920,
      "acos": 921,
      "memmove": 922,
      "38": 923,
      "333": 924,
      "sr": 925,
      "##ir": 926,
      "##ab": 927,
      "##rr": 928,
      "##00000": 929,
      "%d%d\\n": 930,
      "2048": 931,
      "strcat": 932,
      "##144": 933,
      "##%f%f": 934,
      "0x7fffffff": 935,
      "%.8lf\\n": 936,
      "45": 937,
      "sy": 938,
      "tan": 939,
      "##2144": 940,
      "##sp": 941,
      "##pha": 942,
      "##007": 943,
      "1e6": 944,
      "%.f": 945,
      "262144": 946,
      "##%llu": 947,
      "isal": 948,
      "1e-7": 949,
      "%*d%d": 950,
      "na\\n": 951,
      "2000000000000007": 952,
      "srand": 953,
      "isalpha": 954,
      "1.": 955,
      "4010": 956,
      "419": 957,
      "err": 958,
      "ok": 959,
      "##06": 960,
      "##04": 961,
      "##*c": 962,
      "108": 963,
      "##stem": 964,
      "0x010": 965,
      "1e4": 966,
      "303": 967,
      "%lf%lf": 968,
      "##768": 969,
      "%*d%d%d": 970,
      "%d%d%d%d%d%d": 971,
      "##aaaa": 972,
      "##6666": 973,
      "##cccc": 974,
      "%.10lf\\n": 975,
      "system": 976,
      "error": 977,
      "di": 978,
      "##57": 979,
      "##%*d": 980,
      "##e4": 981,
      "##put": 982,
      "id179": 983,
      "0x9": 984,
      "201": 985,
      "123": 986,
      "##%lld%lld": 987,
      "255": 988,
      "##536": 989,
      "1000001": 990,
      "3001": 991,
      "##10101": 992,
      "issp": 993,
      "%d%*d": 994,
      "##ace": 995,
      "3.1415926535897932384626433832795": 996,
      "41943": 997,
      "0x01010101": 998,
      "isspace": 999,
      "%u": 1000,
      "39": 1001,
      "46": 1002,
      "44": 1003,
      "73": 1004,
      "700": 1005,
      "800": 1006,
      "96": 1007,
      "ng": 1008,
      "possible": 1009,
      "tr": 1010,
      "~~": 1011,
      "##03": 1012,
      "##ec": 1013,
      "##1d": 1014,
      "##80": 1015,
      "##ht": 1016,
      "##yy": 1017,
      "##rnc": 1018,
      "##%d,": 1019,
      "strnc": 1020,
      "strto": 1021,
      "##ock": 1022,
      "2019": 1023,
      "1e10": 1024,
      "1145": 1025,
      "%.6": 1026,
      "1e-6": 1027,
      "##2345": 1028,
      "##5050": 1029,
      "##0f0f0f0f": 1030,
      "65536": 1031,
      "##55555555": 1032,
      "##xxxx": 1033,
      "##3f3f3f3f": 1034,
      "%lf%lf%lf%lf": 1035,
      "##00ff00ff": 1036,
      "114514": 1037,
      "56": 1038,
      "63": 1039,
      "61": 1040,
      "72": 1041,
      "al": 1042,
      "##22": 1043,
      "##af": 1044,
      "##lock": 1045,
      "##oo": 1046,
      "##16": 1047,
      "##\\n]": 1048,
      "##%d:": 1049,
      "%d\\n%d\\n": 1050,
      "1e3": 1051,
      "1111": 1052,
      "300010": 1053,
      "500000": 1054,
      "500001": 1055,
      "334": 1056,
      "4096": 1057,
      "3333": 1058,
      "%[^": 1059,
      "43": 1060,
      "[%d]": 1061,
      "fput": 1062,
      "ov": 1063,
      "th": 1064,
      "##d\\n": 1065,
      "##*s": 1066,
      "##ig": 1067,
      "##ul": 1068,
      "##ar": 1069,
      "##line": 1070,
      "##69": 1071,
      "##,%f": 1072,
      "id170": 1073,
      "##per": 1074,
      "100003": 1075,
      "%s%d%d": 1076,
      "%.f\\n": 1077,
      "##0001": 1078,
      "exp": 1079,
      "150": 1080,
      "404": 1081,
      "9999999": 1082,
      "180": 1083,
      "300005": 1084,
      "floor": 1085,
      "400001": 1086,
      "40002": 1087,
      "%.15f": 1088,
      "over": 1089,
      "%1d": 1090,
      "34": 1091,
      "59": 1092,
      "58": 1093,
      "54": 1094,
      "clock": 1095,
      "lo": 1096,
      "##\\\"": 1097,
      "##no": 1098,
      "##um": 1099,
      "##able": 1100,
      "##81": 1101,
      "##pper": 1102,
      "##\\n0": 1103,
      "%d%lld": 1104,
      "1003": 1105,
      "1e5": 1106,
      "120": 1107,
      "505": 1108,
      "##0007": 1109,
      "32768": 1110,
      "1000005": 1111,
      "220": 1112,
      "##....": 1113,
      "%llu\\n": 1114,
      "%llu%llu": 1115,
      "%d%d%d%d%d%d%d": 1116,
      "##99999999": 1117,
      "%s%s%s": 1118,
      "%.9f": 1119,
      "impossible\\n": 1120,
      "20000000000000007": 1121,
      "805": 1122,
      "4097": 1123,
      "##irst": 1124,
      "strtok": 1125,
      "##afe": 1126,
      "##ult": 1127,
      "%*s": 1128,
      "47": 1129,
      "410": 1130,
      "85": 1131,
      "82": 1132,
      "a..": 1133,
      "bo": 1134,
      "first": 1135,
      "ga": 1136,
      "pa": 1137,
      "sec": 1138,
      "##.%d": 1139,
      "##%02": 1140,
      "##72": 1141,
      "##pq": 1142,
      "%d/": 1143,
      "##000000": 1144,
      "##0000ffff": 1145,
      "0x55555555": 1146,
      "0x3f3f3f3f": 1147,
      "##999": 1148,
      "163": 1149,
      "%.5": 1150,
      "%.20": 1151,
      "end": 1152,
      "undef": 1153,
      "402": 1154,
      "##own": 1155,
      "1000003": 1156,
      "##%s%s": 1157,
      "##%lf,": 1158,
      "1e-9": 1159,
      "3000000": 1160,
      "inline": 1161,
      "##33333333": 1162,
      "##ack": 1163,
      "##6789": 1164,
      "abc": 1165,
      "##ice": 1166,
      "######": 1167,
      "##1\\n-1\\n-1\\n-1\\n-1\\n-1\\n-1\\n-1\\n-1\\n-1\\n-1\\n-1\\n-1\\n-1\\n-1\\n-1\\n-1\\n-1\\n-1\\n-1\\n-1\\n-1\\n-1\\n-1\\n-1\\n-1\\n-1\\n-1\\n-1\\n-1\\n-1\\n-1\\n-1\\n-1\\n-1\\n-1\\n-1\\n-1\\n-1\\n-1\\n-1\\n-1\\n-1\\n-1\\n-1\\n-1\\n-1\\n-1\\n-1\\n-1\\n-1\\n-1\\n-1\\n-1\\n-1\\n-1\\n-1\\n-1\\n-1\\n-1\\n-1\\n-1\\n-1\\n-1\\n-1\\n-1\\n-1\\n-1\\n-1\\n-1\\n-1\\n-1\\n-1\\n-1\\n-1\\n-1\\n-1\\n-1\\n-1\\n-1\\n-1\\n-1\\n-1\\n-1\\n-1\\n-1\\n-1\\n-1\\n-1\\n-1\\n-1\\n-1\\n-1\\n-1\\n-1\\n-1\\n-1\\n-1\\n-1\\n-1\\n-1\\n-1\\n-1\\n-1\\n-1\\n-1\\n-1\\n-1\\n-1\\n-1\\n-1\\n-1\\n-1\\n-1\\n-1\\n-1\\n-1\\n-1\\n-1\\n-1\\n-1\\n-1\\n-1\\n-1\\n-1\\n-1\\n-1\\n-1\\n-1\\n-1\\n-1\\n-1\\n-1\\n-1\\n-1\\n-1\\n-1\\n-1\\n-1\\n-1\\n-1\\n-1\\n-1\\n-1\\n-1\\n-1\\n-1\\n-1\\n-1\\n-1\\n-1\\n-1\\n-1\\n-1\\n-1\\n-1\\n-1\\n-1\\n-1\\n-1\\n-1\\n-1\\n-1\\n-1\\n-1\\n-1\\n-1\\n-1\\n-1\\n-1\\n-1\\n-1\\n-1\\n-1\\n-1\\n-1\\n-1\\n-1\\n-1\\n-1\\n-1\\n-1\\n-1\\n-1\\n-1\\n-1\\n-1\\n-1\\n-1\\n-1\\n-1\\n-1\\n-1\\n-1\\n-1\\n-1\\n-1\\n-1\\n-1\\n-1\\n-1\\n-1\\n-1\\n-1\\n-1\\n-1\\n-1\\n-1\\n-1\\n-1\\n-1\\n-1\\n-1\\n-1\\n-1\\n-1\\n-1\\n-1\\n-1\\n-1\\n-1\\n-1\\n-1\\n-1\\n-1\\n-1\\n-1\\n-1\\n-1\\n-1\\n-1\\n-1\\n-1\\n-1\\n-1\\n-1\\n-1\\n-1\\n-1\\n-1\\n-1\\n-1\\n-1\\n-1\\n-1\\n-1\\n-1\\n-1\\n-1\\n-1\\n-1\\n-1\\n-1\\n-1\\n-1\\n-1\\n-1\\n-1\\n-1\\n-1\\n-1\\n-1\\n-1\\n-1\\n-1\\n-1\\n-1\\n-1\\n-1\\n-1\\n-1\\n-1\\n-1\\n-1\\n-1\\n-1\\n-1\\n-1\\n-1\\n-1\\n-1\\n-1\\n-1\\n-1\\n-1\\n-1\\n-1\\n-1\\n-1\\n-1\\n-1\\n-1\\n-1\\n-1\\n-1\\n-1\\n-1\\n-1\\n-1\\n-1\\n-1\\n-1\\n-1\\n-1\\n-1\\n-1\\n-1\\n-1\\n-1\\n-1\\n-1\\n-1\\n-1\\n-1\\n-1\\n-1\\n-1\\n-1\\n-1\\n-1\\n-1\\n-1\\n-1\\n-1\\n-1\\n-1\\n-1\\n-1\\n-1\\n-1\\n-1\\n-1\\n-1\\n-1\\n-1\\n-1\\n-1\\n-1\\n-1\\n-1\\n-1\\n-1\\n-1\\n-1\\n-1\\n-1\\n-1\\n-1\\n-1\\n-1\\n-1\\n-1\\n-1\\n-1\\n-1\\n-1\\n-1\\n-1\\n-1\\n-1\\n-1\\n-1\\n-1\\n-1\\n-1\\n-1\\n-1\\n-1\\n-1\\n-1\\n-1\\n-1\\n-1\\n-1\\n-1\\n-1\\n-1\\n-1\\n-1\\n-1\\n-1\\n-1\\n-1\\n-1\\n-1\\n-1\\n-1\\n-1\\n-1\\n-1\\n-1\\n-1\\n-1\\n-1\\n-1\\n-1\\n-1\\n-1\\n-1\\n-1\\n-1\\n-1\\n-1\\n-1\\n-1\\n-1\\n-1\\n-1\\n-1\\n-1\\n-1\\n-1\\n-1\\n-1\\n-1\\n-1\\n-1\\n-1\\n-1\\n-1\\n-1\\n-1\\n-1\\n-1\\n-1\\n-1\\n-1\\n-1\\n-1\\n-1\\n-1\\n-1\\n-1\\n-1\\n-1\\n-1\\n-1\\n-1\\n-1\\n-1\\n-1\\n-1\\n-1\\n-1\\n-1\\n-1\\n-1\\n-1\\n-1\\n-1\\n-1\\n-1\\n-1\\n-1\\n-1\\n-1\\n-1\\n-1\\n-1\\n-1\\n-1\\n-1\\n-1\\n-1\\n-1\\n-1\\n-1\\n-1\\n-1\\n-1\\n-1\\n-1\\n-1\\n-1\\n-1\\n-1\\n-1\\n-1\\n-1\\n-1\\n-1\\n-1\\n-1\\n-1\\n-1\\n-1\\n-1\\n-1\\n-1\\n-1\\n-1\\n-1\\n-1\\n-1\\n-1\\n-1\\n-1\\n-1\\n-1\\n-1\\n-1\\n-1\\n-1\\n-1\\n-1\\n-1\\n-1\\n-1\\n-1\\n-1\\n-1\\n-1\\n-1\\n-1\\n-1\\n-1\\n-1\\n-1\\n-1\\n-1\\n-1\\n-1\\n-1\\n-1\\n-1\\n-1\\n-1\\n-1\\n-1\\n-1\\n-1\\n-1\\n-1\\n-1\\n-1\\n-1\\n-1\\n-1\\n-1\\n-1\\n-1\\n-1\\n-1\\n-1\\n-1\\n-1\\n-1\\n-1\\n-1\\n-1\\n-1\\n-1\\n-1\\n-1\\n-1\\n-1\\n-1\\n-1\\n-1\\n-1\\n-1\\n-1\\n-1\\n-1\\n-1\\n-1\\n-1\\n-1\\n-1\\n-1\\n-1\\n-1\\n-1\\n-1\\n-1\\n-1\\n-1\\n-1\\n-1\\n-1\\n-1\\n-1\\n-1\\n-1\\n-1\\n-1\\n-1\\n-1\\n-1\\n-1\\n-1\\n-1\\n-1\\n-1\\n-1\\n-1\\n-1\\n-1\\n-1\\n-1\\n-1\\n-1\\n-1\\n-1\\n-1\\n-1\\n-1\\n-1\\n-1\\n-1\\n-1\\n-1\\n-1\\n-1\\n-1\\n-1\\n-1\\n-1\\n-1\\n-1\\n-1\\n-1\\n-1\\n-1\\n-1\\n-1\\n-1\\n-1\\n-1\\n-1\\n-1\\n-1\\n-1\\n-1\\n-1\\n-1\\n-1\\n-1\\n-1\\n-1\\n-1\\n-1\\n-1\\n-1\\n-1\\n-1\\n-1\\n-1\\n-1\\n-1\\n-1\\n-1\\n-1\\n-1\\n-1\\n-1\\n-1\\n-1\\n-1\\n-1\\n-1\\n-1\\n-1\\n-1\\n-1\\n-1\\n-1\\n-1\\n-1\\n-1\\n-1\\n-1\\n-1\\n-1\\n-1\\n-1\\n-1\\n-1\\n-1\\n-1\\n-1\\n-1\\n-1\\n-1\\n-1\\n-1\\n-1\\n-1\\n-1\\n-1\\n-1\\n-1\\n-1\\n-1\\n-1\\n-1\\n-1\\n-1\\n-1\\n-1\\n-1\\n-1\\n-1\\n-1\\n-1\\n-1\\n-1\\n-1\\n-1\\n-1\\n-1\\n-1\\n-1\\n-1\\n-1\\n-1\\n-1\\n-1\\n-1\\n-1\\n-1\\n-1\\n-1\\n-1\\n-1\\n-1\\n-1\\n-1\\n-1\\n-1\\n-1\\n-1\\n-1\\n-1\\n-1\\n-1\\n-1\\n-1\\n-1\\n-1\\n-1\\n-1\\n-1\\n-1\\n-1\\n-1\\n-1\\n-1\\n-1\\n-1\\n-1\\n-1\\n-1\\n-1\\n-1\\n-1\\n-1\\n-1\\n-1\\n-1\\n-1\\n-1\\n-1\\n-1\\n-1\\n-1\\n-1\\n-1\\n-1\\n-1\\n-1\\n-1\\n-1\\n-1\\n-1\\n-1\\n-1\\n-1\\n-1\\n-1\\n-1\\n-1\\n-1\\n-1\\n-1\\n-1\\n-1\\n-1\\n-1\\n-1\\n-1\\n-1\\n-1\\n-1\\n-1\\n-1\\n-1\\n-1\\n-1\\n-1\\n-1\\n-1\\n-1\\n-1\\n-1\\n-1\\n-1\\n-1\\n-1\\n-1\\n-1\\n-1\\n-1\\n-1\\n-1\\n-1\\n-1\\n-1\\n-1\\n-1\\n-1\\n-1\\n-1\\n-1\\n-1\\n-1\\n-1\\n-1\\n-1\\n-1\\n-1\\n-1\\n-1\\n-1\\n-1\\n-1\\n-1\\n-1\\n-1\\n-1\\n-1\\n-1\\n-1\\n-1\\n-1\\n-1\\n-1\\n-1\\n-1\\n-1\\n-1\\n-1\\n-1\\n-1\\n-1\\n-1\\n-1\\n-1\\n-1\\n-1\\n-1\\n-1\\n-1\\n-1\\n-1\\n-1\\n-1\\n-1\\n-1\\n-1\\n-1\\n-1\\n-1\\n-1\\n-1\\n-1\\n-1\\n-1\\n-1\\n-1\\n-1\\n-1\\n-1\\n-1\\n-1\\n-1\\n-1\\n-1\\n-1\\n-1\\n-1\\n-1\\n-1\\n-1\\n-1\\n-1\\n-1\\n-1\\n-1\\n-1\\n-1\\n-1\\n-1\\n-1\\n-1\\n-1\\n-1\\n-1\\n-1\\n-1\\n-1\\n-1\\n-1\\n-1\\n-1\\n-1\\n-1\\n-1\\n-1\\n-1\\n-1\\n-1\\n-1\\n-1\\n-1\\n-1\\n-1\\n-1\\n-1\\n-1\\n-1\\n-1\\n-1\\n-1\\n-1\\n-1\\n-1\\n-1\\n-1\\n-1\\n-1\\n-1\\n-1\\n-1\\n-1\\n-1\\n-1\\n-1\\n-1\\n-1\\n-1\\n-1\\n-1\\n-1\\n-1\\n-1\\n-1\\n-1\\n-1\\n-1\\n-1\\n-1\\n-1\\n-1\\n-1\\n-1\\n-1\\n-1\\n-1\\n-1\\n-1\\n-1\\n-1\\n-1\\n-1\\n-1\\n-1\\n-1\\n-1\\n-1\\n-1\\n-1\\n-1\\n-1\\n-1\\n-1\\n-1\\n-1\\n-1\\n-1\\n-1\\n-1\\n-1\\n-1\\n-1\\n-1\\n-1\\n-1\\n-1\\n-1\\n-1\\n-1\\n-1\\n-1\\n-1\\n-1\\n-1\\n-1\\n-1\\n-1\\n-1\\n-1\\n-1\\n-1\\n-1\\n-1\\n-1\\n-1\\n-1\\n-1\\n-1\\n-1\\n-1\\n-1\\n-1\\n-1\\n-1\\n-1\\n-1\\n-1\\n-1\\n-1\\n-1\\n-1\\n-1\\n-1\\n-1\\n-1\\n-1\\n-1\\n-1\\n-1\\n-1\\n-1\\n-1\\n-1\\n-1\\n-1\\n-1\\n-1\\n-1\\n-1\\n-1\\n-1\\n-1\\n-1\\n-1\\n-1\\n-1\\n-1\\n-1\\n-1\\n-1\\n-1\\n-1\\n-1\\n-1\\n-1\\n-1\\n-1\\n-1\\n-1\\n-1\\n-1\\n-1\\n-1\\n-1\\n-1\\n-1\\n-1\\n-1\\n-1\\n-1\\n-1\\n-1\\n-1\\n-1\\n-1\\n-1\\n-1\\n-1\\n-1\\n-1\\n-1\\n-1\\n-1\\n-1\\n-1\\n-1\\n-1\\n-1\\n-1\\n-1\\n-1\\n-1\\n-1\\n-1\\n-1\\n-1\\n-1\\n-1\\n-1\\n-1\\n-1\\n-1\\n-1\\n-1\\n-1\\n-1\\n-1\\n-1\\n-1\\n-1\\n-1\\n-1\\n-1\\n-1\\n-1\\n-1\\n-1\\n-1\\n-1\\n-1\\n-1\\n-1\\n-1\\n-1\\n-1\\n-1\\n-1\\n-1\\n-1\\n-1\\n-1\\n-1\\n-1\\n-1\\n-1\\n-1\\n-1\\n-1\\n-1\\n-1\\n-1\\n-1\\n-1\\n-1\\n-1\\n-1\\n-1\\n-1\\n-1\\n-1\\n-1\\n-1\\n-1\\n-1\\n-1\\n-1\\n-1\\n-1\\n-1\\n-1\\n-1\\n-1\\n-1\\n-1\\n-1\\n-1\\n-1\\n-1\\n-1\\n-1\\n-1\\n-1\\n-1\\n-1\\n-1\\n-1\\n-1\\n-1\\n-1\\n-1\\n-1\\n-1\\n-1\\n-1\\n-1\\n-1\\n-1\\n-1\\n-1\\n-1\\n-1\\n-1\\n-1\\n-1\\n-1\\n-1\\n-1\\n-1\\n-1\\n-1\\n-1\\n-1\\n-1\\n-1\\n-1\\n-1\\n-1\\n-1\\n-1\\n-1\\n-1\\n-1\\n-1\\n-1\\n-1\\n-1\\n-1\\n-1\\n-1\\n-1\\n-1\\n-1\\n-1\\n-1\\n-1\\n-1\\n-1\\n-1\\n-1\\n-1\\n-1\\n-1\\n-1\\n-1\\n-1\\n-1\\n-1\\n-1\\n-1\\n-1\\n-1\\n-1\\n-1\\n-1\\n-1\\n-1\\n-1\\n-1\\n-1\\n-1\\n-1\\n-1\\n-1\\n-1\\n-1\\n-1\\n-1\\n-1\\n-1\\n-1\\n-1\\n-1\\n-1\\n-1\\n-1\\n-1\\n-1\\n-1\\n-1\\n-1\\n-1\\n-1\\n-1\\n-1\\n-1\\n-1\\n-1\\n-1\\n-1\\n-1\\n-1\\n-1\\n-1\\n-1\\n-1\\n-1\\n-1\\n-1\\n-1\\n-1\\n-1\\n-1\\n-1\\n-1\\n-1\\n-1\\n-1\\n-1\\n-1\\n-1\\n-1\\n-1\\n-1\\n-1\\n-1\\n-1\\n-1\\n-1\\n-1\\n-1\\n-1\\n-1\\n-1\\n-1\\n-1\\n-1\\n-1\\n-1\\n-1\\n-1\\n-1\\n-1\\n-1\\n-1\\n-1\\n-1\\n-1\\n-1\\n-1\\n-1\\n-1\\n-1\\n-1\\n-1\\n-1\\n-1\\n-1\\n-1\\n-1\\n-1\\n-1\\n-1\\n-1\\n-1\\n-1\\n-1\\n-1\\n-1\\n-1\\n-1\\n-1\\n-1\\n-1\\n-1\\n-1\\n-1\\n-1\\n-1\\n-1\\n-1\\n-1\\n-1\\n-1\\n-1\\n-1\\n-1\\n-1\\n-1\\n-1\\n-1\\n-1\\n-1\\n-1\\n-1\\n-1\\n-1\\n-1\\n-1\\n-1\\n-1\\n-1\\n-1\\n-1\\n-1\\n-1\\n-1\\n-1\\n-1\\n-1\\n-1\\n-1\\n-1\\n-1\\n-1\\n-1\\n-1\\n-1\\n-1\\n-1\\n-1\\n-1\\n-1\\n-1\\n-1\\n-1\\n-1\\n-1\\n-1\\n-1\\n-1\\n-1\\n-1\\n-1\\n-1\\n-1\\n-1\\n-1\\n-1\\n-1\\n-1\\n-1\\n-1\\n-1\\n-1\\n-1\\n-1\\n-1\\n-1\\n-1\\n-1\\n-1\\n-1\\n-1\\n-1\\n-1\\n-1\\n-1\\n-1\\n-1\\n-1\\n-1\\n-1\\n-1\\n-1\\n-1\\n-1\\n-1\\n-1\\n-1\\n-1\\n-1\\n-1\\n-1\\n-1\\n-1\\n-1\\n-1\\n-1\\n-1\\n-1\\n-1\\n-1\\n-1\\n-1\\n-1\\n-1\\n-1\\n-1\\n-1\\n-1\\n-1\\n-1\\n-1\\n-1\\n-1\\n-1\\n-1\\n-1\\n-1\\n-1\\n-1\\n-1\\n-1\\n-1\\n-1\\n-1\\n-1\\n-1\\n-1\\n-1\\n-1\\n-1\\n-1\\n-1\\n-1\\n-1\\n-1\\n-1\\n-1\\n-1\\n-1\\n-1\\n-1\\n-1\\n-1\\n-1\\n-1\\n-1\\n-1\\n-1\\n-1\\n-1\\n-1\\n-1\\n-1\\n-1\\n-1\\n-1\\n-1\\n-1\\n-1\\n-1\\n-1\\n-1\\n-1\\n-1\\n-1\\n-1\\n-1\\n-1\\n-1\\n-1\\n-1\\n-1\\n-1\\n-1\\n-1\\n-1\\n-1\\n-1\\n-1\\n-1\\n-1\\n-1\\n-1\\n-1\\n-1\\n-1\\n-1\\n-1\\n-1\\n-1\\n-1\\n-1\\n-1\\n-1\\n-1\\n-1\\n-1\\n-1\\n-1\\n-1\\n-1\\n-1\\n-1\\n-1\\n-1\\n-1\\n-1\\n-1\\n-1\\n-1\\n-1\\n-1\\n-1\\n-1\\n-1\\n-1\\n-1\\n-1\\n-1\\n-1\\n-1\\n-1\\n-1\\n-1\\n-1\\n-1\\n-1\\n-1\\n-1\\n-1\\n-1\\n-1\\n-1\\n-1\\n-1\\n-1\\n-1\\n-1\\n-1\\n-1\\n-1\\n-1\\n-1\\n-1\\n-1\\n-1\\n-1\\n-1\\n-1\\n-1\\n-1\\n-1\\n-1\\n-1\\n-1\\n-1\\n-1\\n-1\\n-1\\n-1\\n-1\\n-1\\n-1\\n-1\\n-1\\n-1\\n-1\\n-1\\n-1\\n-1\\n-1\\n-1\\n-1\\n-1\\n-1\\n-1\\n-1\\n-1\\n-1\\n-1\\n-1\\n-1\\n-1\\n-1\\n-1\\n-1\\n-1\\n-1\\n-1\\n-1\\n-1\\n-1\\n-1\\n-1\\n-1\\n-1\\n-1\\n-1\\n-1\\n-1\\n-1\\n-1\\n-1\\n-1\\n-1\\n-1\\n-1\\n-1\\n-1\\n-1\\n-1\\n-1\\n-1\\n-1\\n-1\\n-1\\n-1\\n-1\\n-1\\n-1\\n-1\\n-1\\n-1\\n-1\\n-1\\n-1\\n-1\\n-1\\n-1\\n-1\\n-1\\n-1\\n-1\\n-1\\n-1\\n-1\\n-1\\n-1\\n-1\\n-1\\n-1\\n-1\\n-1\\n-1\\n-1\\n-1\\n-1\\n-1\\n-1\\n-1\\n-1\\n-1\\n-1\\n-1\\n-1\\n-1\\n-1\\n-1\\n-1\\n-1\\n-1\\n-1\\n-1\\n-1\\n-1\\n-1\\n-1\\n-1\\n-1\\n-1\\n-1\\n-1\\n-1\\n-1\\n-1\\n-1\\n-1\\n-1\\n-1\\n-1\\n-1\\n-1\\n-1\\n-1\\n-1\\n-1\\n-1\\n-1\\n-1\\n-1\\n-1\\n-1\\n-1\\n-1\\n-1\\n-1\\n-1\\n-1\\n-1\\n-1\\n-1\\n-1\\n-1\\n-1\\n-1\\n-1\\n-1\\n-1\\n-1\\n-1\\n-1\\n-1\\n-1\\n-1\\n-1\\n-1\\n-1\\n-1\\n-1\\n-1\\n-1\\n-1\\n-1\\n-1\\n-1\\n-1\\n-1\\n-1\\n-1\\n-1\\n-1\\n-1\\n-1\\n-1\\n-1\\n-1\\n-1\\n-1\\n-1\\n-1\\n-1\\n-1\\n-1\\n-1\\n-1\\n-1\\n-1\\n-1\\n-1\\n-1\\n-1\\n-1\\n-1\\n-1\\n-1\\n-1\\n-1\\n-1\\n-1\\n-1\\n-1\\n-1\\n-1\\n-1\\n-1\\n-1\\n-1\\n-1\\n-1\\n-1\\n-1\\n-1\\n-1\\n-1\\n-1\\n-1\\n-1\\n-1\\n-1\\n-1\\n-1\\n-1\\n-1\\n-1\\n-1\\n-1\\n-1\\n-1\\n-1\\n-1\\n-1\\n-1\\n-1\\n-1\\n-1\\n-1\\n-1\\n-1\\n-1\\n-1\\n-1\\n-1\\n-1\\n-1\\n-1\\n-1\\n-1\\n-1\\n-1\\n-1\\n-1\\n-1\\n-1\\n-1\\n-1\\n-1\\n-1\\n-1\\n-1\\n-1\\n-1\\n-1\\n-1\\n-1\\n-1\\n-1\\n-1\\n-1\\n-1\\n-1\\n-1\\n-1\\n-1\\n-1\\n-1\\n-1\\n-1\\n-1\\n-1\\n-1\\n-1\\n-1\\n-1\\n-1\\n-1\\n-1\\n-1\\n-1\\n-1\\n-1\\n-1\\n-1\\n-1\\n-1\\n-1\\n-1\\n-1\\n-1\\n-1\\n-1\\n-1\\n-1\\n-1\\n-1\\n-1\\n-1\\n-1\\n-1\\n-1\\n-1\\n-1\\n-1\\n-1\\n-1\\n-1\\n-1\\n-1\\n-1\\n-1\\n-1\\n-1\\n-1\\n-1\\n-1\\n-1\\n-1\\n-1\\n-1\\n-1\\n-1\\n-1\\n-1\\n-1\\n-1\\n-1\\n-1\\n-1\\n-1\\n-1\\n-1\\n-1\\n-1\\n-1\\n-1\\n-1\\n-1\\n-1\\n-1\\n-1\\n-1\\n-1\\n-1\\n-1\\n-1\\n-1\\n-1\\n-1\\n-1\\n-1\\n-1\\n-1\\n-1\\n-1\\n-1\\n-1\\n-1\\n-1\\n-1\\n-1\\n-1\\n-1\\n-1\\n-1\\n-1\\n-1\\n-1\\n-1\\n-1\\n-1\\n-1\\n-1\\n-1\\n-1\\n-1\\n-1\\n-1\\n-1\\n-1\\n-1\\n-1\\n-1\\n-1\\n-1\\n-1\\n-1\\n-1\\n-1\\n-1\\n-1\\n-1\\n-1\\n-1\\n-1\\n-1\\n-1\\n-1\\n-1\\n-1\\n-1\\n-1\\n-1\\n-1\\n-1\\n-": 1168,
      "strncmp": 1169,
      "alice": 1170,
      "secon": 1171,
      "%lu": 1172,
      "555": 1173,
      "6000": 1174,
      "79": 1175,
      "88": 1176,
      "8000": 1177,
      "98": 1178,
      "dr": 1179,
      "la": 1180,
      "safe": 1181,
      "##09": 1182,
      "##.6": 1183,
      "##\\7": 1184,
      "##\\x": 1185,
      "##ndef": 1186,
      "##%*c": 1187,
      "##ey": 1188,
      "##un": 1189,
      "##ai": 1190,
      "##low": 1191,
      "##8b": 1192,
      "##c2": 1193,
      "##ghi": 1194,
      "##yz": 1195,
      "##!\\n": 1196,
      "ifndef": 1197,
      "##llf": 1198,
      "%d\\n%d": 1199,
      "%d%d%s": 1200,
      "##defghi": 1201,
      "0x3030": 1202,
      "1e7": 1203,
      "200009": 1204,
      "10000000000": 1205,
      "305": 1206,
      "502": 1207,
      "112345": 1208,
      "false": 1209,
      "1500": 1210,
      "2500": 1211,
      "1000002": 1212,
      "##7950": 1213,
      "271": 1214,
      "365": 1215,
      "0.00000000": 1216,
      "50002": 1217,
      "%lld%lld%lld%lld": 1218,
      "500100": 1219,
      "3.14159265358979323846264338327950": 1220,
      "4194304": 1221,
      "true": 1222,
      "%[^\\n]": 1223,
      "fputs": 1224,
      "##ight": 1225,
      "game": 1226,
      "16384": 1227,
      "%.5lf\\n": 1228,
      "%.20lf\\n": 1229,
      "labs": 1230,
      "01": 1231,
      "350": 1232,
      "5e": 1233,
      "5e4": 1234,
      "66": 1235,
      "60000": 1236,
      "71": 1237,
      "78": 1238,
      "87": 1239,
      "84": 1240,
      "864": 1241,
      "9e": 1242,
      "\\x": 1243,
      "by": 1244,
      "roo": 1245,
      "win": 1246,
      "##28": 1247,
      "##\\6": 1248,
      "##nown": 1249,
      "##dd": 1250,
      "##%[": 1251,
      "##%.6": 1252,
      "##xyz": 1253,
      "##en": 1254,
      "##el": 1255,
      "##th": 1256,
      "##i=": 1257,
      "##uv": 1258,
      "##mno": 1259,
      "##aw": 1260,
      "##as": 1261,
      "##a..": 1262,
      "##++": 1263,
      "##lmno": 1264,
      "##ok": 1265,
      "##wxyz": 1266,
      "##400": 1267,
      "##rst": 1268,
      "##known": 1269,
      "##klmno": 1270,
      "##jklmno": 1271,
      "##:%d": 1272,
      "id176": 1273,
      "##ing": 1274,
      "109": 1275,
      "104": 1276,
      "stable": 1277,
      "##1072": 1278,
      "100004": 1279,
      "0x0f0f0f0f": 1280,
      "0x00ff00ff": 1281,
      "0x33333333": 1282,
      "1e20": 1283,
      "2003": 1284,
      "node": 1285,
      "127": 1286,
      "10007": 1287,
      "unknown": 1288,
      "15000": 1289,
      "250000": 1290,
      "##4329": 1291,
      "401": 1292,
      "131072": 1293,
      "##%lf)": 1294,
      "5002": 1295,
      "2222": 1296,
      "%c\\n": 1297,
      "%c%d": 1298,
      "1e-10": 1299,
      "##489": 1300,
      "4001": 1301,
      "##649": 1302,
      "30002": 1303,
      "##125": 1304,
      "2e3": 1305,
      "inf": 1306,
      "%d,%d": 1307,
      "501010": 1308,
      "239": 1309,
      "60010": 1310,
      "##174": 1311,
      "##----": 1312,
      "705": 1313,
      "##66666666": 1314,
      "div": 1315,
      "12345": 1316,
      "444": 1317,
      "possible\\n": 1318,
      "log": 1319,
      "bob": 1320,
      "##pqrst": 1321,
      "##%lf,%lf)": 1322,
      "draw": 1323,
      "##defghijklmno": 1324,
      "0x30303030": 1325,
      "\\x8b": 1326,
      "root": 1327,
      "##uvwxyz": 1328,
      "##pqrstuvwxyz": 1329,
      "##defghijklmnopqrstuvwxyz": 1330,
      "%3": 1331,
      "%g": 1332,
      "..": 1333,
      "199": 1334,
      "4.0": 1335,
      "6.": 1336,
      "67": 1337,
      "83": 1338,
      "81": 1339,
      "94": 1340,
      "900": 1341,
      "dat": 1342,
      "fu": 1343,
      "key": 1344,
      "mi": 1345,
      "non": 1346,
      "on": 1347,
      "tou": 1348,
      "##56": 1349,
      "##5\\n": 1350,
      "##0768": 1351,
      "##.29": 1352,
      "##2\\n": 1353,
      "##d:": 1354,
      "##923": 1355,
      "##ea": 1356,
      "##te": 1357,
      "##ub": 1358,
      "##mb": 1359,
      "##ad": 1360,
      "##+\\6": 1361,
      "##);": 1362,
      "##13": 1363,
      "##199": 1364,
      "##49": 1365,
      "##bb": 1366,
      "##-%d": 1367,
      "##[%d]": 1368,
      "##_s": 1369,
      "%d%lf": 1370,
      "%d%ld": 1371,
      "100.0": 1372,
      "##rent": 1373,
      "%lld%d%d": 1374,
      "0x0": 1375,
      "0x1": 1376,
      "20010": 1377,
      "129": 1378,
      "1200000": 1379,
      "\\n%c": 1380,
      "1000000009": 1381,
      "302": 1382,
      "503": 1383,
      "5050": 1384,
      "%.7": 1385,
      "150000": 1386,
      "##5329": 1387,
      "137": 1388,
      "##147": 1389,
      "##%lf\\n": 1390,
      "50010": 1391,
      "1001001": 1392,
      "2000000000": 1393,
      "300001": 1394,
      "##769": 1395,
      "1440": 1396,
      "##lose": 1397,
      "##...": 1398,
      "%d%*c": 1399,
      "0.1": 1400,
      "50003": 1401,
      "%lld%lld%lld%lld%lld": 1402,
      "%.9lf\\n": 1403,
      "##576923": 1404,
      "0.0174": 1405,
      "57.29": 1406,
      "##25199": 1407,
      "100000007": 1408,
      "999999": 1409,
      "##ous": 1410,
      "%ld%ld%ld%ld": 1411,
      "##%f%f%f%f": 1412,
      "%u\\n": 1413,
      "80010": 1414,
      "##%d,%d": 1415,
      "%.6f\\n": 1416,
      "%.6lf\\n": 1417,
      "##xxxxxx": 1418,
      "##690768": 1419,
      "##,%f,%f": 1420,
      "%d%d%d%d%d%d%d%d": 1421,
      "second": 1422,
      "##\\7+\\6": 1423,
      "##lower": 1424,
      "false\\n": 1425,
      "true\\n": 1426,
      "##4329576923": 1427,
      "\\x8b\\7+\\6": 1428,
      "data": 1429,
      "none": 1430,
      "toupper": 1431,
      "##d:%02": 1432,
      "##532925199": 1433,
      "0.0174532925199": 1434,
      "##690768489": 1435,
      "##4329576923690768489": 1436,
      "0.01745329251994329576923690768489": 1437,
      "%x": 1438,
      "'k": 1439,
      "(%lf,%lf)": 1440,
      ".aa": 1441,
      "....": 1442,
      "2\\n": 1443,
      "2147": 1444,
      "4e": 1445,
      "499": 1446,
      "4649": 1447,
      "68": 1448,
      "610": 1449,
      "70000": 1450,
      "86": 1451,
      "819": 1452,
      "850": 1453,
      "840": 1454,
      "95": 1455,
      "91": 1456,
      ":(": 1457,
      "\\'": 1458,
      "\\\"": 1459,
      "an": 1460,
      "bd": 1461,
      "bu": 1462,
      "br": 1463,
      "bb": 1464,
      "eg": 1465,
      "ech": 1466,
      "fou": 1467,
      "hei": 1468,
      "le": 1469,
      "mo": 1470,
      "su": 1471,
      "sz": 1472,
      "##58": 1473,
      "##.%lld": 1474,
      "##.aa": 1475,
      "##283": 1476,
      "##\\\\": 1477,
      "##91": 1478,
      "##98": 1479,
      "##%llf": 1480,
      "##73": 1481,
      "##x.": 1482,
      "##ist": 1483,
      "##upper": 1484,
      "##ay": 1485,
      "##av": 1486,
      "##ault": 1487,
      "##+d": 1488,
      "##))": 1489,
      "##ope": 1490,
      "##120": 1491,
      "##1795": 1492,
      "##655": 1493,
      "##676": 1494,
      "##864": 1495,
      "##ss": 1496,
      "##c3": 1497,
      "##ge": 1498,
      "##-z": 1499,
      "##>]": 1500,
      "##]=": 1501,
      "##(\"": 1502,
      "##zz": 1503,
      "##=%d:": 1504,
      "##\\n3": 1505,
      "##\\n9": 1506,
      "%d|": 1507,
      "%d.%d": 1508,
      "printf(\"": 1509,
      "default": 1510,
      "10xxxxxx": 1511,
      "1009": 1512,
      "0x10": 1513,
      "0x55": 1514,
      "0x5050": 1515,
      "0x0000ffff": 1516,
      "0xfffff": 1517,
      "not": 1518,
      "124": 1519,
      "1200": 1520,
      "1000000001": 1521,
      "3030": 1522,
      "##ath": 1523,
      "16001": 1524,
      "%.2": 1525,
      "155": 1526,
      "250": 1527,
      "2501": 1528,
      "250001": 1529,
      "##5307": 1530,
      "2600": 1531,
      "1025": 1532,
      "3002": 1533,
      "%lf%d": 1534,
      "isupper": 1535,
      "521": 1536,
      "3000000000000": 1537,
      "%*d%s": 1538,
      "##185307": 1539,
      "##era": 1540,
      "10000005": 1541,
      "200017": 1542,
      "4004": 1543,
      "##%lf%lf%lf": 1544,
      "500009": 1545,
      "30005": 1546,
      "%d:\\n": 1547,
      "%d:%d": 1548,
      "200200": 1549,
      "##wise": 1550,
      "400005": 1551,
      "400000": 1552,
      "##2528": 1553,
      "%.12f\\n": 1554,
      "##7951": 1555,
      "##ichi": 1556,
      "##abc": 1557,
      "##aaaaaaaa": 1558,
      "##cccccccc": 1559,
      "##577951": 1560,
      "4194303": 1561,
      "##23456789": 1562,
      "the": 1563,
      "999999999": 1564,
      "##9999999999999999": 1565,
      "##ult[": 1566,
      "a..a..": 1567,
      "%d/%d": 1568,
      "%lu\\n": 1569,
      "##\\xc3": 1570,
      "##%.6lf": 1571,
      "123456789": 1572,
      "%3d": 1573,
      "6.283": 1574,
      "##7692528": 1575,
      "57.29577951": 1576,
      "214748": 1577,
      "8192": 1578,
      "echo": 1579,
      "##1795864": 1580,
      "##6559": 1581,
      "##6766559": 1582,
      "0x50505050": 1583,
      "##1853071795864": 1584,
      "6.2831853071795864": 1585,
      "##76925286766559": 1586,
      "6.283185307179586476925286766559": 1587,
      "%2": 1588,
      "%4": 1589,
      "%[": 1590,
      "%02": 1591,
      "%04": 1592,
      "%as": 1593,
      "-e": 1594,
      "224": 1595,
      "29999": 1596,
      "324": 1597,
      "514": 1598,
      "76": 1599,
      "89": 1600,
      "ad": 1601,
      "bl": 1602,
      "close": 1603,
      "eve": 1604,
      "fi": 1605,
      "ho": 1606,
      "hi=": 1607,
      "man": 1608,
      "n=%d:": 1609,
      "of": 1610,
      "out": 1611,
      "rg": 1612,
      "rab": 1613,
      "sn": 1614,
      "wa": 1615,
      "##59": 1616,
      "##51": 1617,
      "##54": 1618,
      "##515": 1619,
      "##0\\n": 1620,
      "##0*d": 1621,
      "##364": 1622,
      "##210": 1623,
      "##215": 1624,
      "##dre": 1625,
      "##%u": 1626,
      "##%[^": 1627,
      "##%+d": 1628,
      "##xt": 1629,
      "##eg": 1630,
      "##ect": 1631,
      "##tt": 1632,
      "##ti": 1633,
      "##ict": 1634,
      "##ur": 1635,
      "##ull": 1636,
      "##ml": 1637,
      "##am": 1638,
      "##a-z": 1639,
      "##+\u0006": 1640,
      "##)\\n": 1641,
      "##l_s": 1642,
      "##o\\0": 1643,
      "##100": 1644,
      "##1f\\n": 1645,
      "##63": 1646,
      "##629": 1647,
      "##87": 1648,
      "##rd": 1649,
      "##s.": 1650,
      "##sse": 1651,
      "##bit": 1652,
      "##gc": 1653,
      "##kichi": 1654,
      "##-kichi": 1655,
      "##];": 1656,
      "##]%d": 1657,
      "##ph": 1658,
      "##p\\n": 1659,
      "##yo": 1660,
      "##':": 1661,
      "##\",": 1662,
      "##,sse": 1663,
      "##val": 1664,
      "##_av": 1665,
      "##:%d\\n": 1666,
      "##=]": 1667,
      "##=%d\\n": 1668,
      "##<>": 1669,
      "##\\n7": 1670,
      "##\\n4": 1671,
      "##\\n99": 1672,
      "##orde": 1673,
      "%d00": 1674,
      "##anc": 1675,
      "##dex.": 1676,
      "##ncti": 1677,
      "##input": 1678,
      "##sei": 1679,
      "##sert": 1680,
      "death": 1681,
      "##%d.": 1682,
      "1004": 1683,
      "10080": 1684,
      "%d%d%*d": 1685,
      "100009": 1686,
      "##aka": 1687,
      "##ako": 1688,
      "copr": 1689,
      "0x00": 1690,
      "0x53": 1691,
      "0x33": 1692,
      "0x3f": 1693,
      "0x45": 1694,
      "0x01": 1695,
      "0x07": 1696,
      "0x06": 1697,
      "%d%d%d\\n": 1698,
      "206": 1699,
      "2020": 1700,
      "1e12": 1701,
      "200008": 1702,
      "2000000": 1703,
      "1000000000000": 1704,
      "10000000000000000": 1705,
      "##%lld\\n": 1706,
      "##2436": 1707,
      "10003": 1708,
      "##fff": 1709,
      "117": 1710,
      "1110": 1711,
      "1120": 1712,
      "1121": 1713,
      "11001": 1714,
      "165": 1715,
      "%.0": 1716,
      "%.3": 1717,
      "%.4": 1718,
      "%.3f": 1719,
      "unre": 1720,
      "1510": 1721,
      "257": 1722,
      "25000": 1723,
      "##537": 1724,
      "265": 1725,
      "##%d%d%d%d": 1726,
      "5100": 1727,
      "##%s\\n": 1728,
      "3003": 1729,
      "30010": 1730,
      "5003": 1731,
      "100100": 1732,
      "%d%d%d%d\\n": 1733,
      "##288629": 1734,
      "187": 1735,
      "islower": 1736,
      "1e-3": 1737,
      "20000000000000000": 1738,
      "300002": 1739,
      "1000000010": 1740,
      "##8443": 1741,
      "2000001": 1742,
      "200020": 1743,
      "367": 1744,
      "3600": 1745,
      "362436": 1746,
      "##ment": 1747,
      "0.7": 1748,
      "0.001": 1749,
      "##2020": 1750,
      "%llu.": 1751,
      "%s%s(": 1752,
      "restr": 1753,
      "read": 1754,
      "##667": 1755,
      "##668": 1756,
      "##ime\\n": 1757,
      "%d:%d:": 1758,
      "%.9lf": 1759,
      "##0f0f0": 1760,
      "##0f0f0f": 1761,
      "%d%s%d": 1762,
      "##555555": 1763,
      "%f,%f": 1764,
      "104857": 1765,
      "2e5": 1766,
      "index.": 1767,
      "##print": 1768,
      "0x7e": 1769,
      "200000000000007": 1770,
      "0.01": 1771,
      "##333333": 1772,
      "##433433": 1773,
      "0x7fffff": 1774,
      "40001": 1775,
      "##00ff00": 1776,
      "##6751": 1777,
      "600010": 1778,
      "##%c%c": 1779,
      "##ici": 1780,
      "%.10f\\n": 1781,
      "%.15f\\n": 1782,
      "##069": 1783,
      "##0625": 1784,
      "##aaaaaa": 1785,
      "##cccccc": 1786,
      "error!\\n": 1787,
      "diff": 1788,
      "##html": 1789,
      "strncpy": 1790,
      "201910": 1791,
      "fputc": 1792,
      "9999999999": 1793,
      "overf": 1794,
      "##not": 1795,
      "##\\n0\\n": 1796,
      "%d%d%d%d%d%d%d%d%d": 1797,
      "first\\n": 1798,
      "pair": 1799,
      "parent": 1800,
      "%d/%d\\n": 1801,
      "abcdefghijklmnopqrstuvwxyz": 1802,
      "##########": 1803,
      "##1\\n-1\\n-1\\n-1\\n-1\\n-1\\n-1\\n-1\\n-1\\n-1\\n-1\\n-1\\n-1\\n-1\\n-1\\n-1\\n-1\\n-1\\n-1\\n-1\\n-1\\n-1\\n-1\\n-1\\n-1\\n-1\\n-1\\n-1\\n-1\\n-1\\n-1\\n-1\\n-1\\n-1\\n-1\\n-1\\n-1\\n-1\\n-1\\n-1\\n-1\\n-1\\n-1\\n-1\\n-1\\n-1\\n-1\\n-1\\n-1\\n-1\\n-1\\n-1\\n-1\\n-1\\n-1\\n-1\\n-1\\n-1\\n-1\\n-1\\n-1\\n-1\\n-1\\n-1\\n-1\\n-1\\n-1\\n-1\\n-1\\n-1\\n-1\\n-1\\n-1\\n-1\\n-1\\n-1\\n-1\\n-1\\n-1\\n-1\\n-1\\n-1\\n-1\\n-1\\n-1\\n-1\\n-1\\n-1\\n-1\\n-1\\n-1\\n-1\\n-1\\n-1\\n-1\\n-1\\n-1\\n-1\\n-1\\n-1\\n-1\\n-1\\n-1\\n-1\\n-1\\n-1\\n-1\\n-1\\n-1\\n-1\\n-1\\n-1\\n-1\\n-1\\n-1\\n-1\\n-1\\n-1\\n-1\\n-1\\n-1\\n-1\\n-1\\n-1\\n-1\\n-1\\n-1\\n-1\\n-1\\n-1\\n-1\\n-1\\n-1\\n-1\\n-1\\n-1\\n-1\\n-1\\n-1\\n-1\\n-1\\n-1\\n-1\\n-1\\n-1\\n-1\\n-1\\n-1\\n-1\\n-1\\n-1\\n-1\\n-1\\n-1\\n-1\\n-1\\n-1\\n-1\\n-1\\n-1\\n-1\\n-1\\n-1\\n-1\\n-1\\n-1\\n-1\\n-1\\n-1\\n-1\\n-1\\n-1\\n-1\\n-1\\n-1\\n-1\\n-1\\n-1\\n-1\\n-1\\n-1\\n-1\\n-1\\n-1\\n-1\\n-1\\n-1\\n-1\\n-1\\n-1\\n-1\\n-1\\n-1\\n-1\\n-1\\n-1\\n-1\\n-1\\n-1\\n-1\\n-1\\n-1\\n-1\\n-1\\n-1\\n-1\\n-1\\n-1\\n-1\\n-1\\n-1\\n-1\\n-1\\n-1\\n-1\\n-1\\n-1\\n-1\\n-1\\n-1\\n-1\\n-1\\n-1\\n-1\\n-1\\n-1\\n-1\\n-1\\n-1\\n-1\\n-1\\n-1\\n-1\\n-1\\n-1\\n-1\\n-1\\n-1\\n-1\\n-1\\n-1\\n-1\\n-1\\n-1\\n-1\\n-1\\n-1\\n-1\\n-1\\n-1\\n-1\\n-1\\n-1\\n-1\\n-1\\n-1\\n-1\\n-1\\n-1\\n-1\\n-1\\n-1\\n-1\\n-1\\n-1\\n-1\\n-1\\n-1\\n-1\\n-1\\n-1\\n-1\\n-1\\n-1\\n-1\\n-1\\n-1\\n-1\\n-1\\n-1\\n-1\\n-1\\n-1\\n-1\\n-1\\n-1\\n-1\\n-1\\n-1\\n-1\\n-1\\n-1\\n-1\\n-1\\n-1\\n-1\\n-1\\n-1\\n-1\\n-1\\n-1\\n-1\\n-1\\n-1\\n-1\\n-1\\n-1\\n-1\\n-1\\n-1\\n-1\\n-1\\n-1\\n-1\\n-1\\n-1\\n-1\\n-1\\n-1\\n-1\\n-1\\n-1\\n-1\\n-1\\n-1\\n-1\\n-1\\n-1\\n-1\\n-1\\n-1\\n-1\\n-1\\n-1\\n-1\\n-1\\n-1\\n-1\\n-1\\n-1\\n-1\\n-1\\n-1\\n-1\\n-1\\n-1\\n-1\\n-1\\n-1\\n-1\\n-1\\n-1\\n-1\\n-1\\n-1\\n-1\\n-1\\n-1\\n-1\\n-1\\n-1\\n-1\\n-1\\n-1\\n-1\\n-1\\n-1\\n-1\\n-1\\n-1\\n-1\\n-1\\n-1\\n-1\\n-1\\n-1\\n-1\\n-1\\n-1\\n-1\\n-1\\n-1\\n-1\\n-1\\n-1\\n-1\\n-1\\n-1\\n-1\\n-1\\n-1\\n-1\\n-1\\n-1\\n-1\\n-1\\n-1\\n-1\\n-1\\n-1\\n-1\\n-1\\n-1\\n-1\\n-1\\n-1\\n-1\\n-1\\n-1\\n-1\\n-1\\n-1\\n-1\\n-1\\n-1\\n-1\\n-1\\n-1\\n-1\\n-1\\n-1\\n-1\\n-1\\n-1\\n-1\\n-1\\n-1\\n-1\\n-1\\n-1\\n-1\\n-1\\n-1\\n-1\\n-1\\n-1\\n-1\\n-1\\n-1\\n-1\\n-1\\n-1\\n-1\\n-1\\n-1\\n-1\\n-1\\n-1\\n-1\\n-1\\n-1\\n-1\\n-1\\n-1\\n-1\\n-1\\n-1\\n-1\\n-1\\n-1\\n-1\\n-1\\n-1\\n-1\\n-1\\n-1\\n-1\\n-1\\n-1\\n-1\\n-1\\n-1\\n-1\\n-1\\n-1\\n-1\\n-1\\n-1\\n-1\\n-1\\n-1\\n-1\\n-1\\n-1\\n-1\\n-1\\n-1\\n-1\\n-1\\n-1\\n-1\\n-1\\n-1\\n-1\\n-1\\n-1\\n-1\\n-1\\n-1\\n-1\\n-1\\n-1\\n-1\\n-1\\n-1\\n-1\\n-1\\n-1\\n-1\\n-1\\n-1\\n-1\\n-1\\n-1\\n-1\\n-1\\n-1\\n-1\\n-1\\n-1\\n-1\\n-1\\n-1\\n-1\\n-1\\n-1\\n-1\\n-1\\n-1\\n-1\\n-1\\n-1\\n-1\\n-1\\n-1\\n-1\\n-1\\n-1\\n-1\\n-1\\n-1\\n-1\\n-1\\n-1\\n-1\\n-1\\n-1\\n-1\\n-1\\n-1\\n-1\\n-1\\n-1\\n-1\\n-1\\n-1\\n-1\\n-1\\n-1\\n-1\\n-1\\n-1\\n-1\\n-1\\n-1\\n-1\\n-1\\n-1\\n-1\\n-1\\n-1\\n-1\\n-1\\n-1\\n-1\\n-1\\n-1\\n-1\\n-1\\n-1\\n-1\\n-1\\n-1\\n-1\\n-1\\n-1\\n-1\\n-1\\n-1\\n-1\\n-1\\n-1\\n-1\\n-1\\n-1\\n-1\\n-1\\n-1\\n-1\\n-1\\n-1\\n-1\\n-1\\n-1\\n-1\\n-1\\n-1\\n-1\\n-1\\n-1\\n-1\\n-1\\n-1\\n-1\\n-1\\n-1\\n-1\\n-1\\n-1\\n-1\\n-1\\n-1\\n-1\\n-1\\n-1\\n-1\\n-1\\n-1\\n-1\\n-1\\n-1\\n-1\\n-1\\n-1\\n-1\\n-1\\n-1\\n-1\\n-1\\n-1\\n-1\\n-1\\n-1\\n-1\\n-1\\n-1\\n-1\\n-1\\n-1\\n-1\\n-1\\n-1\\n-1\\n-1\\n-1\\n-1\\n-1\\n-1\\n-1\\n-1\\n-1\\n-1\\n-1\\n-1\\n-1\\n-1\\n-1\\n-1\\n-1\\n-1\\n-1\\n-1\\n-1\\n-1\\n-1\\n-1\\n-1\\n-1\\n-1\\n-1\\n-1\\n-1\\n-1\\n-1\\n-1\\n-1\\n-1\\n-1\\n-1\\n-1\\n-1\\n-1\\n-1\\n-1\\n-1\\n-1\\n-1\\n-1\\n-1\\n-1\\n-1\\n-1\\n-1\\n-1\\n-1\\n-1\\n-1\\n-1\\n-1\\n-1\\n-1\\n-1\\n-1\\n-1\\n-1\\n-1\\n-1\\n-1\\n-1\\n-1\\n-1\\n-1\\n-1\\n-1\\n-1\\n-1\\n-1\\n-1\\n-1\\n-1\\n-1\\n-1\\n-1\\n-1\\n-1\\n-1\\n-1\\n-1\\n-1\\n-1\\n-1\\n-1\\n-1\\n-1\\n-1\\n-1\\n-1\\n-1\\n-1\\n-1\\n-1\\n-1\\n-1\\n-1\\n-1\\n-1\\n-1\\n-1\\n-1\\n-1\\n-1\\n-1\\n-1\\n-1\\n-1\\n-1\\n-1\\n-1\\n-1\\n-1\\n-1\\n-1\\n-1\\n-1\\n-1\\n-1\\n-1\\n-1\\n-1\\n-1\\n-1\\n-1\\n-1\\n-1\\n-1\\n-1\\n-1\\n-1\\n-1\\n-1\\n-1\\n-1\\n-1\\n-1\\n-1\\n-1\\n-1\\n-1\\n-1\\n-1\\n-1\\n-1\\n-1\\n-1\\n-1\\n-1\\n-1\\n-1\\n-1\\n-1\\n-1\\n-1\\n-1\\n-1\\n-1\\n-1\\n-1\\n-1\\n-1\\n-1\\n-1\\n-1\\n-1\\n-1\\n-1\\n-1\\n-1\\n-1\\n-1\\n-1\\n-1\\n-1\\n-1\\n-1\\n-1\\n-1\\n-1\\n-1\\n-1\\n-1\\n-1\\n-1\\n-1\\n-1\\n-1\\n-1\\n-1\\n-1\\n-1\\n-1\\n-1\\n-1\\n-1\\n-1\\n-1\\n-1\\n-1\\n-1\\n-1\\n-1\\n-1\\n-1\\n-1\\n-1\\n-1\\n-1\\n-1\\n-1\\n-1\\n-1\\n-1\\n-1\\n-1\\n-1\\n-1\\n-1\\n-1\\n-1\\n-1\\n-1\\n-1\\n-1\\n-1\\n-1\\n-1\\n-1\\n-1\\n-1\\n-1\\n-1\\n-1\\n-1\\n-1\\n-1\\n-1\\n-1\\n-1\\n-1\\n-1\\n-1\\n-1\\n-1\\n-1\\n-1\\n-1\\n-1\\n-1\\n-1\\n-1\\n-1\\n-1\\n-1\\n-1\\n-1\\n-1\\n-1\\n-1\\n-1\\n-1\\n-1\\n-1\\n-1\\n-1\\n-1\\n-1\\n-1\\n-1\\n-1\\n-1\\n-1\\n-1\\n-1\\n-1\\n-1\\n-1\\n-1\\n-1\\n-1\\n-1\\n-1\\n-1\\n-1\\n-1\\n-1\\n-1\\n-1\\n-1\\n-1\\n-1\\n-1\\n-1\\n-1\\n-1\\n-1\\n-1\\n-1\\n-1\\n-1\\n-1\\n-1\\n-1\\n-1\\n-1\\n-1\\n-1\\n-1\\n-1\\n-1\\n-1\\n-1\\n-1\\n-1\\n-1\\n-1\\n-1\\n-1\\n-1\\n-1\\n-1\\n-1\\n-1\\n-1\\n-1\\n-1\\n-1\\n-1\\n-1\\n-1\\n-1\\n-1\\n-1\\n-1\\n-1\\n-1\\n-1\\n-1\\n-1\\n-1\\n-1\\n-1\\n-1\\n-1\\n-1\\n-1\\n-1\\n-1\\n-1\\n-1\\n-1\\n-1\\n-1\\n-1\\n-1\\n-1\\n-1\\n-1\\n-1\\n-1\\n-1\\n-1\\n-1\\n-1\\n-1\\n-1\\n-1\\n-1\\n-1\\n-1\\n-1\\n-1\\n-1\\n-1\\n-1\\n-1\\n-1\\n-1\\n-1\\n-1\\n-1\\n-1\\n-1\\n-1\\n-1\\n-1\\n-1\\n-1\\n-1\\n-1\\n-1\\n-1\\n-1\\n-1\\n-1\\n-1\\n-1\\n-1\\n-1\\n-1\\n-1\\n-1\\n-1\\n-1\\n-1\\n-1\\n-1\\n-1\\n-1\\n-1\\n-1\\n-1\\n-1\\n-1\\n-1\\n-1\\n-1\\n-1\\n-1\\n-1\\n-1\\n-1\\n-1\\n-1\\n-1\\n-1\\n-1\\n-1\\n-1\\n-1\\n-1\\n-1\\n-1\\n-1\\n-1\\n-1\\n-1\\n-1\\n-1\\n-1\\n-1\\n-1\\n-1\\n-1\\n-1\\n-1\\n-1\\n-1\\n-1\\n-1\\n-1\\n-1\\n-1\\n-1\\n-1\\n-1\\n-1\\n-1\\n-1\\n-1\\n-1\\n-1\\n-1\\n-1\\n-1\\n-1\\n-1\\n-1\\n-1\\n-1\\n-1\\n-1\\n-1\\n-1\\n-1\\n-1\\n-1\\n-1\\n-1\\n-1\\n-1\\n-1\\n-1\\n-1\\n-1\\n-1\\n-1\\n-1\\n-1\\n-1\\n-1\\n-1\\n-1\\n-1\\n-1\\n-1\\n-1\\n-1\\n-1\\n-1\\n-1\\n-1\\n-1\\n-1\\n-1\\n-1\\n-1\\n-1\\n-1\\n-1\\n-1\\n-1\\n-1\\n-1\\n-1\\n-1\\n-1\\n-1\\n-1\\n-1\\n-1\\n-1\\n-1\\n-1\\n-1\\n-1\\n-1\\n-1\\n-1\\n-1\\n-1\\n-1\\n-1\\n-1\\n-1\\n-1\\n-1\\n-1\\n-1\\n-1\\n-1\\n-1\\n-1\\n-1\\n-1\\n-1\\n-1\\n-1\\n-1\\n-1\\n-1\\n-1\\n-1\\n-1\\n-1\\n-1\\n-1\\n-1\\n-1\\n-1\\n-1\\n-1\\n-1\\n-1\\n-1\\n-1\\n-1\\n-1\\n-1\\n-1\\n-1\\n-1\\n-1\\n-1\\n-1\\n-1\\n-1\\n-1\\n-1\\n-1\\n-1\\n-1\\n-1\\n-1\\n-1\\n-1\\n-1\\n-1\\n-1\\n-1\\n-1\\n-1\\n-1\\n-1\\n-1\\n-1\\n-1\\n-1\\n-1\\n-1\\n-1\\n-1\\n-1\\n-1\\n-1\\n-1\\n-1\\n-1\\n-1\\n-1\\n-1\\n-1\\n-1\\n-1\\n-1\\n-1\\n-1\\n-1\\n-1\\n-1\\n-1\\n-1\\n-1\\n-1\\n-1\\n-1\\n-1\\n-1\\n-1\\n-1\\n-1\\n-1\\n-1\\n-1\\n-1\\n-1\\n-1\\n-1\\n-1\\n-1\\n-1\\n-1\\n-1\\n-1\\n-1\\n-1\\n-1\\n-1\\n-1\\n-1\\n-1\\n-1\\n-1\\n-1\\n-1\\n-1\\n-1\\n-1\\n-1\\n-1\\n-1\\n-1\\n-1\\n-1\\n-1\\n-1\\n-1\\n-1\\n-1\\n-1\\n-1\\n-1\\n-1\\n-1\\n-1\\n-1\\n-1\\n-1\\n-1\\n-1\\n-1\\n-1\\n-1\\n-1\\n-1\\n-1\\n-1\\n-1\\n-1\\n-1\\n-1\\n-1\\n-1\\n-1\\n-1\\n-1\\n-1\\n-1\\n-1\\n-1\\n-1\\n-1\\n-1\\n-1\\n-1\\n-1\\n-1\\n-1\\n-1\\n-1\\n-1\\n-1\\n-1\\n-1\\n-1\\n-1\\n-1\\n-1\\n-1\\n-1\\n-1\\n-1\\n-1\\n-1\\n-1\\n-1\\n-1\\n-1\\n-1\\n-1\\n-1\\n-1\\n-1\\n-1\\n-1\\n-1\\n-1\\n-1\\n-1\\n-1\\n-1\\n-1\\n-1\\n-1\\n-1\\n-1\\n-1\\n-1\\n-1\\n-1\\n-1\\n-1\\n-1\\n-1\\n-1\\n-1\\n-1\\n-1\\n-1\\n-1\\n-1\\n-1\\n-1\\n-1\\n-1\\n-1\\n-1\\n-1\\n-1\\n-1\\n-1\\n-1\\n-1\\n-1\\n-1\\n-1\\n-1\\n-1\\n-1\\n-1\\n-1\\n-1\\n-1\\n-1\\n-1\\n-1\\n-1\\n-1\\n-1\\n-1\\n-1\\n-1\\n-1\\n-1\\n-1\\n-1\\n-1\\n-1\\n-1\\n-1\\n-1\\n-1\\n-1\\n-1\\n-1\\n-1\\n-1\\n-1\\n-1\\n-1\\n-1\\n-1\\n-1\\n-1\\n-1\\n-1\\n-1\\n-1\\n-1\\n-1\\n-1\\n-1\\n-1\\n-1\\n-1\\n-1\\n-1\\n-1\\n-1\\n-1\\n-1\\n-1\\n-1\\n-1\\n-1\\n-1\\n-1\\n-1\\n-1\\n-1\\n-1\\n-1\\n-1\\n-1\\n-1\\n-1\\n-1\\n-1\\n-1\\n-1\\n-1\\n-1\\n-1\\n-1\\n-1\\n-1\\n-1\\n-1\\n-1\\n-1\\n-1\\n-1\\n-1\\n-1\\n-1\\n-1\\n-1\\n-1\\n-1\\n-1\\n-1\\n-1\\n-1\\n-1\\n-1\\n-1\\n-1\\n-1\\n-1\\n-1\\n-1\\n-1\\n-1\\n-1\\n-1\\n-1\\n-1\\n-1\\n-1\\n-1\\n-1\\n-1\\n-1\\n-1\\n-1\\n-1\\n-1\\n-1\\n-1\\n-1\\n-1\\n-1\\n-1\\n-1\\n-1\\n-1\\n-1\\n-1\\n-1\\n-1\\n-1\\n-1\\n-1\\n-1\\n-1\\n-1\\n-1\\n-1\\n-1\\n-1\\n-1\\n-1\\n-1\\n-1\\n-1\\n-1\\n-1\\n-1\\n-1\\n-1\\n-1\\n-1\\n-1\\n-1\\n-1\\n-1\\n-1\\n-1\\n-1\\n-1\\n-1\\n-1\\n-1\\n-1\\n-1\\n-1\\n-1\\n-1\\n-1\\n-1\\n-1\\n-1\\n-1\\n-1\\n-1\\n-1\\n-1\\n-1\\n-1\\n-1\\n-1\\n-1\\n-1\\n-1\\n-1\\n-1\\n-1\\n-1\\n-1\\n-1\\n-1\\n-1\\n-1\\n-1\\n-1\\n-1\\n-1\\n-1\\n-1\\n-1\\n-1\\n-1\\n-1\\n-1\\n-1\\n-1\\n-1\\n-1\\n-1\\n-1\\n-1\\n-1\\n-1\\n-1\\n-1\\n-1\\n-1\\n-1\\n-1\\n-1\\n-1\\n-1\\n-1\\n-1\\n-1\\n-1\\n-1\\n-1\\n-1\\n-1\\n-1\\n-1\\n-1\\n-1\\n-1\\n-1\\n-1\\n-1\\n-1\\n-1\\n-1\\n-1\\n-1\\n-1\\n-1\\n-1\\n-1\\n-1\\n-1\\n-1\\n-1\\n-1\\n-1\\n-1\\n-1\\n-1\\n-1\\n-1\\n-1\\n-1\\n-1\\n-1\\n-1\\n-1\\n-1\\n-1\\n-1\\n-1\\n-1\\n-1\\n-1\\n-1\\n-1\\n-1\\n-1\\n-1\\n-1\\n-1\\n-1\\n-1\\n-1\\n-1\\n-1\\n-1\\n-1\\n-1\\n-1\\n-1\\n-1\\n-1\\n-1\\n-1\\n-1\\n-1\\n-1\\n-1\\n-1\\n-1\\n-1\\n-1\\n-1\\n-1\\n-1\\n-1\\n-1\\n-1\\n-1\\n-1\\n-1\\n-1\\n-1\\n-1\\n-1\\n-1\\n-1\\n-1\\n-1\\n-1\\n-1\\n-1\\n-1\\n-1\\n-1\\n-1\\n-1\\n-1\\n-1\\n-1\\n-1\\n-1\\n-1\\n-1\\n-1\\n-1\\n-1\\n-1\\n-1\\n-1\\n-1\\n-1\\n-1\\n-1\\n-1\\n-1\\n-1\\n-1\\n-1\\n-1\\n-1\\n-1\\n-1\\n-1\\n-1\\n-1\\n-1\\n-1\\n-1\\n-1\\n-1\\n-1\\n-1\\n-1\\n-1\\n-1\\n-1\\n-1\\n-1\\n-1\\n-1\\n-1\\n-1\\n-1\\n-1\\n-1\\n-1\\n-1\\n-1\\n-1\\n-1\\n-1\\n-1\\n-1\\n-1\\n-1\\n-1\\n-1\\n-1\\n-1\\n-1\\n-1\\n-1\\n-1\\n-1\\n-1\\n-1\\n-1\\n-1\\n-1\\n-1\\n-1\\n-1\\n-1\\n-1\\n-1\\n-1\\n-1\\n-1\\n-1\\n-1\\n-1\\n-1\\n-1\\n-1\\n-1\\n-1\\n-1\\n-1\\n-1\\n-1\\n-1\\n-1\\n-1\\n-1\\n-1\\n-1\\n-1\\n-1\\n-1\\n-1\\n-1\\n-1\\n-1\\n-1\\n-1\\n-1\\n-1\\n-1\\n-1\\n-1\\n-1\\n-1\\n-1\\n-1\\n-1\\n-1\\n-1\\n-1\\n-1\\n-1\\n-1\\n-1\\n-1\\n-1\\n-1\\n-1\\n-1\\n-1\\n-1\\n-1\\n-1\\n-1\\n-1\\n-1\\n-1\\n-1\\n-1\\n-1\\n-1\\n-1\\n-1\\n-1\\n-1\\n-1\\n-1\\n-1\\n-1\\n-1\\n-1\\n-1\\n-1\\n-1\\n-1\\n-1\\n-1\\n-1\\n-1\\n-1\\n-1\\n-1\\n-1\\n-1\\n-1\\n-1\\n-1\\n-1\\n-1\\n-1\\n-1\\n-1\\n-1\\n-1\\n-1\\n-1\\n-1\\n-1\\n-1\\n-1\\n-1\\n-1\\n-1\\n-1\\n-1\\n-1\\n-1\\n-1\\n-1\\n-1\\n-1\\n-1\\n-1\\n-1\\n-1\\n-1\\n-1\\n-1\\n-1\\n-1\\n-1\\n-1\\n-1\\n-1\\n-1\\n-1\\n-1\\n-1\\n-1\\n-1\\n-1\\n-1\\n-1\\n-1\\n-1\\n-1\\n-1\\n-1\\n-1\\n-1\\n-1\\n-1\\n-1\\n-1\\n-1\\n-1\\n-1\\n-1\\n-1\\n-1\\n-1\\n-1\\n-1\\n-1\\n-1\\n-1\\n-1\\n-1\\n-1\\n-1\\n-1\\n-1\\n-1\\n-1\\n-1\\n-1\\n-1\\n-1\\n-1\\n-1\\n-1\\n-1\\n-1\\n-1\\n-1\\n-1\\n-1\\n-1\\n-1\\n-1\\n-1\\n-1\\n-1\\n-1\\n-1\\n-1\\n-1\\n-1\\n-1\\n-1\\n-1\\n-1\\n-1\\n-1\\n-1\\n-1\\n-1\\n-1\\n-1\\n-1\\n-1\\n-1\\n-1\\n-1\\n-1\\n-1\\n-1\\n-1\\n-1\\n-1\\n-1\\n-1\\n-1\\n-1\\n-1\\n-1\\n-1\\n-1\\n-1\\n-1\\n-1\\n-1\\n-1\\n-1\\n-1\\n-1\\n-1\\n-1\\n-1\\n-1\\n-1\\n-1\\n-1\\n-1\\n-1\\n-1\\n-1\\n-1\\n-1\\n-1\\n-1\\n-1\\n-1\\n-1\\n-1\\n-1\\n-1\\n-1\\n-1\\n-1\\n-1\\n-1\\n-1\\n-1\\n-1\\n-1\\n-1\\n-1\\n-1\\n-1\\n-1\\n-1\\n-1\\n-1\\n-1\\n-1\\n-1\\n-1\\n-1\\n-1\\n-1\\n-1\\n-1\\n-1\\n-1\\n-1\\n-1\\n-1\\n-1\\n-1\\n-1\\n-1\\n-1\\n-1\\n-1\\n-1\\n-1\\n-1\\n-1\\n-1\\n-1\\n-1\\n-1\\n-1\\n-1\\n-1\\n-1\\n-1\\n-1\\n-1\\n-1\\n-1\\n-1\\n-1\\n-1\\n-1\\n-1\\n-1\\n-1\\n-1\\n-1\\n-1\\n-1\\n-1\\n-1\\n-1\\n-1\\n-1\\n-1\\n-1\\n-1\\n-1\\n-1\\n-1\\n-1\\n-1\\n-1\\n-1\\n-1\\n-1\\n-1\\n-1\\n-1\\n-1\\n-1\\n-1\\n-1\\n-1\\n-1\\n-1\\n-1\\n-1\\n-1\\n-1\\n-1\\n-1\\n-1\\n-1\\n-1\\n-1\\n-1\\n-1\\n-1\\n-1\\n-1\\n-1\\n-1\\n-1\\n-1\\n-1\\n-1\\n-1\\n-1\\n-1\\n-1\\n-1\\n-1\\n-1\\n-1\\n-1\\n-1\\n-1\\n-1\\n-1\\n-1\\n-1\\n-1\\n-1\\n-1\\n-1\\n-1\\n-1\\n-1\\n-1\\n-1\\n-1\\n-1\\n-1\\n-1\\n-1\\n-1\\n-1\\n-1\\n-1\\n-1\\n-1\\n-1\\n-1\\n-1\\n-1\\n-1\\n-1\\n-1\\n-1\\n-1\\n-1\\n-1\\n-1\\n-1\\n-1\\n-1\\n-1\\n-1\\n-1\\n-1\\n-1\\n-1\\n-1\\n-1\\n-1\\n-1\\n-1\\n-1\\n-1\\n-1\\n-1\\n-1\\n-1\\n-1\\n-1\\n-1\\n-1\\n-1\\n-1\\n-1\\n-1\\n-1\\n-1\\n-1\\n-1\\n-1\\n-1\\n-1\\n-1\\n-1\\n-1\\n-1\\n-1\\n-1\\n-1\\n-1\\n-1\\n-1\\n-1\\n-1\\n-1\\n-1\\n-1\\n-1\\n-1\\n-1\\n-1\\n-1\\n-1\\n-1\\n-1\\n-1\\n-1\\n-1\\n-1\\n-1\\n-1\\n-1\\n-1\\n-1\\n-1\\n-1\\n-1\\n-1\\n-1\\n-1\\n-1\\n-1\\n-1\\n-1\\n-1\\n-1\\n-1\\n-1\\n-1\\n-1\\n-1\\n-1\\n-1\\n-1\\n-1\\n-1\\n-1\\n-1\\n-1\\n-1\\n-1\\n-1\\n-1\\n-1\\n-1\\n-1\\n-1\\n-1\\n-1\\n-1\\n-1\\n-1\\n-1\\n-1\\n-1\\n-1\\n-1\\n-1\\n-1\\n-1\\n-1\\n-1\\n-1\\n-1\\n-1\\n-1\\n-1\\n-1\\n-1\\n-1\\n-1\\n-1\\n-1\\n-1\\n-1\\n-1\\n-1\\n-1\\n-1\\n-1\\n-1\\n-1\\n-1\\n-1\\n-1\\n-1\\n-1\\n-1\\n-1\\n-1\\n-1\\n-1\\n-1\\n-1\\n-1\\n-1\\n-1\\n-1\\n-1\\n-1\\n-1\\n-1\\n-1\\n-1\\n-1\\n-1\\n-1\\n-1\\n-1\\n-1\\n-1\\n-1\\n-1\\n-1\\n-1\\n-1\\n-1\\n-1\\n-1\\n-1\\n-1\\n-1\\n-1\\n-1\\n-1\\n-1\\n-1\\n-1\\n-1\\n-1\\n-1\\n-1\\n-1\\n-1\\n-1\\n-1\\n-1\\n-1\\n-1\\n-1\\n-1\\n-1\\n-1\\n-1\\n-1\\n-1\\n-1\\n-1\\n-1\\n-1\\n-1\\n-1\\n-1\\n-1\\n-1\\n-1\\n-1\\n-1\\n-1\\n-1\\n-1\\n-1\\n-1\\n-1\\n-1\\n-1\\n-1\\n-1\\n-1\\n-1\\n-1\\n-1\\n-1\\n-1\\n-1\\n-1\\n-1\\n-1\\n-1\\n-1\\n-1\\n-1\\n-1\\n-1\\n-1\\n-1\\n-1\\n-1\\n-1\\n-1\\n-1\\n-1\\n-1\\n-1\\n-1\\n-1\\n-1\\n-1\\n-1\\n-1\\n-1\\n-1\\n-1\\n-1\\n-1\\n-1\\n-1\\n-1\\n-1\\n-1\\n-1\\n-1\\n-1\\n-1\\n-1\\n-1\\n-1\\n-1\\n-1\\n-1\\n-1\\n-1\\n-1\\n-1\\n-1\\n-1\\n-1\\n-1\\n-1\\n-1\\n-1\\n-1\\n-1\\n-1\\n-1\\n-1\\n-1\\n-1\\n-1\\n-1\\n-1\\n-1\\n-1\\n-1\\n-1\\n-1\\n-1\\n-1\\n-1\\n-1\\n-1\\n-1\\n-1\\n-1\\n-1\\n-1\\n-1\\n-1\\n-1\\n-1\\n-1\\n-1\\n-1\\n-1\\n-1\\n-1\\n-1\\n-1\\n-1\\n-1\\n-1\\n-1\\n-1\\n-1\\n-1\\n-1\\n-1\\n-1\\n-1\\n-1\\n-1\\n-1\\n-1\\n-1\\n-1\\n-1\\n-1\\n-1\\n-1\\n-1\\n-1\\n-1\\n-1\\n-1\\n-1\\n-1\\n-1\\n-1\\n-1\\n-1\\n-1\\n-1\\n-1\\n-1\\n-1\\n-1\\n-1\\n-1\\n-1\\n-1\\n-1\\n-1\\n-1\\n-1\\n-1\\n-1\\n-1\\n-1\\n-1\\n-1\\n-1\\n-1\\n-1\\n-1\\n-1\\n-1\\n-1\\n-1\\n-1\\n-1\\n-1\\n-1\\n-1\\n-1\\n-1\\n-1\\n-1\\n-1\\n-1\\n-1\\n-1\\n-1\\n-1\\n-1\\n-1\\n-1\\n-1\\n-1\\n-1\\n-1\\n-1\\n-1\\n-1\\n-1\\n-1\\n-1\\n-1\\n-1\\n-1\\n-1\\n-1\\n-1\\n-1\\n-1\\n-1\\n-1\\n-1\\n-1\\n-1\\n-1\\n-1\\n-1\\n-1\\n-1\\n-1\\n-1\\n-1\\n-1\\n-1\\n-1\\n-1\\n-1\\n-1\\n-1\\n-1\\n-1\\n-1\\n-1\\n-1\\n-1\\n-1\\n-1\\n-1\\n-1\\n-1\\n-1\\n-1\\n-1\\n-1\\n-1\\n-1\\n-1\\n-1\\n-1\\n-1\\n-1\\n-1\\n-1\\n-1\\n-1\\n-1\\n-1\\n-1\\n-1\\n-1\\n-1\\n-1\\n-1\\n-1\\n-1\\n-1\\n-1\\n-1\\n-1\\n-1\\n-1\\n-1\\n-1\\n-1\\n-1\\n-1\\n-1\\n-1\\n-1\\n-1\\n-1\\n-1\\n-1\\n-1\\n-1\\n-1\\n-1\\n-1\\n-1\\n-1\\n-1\\n-1\\n-1\\n-1\\n-1\\n-1\\n-1\\n-1\\n-1\\n-1\\n-1\\n-1\\n-1\\n-1\\n-1\\n-1\\n-1\\n-1\\n-1\\n-1\\n-1\\n-1\\n-1\\n-1\\n-1\\n-1\\n-1\\n-1\\n-1\\n-1\\n-1\\n-1\\n-1\\n-1\\n-1\\n-1\\n-1\\n-1\\n-1\\n-1\\n-1\\n-1\\n-1\\n-1\\n-1\\n-1\\n-1\\n-1\\n-1\\n-1\\n-1\\n-1\\n-1\\n-1\\n-1\\n-1\\n-1\\n-1\\n-1\\n-1\\n-1\\n-1\\n-1\\n-1\\n-1\\n-1\\n-1\\n-1\\n-1\\n-1\\n-1\\n-1\\n-1\\n-1\\n-1\\n-1\\n-1\\n-1\\n-1\\n-1\\n-1\\n-1\\n-1\\n-1\\n-1\\n-1\\n-1\\n-1\\n-1\\n-1\\n-1\\n-1\\n-1\\n-1\\n-1\\n-1\\n-1\\n-1\\n-1\\n-1\\n-1\\n-1\\n-1\\n-1\\n-1\\n-1\\n-1\\n-1\\n-1\\n-1\\n-1\\n-1\\n-1\\n-1\\n-1\\n-1\\n-1\\n-1\\n-1\\n-1\\n-1\\n-1\\n-1\\n-1\\n-1\\n-1\\n-1\\n-1\\n-1\\n-1\\n-1\\n-1\\n-1\\n-1\\n-1\\n-1\\n-1\\n-1\\n-1\\n-1\\n-1\\n-1\\n-1\\n-1\\n-1\\n-1\\n-1\\n-1\\n-1\\n-1\\n-1\\n-1\\n-1\\n-1\\n-1\\n-1\\n-1\\n-1\\n-1\\n-1\\n-1\\n-1\\n-1\\n-1\\n-1\\n-1\\n-1\\n-1\\n-1\\n-1\\n-1\\n-1\\n-1\\n-1\\n-1\\n-1\\n-1\\n-1\\n-1\\n-1\\n-1\\n-1\\n-1\\n-1\\n-1\\n-1\\n-1\\n-1\\n-1\\n-1\\n-1\\n-1\\n-1\\n-1\\n-1\\n-1\\n-1\\n-1\\n-1\\n-1\\n-1\\n-1\\n-1\\n-1\\n-1\\n-1\\n-1\\n-1\\n-1\\n-1\\n-1\\n-1\\n-1\\n-1\\n-1\\n-1\\n-1\\n-1\\n-1\\n-1\\n-1\\n-1\\n-1\\n-1\\n-1\\n-1\\n-1\\n-1\\n-1\\n-1\\n-1\\n-1\\n-1\\n-1\\n-1\\n-1\\n-1\\n-1\\n-1\\n-1\\n-1\\n-1\\n-1\\n-1\\n-1\\n-1\\n-1\\n-1\\n-1\\n-1\\n-1\\n-1\\n-1\\n-1\\n-1\\n-1\\n-1\\n-1\\n-1\\n-1\\n-1\\n-1\\n-1\\n-1\\n-1\\n-1\\n-1\\n-1\\n-1\\n-1\\n-1\\n-1\\n-1\\n-1\\n-1\\n-1\\n-1\\n-1\\n-1\\n-1\\n-1\\n-1\\n-1\\n-1\\n-1\\n-1\\n-1\\n-1\\n-1\\n-1\\n-1\\n-1\\n-1\\n-1\\n-1\\n-1\\n-1\\n-1\\n-1\\n-1\\n-1\\n-1\\n-1\\n-1\\n-1\\n-1\\n-1\\n-1\\n-1\\n-1\\n-1\\n-1\\n-1\\n-1\\n-1\\n-1\\n-1\\n-1\\n-1\\n-1\\n-1\\n-1\\n-1\\n-1\\n-1\\n-1\\n-1\\n-1\\n-1\\n-1\\n-1\\n-1\\n-1\\n-1\\n-1\\n-1\\n-1\\n-1\\n-1\\n-1\\n-1\\n-1\\n-1\\n-1\\n-1\\n-1\\n-1\\n-1\\n-1\\n-1\\n-1\\n-1\\n-1\\n-1\\n-1\\n-1\\n-1\\n-1\\n-1\\n-1\\n-1\\n-1\\n-1\\n-1\\n-1\\n-1\\n-1\\n-1\\n-1\\n-1\\n-1\\n-1\\n-1\\n-1\\n-1\\n-1\\n-1\\n-1\\n-1\\n-1\\n-1\\n-1\\n-1\\n-1\\n-1\\n-1\\n-1\\n-1\\n-1\\n-1\\n-1\\n-1\\n-1\\n-1\\n-1\\n-1\\n-1\\n-1\\n-1\\n-1\\n-1\\n-1\\n-1\\n-1\\n-1\\n-1\\n-1\\n-1\\n-1\\n-1\\n-1\\n-1\\n-1\\n-1\\n-1\\n-1\\n-1\\n-1\\n-1\\n-1\\n-1\\n-1\\n-1\\n-1\\n-1\\n-1\\n-1\\n-1\\n-1\\n-1\\n-1\\n-1\\n-1\\n-1\\n-1\\n-1\\n-1\\n-1\\n-1\\n-1\\n-1\\n-1\\n-1\\n-1\\n-1\\n-1\\n-1\\n-1\\n-1\\n-1\\n-1\\n-1\\n-1\\n-1\\n-1\\n-1\\n-1\\n-1\\n-1\\n-1\\n-1\\n-1\\n-1\\n-1\\n-1\\n-1\\n-1\\n-1\\n-1\\n-1\\n-1\\n-1\\n-1\\n-1\\n-1\\n-1\\n-1\\n-1\\n-1\\n-1\\n-1\\n-1\\n-1\\n-1\\n-1\\n-1\\n-1\\n-1\\n-1\\n-1\\n-1\\n-1\\n-1\\n-1\\n-1\\n-1\\n-1\\n-1\\n-1\\n-1\\n-1\\n-1\\n-1\\n-1\\n-1\\n-1\\n-1\\n-1\\n-1\\n-1\\n-1\\n-1\\n-1\\n-1\\n-1\\n-1\\n-1\\n-1\\n-1\\n-1\\n-1\\n-1\\n-1\\n-1\\n-1\\n-1\\n-1\\n-1\\n-1\\n-1\\n-1\\n-1\\n-1\\n-1\\n-1\\n-1\\n-1\\n-1\\n-1\\n-1\\n-1\\n-1\\n-1\\n-1\\n-1\\n-1\\n-1\\n-1\\n-1\\n-1\\n-1\\n-1\\n-1\\n-1\\n-1\\n-1\\n-1\\n-1\\n-1\\n-1\\n-1\\n-1\\n-1\\n-1\\n-1\\n-1\\n-1\\n-1\\n-1\\n-1\\n-1\\n-1\\n-1\\n-1\\n-1\\n-1\\n-1\\n-1\\n-1\\n-1\\n-1\\n-1\\n-1\\n-1\\n-1\\n-1\\n-1\\n-1\\n-1\\n-1\\n-1\\n-1\\n-1\\n-1\\n-1\\n-1\\n-1\\n-1\\n-1\\n-1\\n-1\\n-1\\n-1\\n-1\\n-1\\n-1\\n-1\\n-1\\n-1\\n-1\\n-1\\n-1\\n-1\\n-1\\n-1\\n-1\\n-1\\n-1\\n-1\\n-1\\n-1\\n-1\\n-1\\n-1\\n-1\\n-1\\n-1\\n-1\\n-1\\n-1\\n-1\\n-1\\n-1\\n-1\\n-1\\n-1\\n-1\\n-1\\n-1\\n-1\\n-1\\n-1\\n-1\\n-1\\n-1\\n-1\\n-1\\n-1\\n-1\\n-1\\n-1\\n-1\\n-1\\n-1\\n-1\\n-1\\n-1\\n-1\\n-1\\n-1\\n-1\\n-1\\n-1\\n-1\\n-1\\n-1\\n-1\\n-1\\n-1\\n-1\\n-1\\n-1\\n-1\\n-1\\n-1\\n-1\\n-1\\n-1\\n-1\\n-1\\n-1\\n-1\\n-1\\n-1\\n-1\\n-1\\n-1\\n-1\\n-1\\n-1\\n-1\\n-1\\n-1\\n-1\\n-1\\n-1\\n-1\\n-1\\n-1\\n-1\\n-1\\n-1\\n-1\\n-1\\n-1\\n-1\\n-1\\n-1\\n-1\\n-1\\n-1\\n-1\\n-1\\n-1\\n-1\\n-1\\n-1\\n-1\\n-1\\n-1\\n-1\\n-1\\n-1\\n-1\\n-1\\n-1\\n-1\\n-1\\n-1\\n-1\\n-1\\n-1\\n-1\\n-1\\n-1\\n-1\\n-1\\n-1\\n-1\\n-1\\n-1\\n-1\\n-1\\n-1\\n-1\\n-1\\n-1\\n-1\\n-1\\n-1\\n-1\\n-1\\n-1\\n-1\\n-1\\n-1\\n-1\\n-1\\n-1\\n-1\\n-1\\n-1\\n-1\\n-1\\n-1\\n-1\\n-1\\n-1\\n-1\\n-1\\n-1\\n-1\\n-1\\n-1\\n-1\\n-1\\n-1\\n-1\\n-1\\n-1\\n-1\\n-1\\n-1\\n-1\\n-1\\n-1\\n-1\\n-1\\n-1\\n-1\\n-1\\n-1\\n-1\\n-1\\n-1\\n-1\\n-1\\n-1\\n-1\\n-1\\n-1\\n-1\\n-1\\n-1\\n-1\\n-1\\n-1\\n-1\\n-1\\n-1\\n-1\\n-1\\n-1\\n-1\\n-1\\n-1\\n-1\\n-1\\n-1\\n-1\\n-1\\n-1\\n-1\\n-1\\n-1\\n-1\\n-1\\n-1\\n-1\\n-1\\n-1\\n-1\\n-1\\n-1\\n-1\\n-1\\n-1\\n-1\\n-1\\n-1\\n-1\\n-1\\n-1\\n-1\\n-1\\n-1\\n-1\\n-1\\n-1\\n-1\\n-1\\n-1\\n-1\\n-1\\n-1\\n-1\\n-1\\n-1\\n-1\\n-1\\n-1\\n-1\\n-1\\n-1\\n-1\\n-1\\n-1\\n-1\\n-1\\n-1\\n-1\\n-1\\n-1\\n-1\\n-1\\n-1\\n-1\\n-1\\n-1\\n-1\\n-1\\n-1\\n-1\\n-1\\n-1\\n-1\\n-1\\n-1\\n-1\\n-1\\n-1\\n-1\\n-1\\n-1\\n-1\\n-1\\n-1\\n-1\\n-1\\n-1\\n-1\\n-1\\n-1\\n-1\\n-1\\n-1\\n-1\\n-1\\n-1\\n-1\\n-1\\n-1\\n-1\\n-1\\n-1\\n-1\\n-1\\n-1\\n-1\\n-1\\n-1\\n-1\\n-1\\n-1\\n-1\\n-1\\n-1\\n-1\\n-1\\n-1\\n-1\\n-1\\n-1\\n-1\\n-1\\n-1\\n-1\\n-1\\n-1\\n-1\\n-1\\n-1\\n-1\\n-1\\n-1\\n-1\\n-1\\n-1\\n-1\\n-1\\n-1\\n-1\\n-1\\n-1\\n-1\\n-1\\n-1\\n-1\\n-1\\n-1\\n-1\\n-1\\n-1\\n-1\\n-1\\n-1\\n-1\\n-1\\n-1\\n-1\\n-1\\n-1\\n-1\\n-1\\n-1\\n-1\\n-1\\n-1\\n-1\\n-1\\n-1\\n-1\\n-1\\n-1\\n-1\\n-1\\n-1\\n-1\\n-1\\n-1\\n-1\\n-1\\n-1\\n-1\\n-1\\n-1\\n-1\\n-1\\n-1\\n-1\\n-1\\n-1\\n-1\\n-1\\n-1\\n-1\\n-1\\n-1\\n-1\\n-1\\n-1\\n-1\\n-1\\n-1\\n-1\\n-1\\n-1\\n-1\\n-1\\n-1\\n-1\\n-1\\n-1\\n-1\\n-1\\n-1\\n-1\\n-1\\n-1\\n-1\\n-1\\n-1\\n-1\\n-1\\n-1\\n-1\\n-1\\n-1\\n-1\\n-1\\n-1\\n-1\\n-1\\n-1\\n-1\\n-1\\n-1\\n-1\\n-1\\n-1\\n-1\\n-1\\n-1\\n-1\\n-1\\n-1\\n-1\\n-1\\n-1\\n-1\\n-1\\n-1\\n-1\\n-1\\n-1\\n-1\\n-1\\n-1\\n-1\\n-1\\n-1\\n-1\\n-1\\n-1\\n-1\\n-1\\n-1\\n-1\\n-1\\n-1\\n-1\\n-1\\n-1\\n-1\\n-1\\n-1\\n-1\\n-1\\n-1\\n-1\\n-1\\n-1\\n-1\\n-1\\n-1\\n-1\\n-1\\n-1\\n-1\\n-1\\n-1\\n-1\\n-1\\n-1\\n-1\\n-1\\n-1\\n-1\\n-1\\n-1\\n-1\\n-1\\n-1\\n-1\\n-1\\n-1\\n-1\\n-1\\n-1\\n-1\\n-1\\n-1\\n-1\\n-1\\n-1\\n-1\\n-1\\n-1\\n-1\\n-1\\n-1\\n-1\\n-1\\n-1\\n-1\\n-1\\n-1\\n-1\\n-1\\n-1\\n-1\\n-1\\n-1\\n-1\\n-1\\n-1\\n-1\\n-1\\n-1\\n-1\\n-1\\n-1\\n-1\\n-1\\n-1\\n-1\\n-1\\n-1\\n-1\\n-1\\n-1\\n-1\\n-1\\n-1\\n-1\\n-1\\n-1\\n-1\\n-1\\n-1\\n-1\\n-1\\n-1\\n-1\\n-1\\n-1\\n-1\\n-1\\n-1\\n-1\\n-1\\n-1\\n-1\\n-1\\n-1\\n-1\\n-1\\n-1\\n-1\\n-1\\n-1\\n-1\\n-1\\n-1\\n-1\\n-1\\n-1\\n-1\\n-1\\n-1\\n-1\\n-1\\n-1\\n-1\\n-1\\n-1\\n-1\\n-1\\n-1\\n-1\\n-1\\n-1\\n-1\\n-1\\n-1\\n-1\\n-1\\n-1\\n-1\\n-1\\n-1\\n-1\\n-1\\n-1\\n-1\\n-1\\n-1\\n-1\\n-1\\n-1\\n-1\\n-1\\n-1\\n-1\\n-1\\n-1\\n-1\\n-1\\n-1\\n-1\\n-1\\n-1\\n-1\\n-1\\n-1\\n-1\\n-1\\n-1\\n-1\\n-1\\n-1\\n-1\\n-1\\n-1\\n-1\\n-1\\n-1\\n-1\\n-1\\n-1\\n-1\\n-1\\n-1\\n-1\\n-1\\n-1\\n-1\\n-1\\n-1\\n-1\\n-1\\n-1\\n-1\\n-1\\n-1\\n-1\\n-1\\n-1\\n-1\\n-1\\n-1\\n-1\\n-1\\n-1\\n-1\\n-1\\n-1\\n-1\\n-1\\n-1\\n-1\\n-1\\n-1\\n-1\\n-1\\n-1\\n-1\\n-1\\n-1\\n-1\\n-1\\n-1\\n-1\\n-1\\n-1\\n-1\\n-1\\n-1\\n-1\\n-1\\n-1\\n-1\\n-1\\n-1\\n-1\\n-1\\n-1\\n-1\\n-1\\n-1\\n-1\\n-1\\n-1\\n-1\\n-1\\n-1\\n-1\\n-1\\n-1\\n-1\\n-1\\n-1\\n-1\\n-1\\n-1\\n-1\\n-1\\n-1\\n-1\\n-1\\n-1\\n-1\\n-1\\n-1\\n-1\\n-": 1804,
      "second\\n": 1805,
      "55556": 1806,
      "886751": 1807,
      "5e3": 1808,
      "600005": 1809,
      "86400": 1810,
      "86402": 1811,
      "9e9": 1812,
      "unknown\\n": 1813,
      "%c%d%c": 1814,
      "log10": 1815,
      "functi": 1816,
      "##ub':": 1817,
      "0x05": 1818,
      "0x1f": 1819,
      "\\n%c-%d": 1820,
      "%.7f\\n": 1821,
      "##%lf\\n%lf\\n": 1822,
      "\\x8b\\7+\\6\\xc3": 1823,
      "##.%lld.%lld": 1824,
      "521288629": 1825,
      "3000000000000000000": 1826,
      "##abcdefghijklmnopqrstuvwxyz": 1827,
      "a..a..b": 1828,
      "214748364": 1829,
      "%[a-z": 1830,
      "black": 1831,
      "many": 1832,
      "rabbit": 1833,
      "##l_sub':": 1834,
      "##_avl_sub':": 1835,
      "##order": 1836,
      "##input(": 1837,
      "coprime\\n": 1838,
      "362436069": 1839,
      "restrict": 1840,
      "index.html": 1841,
      "88675123": 1842,
      "function": 1843,
      "2147483647": 1844,
      "%[a-z]%d": 1845,
      "##_avl_sub':\\n": 1846,
      "#\\n": 1847,
      "%5": 1848,
      "%*c": 1849,
      "%llf": 1850,
      "%0*d": 1851,
      "'^": 1852,
      "(%d": 1853,
      "(%d,%d": 1854,
      "(%.6lf": 1855,
      "**": 1856,
      ",.": 1857,
      "-c": 1858,
      "-q": 1859,
      ".,": 1860,
      ".\\\\": 1861,
      "143": 1862,
      "230": 1863,
      "3e": 1864,
      "399": 1865,
      "384": 1866,
      "488": 1867,
      "4e4": 1868,
      "588": 1869,
      "69": 1870,
      "6.0": 1871,
      "600000": 1872,
      "777": 1873,
      "7e4": 1874,
      "80000": 1875,
      "8001": 1876,
      "800000": 1877,
      "9.": 1878,
      "92": 1879,
      "924": 1880,
      "976": 1881,
      "9e4": 1882,
      "90001": 1883,
      "?\\n": 1884,
      "^%d": 1885,
      "ar": 1886,
      "as": 1887,
      "a#": 1888,
      "amb": 1889,
      "c2": 1890,
      "cc": 1891,
      "c#": 1892,
      "cle": 1893,
      "can": 1894,
      "cat": 1895,
      "dd": 1896,
      "d#": 1897,
      "dan": 1898,
      "fe": 1899,
      "fr": 1900,
      "fc": 1901,
      "f#": 1902,
      "fscanf": 1903,
      "fprintf": 1904,
      "fope": 1905,
      "gg": 1906,
      "g#": 1907,
      "gre": 1908,
      "han": 1909,
      "hit": 1910,
      "hea": 1911,
      "i<": 1912,
      "i++": 1913,
      "joi": 1914,
      "kyo": 1915,
      "light": 1916,
      "m7": 1917,
      "mt": 1918,
      "mon": 1919,
      "n:%d": 1920,
      "null": 1921,
      "ope": 1922,
      "po": 1923,
      "py": 1924,
      "p:": 1925,
      "pan": 1926,
      "per": 1927,
      "ran": 1928,
      "res": 1929,
      "red": 1930,
      "right": 1931,
      "r:%d\\n": 1932,
      "s2": 1933,
      "sa": 1934,
      "sc": 1935,
      "sat": 1936,
      "sed": 1937,
      "sum": 1938,
      "sun": 1939,
      "ti": 1940,
      "tle": 1941,
      "tue": 1942,
      "taka": 1943,
      "val": 1944,
      "wr": 1945,
      "wed": 1946,
      "war": 1947,
      "wel": 1948,
      "x^": 1949,
      "yo": 1950,
      "yay": 1951,
      "׋\u0006": 1952,
      "##5)": 1953,
      "##524": 1954,
      "##543": 1955,
      "##548": 1956,
      "##0-": 1957,
      "##0;": 1958,
      "##310": 1959,
      "##320": 1960,
      "##311": 1961,
      "##.%": 1962,
      "##.c": 1963,
      "##ft": 1964,
      "##f00000000": 1965,
      "##\\2": 1966,
      "##\\'": 1967,
      "##nd": 1968,
      "##na": 1969,
      "##ny": 1970,
      "##94": 1971,
      "##9]": 1972,
      "##950": 1973,
      "##909": 1974,
      "##949": 1975,
      "##%2": 1976,
      "##%*": 1977,
      "##%x": 1978,
      "##%1d": 1979,
      "##%as": 1980,
      "##74": 1981,
      "##7\\n": 1982,
      "##720": 1983,
      "##7524": 1984,
      "##x,": 1985,
      "##ek": 1986,
      "##ent": 1987,
      "##ern": 1988,
      "##ell": 1989,
      "##erent": 1990,
      "##tw": 1991,
      "##txt": 1992,
      "##id": 1993,
      "##i;": 1994,
      "##i\\0": 1995,
      "##ival": 1996,
      "##ua": 1997,
      "##us": 1998,
      "##uk": 1999,
      "##unt": 2000,
      "##uous": 2001,
      "##ument": 2002,
      "##mm": 2003,
      "##ant": 2004,
      "##ain": 2005,
      "##a[^": 2006,
      "##+=": 2007,
      "##+\u0007": 2008,
      "##)*": 2009,
      "##li": 2010,
      "##ly": 2011,
      "##lle": 2012,
      "##ome": 2013,
      "##wa": 2014,
      "##ww": 2015,
      "##war": 2016,
      "##1[": 2017,
      "##6\\n": 2018,
      "##625": 2019,
      "##654": 2020,
      "##6210": 2021,
      "##810": 2022,
      "##815": 2023,
      "##879": 2024,
      "##823": 2025,
      "##876": 2026,
      "##410": 2027,
      "##ro": 2028,
      "##s\\n": 2029,
      "##shi": 2030,
      "##safe": 2031,
      "##sult[": 2032,
      "##cd": 2033,
      "##c1": 2034,
      "##bl": 2035,
      "##bh": 2036,
      "##gg": 2037,
      "##gj": 2038,
      "##ger": 2039,
      "##ght": 2040,
      "##gok": 2041,
      "##gist": 2042,
      "##gument": 2043,
      "##key": 2044,
      "##-(": 2045,
      "##-%d%d": 2046,
      "##>0": 2047,
      "##p(": 2048,
      "##ple": 2049,
      "##pth": 2050,
      "##/%d": 2051,
      "##(ma": 2052,
      "##(i=": 2053,
      "##,.": 2054,
      "##,%.6lf": 2055,
      "##ject": 2056,
      "##v<": 2057,
      "##[c2": 2058,
      "##??": 2059,
      "##_f": 2060,
      "##_of": 2061,
      "##|era": 2062,
      "##$'": 2063,
      "##=%d,": 2064,
      "##!?": 2065,
      "##!!": 2066,
      "##nt,": 2067,
      "intern": 2068,
      "##\\n%s%s": 2069,
      "for(i=": 2070,
      "##etc": 2071,
      "##1\\n0\\n": 2072,
      "##rning": 2073,
      "##on3": 2074,
      "%d)": 2075,
      "%d%llu": 2076,
      "pre": 2077,
      "prope": 2078,
      "##init": 2079,
      "##ser": 2080,
      "##hable": 2081,
      "##hashi": 2082,
      "white": 2083,
      "del": 2084,
      "dec": 2085,
      "depth": 2086,
      "----": 2087,
      "------": 2088,
      "##000001": 2089,
      "1030": 2090,
      "stack": 2091,
      "##st\\\\": 2092,
      "##stanc": 2093,
      "##st_avl_sub':\\n": 2094,
      "##stival": 2095,
      "##105": 2096,
      "##101": 2097,
      "##1043": 2098,
      "##1067": 2099,
      "%d\\n\\0": 2100,
      "10015": 2101,
      "%d%d%ld": 2102,
      "##red": 2103,
      "##rep": 2104,
      "##result[": 2105,
      "0x3": 2106,
      "0x30": 2107,
      "0x000000": 2108,
      "0xaaaaaaaa": 2109,
      "0xcccccccc": 2110,
      "%s,": 2111,
      "%s%*c": 2112,
      "%d%d%d%s": 2113,
      "0xf0f0f0f0f": 2114,
      "204": 2115,
      "2050": 2116,
      "2049": 2117,
      "##mptw": 2118,
      "1e16": 2119,
      "20000000": 2120,
      "2000020": 2121,
      "2000081": 2122,
      "fgetc": 2123,
      "%ld%c": 2124,
      "##2403": 2125,
      "##24950": 2126,
      "100012": 2127,
      "115": 2128,
      "113": 2129,
      "1150": 2130,
      "1112": 2131,
      "##ater": 2132,
      "168": 2133,
      "1600": 2134,
      "1677": 2135,
      "%.1f\\n": 2136,
      "##0004": 2137,
      "enum": 2138,
      "997": 2139,
      "9901": 2140,
      "unsafe": 2141,
      "1010000": 2142,
      "151": 2143,
      "15120": 2144,
      "258": 2145,
      "2550": 2146,
      "##432": 2147,
      "40320": 2148,
      "2603": 2149,
      "26537": 2150,
      "130": 2151,
      "134": 2152,
      "1300": 2153,
      "1350": 2154,
      "##14105": 2155,
      "##%d%d%s": 2156,
      "511": 2157,
      "51323": 2158,
      "%lld%lld\\n": 2159,
      "%lld%lld%d": 2160,
      "605": 2161,
      "603": 2162,
      "##ative": 2163,
      "101010": 2164,
      "9998": 2165,
      "179": 2166,
      "ca..": 2167,
      "card": 2168,
      "5006": 2169,
      "5004": 2170,
      "##rty": 2171,
      "##8864": 2172,
      "shcd": 2173,
      "1050": 2174,
      "222": 2175,
      "%c%d\\n": 2176,
      "%c-%d": 2177,
      "181": 2178,
      "211": 2179,
      "2100000000": 2180,
      "21649": 2181,
      "##79815": 2182,
      "1e-5": 2183,
      "##2353": 2184,
      "##485": 2185,
      "##4814105": 2186,
      "##ffffffff": 2187,
      "##ffff0000ffff": 2188,
      "149": 2189,
      "146": 2190,
      "144": 2191,
      "%*d%s%s": 2192,
      "##18654": 2193,
      "6410": 2194,
      "##er\\0": 2195,
      "10000004": 2196,
      "10240": 2197,
      "2000002": 2198,
      "20002": 2199,
      "4005": 2200,
      "366": 2201,
      "##%lf%lf%lf%lf%lf": 2202,
      "0.0000": 2203,
      "0.00000": 2204,
      "195": 2205,
      "1900": 2206,
      "1989": 2207,
      "##20876": 2208,
      "3.14159265": 2209,
      "##303": 2210,
      "##307\\n": 2211,
      "##30823": 2212,
      "500003": 2213,
      "500002": 2214,
      "500000000": 2215,
      "500000004": 2216,
      "42949": 2217,
      "30001": 2218,
      "##4545": 2219,
      "%s%s\\n%s%s": 2220,
      "regist": 2221,
      "2020000": 2222,
      "##369": 2223,
      "##malle": 2224,
      "##213": 2225,
      "%d%s%s": 2226,
      "%d%s%s%s": 2227,
      "##1111": 2228,
      "%f%f": 2229,
      "%f%f%f%f%f": 2230,
      "0\\n%d": 2231,
      "2e4": 2232,
      "3500": 2233,
      "insert": 2234,
      "##\\0%": 2235,
      "##\\0b": 2236,
      "90.0": 2237,
      "9091": 2238,
      "90310": 2239,
      "90909": 2240,
      "%d,%d,%d": 2241,
      "2906": 2242,
      "802": 2243,
      "8080": 2244,
      "575": 2245,
      "577": 2246,
      "##achable": 2247,
      "4095": 2248,
      "2800": 2249,
      "##678": 2250,
      "0x1010101010101010": 2251,
      "%lf\\n%lf\\n%lf\\n": 2252,
      "37000": 2253,
      "##070": 2254,
      "##071067": 2255,
      "abb": 2256,
      "abcc": 2257,
      "abdd": 2258,
      "ab[%d]": 2259,
      "0xff00ff00ff": 2260,
      "0xff0000ffff": 2261,
      "%.8lf": 2262,
      "709": 2263,
      "%.15lf\\n": 2264,
      "333667": 2265,
      "##iro": 2266,
      "##ab....": 2267,
      "##rr....": 2268,
      "##%f%f%f": 2269,
      "##%llu%llu": 2270,
      "1.5": 2271,
      "10801": 2272,
      "%*d%d%d%d": 2273,
      "error!": 2274,
      "dis": 2275,
      "distanc": 2276,
      "##578": 2277,
      "##%*d%*d": 2278,
      "%d%*d%d%d": 2279,
      "4194302": 2280,
      "%u%u": 2281,
      "393": 2282,
      "8002": 2283,
      "800010": 2284,
      "##yyyy": 2285,
      "##yybb": 2286,
      "strtoll": 2287,
      "%.6f": 2288,
      "%lf%lf%lf%lf%d": 2289,
      "7200": 2290,
      "##oo....": 2291,
      "##161": 2292,
      "##1653": 2293,
      "%d\\n%d\\n%d\\n": 2294,
      "11111": 2295,
      "[%d]%lf,": 2296,
      "three": 2297,
      "##iguous": 2298,
      "##argument": 2299,
      "##697": 2300,
      "lose": 2301,
      "##uman": 2302,
      "##8118654": 2303,
      "##\\n0\\n0\\n": 2304,
      "%d%lld%d": 2305,
      "%llu%llu%llu%llu": 2306,
      "%*s%d%d": 2307,
      "bomb": 2308,
      "##.%d.%d": 2309,
      "0x55555555555555": 2310,
      "0x3f3f3f3f3f3f3f3f": 2311,
      "5555": 2312,
      "##aik": 2313,
      "##c2;": 2314,
      "0.000000001": 2315,
      "0123456789": 2316,
      "5e8": 2317,
      "78125": 2318,
      "9e18": 2319,
      "wins.": 2320,
      "##%[=]": 2321,
      "##%.6f": 2322,
      "##th_s": 2323,
      "##thon3": 2324,
      "##4008443": 2325,
      "0x0f0f0f0f0f0f0f": 2326,
      "0x00ff00ff00ff00": 2327,
      "0x33333333333333": 2328,
      "2500005": 2329,
      "2500001": 2330,
      "22222": 2331,
      "infinit": 2332,
      "##6666666666666666": 2333,
      "12345678": 2334,
      "..rr....": 2335,
      "..oo....": 2336,
      "90010": 2337,
      "miss": 2338,
      "online": 2339,
      "##5\\n400": 2340,
      "##test\\\\": 2341,
      "##ubu": 2342,
      "%d%lf%d": 2343,
      "%.7lf\\n": 2344,
      "%lld%lld%lld%lld%lld%lld": 2345,
      "%.6f\\n%.6f": 2346,
      "\\x8b\\7+\\6ð": 2347,
      "##d:%02d\\n": 2348,
      "'k'": 2349,
      "'kth_s": 2350,
      "(%lf,%lf)-(": 2351,
      ".aa.aa": 2352,
      "....ab": 2353,
      "4e6": 2354,
      "700001": 2355,
      "ans": 2356,
      "bust": 2357,
      "buzz": 2358,
      "bbcc": 2359,
      "egrep": 2360,
      "four": 2361,
      "found": 2362,
      "heisei": 2363,
      "height": 2364,
      "leaf": 2365,
      "left": 2366,
      "such": 2367,
      "##%llf%llf": 2368,
      "##)))": 2369,
      "##ge\\n": 2370,
      "##>]>": 2371,
      "##]=i;": 2372,
      "##\\n9548": 2373,
      "0xffffff00000000": 2374,
      "%.2f\\n": 2375,
      "57.2957795130823": 2376,
      "%2d": 2377,
      "%4s": 2378,
      "%02d:%02": 2379,
      "%04d\\n": 2380,
      "adgj": 2381,
      "even": 2382,
      "fizz": 2383,
      "hi=%d:": 2384,
      "rgb": 2385,
      "snuk": 2386,
      "warning": 2387,
      "##2154": 2388,
      "##dream": 2389,
      "##\\n998864": 2390,
      "##%d.txt": 2391,
      "0x00ffff0000ffff": 2392,
      "1000000000000000000": 2393,
      "11001001": 2394,
      "%.3f\\n": 2395,
      "%.4lf\\n": 2396,
      "unreachable": 2397,
      "0.7071067": 2398,
      "%d:%d:%d": 2399,
      "1048575": 2400,
      "##print(": 2401,
      "##icious": 2402,
      "different": 2403,
      "overflow": 2404,
      "abcdefghijklmnopqrstuvwxyzabcdefghijklmnopqrstuvwxyz": 2405,
      "##input()": 2406,
      "'^(": 2407,
      "(%d,%d)": 2408,
      "(%.6lf,%.6lf": 2409,
      "***": 2410,
      ",.]": 2411,
      ".\\\\test\\\\": 2412,
      "3996": 2413,
      "5882353": 2414,
      "77777": 2415,
      "9.8": 2416,
      "arc": 2417,
      "asin": 2418,
      "ambiguous": 2419,
      "cannot": 2420,
      "danger": 2421,
      "fclose": 2422,
      "fopen": 2423,
      "ggyybb": 2424,
      "hanako": 2425,
      "heap\\n": 2426,
      "i<c2;": 2427,
      "i++)": 2428,
      "python3": 2429,
      "range\\n": 2430,
      "result[": 2431,
      "s2[c2": 2432,
      "tie": 2433,
      "takahashi": 2434,
      "x^%lld": 2435,
      "yay!": 2436,
      "׋\u0006+\u0007": 2437,
      "##0-9]": 2438,
      "##75244008443": 2439,
      "##+=result[": 2440,
      "##ward": 2441,
      "##6210485": 2442,
      "##810364364": 2443,
      "##(map(": 2444,
      "internal": 2445,
      "for(i=0;": 2446,
      "property": 2447,
      "-----": 2448,
      "----------": 2449,
      "stack\\n": 2450,
      "##st_avl_sub':\\nargument": 2451,
      "0x000000ffffffff": 2452,
      "0xaaaaaaaaaaaaaa": 2453,
      "0xcccccccccccccc": 2454,
      "0xf0f0f0f0f0f0f0": 2455,
      "##24031043": 2456,
      "##24950307\\n": 2457,
      "151201": 2458,
      "265371653": 2459,
      "513239": 2460,
      "##798154814105": 2461,
      "##20876798154814105": 2462,
      "4294967": 2463,
      "%s%s\\n%s%s\\n": 2464,
      "register": 2465,
      "##mallest_avl_sub':\\nargument": 2466,
      "909091": 2467,
      "2906161": 2468,
      "0xff00ff00ff00ff": 2469,
      "0xff0000ffff0000": 2470,
      "distance": 2471,
      "##811865475244008443": 2472,
      "infinity": 2473,
      "'kth_smallest_avl_sub':\\nargument": 2474,
      "(%lf,%lf)-(%lf,%lf)": 2475,
      "57.295779513082320876798154814105": 2476,
      "adgjmptw": 2477,
      "snuke": 2478,
      "##\\n99886424": 2479,
      "0.7071067811865475244008443": 2480,
      "ggyybbww": 2481,
      "׋\u0006+\u0007ð": 2482,
      "0.70710678118654752440084436210485": 2483,
      "!o": 2484,
      "#%d:": 2485,
      "#########": 2486,
      "#%x": 2487,
      "%*": 2488,
      "%1": 2489,
      "%st": 2490,
      "%10": 2491,
      "%33": 2492,
      "%06": 2493,
      "%09": 2494,
      "%74": 2495,
      "%a[^": 2496,
      "&+": 2497,
      "'s": 2498,
      "'$": 2499,
      "'in": 2500,
      "'%d": 2501,
      "'1d": 2502,
      "',.": 2503,
      "(x": 2504,
      "()": 2505,
      "(mo": 2506,
      "(%d,": 2507,
      "(tt": 2508,
      "(not": 2509,
      "(key": 2510,
      ")[%d]": 2511,
      "+9": 2512,
      "+%d": 2513,
      "+11": 2514,
      "+13": 2515,
      "-0": 2516,
      "-n": 2517,
      "-9": 2518,
      "-%u": 2519,
      "-1\\n-1\\n-1\\n-1\\n-1\\n-1\\n-1\\n-1\\n-1\\n-1\\n-1\\n-1\\n-1\\n-1\\n-1\\n-1\\n-1\\n-1\\n-1\\n-1\\n-1\\n-1\\n-1\\n-1\\n-1\\n-1\\n-1\\n-1\\n-1\\n-1\\n-1\\n-1\\n-1\\n-1\\n-1\\n-1\\n-1\\n-1\\n-1\\n-1\\n-1\\n-1\\n-1\\n-1\\n-1\\n-1\\n-1\\n-1\\n-1\\n-1\\n-1\\n-1\\n-1\\n-1\\n-1\\n-1\\n-1\\n-1\\n-1\\n-1\\n-1\\n-1\\n-1\\n-1\\n-1\\n-1\\n-1\\n-1\\n-1\\n-1\\n-1\\n-1\\n-1\\n-1\\n-1\\n-1\\n-1\\n-1\\n-1\\n-1\\n-1\\n-1\\n-1\\n-1\\n-1\\n-1\\n-1\\n-1\\n-1\\n-1\\n-1\\n-1\\n-1\\n-1\\n-1\\n-1\\n-1\\n-1\\n-1\\n-1\\n-1\\n-1\\n-1\\n-1\\n-1\\n-1\\n-1\\n-1\\n-1\\n-1\\n-1\\n-1\\n-1\\n-1\\n-1\\n-1\\n-1\\n-1\\n-1\\n-1\\n-1\\n-1\\n-1\\n-1\\n-1\\n-1\\n-1\\n-1\\n-1\\n-1\\n-1\\n-1\\n-1\\n-1\\n-1\\n-1\\n-1\\n-1\\n-1\\n-1\\n-1\\n-1\\n-1\\n-1\\n-1\\n-1\\n-1\\n-1\\n-1\\n-1\\n-1\\n-1\\n-1\\n-1\\n-1\\n-1\\n-1\\n-1\\n-1\\n-1\\n-1\\n-1\\n-1\\n-1\\n-1\\n-1\\n-1\\n-1\\n-1\\n-1\\n-1\\n-1\\n-1\\n-1\\n-1\\n-1\\n-1\\n-1\\n-1\\n-1\\n-1\\n-1\\n-1\\n-1\\n-1\\n-1\\n-1\\n-1\\n-1\\n-1\\n-1\\n-1\\n-1\\n-1\\n-1\\n-1\\n-1\\n-1\\n-1\\n-1\\n-1\\n-1\\n-1\\n-1\\n-1\\n-1\\n-1\\n-1\\n-1\\n-1\\n-1\\n-1\\n-1\\n-1\\n-1\\n-1\\n-1\\n-1\\n-1\\n-1\\n-1\\n-1\\n-1\\n-1\\n-1\\n-1\\n-1\\n-1\\n-1\\n-1\\n-1\\n-1\\n-1\\n-1\\n-1\\n-1\\n-1\\n-1\\n-1\\n-1\\n-1\\n-1\\n-1\\n-1\\n-1\\n-1\\n-1\\n-1\\n-1\\n-1\\n-1\\n-1\\n-1\\n-1\\n-1\\n-1\\n-1\\n-1\\n-1\\n-1\\n-1\\n-1\\n-1\\n-1\\n-1\\n-1\\n-1\\n-1\\n-1\\n-1\\n-1\\n-1\\n-1\\n-1\\n-1\\n-1\\n-1\\n-1\\n-1\\n-1\\n-1\\n-1\\n-1\\n-1\\n-1\\n-1\\n-1\\n-1\\n-1\\n-1\\n-1\\n-1\\n-1\\n-1\\n-1\\n-1\\n-1\\n-1\\n-1\\n-1\\n-1\\n-1\\n-1\\n-1\\n-1\\n-1\\n-1\\n-1\\n-1\\n-1\\n-1\\n-1\\n-1\\n-1\\n-1\\n-1\\n-1\\n-1\\n-1\\n-1\\n-1\\n-1\\n-1\\n-1\\n-1\\n-1\\n-1\\n-1\\n-1\\n-1\\n-1\\n-1\\n-1\\n-1\\n-1\\n-1\\n-1\\n-1\\n-1\\n-1\\n-1\\n-1\\n-1\\n-1\\n-1\\n-1\\n-1\\n-1\\n-1\\n-1\\n-1\\n-1\\n-1\\n-1\\n-1\\n-1\\n-1\\n-1\\n-1\\n-1\\n-1\\n-1\\n-1\\n-1\\n-1\\n-1\\n-1\\n-1\\n-1\\n-1\\n-1\\n-1\\n-1\\n-1\\n-1\\n-1\\n-1\\n-1\\n-1\\n-1\\n-1\\n-1\\n-1\\n-1\\n-1\\n-1\\n-1\\n-1\\n-1\\n-1\\n-1\\n-1\\n-1\\n-1\\n-1\\n-1\\n-1\\n-1\\n-1\\n-1\\n-1\\n-1\\n-1\\n-1\\n-1\\n-1\\n-1\\n-1\\n-1\\n-1\\n-1\\n-1\\n-1\\n-1\\n-1\\n-1\\n-1\\n-1\\n-1\\n-1\\n-1\\n-1\\n-1\\n-1\\n-1\\n-1\\n-1\\n-1\\n-1\\n-1\\n-1\\n-1\\n-1\\n-1\\n-1\\n-1\\n-1\\n-1\\n-1\\n-1\\n-1\\n-1\\n-1\\n-1\\n-1\\n-1\\n-1\\n-1\\n-1\\n-1\\n-1\\n-1\\n-1\\n-1\\n-1\\n-1\\n-1\\n-1\\n-1\\n-1\\n-1\\n-1\\n-1\\n-1\\n-1\\n-1\\n-1\\n-1\\n-1\\n-1\\n-1\\n-1\\n-1\\n-1\\n-1\\n-1\\n-1\\n-1\\n-1\\n-1\\n-1\\n-1\\n-1\\n-1\\n-1\\n-1\\n-1\\n-1\\n-1\\n-1\\n-1\\n-1\\n-1\\n-1\\n-1\\n-1\\n-1\\n-1\\n-1\\n-1\\n-1\\n-1\\n-1\\n-1\\n-1\\n-1\\n-1\\n-1\\n-1\\n-1\\n-1\\n-1\\n-1\\n-1\\n-1\\n-1\\n-1\\n-1\\n-1\\n-1\\n-1\\n-1\\n-1\\n-1\\n-1\\n-1\\n-1\\n-1\\n-1\\n-1\\n-1\\n-1\\n-1\\n-1\\n-1\\n-1\\n-1\\n-1\\n-1\\n-1\\n-1\\n-1\\n-1\\n-1\\n-1\\n-1\\n-1\\n-1\\n-1\\n-1\\n-1\\n-1\\n-1\\n-1\\n-1\\n-1\\n-1\\n-1\\n-1\\n-1\\n-1\\n-1\\n-1\\n-1\\n-1\\n-1\\n-1\\n-1\\n-1\\n-1\\n-1\\n-1\\n-1\\n-1\\n-1\\n-1\\n-1\\n-1\\n-1\\n-1\\n-1\\n-1\\n-1\\n-1\\n-1\\n-1\\n-1\\n-1\\n-1\\n-1\\n-1\\n-1\\n-1\\n-1\\n-1\\n-1\\n-1\\n-1\\n-1\\n-1\\n-1\\n-1\\n-1\\n-1\\n-1\\n-1\\n-1\\n-1\\n-1\\n-1\\n-1\\n-1\\n-1\\n-1\\n-1\\n-1\\n-1\\n-1\\n-1\\n-1\\n-1\\n-1\\n-1\\n-1\\n-1\\n-1\\n-1\\n-1\\n-1\\n-1\\n-1\\n-1\\n-1\\n-1\\n-1\\n-1\\n-1\\n-1\\n-1\\n-1\\n-1\\n-1\\n-1\\n-1\\n-1\\n-1\\n-1\\n-1\\n-1\\n-1\\n-1\\n-1\\n-1\\n-1\\n-1\\n-1\\n-1\\n-1\\n-1\\n-1\\n-1\\n-1\\n-1\\n-1\\n-1\\n-1\\n-1\\n-1\\n-1\\n-1\\n-1\\n-1\\n-1\\n-1\\n-1\\n-1\\n-1\\n-1\\n-1\\n-1\\n-1\\n-1\\n-1\\n-1\\n-1\\n-1\\n-1\\n-1\\n-1\\n-1\\n-1\\n-1\\n-1\\n-1\\n-1\\n-1\\n-1\\n-1\\n-1\\n-1\\n-1\\n-1\\n-1\\n-1\\n-1\\n-1\\n-1\\n-1\\n-1\\n-1\\n-1\\n-1\\n-1\\n-1\\n-1\\n-1\\n-1\\n-1\\n-1\\n-1\\n-1\\n-1\\n-1\\n-1\\n-1\\n-1\\n-1\\n-1\\n-1\\n-1\\n-1\\n-1\\n-1\\n-1\\n-1\\n-1\\n-1\\n-1\\n-1\\n-1\\n-1\\n-1\\n-1\\n-1\\n-1\\n-1\\n-1\\n-1\\n-1\\n-1\\n-1\\n-1\\n-1\\n-1\\n-1\\n-1\\n-1\\n-1\\n-1\\n-1\\n-1\\n-1\\n-1\\n-1\\n-1\\n-1\\n-1\\n-1\\n-1\\n-1\\n-1\\n-1\\n-1\\n-1\\n-1\\n-1\\n-1\\n-1\\n-1\\n-1\\n-1\\n-1\\n-1\\n-1\\n-1\\n-1\\n-1\\n-1\\n-1\\n-1\\n-1\\n-1\\n-1\\n-1\\n-1\\n-1\\n-1\\n-1\\n-1\\n-1\\n-1\\n-1\\n-1\\n-1\\n-1\\n-1\\n-1\\n-1\\n-1\\n-1\\n-1\\n-1\\n-1\\n-1\\n-1\\n-1\\n-1\\n-1\\n-1\\n-1\\n-1\\n-1\\n-1\\n-1\\n-1\\n-1\\n-1\\n-1\\n-1\\n-1\\n-1\\n-1\\n-1\\n-1\\n-1\\n-1\\n-1\\n-1\\n-1\\n-1\\n-1\\n-1\\n-1\\n-1\\n-1\\n-1\\n-1\\n-1\\n-1\\n-1\\n-1\\n-1\\n-1\\n-1\\n-1\\n-1\\n-1\\n-1\\n-1\\n-1\\n-1\\n-1\\n-1\\n-1\\n-1\\n-1\\n-1\\n-1\\n-1\\n-1\\n-1\\n-1\\n-1\\n-1\\n-1\\n-1\\n-1\\n-1\\n-1\\n-1\\n-1\\n-1\\n-1\\n-1\\n-1\\n-1\\n-1\\n-1\\n-1\\n-1\\n-1\\n-1\\n-1\\n-1\\n-1\\n-1\\n-1\\n-1\\n-1\\n-1\\n-1\\n-1\\n-1\\n-1\\n-1\\n-1\\n-1\\n-1\\n-1\\n-1\\n-1\\n-1\\n-1\\n-1\\n-1\\n-1\\n-1\\n-1\\n-1\\n-1\\n-1\\n-1\\n-1\\n-1\\n-1\\n-1\\n-1\\n-1\\n-1\\n-1\\n-1\\n-1\\n-1\\n-1\\n-1\\n-1\\n-1\\n-1\\n-1\\n-1\\n-1\\n-1\\n-1\\n-1\\n-1\\n-1\\n-1\\n-1\\n-1\\n-1\\n-1\\n-1\\n-1\\n-1\\n-1\\n-1\\n-1\\n-1\\n-1\\n-1\\n-1\\n-1\\n-1\\n-1\\n-1\\n-1\\n-1\\n-1\\n-1\\n-1\\n-1\\n-1\\n-1\\n-1\\n-1\\n-1\\n-1\\n-1\\n-1\\n-1\\n-1\\n-1\\n-1\\n-1\\n-1\\n-1\\n-1\\n-1\\n-1\\n-1\\n-1\\n-1\\n-1\\n-1\\n-1\\n-1\\n-1\\n-1\\n-1\\n-1\\n-1\\n-1\\n-1\\n-1\\n-1\\n-1\\n-1\\n-1\\n-1\\n-1\\n-1\\n-1\\n-1\\n-1\\n-1\\n-1\\n-1\\n-1\\n-1\\n-1\\n-1\\n-1\\n-1\\n-1\\n-1\\n-1\\n-1\\n-1\\n-1\\n-1\\n-1\\n-1\\n-1\\n-1\\n-1\\n-1\\n-1\\n-1\\n-1\\n-1\\n-1\\n-1\\n-1\\n-1\\n-1\\n-1\\n-1\\n-1\\n-1\\n-1\\n-1\\n-1\\n-1\\n-1\\n-1\\n-1\\n-1\\n-1\\n-1\\n-1\\n-1\\n-1\\n-1\\n-1\\n-1\\n-1\\n-1\\n-1\\n-1\\n-1\\n-1\\n-1\\n-1\\n-1\\n-1\\n-1\\n-1\\n-1\\n-1\\n-1\\n-1\\n-1\\n-1\\n-1\\n-1\\n-1\\n-1\\n-1\\n-1\\n-1\\n-1\\n-1\\n-1\\n-1\\n-1\\n-1\\n-1\\n-1\\n-1\\n-1\\n-1\\n-1\\n-1\\n-1\\n-1\\n-1\\n-1\\n-1\\n-1\\n-1\\n-1\\n-1\\n-1\\n-1\\n-1\\n-1\\n-1\\n-1\\n-1\\n-1\\n-1\\n-1\\n-1\\n-1\\n-1\\n-1\\n-1\\n-1\\n-1\\n-1\\n-1\\n-1\\n-1\\n-1\\n-1\\n-1\\n-1\\n-1\\n-1\\n-1\\n-1\\n-1\\n-1\\n-1\\n-1\\n-1\\n-1\\n-1\\n-1\\n-1\\n-1\\n-1\\n-1\\n-1\\n-1\\n-1\\n-1\\n-1\\n-1\\n-1\\n-1\\n-1\\n-1\\n-1\\n-1\\n-1\\n-1\\n-1\\n-1\\n-1\\n-1\\n-1\\n-1\\n-1\\n-1\\n-1\\n-1\\n-1\\n-1\\n-1\\n-1\\n-1\\n-1\\n-1\\n-1\\n-1\\n-1\\n-1\\n-1\\n-1\\n-1\\n-1\\n-1\\n-1\\n-1\\n-1\\n-1\\n-1\\n-1\\n-1\\n-1\\n-1\\n-1\\n-1\\n-1\\n-1\\n-1\\n-1\\n-1\\n-1\\n-1\\n-1\\n-1\\n-1\\n-1\\n-1\\n-1\\n-1\\n-1\\n-1\\n-1\\n-1\\n-1\\n-1\\n-1\\n-1\\n-1\\n-1\\n-1\\n-1\\n-1\\n-1\\n-1\\n-1\\n-1\\n-1\\n-1\\n-1\\n-1\\n-1\\n-1\\n-1\\n-1\\n-1\\n-1\\n-1\\n-1\\n-1\\n-1\\n-1\\n-1\\n-1\\n-1\\n-1\\n-1\\n-1\\n-1\\n-1\\n-1\\n-1\\n-1\\n-1\\n-1\\n-1\\n-1\\n-1\\n-1\\n-1\\n-1\\n-1\\n-1\\n-1\\n-1\\n-1\\n-1\\n-1\\n-1\\n-1\\n-1\\n-1\\n-1\\n-1\\n-1\\n-1\\n-1\\n-1\\n-1\\n-1\\n-1\\n-1\\n-1\\n-1\\n-1\\n-1\\n-1\\n-1\\n-1\\n-1\\n-1\\n-1\\n-1\\n-1\\n-1\\n-1\\n-1\\n-1\\n-1\\n-1\\n-1\\n-1\\n-1\\n-1\\n-1\\n-1\\n-1\\n-1\\n-1\\n-1\\n-1\\n-1\\n-1\\n-1\\n-1\\n-1\\n-1\\n-1\\n-1\\n-1\\n-1\\n-1\\n-1\\n-1\\n-1\\n-1\\n-1\\n-1\\n-1\\n-1\\n-1\\n-1\\n-1\\n-1\\n-1\\n-1\\n-1\\n-1\\n-1\\n-1\\n-1\\n-1\\n-1\\n-1\\n-1\\n-1\\n-1\\n-1\\n-1\\n-1\\n-1\\n-1\\n-1\\n-1\\n-1\\n-1\\n-1\\n-1\\n-1\\n-1\\n-1\\n-1\\n-1\\n-1\\n-1\\n-1\\n-1\\n-1\\n-1\\n-1\\n-1\\n-1\\n-1\\n-1\\n-1\\n-1\\n-1\\n-1\\n-1\\n-1\\n-1\\n-1\\n-1\\n-1\\n-1\\n-1\\n-1\\n-1\\n-1\\n-1\\n-1\\n-1\\n-1\\n-1\\n-1\\n-1\\n-1\\n-1\\n-1\\n-1\\n-1\\n-1\\n-1\\n-1\\n-1\\n-1\\n-1\\n-1\\n-1\\n-1\\n-1\\n-1\\n-1\\n-1\\n-1\\n-1\\n-1\\n-1\\n-1\\n-1\\n-1\\n-1\\n-1\\n-1\\n-1\\n-1\\n-1\\n-1\\n-1\\n-1\\n-1\\n-1\\n-1\\n-1\\n-1\\n-1\\n-1\\n-1\\n-1\\n-1\\n-1\\n-1\\n-1\\n-1\\n-1\\n-1\\n-1\\n-1\\n-1\\n-1\\n-1\\n-1\\n-1\\n-1\\n-1\\n-1\\n-1\\n-1\\n-1\\n-1\\n-1\\n-1\\n-1\\n-1\\n-1\\n-1\\n-1\\n-1\\n-1\\n-1\\n-1\\n-1\\n-1\\n-1\\n-1\\n-1\\n-1\\n-1\\n-1\\n-1\\n-1\\n-1\\n-1\\n-1\\n-1\\n-1\\n-1\\n-1\\n-1\\n-1\\n-1\\n-1\\n-1\\n-1\\n-1\\n-1\\n-1\\n-1\\n-1\\n-1\\n-1\\n-1\\n-1\\n-1\\n-1\\n-1\\n-1\\n-1\\n-1\\n-1\\n-1\\n-1\\n-1\\n-1\\n-1\\n-1\\n-1\\n-1\\n-1\\n-1\\n-1\\n-1\\n-1\\n-1\\n-1\\n-1\\n-1\\n-1\\n-1\\n-1\\n-1\\n-1\\n-1\\n-1\\n-1\\n-1\\n-1\\n-1\\n-1\\n-1\\n-1\\n-1\\n-1\\n-1\\n-1\\n-1\\n-1\\n-1\\n-1\\n-1\\n-1\\n-1\\n-1\\n-1\\n-1\\n-1\\n-1\\n-1\\n-1\\n-1\\n-1\\n-1\\n-1\\n-1\\n-1\\n-1\\n-1\\n-1\\n-1\\n-1\\n-1\\n-1\\n-1\\n-1\\n-1\\n-1\\n-1\\n-1\\n-1\\n-1\\n-1\\n-1\\n-1\\n-1\\n-1\\n-1\\n-1\\n-1\\n-1\\n-1\\n-1\\n-1\\n-1\\n-1\\n-1\\n-1\\n-1\\n-1\\n-1\\n-1\\n-1\\n-1\\n-1\\n-1\\n-1\\n-1\\n-1\\n-1\\n-1\\n-1\\n-1\\n-1\\n-1\\n-1\\n-1\\n-1\\n-1\\n-1\\n-1\\n-1\\n-1\\n-1\\n-1\\n-1\\n-1\\n-1\\n-1\\n-1\\n-1\\n-1\\n-1\\n-1\\n-1\\n-1\\n-1\\n-1\\n-1\\n-1\\n-1\\n-1\\n-1\\n-1\\n-1\\n-1\\n-1\\n-1\\n-1\\n-1\\n-1\\n-1\\n-1\\n-1\\n-1\\n-1\\n-1\\n-1\\n-1\\n-1\\n-1\\n-1\\n-1\\n-1\\n-1\\n-1\\n-1\\n-1\\n-1\\n-1\\n-1\\n-1\\n-1\\n-1\\n-1\\n-1\\n-1\\n-1\\n-1\\n-1\\n-1\\n-1\\n-1\\n-1\\n-1\\n-1\\n-1\\n-1\\n-1\\n-1\\n-1\\n-1\\n-1\\n-1\\n-1\\n-1\\n-1\\n-1\\n-1\\n-1\\n-1\\n-1\\n-1\\n-1\\n-1\\n-1\\n-1\\n-1\\n-1\\n-1\\n-1\\n-1\\n-1\\n-1\\n-1\\n-1\\n-1\\n-1\\n-1\\n-1\\n-1\\n-1\\n-1\\n-1\\n-1\\n-1\\n-1\\n-1\\n-1\\n-1\\n-1\\n-1\\n-1\\n-1\\n-1\\n-1\\n-1\\n-1\\n-1\\n-1\\n-1\\n-1\\n-1\\n-1\\n-1\\n-1\\n-1\\n-1\\n-1\\n-1\\n-1\\n-1\\n-1\\n-1\\n-1\\n-1\\n-1\\n-1\\n-1\\n-1\\n-1\\n-1\\n-1\\n-1\\n-1\\n-1\\n-1\\n-1\\n-1\\n-1\\n-1\\n-1\\n-1\\n-1\\n-1\\n-1\\n-1\\n-1\\n-1\\n-1\\n-1\\n-1\\n-1\\n-1\\n-1\\n-1\\n-1\\n-1\\n-1\\n-1\\n-1\\n-1\\n-1\\n-1\\n-1\\n-1\\n-1\\n-1\\n-1\\n-1\\n-1\\n-1\\n-1\\n-1\\n-1\\n-1\\n-1\\n-1\\n-1\\n-1\\n-1\\n-1\\n-1\\n-1\\n-1\\n-1\\n-1\\n-1\\n-1\\n-1\\n-1\\n-1\\n-1\\n-1\\n-1\\n-1\\n-1\\n-1\\n-1\\n-1\\n-1\\n-1\\n-1\\n-1\\n-1\\n-1\\n-1\\n-1\\n-1\\n-1\\n-1\\n-1\\n-1\\n-1\\n-1\\n-1\\n-1\\n-1\\n-1\\n-1\\n-1\\n-1\\n-1\\n-1\\n-1\\n-1\\n-1\\n-1\\n-1\\n-1\\n-1\\n-1\\n-1\\n-1\\n-1\\n-1\\n-1\\n-1\\n-1\\n-1\\n-1\\n-1\\n-1\\n-1\\n-1\\n-1\\n-1\\n-1\\n-1\\n-1\\n-1\\n-1\\n-1\\n-1\\n-1\\n-1\\n-1\\n-1\\n-1\\n-1\\n-1\\n-1\\n-1\\n-1\\n-1\\n-1\\n-1\\n-1\\n-1\\n-1\\n-1\\n-1\\n-1\\n-1\\n-1\\n-1\\n-1\\n-1\\n-1\\n-1\\n-1\\n-1\\n-1\\n-1\\n-1\\n-1\\n-1\\n-1\\n-1\\n-1\\n-1\\n-1\\n-1\\n-1\\n-1\\n-1\\n-1\\n-1\\n-1\\n-1\\n-1\\n-1\\n-1\\n-1\\n-1\\n-1\\n-1\\n-1\\n-1\\n-1\\n-1\\n-1\\n-1\\n-1\\n-1\\n-1\\n-1\\n-1\\n-1\\n-1\\n-1\\n-1\\n-1\\n-1\\n-1\\n-1\\n-1\\n-1\\n-1\\n-1\\n-1\\n-1\\n-1\\n-1\\n-1\\n-1\\n-1\\n-1\\n-1\\n-1\\n-1\\n-1\\n-1\\n-1\\n-1\\n-1\\n-1\\n-1\\n-1\\n-1\\n-1\\n-1\\n-1\\n-1\\n-1\\n-1\\n-1\\n-1\\n-1\\n-1\\n-1\\n-1\\n-1\\n-1\\n-1\\n-1\\n-1\\n-1\\n-1\\n-1\\n-1\\n-1\\n-1\\n-1\\n-1\\n-1\\n-1\\n-1\\n-1\\n-1\\n-1\\n-1\\n-1\\n-1\\n-1\\n-1\\n-1\\n-1\\n-1\\n-1\\n-1\\n-1\\n-1\\n-1\\n-1\\n-1\\n-1\\n-1\\n-1\\n-1\\n-1\\n-1\\n-1\\n-1\\n-1\\n-1\\n-1\\n-1\\n-1\\n-1\\n-1\\n-1\\n-1\\n-1\\n-1\\n-1\\n-1\\n-1\\n-1\\n-1\\n-1\\n-1\\n-1\\n-1\\n-1\\n-1\\n-1\\n-1\\n-1\\n-1\\n-1\\n-1\\n-1\\n-1\\n-1\\n-1\\n-1\\n-1\\n-1\\n-1\\n-1\\n-1\\n-1\\n-1\\n-1\\n-1\\n-1\\n-1\\n-1\\n-1\\n-1\\n-1\\n-1\\n-1\\n-1\\n-1\\n-1\\n-1\\n-1\\n-1\\n-1\\n-1\\n-1\\n-1\\n-1\\n-1\\n-1\\n-1\\n-1\\n-1\\n-1\\n-1\\n-1\\n-1\\n-1\\n-1\\n-1\\n-1\\n-1\\n-1\\n-1\\n-1\\n-1\\n-1\\n-1\\n-1\\n-1\\n-1\\n-1\\n-1\\n-1\\n-1\\n-1\\n-1\\n-1\\n-1\\n-1\\n-1\\n-1\\n-1\\n-1\\n-1\\n-1\\n-1\\n-1\\n-1\\n-1\\n-1\\n-1\\n-1\\n-1\\n-1\\n-1\\n-1\\n-1\\n-1\\n-1\\n-1\\n-1\\n-1\\n-1\\n-1\\n-1\\n-1\\n-1\\n-1\\n-1\\n-1\\n-1\\n-1\\n-1\\n-1\\n-1\\n-1\\n-1\\n-1\\n-1\\n-1\\n-1\\n-1\\n-1\\n-1\\n-1\\n-1\\n-1\\n-1\\n-1\\n-1\\n-1\\n-1\\n-1\\n-1\\n-1\\n-1\\n-1\\n-1\\n-1\\n-1\\n-1\\n-1\\n-1\\n-1\\n-1\\n-1\\n-1\\n-1\\n-1\\n-1\\n-1\\n-1\\n-1\\n-1\\n-1\\n-1\\n-1\\n-1\\n-1\\n-1\\n-1\\n-1\\n-1\\n-1\\n-1\\n-1\\n-1\\n-1\\n-1\\n-1\\n-1\\n-1\\n-1\\n-1\\n-1\\n-1\\n-1\\n-1\\n-1\\n-1\\n-1\\n-1\\n-1\\n-1\\n-1\\n-1\\n-1\\n-1\\n-1\\n-1\\n-1\\n-1\\n-1\\n-1\\n-1\\n-1\\n-1\\n-1\\n-1\\n-1\\n-1\\n-1\\n-1\\n-1\\n-1\\n-1\\n-1\\n-1\\n-1\\n-1\\n-1\\n-1\\n-1\\n-1\\n-1\\n-1\\n-1\\n-1\\n-1\\n-1\\n-1\\n-1\\n-1\\n-1\\n-1\\n-1\\n-1\\n-1\\n-1\\n-1\\n-1\\n-1\\n-1\\n-1\\n-1\\n-1\\n-1\\n-1\\n-1\\n-1\\n-1\\n-1\\n-1\\n-1\\n-1\\n-1\\n-1\\n-1\\n-1\\n-1\\n-1\\n-1\\n-1\\n-1\\n-1\\n-1\\n-1\\n-1\\n-1\\n-1\\n-1\\n-1\\n-1\\n-1\\n-1\\n-1\\n-1\\n-1\\n-1\\n-1\\n-1\\n-1\\n-1\\n-1\\n-1\\n-1\\n-1\\n-1\\n-1\\n-1\\n-1\\n-1\\n-1\\n-1\\n-1\\n-1\\n-1\\n-1\\n-1\\n-1\\n-1\\n-1\\n-1\\n-1\\n-1\\n-1\\n-1\\n-1\\n-1\\n-1\\n-1\\n-1\\n-1\\n-1\\n-1\\n-1\\n-1\\n-1\\n-1\\n-1\\n-1\\n-1\\n-1\\n-1\\n-1\\n-1\\n-1\\n-1\\n-1\\n-1\\n-1\\n-1\\n-1\\n-1\\n-1\\n-1\\n-1\\n-1\\n-1\\n-1\\n-1\\n-1\\n-1\\n-1\\n-1\\n-1\\n-1\\n-1\\n-1\\n-1\\n-1\\n-1\\n-1\\n-1\\n-1\\n-1\\n-1\\n-1\\n-1\\n-1\\n-1\\n-1\\n-1\\n-1\\n-1\\n-1\\n-1\\n-1\\n-1\\n-1\\n-1\\n-1\\n-1\\n-1\\n-1\\n-1\\n-1\\n-1\\n-1\\n-1\\n-1\\n-1\\n-1\\n-1\\n-1\\n-1\\n-1\\n-1\\n-1\\n-1\\n-1\\n-1\\n-1\\n-1\\n-1\\n-1\\n-1\\n-1\\n-1\\n-1\\n-1\\n-1\\n-1\\n-1\\n-1\\n-1\\n-1\\n-1\\n-1\\n-1\\n-1\\n-1\\n-1\\n-1\\n-1\\n-1\\n-1\\n-1\\n-1\\n-1\\n-1\\n-1\\n-1\\n-1\\n-1\\n-1\\n-1\\n-1\\n-1\\n-1\\n-1\\n-1\\n-1\\n-1\\n-1\\n-1\\n-1\\n-1\\n-1\\n-1\\n-1\\n-1\\n-1\\n-1\\n-1\\n-1\\n-1\\n-1\\n-1\\n-1\\n-1\\n-1\\n-1\\n-1\\n-1\\n-1\\n-1\\n-1\\n-1\\n-1\\n-1\\n-1\\n-1\\n-1\\n-1\\n-1\\n-1\\n-1\\n-1\\n-1\\n-1\\n-1\\n-1\\n-1\\n-1\\n-1\\n-1\\n-1\\n-1\\n-1\\n-1\\n-1\\n-1\\n-1\\n-1\\n-1\\n-1\\n-1\\n-1\\n-1\\n-1\\n-1\\n-1\\n-1\\n-1\\n-1\\n-1\\n-1\\n-1\\n-1\\n-1\\n-1\\n-1\\n-1\\n-1\\n-1\\n-1\\n-1\\n-1\\n-1\\n-1\\n-1\\n-1\\n-1\\n-1\\n-1\\n-1\\n-1\\n-1\\n-1\\n-1\\n-1\\n-1\\n-1\\n-1\\n-1\\n-1\\n-1\\n-1\\n-1\\n-1\\n-1\\n-1\\n-1\\n-1\\n-1\\n-1\\n-1\\n-1\\n-1\\n-1\\n-1\\n-1\\n-1\\n-1\\n-1\\n-1\\n-1\\n-1\\n-1\\n-1\\n-1\\n-1\\n-1\\n-1\\n-1\\n-1\\n-1\\n-1\\n-1\\n-1\\n-1\\n-1\\n-1\\n-1\\n-1\\n-1\\n-1\\n-1\\n-1\\n-1\\n-1\\n-1\\n-1\\n-1\\n-1\\n-1\\n-1\\n-1\\n-1\\n-1\\n-1\\n-1\\n-1\\n-1\\n-1\\n-1\\n-1\\n-1\\n-1\\n-1\\n-1\\n-1\\n-1\\n-1\\n-1\\n-1\\n-1\\n-1\\n-1\\n-1\\n-1\\n-1\\n-1\\n-1\\n-1\\n-1\\n-1\\n-1\\n-1\\n-1\\n-1\\n-1\\n-1\\n-1\\n-1\\n-1\\n-1\\n-1\\n-1\\n-1\\n-1\\n-1\\n-1\\n-1\\n-1\\n-1\\n-1\\n-1\\n-1\\n-1\\n-1\\n-1\\n-1\\n-1\\n-1\\n-1\\n-1\\n-1\\n-1\\n-1\\n-1\\n-1\\n-1\\n-1\\n-1\\n-1\\n-1\\n-1\\n-1\\n-1\\n-1\\n-1\\n-1\\n-1\\n-1\\n-1\\n-1\\n-1\\n-1\\n-1\\n-1\\n-1\\n-1\\n-1\\n-1\\n-1\\n-1\\n-1\\n-1\\n-1\\n-1\\n-1\\n-1\\n-1\\n-1\\n-1\\n-1\\n-1\\n-1\\n-1\\n-1\\n-1\\n-1\\n-1\\n-1\\n-1\\n-1\\n-1\\n-1\\n-1\\n-1\\n-1\\n-1\\n-1\\n-1\\n-1\\n-1\\n-1\\n-1\\n-1\\n-1\\n-1\\n-1\\n-1\\n-1\\n-1\\n-1\\n-1\\n-1\\n-1\\n-1\\n-1\\n-1\\n-1\\n-1\\n-1\\n-1\\n-1\\n-1\\n-1\\n-1\\n-1\\n-1\\n-1\\n-1\\n-1\\n-1\\n-1\\n-1\\n-1\\n-1\\n-1\\n-1\\n-1\\n-1\\n-1\\n-1\\n-1\\n-1\\n-1\\n-1\\n-1\\n-1\\n-1\\n-1\\n-1\\n-1\\n-1\\n-1\\n-1\\n-1\\n-1\\n-1\\n-1\\n-1\\n-1\\n-1\\n-1\\n-1\\n-1\\n-1\\n-1\\n-1\\n-1\\n-1\\n-1\\n-1\\n-1\\n-1\\n-1\\n-1\\n-1\\n-1\\n-1\\n-1\\n-1\\n-1\\n-1\\n-1\\n-1\\n-1\\n-1\\n-1\\n-1\\n-1\\n-1\\n-1\\n-1\\n-1\\n-1\\n-1\\n-1\\n-1\\n-1\\n-1\\n-1\\n-1\\n-1\\n-1\\n-1\\n-1\\n-1\\n-1\\n-1\\n-1\\n-1\\n-1\\n-1\\n-1\\n-1\\n-1\\n-1\\n-1\\n-1\\n-1\\n-1\\n-1\\n-1\\n-1\\n-1\\n-1\\n-1\\n-1\\n-1\\n-1\\n-1\\n-1\\n-1\\n-1\\n-1\\n-1\\n-1\\n-1\\n-1\\n-1\\n-1\\n-1\\n-1\\n-1\\n-1\\n-1\\n-1\\n-1\\n-1\\n-1\\n-1\\n-1\\n-1\\n-1\\n-1\\n-1\\n-1\\n-1\\n-1\\n-1\\n-1\\n-1\\n-1\\n-1\\n-1\\n-1\\n-1\\n-1\\n-1\\n-1\\n-1\\n-1\\n-1\\n-1\\n-1\\n-1\\n-1\\n-1\\n-1\\n-1\\n-1\\n-1\\n-1\\n-1\\n-1\\n-1\\n-1\\n-1\\n-1\\n-1\\n-1\\n-1\\n-1\\n-1\\n-1\\n-1\\n-1\\n-1\\n-1\\n-1\\n-1\\n-1\\n-1\\n-1\\n-1\\n-1\\n-1\\n-1\\n-1\\n-1\\n-1\\n-1\\n-1\\n-1\\n-1\\n-1\\n-1\\n-1\\n-1\\n-1\\n-1\\n-1\\n-1\\n-1\\n-1\\n-1\\n-1\\n-1\\n-1\\n-1\\n-1\\n-1\\n-1\\n-1\\n-1\\n-1\\n-1\\n-1\\n-1\\n-1\\n-1\\n-1\\n-1\\n-1\\n-1\\n-1\\n-1\\n-1\\n-1\\n-1\\n-1\\n-1\\n-1\\n-1\\n-1\\n-1\\n-1\\n-1\\n-1\\n-1\\n-1\\n-1\\n-1\\n-1\\n-1\\n-1\\n-1\\n-1\\n-1\\n-1\\n-1\\n-1\\n-1\\n-1\\n-1\\n-1\\n-1\\n-1\\n-1\\n-1\\n-1\\n-1\\n-1\\n-1\\n-1\\n-1\\n-1\\n-1\\n-1\\n-1\\n-1\\n-1\\n-1\\n-1\\n-1\\n-1\\n-1\\n-1\\n-1\\n-1\\n-1\\n-1\\n-1\\n-1\\n-1\\n-1\\n-1\\n-1\\n-1\\n-1\\n-1\\n-1\\n-1\\n-1\\n-1\\n-1\\n-1\\n-1\\n-1\\n-1\\n-1\\n-1\\n-1\\n-1\\n-1\\n-1\\n-1\\n-1\\n-1\\n-1\\n-1\\n-1\\n-1\\n-1\\n-1\\n-1\\n-1\\n-1\\n-1\\n-1\\n-1\\n-1\\n-1\\n-1\\n-1\\n-1\\n-1\\n-1\\n-1\\n-1\\n-1\\n-1\\n-1\\n-1\\n-1\\n-1\\n-1\\n-1\\n-1\\n-1\\n-1\\n-1\\n-1\\n-1\\n-1\\n-1\\n-1\\n-1\\n-1\\n-1\\n-1\\n-1\\n-1\\n-1\\n-1\\n-1\\n-1\\n-1\\n-1\\n-1\\n-1\\n-1\\n-1\\n-1\\n-1\\n-1\\n-1\\n-1\\n-1\\n-1\\n-1\\n-1\\n-1\\n-1\\n-1\\n-1\\n-1\\n-1\\n-1\\n-1\\n-1\\n-1\\n-1\\n-1\\n-1\\n-1\\n-1\\n-1\\n-1\\n-1\\n-1\\n-1\\n-1\\n-1\\n-1\\n-1\\n-1\\n-1\\n-1\\n-1\\n-1\\n-1\\n-1\\n-1\\n-1\\n-1\\n-1\\n-1\\n-1\\n-1\\n-1\\n-1\\n-1\\n-1\\n-1\\n-1\\n-1\\n-1\\n-1\\n-1\\n-1\\n-1\\n-1\\n-1\\n-1\\n-1\\n-1\\n-1\\n-1\\n-1\\n-1\\n-1\\n-1\\n-1\\n-1\\n-1\\n-1\\n-1\\n-1\\n-1\\n-1\\n-1\\n-1\\n-1\\n-1\\n-1\\n-1\\n-1\\n-1\\n-1\\n-1\\n-1\\n-1\\n-1\\n-1\\n-1\\n-1\\n-1\\n-1\\n-1\\n-1\\n-1\\n-1\\n-1\\n-1\\n-1\\n-1\\n-1\\n-1\\n-1\\n-1\\n-1\\n-1\\n-1\\n-1\\n-1\\n-1\\n-1\\n-1\\n-1\\n-1\\n-1\\n-1\\n-1\\n-1\\n-1\\n-1\\n-1\\n-1\\n-1\\n-1\\n-1\\n-1\\n-1\\n-1\\n-1\\n-1\\n-1\\n-1\\n-1\\n-1\\n-1\\n-1\\n-1\\n-1\\n-1\\n-1\\n-1\\n-1\\n-1\\n-1\\n-1\\n-1\\n-1\\n-1\\n-1\\n-1\\n-1\\n-1\\n-1\\n-1\\n-1\\n-1\\n-1\\n-1\\n-1\\n-1\\n-1\\n-1\\n-1\\n-1\\n-1\\n-1\\n-1\\n-1\\n-1\\n-1\\n-1\\n-1\\n-1\\n-1\\n-1\\n-1\\n-1\\n-1\\n-1\\n-1\\n-1\\n-1\\n-1\\n-1\\n-1\\n-1\\n-1\\n-1\\n-1\\n-1\\n-1\\n-1\\n-1\\n-1\\n-1\\n-1\\n-1\\n-1\\n-1\\n-1\\n-1\\n-1\\n-1\\n-1\\n-1\\n-1\\n-1\\n-1\\n-1\\n-1\\n-1\\n-1\\n-1\\n-1\\n-1\\n-1\\n-1\\n-1\\n-1\\n-1\\n-1\\n-1\\n-1\\n-1\\n-1\\n-1\\n-1\\n-1\\n-1\\n-1\\n-1\\n-1\\n-1\\n-1\\n-1\\n-1\\n-1\\n-1\\n-1\\n-1\\n-1\\n-1\\n-1\\n-1\\n-1\\n-1\\n-1\\n-1\\n-1\\n-1\\n-1\\n-1\\n-1\\n-1\\n-1\\n-1\\n-1\\n-1\\n-1\\n-1\\n-1\\n-1\\n-1\\n-1\\n-1\\n-1\\n-1\\n-1\\n-1\\n-1\\n-1\\n-1\\n-1\\n-1\\n-1\\n-1\\n-1\\n-1\\n-1\\n-1\\n-1\\n-1\\n-1\\n-1\\n-1\\n-1\\n-1\\n-1\\n-1\\n-1\\n-1\\n-1\\n-1\\n-1\\n-1\\n-1\\n-1\\n-1\\n-1\\n-1\\n-1\\n-1\\n-1\\n-1\\n-1\\n-1\\n-1\\n-1\\n-1\\n-1\\n-1\\n-1\\n-1\\n-1\\n-1\\n-1\\n-1\\n-1\\n-1\\n-1\\n-1\\n-1\\n-1\\n-1\\n-1\\n-1\\n-1\\n-1\\n-1\\n-1\\n-1\\n-1\\n-1\\n-1\\n-1\\n-1\\n-1\\n-1\\n-1\\n-1\\n-1\\n-1\\n-1\\n-1\\n-1\\n-1\\n-1\\n-1\\n-1\\n-1\\n-1\\n-1\\n-1\\n-1\\n-1\\n-1\\n-1\\n-1\\n-1\\n-1\\n-1\\n-1\\n-1\\n-1\\n-1\\n-1\\n-1\\n-1\\n-1\\n-1\\n-1\\n-1\\n-1\\n-1\\n-1\\n-1\\n-1\\n-1\\n-1\\n-1\\n-1\\n-1\\n-1\\n-1\\n-1\\n-1\\n-1\\n-1\\n-1\\n-1\\n-1\\n-1\\n-1\\n-1\\n-1\\n-1\\n-1\\n-1\\n-1\\n-1\\n-1\\n-1\\n-1\\n-1\\n-1\\n-1\\n-1\\n-1\\n-1\\n-1\\n-1\\n-1\\n-1\\n-1\\n-1\\n-1\\n-1\\n-1\\n-1\\n-1\\n-1\\n-1\\n-1\\n-1\\n-1\\n-1\\n-1\\n-1\\n-1\\n-1\\n-1\\n-1\\n-1\\n-1\\n-1\\n-1\\n-1\\n-1\\n-1\\n-1\\n-1\\n-1\\n-1\\n-1\\n-1\\n-1\\n-1\\n-1\\n-1\\n-1\\n-1\\n-1\\n-1\\n-1\\n-1\\n-1\\n-1\\n-1\\n-1\\n-1\\n-1\\n-1\\n-1\\n-1\\n-1\\n-1\\n-1\\n-1\\n-1\\n-1\\n-1\\n-1\\n-1\\n-1\\n-1\\n-1\\n-1\\n-1\\n-1\\n-1\\n-1\\n-1\\n-1\\n-1\\n-1\\n-1\\n-1\\n-1\\n-1\\n-1\\n-1\\n-1\\n-1\\n-1\\n-1\\n-1\\n-1\\n-1\\n-1\\n-1\\n-1\\n-1\\n-1\\n-1\\n-1\\n-1\\n-1\\n-1\\n-1\\n-1\\n-1\\n-1\\n-1\\n-1\\n-1\\n-1\\n-1\\n-1\\n-1\\n-1\\n-1\\n-1\\n-1\\n-1\\n-1\\n-1\\n-1\\n-1\\n-1\\n-1\\n-1\\n-1\\n-1\\n-1\\n-1\\n-1\\n-1\\n-1\\n-1\\n-1\\n-1\\n-1\\n-1\\n-1\\n-1\\n-1\\n-1\\n-1\\n-1\\n-1\\n-1\\n-1\\n-1\\n-1\\n-1\\n-1\\n-1\\n-1\\n-1\\n-1\\n-1\\n-1\\n-1\\n-1\\n-1\\n-1\\n-1\\n-1\\n-1\\n-1\\n-1\\n-1\\n-1\\n-1\\n-1\\n-1\\n-1\\n-1\\n-1\\n-1\\n-1\\n-1\\n-1\\n-1\\n-1\\n-1\\n-1\\n-1\\n-1\\n-1\\n-1\\n-1\\n-1\\n-1\\n-1\\n-1\\n-1\\n-1\\n-1\\n-1\\n-1\\n-1\\n-1\\n-1\\n-1\\n-1\\n-1\\n-1\\n-1\\n-1\\n-1\\n-1\\n-1\\n-1\\n-1\\n-1\\n-1\\n-1\\n-1\\n-1\\n-1\\n-1\\n-1\\n-1\\n-1\\n-1\\n-1\\n-1\\n-1\\n-1\\n-1\\n-1\\n-1\\n-1\\n-1\\n-1\\n-1\\n-1\\n-1\\n-1\\n-1\\n-1\\n-1\\n-1\\n-1\\n-1\\n-1\\n-1\\n-1\\n-1\\n-1\\n-1\\n-1\\n-1\\n-1\\n-1\\n-1\\n-1\\n-1\\n-1\\n-1\\n-1\\n-1\\n-1\\n-1\\n-1\\n-1\\n-1\\n-1\\n-1\\n-1\\n-1\\n-1\\n-1\\n-1\\n-1\\n-1\\n-1\\n-1\\n-1\\n-1\\n-1\\n-1\\n-1\\n-1\\n-1\\n-1\\n-1\\n-1\\n-1\\n-1\\n-1\\n-1\\n-1\\n-1\\n-1\\n-1\\n-1\\n-1\\n-1\\n-1\\n-1\\n-1\\n-1\\n-1\\n-1\\n-1\\n-1\\n-1\\n-1\\n-1\\n-1\\n-1\\n-1\\n-1\\n-1\\n-1\\n-1\\n-1\\n-1\\n-1\\n-1\\n-1\\n-1\\n-1\\n-1\\n-1\\n-1\\n-1\\n-1\\n-1\\n-1\\n-1\\n-1\\n-1\\n-1\\n-1\\n-1\\n-1\\n-1\\n-1\\n-1\\n-1\\n-1\\n-1\\n-1\\n-1\\n-1\\n-1\\n-1\\n-1\\n-1\\n-1\\n-1\\n-1\\n-1\\n-1\\n-1\\n-1\\n-1\\n-1\\n-1\\n-1\\n-1\\n-1\\n-1\\n-1\\n-1\\n-1\\n-1\\n-1\\n-1\\n-1\\n-1\\n-1\\n-1\\n-1\\n-1\\n-1\\n-1\\n-1\\n-1\\n-1\\n-1\\n-1\\n-1\\n-1\\n-1\\n-1\\n-1\\n-1\\n-1\\n-1\\n-1\\n-1\\n-1\\n-1\\n-1\\n-1\\n-1\\n-1\\n-1\\n-1\\n-1\\n-1\\n-1\\n-1\\n-1\\n-1\\n-1\\n-1\\n-1\\n-1\\n-1\\n-1\\n-1\\n-1\\n-1\\n-1\\n-1\\n-1\\n-1\\n-1\\n-1\\n-1\\n-1\\n-1\\n-1\\n-1\\n-1\\n-1\\n-1\\n-1\\n-1\\n-1\\n-1\\n-1\\n-1\\n-1\\n-1\\n-1\\n-1\\n-1\\n-1\\n-1\\n-1\\n-1\\n-1\\n-1\\n-1\\n-1\\n-1\\n-1\\n-1\\n-1\\n-1\\n-1\\n-1\\n-1\\n-1\\n-1\\n-1\\n-1\\n-1\\n-1\\n-1\\n-1\\n-1\\n-1\\n-1\\n-1\\n-1\\n-1\\n-1\\n-1\\n-1\\n-1\\n-1\\n-1\\n-1\\n-1\\n-1\\n-1\\n-1\\n-1\\n-1\\n-1\\n-1\\n-1\\n-1\\n-1\\n-1\\n-1\\n-1\\n-1\\n-1\\n-1\\n-1\\n-1\\n-1\\n-1\\n-1\\n-1\\n-1\\n-1\\n-1\\n-1\\n-1\\n-1\\n-1\\n-1\\n-1\\n-1\\n-1\\n-1\\n-1\\n-1\\n-1\\n-1\\n-1\\n-1\\n-1\\n-1\\n-1\\n-1\\n-1\\n-1\\n-1\\n-1\\n-1\\n-1\\n-1\\n-1\\n-1\\n-1\\n-1\\n-1\\n-1\\n-1\\n-1\\n-1\\n-1\\n-1\\n-1\\n-1\\n-1\\n-1\\n-1\\n-1\\n-1\\n-1\\n-1\\n-1\\n-1\\n-1\\n-1\\n-1\\n-1\\n-1\\n-1\\n-1\\n-1\\n-1\\n-1\\n-1\\n-1\\n-1\\n-1\\n-1\\n-": 2520,
      ".?": 2521,
      ".....": 2522,
      "/t": 2523,
      "/%d": 2524,
      "00": 2525,
      "0;": 2526,
      "0%d:": 2527,
      "0369": 2528,
      "19999": 2529,
      "1999": 2530,
      "2.": 2531,
      "299": 2532,
      "233": 2533,
      "283": 2534,
      "24329": 2535,
      "3c": 2536,
      "353": 2537,
      "3.0": 2538,
      "379": 2539,
      "389": 2540,
      "314159": 2541,
      "31415926": 2542,
      "336": 2543,
      "383": 2544,
      "3\\n0": 2545,
      "3999": 2546,
      "4.": 2547,
      "443": 2548,
      "433": 2549,
      "479": 2550,
      "448": 2551,
      "450": 2552,
      "467": 2553,
      "4\\n0": 2554,
      "4999": 2555,
      "4.6": 2556,
      "599": 2557,
      "523": 2558,
      "550": 2559,
      "541": 2560,
      "6e": 2561,
      "6010": 2562,
      "653": 2563,
      "643": 2564,
      "688": 2565,
      "619": 2566,
      "626": 2567,
      "630": 2568,
      "683": 2569,
      "617": 2570,
      "677": 2571,
      "6174": 2572,
      "691": 2573,
      "68443": 2574,
      "74": 2575,
      "753": 2576,
      "743": 2577,
      "733": 2578,
      "719": 2579,
      "720": 2580,
      "730": 2581,
      "701": 2582,
      "769": 2583,
      "773": 2584,
      "7\\n0\\n0\\n": 2585,
      "853": 2586,
      "888": 2587,
      "823": 2588,
      "876": 2589,
      "821": 2590,
      "811": 2591,
      "883": 2592,
      "829": 2593,
      "877": 2594,
      "857": 2595,
      "881": 2596,
      "8000000": 2597,
      "8667": 2598,
      "93": 2599,
      "9=": 2600,
      "9000": 2601,
      "953": 2602,
      "919": 2603,
      "936": 2604,
      "911": 2605,
      "900000000": 2606,
      "983": 2607,
      "941": 2608,
      "929": 2609,
      "967": 2610,
      "917": 2611,
      "900000": 2612,
      "9000000": 2613,
      "9000001": 2614,
      ":h": 2615,
      "::%d": 2616,
      ":,.": 2617,
      "<%lld": 2618,
      "=q": 2619,
      ">\\": 2620,
      ">'": 2621,
      ">^": 2622,
      ">v<": 2623,
      "?a": 2624,
      "?%c": 2625,
      "???": 2626,
      "[-": 2627,
      "[%d": 2628,
      "[%d,": 2629,
      "[>]": 2630,
      "[%2": 2631,
      "\\3": 2632,
      "\\r": 2633,
      "\\?": 2634,
      "\\nc": 2635,
      "\\\\'": 2636,
      "\\213": 2637,
      "]\\n": 2638,
      "^>": 2639,
      "__": 2640,
      "a%": 2641,
      "ai": 2642,
      "au": 2643,
      "aw": 2644,
      "ak": 2645,
      "aq": 2646,
      "ap": 2647,
      "az": 2648,
      "ale": 2649,
      "ato": 2650,
      "aaa": 2651,
      "amo": 2652,
      "air": 2653,
      "aec": 2654,
      "aok": 2655,
      "a.aa": 2656,
      "a-z": 2657,
      "a23456789": 2658,
      "aeg": 2659,
      "agc": 2660,
      "a.c": 2661,
      "bf": 2662,
      "bw": 2663,
      "bor": 2664,
      "blu": 2665,
      "bal": 2666,
      "block": 2667,
      "back": 2668,
      "bi=": 2669,
      "bad": 2670,
      "bant": 2671,
      "cf": 2672,
      "cw": 2673,
      "c1": 2674,
      "ch": 2675,
      "cp": 2676,
      "cor": 2677,
      "chi": 2678,
      "clo": 2679,
      "chr": 2680,
      "cent": 2681,
      "cli": 2682,
      "du": 2683,
      "da": 2684,
      "db": 2685,
      "dh": 2686,
      "din": 2687,
      "dai": 2688,
      "ew": 2689,
      "er": 2690,
      "es": 2691,
      "eq": 2692,
      "ele": 2693,
      "fh": 2694,
      "fin": 2695,
      "fem": 2696,
      "fen": 2697,
      "fly": 2698,
      "gk": 2699,
      "gue": 2700,
      "gig": 2701,
      "gun": 2702,
      "hj": 2703,
      "hou": 2704,
      "hir": 2705,
      "h\\x": 2706,
      "hel": 2707,
      "hok": 2708,
      "hect": 2709,
      "hako": 2710,
      "human": 2711,
      "ix": 2712,
      "i\\n": 2713,
      "ioi": 2714,
      "i:%d\\n": 2715,
      "jiro": 2716,
      "ki": 2717,
      "ko": 2718,
      "ken": 2719,
      "kichi": 2720,
      "kus": 2721,
      "ld": 2722,
      "lu": 2723,
      "l\\n": 2724,
      "lst": 2725,
      "les": 2726,
      "lime": 2727,
      "mm": 2728,
      "mb": 2729,
      "mk": 2730,
      "mp": 2731,
      "my": 2732,
      "m\\n": 2733,
      "mit": 2734,
      "mic": 2735,
      "mar": 2736,
      "mult": 2737,
      "m:%d": 2738,
      "m=%d:": 2739,
      "meg": 2740,
      "main": 2741,
      "nd": 2742,
      "nt": 2743,
      "nw": 2744,
      "ns": 2745,
      "nc": 2746,
      "nan": 2747,
      "nes": 2748,
      "num": 2749,
      "neg": 2750,
      "naka": 2751,
      "nek": 2752,
      "o3": 2753,
      "ob": 2754,
      "odd": 2755,
      "pu": 2756,
      "ps": 2757,
      "pet": 2758,
      "pos": 2759,
      "pic": 2760,
      "pea": 2761,
      "pull": 2762,
      "pph": 2763,
      "qu": 2764,
      "rd": 2765,
      "rl": 2766,
      "rr": 2767,
      "rb": 2768,
      "rh": 2769,
      "ry": 2770,
      "rv": 2771,
      "rock": 2772,
      "r%s\\n": 2773,
      "rain": 2774,
      "sp": 2775,
      "set": 2776,
      "sse": 2777,
      "some": 2778,
      "s1[": 2779,
      "saik": 2780,
      "tu": 2781,
      "to": 2782,
      "tw": 2783,
      "ts": 2784,
      "tb": 2785,
      "tha": 2786,
      "thi": 2787,
      "tem": 2788,
      "tree": 2789,
      "tac": 2790,
      "too": 2791,
      "tar": 2792,
      "tai": 2793,
      "tok": 2794,
      "tera": 2795,
      "tubu": 2796,
      "uf": 2797,
      "us": 2798,
      "up": 2799,
      "u\\n": 2800,
      "use": 2801,
      "vow": 2802,
      "we": 2803,
      "wo": 2804,
      "wor": 2805,
      "wal": 2806,
      "water": 2807,
      "x=": 2808,
      "x\\n": 2809,
      "xyz": 2810,
      "yx": 2811,
      "yy": 2812,
      "y=": 2813,
      "y\\n": 2814,
      "you": 2815,
      "yell": 2816,
      "y+=result[": 2817,
      "ze": 2818,
      "zet": 2819,
      "zer": 2820,
      "|%d\\n": 2821,
      "׋\u0007": 2822,
      "##5f": 2823,
      "##5z": 2824,
      "##51\\n": 2825,
      "##500": 2826,
      "##50000": 2827,
      "##584": 2828,
      "##545": 2829,
      "##540": 2830,
      "##5\\n0": 2831,
      "##0^": 2832,
      "##01\\n": 2833,
      "##015": 2834,
      "##079": 2835,
      "##084": 2836,
      "##045": 2837,
      "##080": 2838,
      "##0d\\n": 2839,
      "##35": 2840,
      "##32": 2841,
      "##3s": 2842,
      "##3'": 2843,
      "##3,": 2844,
      "##300": 2845,
      "##398": 2846,
      "##3515": 2847,
      "##3tt": 2848,
      "##3,sse": 2849,
      "##394": 2850,
      "##.f": 2851,
      "##.a": 2852,
      "##.1": 2853,
      "##.20": 2854,
      "##.%d\\n": 2855,
      "##.sp": 2856,
      "##.3s": 2857,
      "##2*": 2858,
      "##27": 2859,
      "##2a": 2860,
      "##2]": 2861,
      "##200": 2862,
      "##233": 2863,
      "##225": 2864,
      "##2,sse": 2865,
      "##2\\n0\\n0\\n": 2866,
      "##fc": 2867,
      "##fk": 2868,
      "##fh": 2869,
      "##fed": 2870,
      "##f45": 2871,
      "##f%f": 2872,
      "##fec": 2873,
      "##fea": 2874,
      "##flower": 2875,
      "##\\nt": 2876,
      "##\\0f": 2877,
      "##\\303": 2878,
      "##\\213": 2879,
      "##ne": 2880,
      "##ni": 2881,
      "##nes": 2882,
      "##ner": 2883,
      "##nec": 2884,
      "##num": 2885,
      "##nai": 2886,
      "##night": 2887,
      "##nel": 2888,
      "##ning": 2889,
      "##native": 2890,
      "##d9": 2891,
      "##d%": 2892,
      "##d]": 2893,
      "##dy": 2894,
      "##d'": 2895,
      "##dan": 2896,
      "##dat": 2897,
      "##d\\0": 2898,
      "##down": 2899,
      "##day": 2900,
      "##d_of": 2901,
      "##dnight": 2902,
      "##92": 2903,
      "##96": 2904,
      "##9\\n": 2905,
      "##921": 2906,
      "##969": 2907,
      "##974": 2908,
      "##%8": 2909,
      "##%lu": 2910,
      "##%f\\n": 2911,
      "##%18": 2912,
      "##%*s": 2913,
      "##%.20": 2914,
      "##*=": 2915,
      "##71": 2916,
      "##78": 2917,
      "##7/": 2918,
      "##750": 2919,
      "##721": 2920,
      "##702": 2921,
      "##703": 2922,
      "##713": 2923,
      "##x)": 2924,
      "##x;": 2925,
      "##ej": 2926,
      "##e=": 2927,
      "##e\\n": 2928,
      "##enc": 2929,
      "##e18": 2930,
      "##e\\0": 2931,
      "##e)*": 2932,
      "##estival": 2933,
      "##ta": 2934,
      "##tj": 2935,
      "##t\u0005": 2936,
      "##time": 2937,
      "##tun": 2938,
      "##tas": 2939,
      "##ter\\0": 2940,
      "##t%d.txt": 2941,
      "##il": 2942,
      "##i-": 2943,
      "##i]": 2944,
      "##ij": 2945,
      "##i\\n": 2946,
      "##iha": 2947,
      "##ima": 2948,
      "##ive": 2949,
      "##idd": 2950,
      "##iss": 2951,
      "##i]=": 2952,
      "##i];": 2953,
      "##iple": 2954,
      "##ired": 2955,
      "##iflower": 2956,
      "##ug": 2957,
      "##ual": 2958,
      "##u-kichi": 2959,
      "##udy": 2960,
      "##m,": 2961,
      "##min": 2962,
      "##mera": 2963,
      "##mgc": 2964,
      "##midd": 2965,
      "##a0": 2966,
      "##a]": 2967,
      "##ap": 2968,
      "##ase": 2969,
      "##art": 2970,
      "##a\\0": 2971,
      "##aight": 2972,
      "##a101": 2973,
      "##ared": 2974,
      "##a%d.txt": 2975,
      "##+-": 2976,
      "##+di": 2977,
      "##+\\7": 2978,
      "##+<>": 2979,
      "##+5)": 2980,
      "##+\\2": 2981,
      "##+$'": 2982,
      "##)(": 2983,
      "##){": 2984,
      "##)\\\"": 2985,
      "##)+$'": 2986,
      "##lj": 2987,
      "##lor": 2988,
      "##lit": 2989,
      "##light": 2990,
      "##ld'": 2991,
      "##od": 2992,
      "##ov": 2993,
      "##o\\n": 2994,
      "##oge": 2995,
      "##o-kichi": 2996,
      "##op\\n": 2997,
      "##oli": 2998,
      "##omera": 2999,
      "##ws": 3000,
      "##w_": 3001,
      "##way": 3002,
      "##1]": 3003,
      "##1/": 3004,
      "##1lf\\n": 3005,
      "##68": 3006,
      "##6h": 3007,
      "##600": 3008,
      "##688": 3009,
      "##679": 3010,
      "##648": 3011,
      "##606": 3012,
      "##687": 3013,
      "##62a": 3014,
      "##6f45": 3015,
      "##8/": 3016,
      "##8\\n": 3017,
      "##853": 3018,
      "##843": 3019,
      "##859": 3020,
      "##854": 3021,
      "##8\\n99": 3022,
      "##4,": 3023,
      "##414": 3024,
      "##440": 3025,
      "##4\\n4": 3026,
      "##4432": 3027,
      "##4fea": 3028,
      "##rpq": 3029,
      "##ri\\0": 3030,
      "##s^": 3031,
      "##son": 3032,
      "##s%d": 3033,
      "##s\\0": 3034,
      "##sum": 3035,
      "##s%*c": 3036,
      "##sun": 3037,
      "##sai": 3038,
      "##sny": 3039,
      "##s1[": 3040,
      "##sgok": 3041,
      "##sfk": 3042,
      "##s\\0f": 3043,
      "##cm": 3044,
      "##cb": 3045,
      "##ck": 3046,
      "##coi": 3047,
      "##c\\0": 3048,
      "##clock": 3049,
      "##ca..": 3050,
      "##cbb": 3051,
      "##come": 3052,
      "##cnt,": 3053,
      "##c.a": 3054,
      "##coli": 3055,
      "##cs^": 3056,
      "##b0": 3057,
      "##bre": 3058,
      "##ber": 3059,
      "##bar": 3060,
      "##back": 3061,
      "##bug": 3062,
      "##bmgc": 3063,
      "##gor": 3064,
      "##gak": 3065,
      "##gree": 3066,
      "##gment": 3067,
      "##gaik": 3068,
      "##gfed": 3069,
      "##gsgok": 3070,
      "##kan": 3071,
      "##king": 3072,
      "##ko\\0": 3073,
      "##kuman": 3074,
      "##hm": 3075,
      "##h\\x": 3076,
      "##hea": 3077,
      "##h+\u0006": 3078,
      "##hph": 3079,
      "##hell": 3080,
      "##h6h": 3081,
      "##hgfed": 3082,
      "##-'": 3083,
      "##-me": 3084,
      "##->]": 3085,
      "##-5)": 3086,
      "##-2\\n0\\n0\\n": 3087,
      "##-1]": 3088,
      "##>\\n": 3089,
      "##>%d]": 3090,
      "##>x)": 3091,
      "##]%d%d": 3092,
      "##]\\\"": 3093,
      "##qk": 3094,
      "##qp": 3095,
      "##q[": 3096,
      "##q:": 3097,
      "##q=]": 3098,
      "##p'": 3099,
      "##p_": 3100,
      "##pto": 3101,
      "##p!\\n": 3102,
      "##p:%d": 3103,
      "##part": 3104,
      "##pcnt,": 3105,
      "##ys": 3106,
      "##yp": 3107,
      "##y;": 3108,
      "##yan": 3109,
      "##y\\0": 3110,
      "##yxxxx": 3111,
      "##yne": 3112,
      "##;print": 3113,
      "##;p'": 3114,
      "##'[": 3115,
      "##'re": 3116,
      "##'hell": 3117,
      "##'yne": 3118,
      "##/z": 3119,
      "##/01": 3120,
      "##/...": 3121,
      "##/%lld\\n": 3122,
      "##/>]>": 3123,
      "##/7/": 3124,
      "##(%d": 3125,
      "##(str": 3126,
      "##(c2": 3127,
      "##()))": 3128,
      "##(1/": 3129,
      "##\");": 3130,
      "##,input()": 3131,
      "##jlo": 3132,
      "##jou": 3133,
      "##jack": 3134,
      "##j[%d]": 3135,
      "##jo\\0": 3136,
      "##jiro": 3137,
      "##jfc": 3138,
      "##jima": 3139,
      "##~n": 3140,
      "##~17": 3141,
      "##~%c%c": 3142,
      "##v]": 3143,
      "##vz": 3144,
      "##v`": 3145,
      "##vet": 3146,
      "##vil": 3147,
      "##vy\\0": 3148,
      "##zun": 3149,
      "##zrpq": 3150,
      "##[01\\n": 3151,
      "##[i]=": 3152,
      "##^%d": 3153,
      "##?_": 3154,
      "##_se": 3155,
      "##_te": 3156,
      "##_num": 3157,
      "##_clock": 3158,
      "##_back": 3159,
      "##_part": 3160,
      "##||": 3161,
      "##|&": 3162,
      "##|dream": 3163,
      "##$`": 3164,
      "##::": 3165,
      "##:%lld\\n": 3166,
      "##=7": 3167,
      "##=%d.": 3168,
      "##=%s\\n": 3169,
      "##=3'": 3170,
      "##=cs^": 3171,
      "##<]": 3172,
      "##<v": 3173,
      "##<@": 3174,
      "###%[=]": 3175,
      "##\u0001+\u0006": 3176,
      "##\u0007h+\u0006": 3177,
      "ident": 3178,
      "id=%d,": 3179,
      "++++": 3180,
      "##\\n10": 3181,
      "##\\n15": 3182,
      "##\\n11": 3183,
      "##\\n83": 3184,
      "##\\n40": 3185,
      "##\\n400": 3186,
      "##\\n120": 3187,
      "##\\n%[^": 3188,
      "##\\n6\\n": 3189,
      "##\\n5\\n400": 3190,
      "##\\n\");": 3191,
      "if(str": 3192,
      "##ors": 3193,
      "##orable": 3194,
      "forward": 3195,
      "##ete": 3196,
      "##1\\n2": 3197,
      "##1\\n1\\n-": 3198,
      "##1\\n73": 3199,
      "##1\\n1\\n0\\n": 3200,
      "##1\\n-1\\n": 3201,
      "##1\\n-1\\n-1\\n-1\\n": 3202,
      "##002": 3203,
      "##00.0": 3204,
      "##0081": 3205,
      "##00921": 3206,
      "##ono\\n": 3207,
      "id178": 3208,
      "##onge": 3209,
      "%d.": 3210,
      "%d*": 3211,
      "%d-": 3212,
      "%d%lld%lld": 3213,
      "%d)\\n": 3214,
      "%d\",": 3215,
      "%d.%": 3216,
      "%d%lf%lf%lf%lf%lf": 3217,
      "%d\\nt": 3218,
      "%di\\n": 3219,
      "##1\\n-1\\n-1\\n-1\\n-1\\n-1\\n-1\\n-1\\n": 3220,
      "##le\\0": 3221,
      "##lex.": 3222,
      "##ann": 3223,
      "##nch": 3224,
      "##int,input()": 3225,
      "print": 3226,
      "##ino": 3227,
      "##se|era": 3228,
      "##se3,sse": 3229,
      "##hi)*": 3230,
      "while(c2": 3231,
      "##ined": 3232,
      "deni": 3233,
      "debug": 3234,
      "degree": 3235,
      "devil": 3236,
      "defici": 3237,
      "##1\\n-1\\n-1\\n-1\\n-1\\n-1\\n-1\\n-1\\n-1\\n-1\\n-1\\n-1\\n-1\\n-1\\n-1\\n-1\\n": 3238,
      "-->": 3239,
      "##00006": 3240,
      "##0000.0": 3241,
      "##%d\",": 3242,
      "1099": 3243,
      "10yy": 3244,
      "10yxxxx": 3245,
      "10^%d": 3246,
      "10\\n6\\n": 3247,
      "##lli": 3248,
      "##llf\\n": 3249,
      "##lljlo": 3250,
      "sibl": 3251,
      "##ofy": 3252,
      "string": 3253,
      "straight": 3254,
      "##stable": 3255,
      "##storder": 3256,
      "##storable": 3257,
      "##1033": 3258,
      "##10yy": 3259,
      "##10\\n0": 3260,
      "##1094": 3261,
      "##10gok": 3262,
      "conson": 3263,
      "%d\\n<": 3264,
      "%d\\n\\n": 3265,
      "%d\\nre": 3266,
      "%d\\nwa": 3267,
      "1007": 3268,
      "100\\n": 3269,
      "%d%d%lld": 3270,
      "%d%d%lf": 3271,
      "%d%d%lld%lld": 3272,
      "%d%d%[^": 3273,
      "##defestival": 3274,
      "##rect": 3275,
      "##read": 3276,
      "##re100": 3277,
      "##renai": 3278,
      "##cto": 3279,
      "%lld%d": 3280,
      "%lld%s": 3281,
      "%lld%lf": 3282,
      "%lld%c": 3283,
      "%lld0\\n": 3284,
      "%lld.%lld.%lld": 3285,
      "%lld>\\n": 3286,
      "%lld/%lld\\n": 3287,
      "10000010": 3288,
      "1000033": 3289,
      "##ake": 3290,
      "comp": 3291,
      "count": 3292,
      "color": 3293,
      "codefestival": 3294,
      "##occoli": 3295,
      "0x99": 3296,
      "0x1010": 3297,
      "0x11": 3298,
      "0x25": 3299,
      "0x02": 3300,
      "0x40": 3301,
      "0x04": 3302,
      "0x03": 3303,
      "0x81": 3304,
      "0x09": 3305,
      "0xxxxxxx": 3306,
      "0x63": 3307,
      "0x2020": 3308,
      "0x0f0f0f": 3309,
      "0x555555": 3310,
      "0x333333": 3311,
      "0x00ff00": 3312,
      "0xaaaaaa": 3313,
      "0xcccccc": 3314,
      "0x5f": 3315,
      "0xa0": 3316,
      "0x6f45": 3317,
      "%s%ld": 3318,
      "%s%c": 3319,
      "%s%lld%lld": 3320,
      "%s%as": 3321,
      "%sday": 3322,
      "%s%*s": 3323,
      "%d%d%d%ld": 3324,
      "%d%d%d%s%s": 3325,
      "%d%d%d%*c": 3326,
      "0xf0": 3327,
      "0xffff": 3328,
      "0xf0f0f0": 3329,
      "209": 3330,
      "2014": 3331,
      "2011": 3332,
      "2017": 3333,
      "%lld\\n%lld": 3334,
      "##mp/z": 3335,
      "1e15": 3336,
      "1e17": 3337,
      "1e100": 3338,
      "##99\\x": 3339,
      "##99410": 3340,
      "##995\\n0": 3341,
      "200003": 3342,
      "200004": 3343,
      "20000.0": 3344,
      "125": 3345,
      "122": 3346,
      "121": 3347,
      "12000": 3348,
      "1220": 3349,
      "1229": 3350,
      "1263": 3351,
      "1200006": 3352,
      "\\n%d\\n": 3353,
      "\\nen": 3354,
      "\\nna": 3355,
      "\\nq:": 3356,
      "fga": 3357,
      "##ite\\n": 3358,
      "##itive": 3359,
      "##ithm": 3360,
      "%ld%d": 3361,
      "%ld%s%s": 3362,
      "1000000002": 3363,
      "100000000000": 3364,
      "100000000.0": 3365,
      "10000000019": 3366,
      "##%lld%d%d": 3367,
      "307": 3368,
      "3011": 3369,
      "30720": 3370,
      "30578": 3371,
      "##246": 3372,
      "##2453": 3373,
      "1000.0": 3374,
      "50.": 3375,
      "509": 3376,
      "5040": 3377,
      "112": 3378,
      "119": 3379,
      "118": 3380,
      "1100": 3381,
      "1179": 3382,
      "##lf:": 3383,
      "167": 3384,
      "164": 3385,
      "160000": 3386,
      "16000": 3387,
      "1650": 3388,
      "1604": 3389,
      "1680": 3390,
      "1681": 3391,
      "##edy": 3392,
      "##ed080": 3393,
      "%.11": 3394,
      "%.07": 3395,
      "%.16": 3396,
      "%.*s": 3397,
      "%.1lf\\n": 3398,
      "##sia": 3399,
      "3200": 3400,
      "3276": 3401,
      "3277": 3402,
      "32769": 3403,
      "32233": 3404,
      "3271": 3405,
      "getdown": 3406,
      "enws": 3407,
      "exa": 3408,
      "exist": 3409,
      "991": 3410,
      "9973": 3411,
      "fabre": 3412,
      "unstable": 3413,
      "10100": 3414,
      "10110": 3415,
      "101000": 3416,
      "1010001": 3417,
      "157": 3418,
      "156": 3419,
      "15010": 3420,
      "1520": 3421,
      "1525": 3422,
      "1501": 3423,
      "1500000": 3424,
      "1503": 3425,
      "15311": 3426,
      "15625": 3427,
      "259": 3428,
      "251": 3429,
      "2500000000": 3430,
      "2500000": 3431,
      "##534": 3432,
      "##530000": 3433,
      "##5384": 3434,
      "##53125": 3435,
      "##4345": 3436,
      "##4317": 3437,
      "##43144": 3438,
      "##4357": 3439,
      "##4300921": 3440,
      "405": 3441,
      "263": 3442,
      "269": 3443,
      "26843": 3444,
      "135": 3445,
      "139": 3446,
      "131": 3447,
      "1326": 3448,
      "1300000": 3449,
      "1356": 3450,
      "13530000": 3451,
      "##1441": 3452,
      "##1402": 3453,
      "##1440": 3454,
      "##144357": 3455,
      "##%d%d:%d": 3456,
      "##owa\\0": 3457,
      "110yyyy": 3458,
      "510000": 3459,
      "51000": 3460,
      "1000009": 3461,
      "1000006": 3462,
      "602": 3463,
      "607": 3464,
      "601": 3465,
      "60.0": 3466,
      "1020": 3467,
      "1022": 3468,
      "10102": 3469,
      "10101010": 3470,
      "##%s)": 3471,
      "##%s%d": 3472,
      "##%s\\\"": 3473,
      "9996": 3474,
      "170": 3475,
      "173": 3476,
      "172": 3477,
      "171": 3478,
      "1719": 3479,
      "17144357": 3480,
      "caul": 3481,
      "goal": 3482,
      "golj": 3483,
      "good": 3484,
      "goofy": 3485,
      "50021": 3486,
      "##sho\\0": 3487,
      "##shino": 3488,
      "squa": 3489,
      "##1566": 3490,
      "sqrt(%d": 3491,
      "##88688": 3492,
      "##885384": 3493,
      "313": 3494,
      "317": 3495,
      "311": 3496,
      "3125": 3497,
      "3181": 3498,
      "##5577": 3499,
      "##554432": 3500,
      "##5588688": 3501,
      "showa\\0": 3502,
      "##33974": 3503,
      "%d%d%d%d%s": 3504,
      "1056": 3505,
      "10509": 3506,
      "223": 3507,
      "229": 3508,
      "227": 3509,
      "22210": 3510,
      "%c|": 3511,
      "%c%ld": 3512,
      "%c%*c": 3513,
      "%c=%d\\n": 3514,
      "%c%c%c": 3515,
      "%c-%d%d": 3516,
      "##2880": 3517,
      "189": 3518,
      "184": 3519,
      "18000": 3520,
      "1872": 3521,
      "1873": 3522,
      "1868": 3523,
      "1800.0": 3524,
      "52429": 3525,
      "524300": 3526,
      "##1988": 3527,
      "##1923": 3528,
      "##19\\n3": 3529,
      "##19810364364": 3530,
      "##1951\\n": 3531,
      "%lf%s": 3532,
      "atgc": 3533,
      "##79489": 3534,
      "isono\\n": 3535,
      "1e-20": 3536,
      "480": 3537,
      "487": 3538,
      "48002": 3539,
      "##23s": 3540,
      "##2377": 3541,
      "##2357": 3542,
      "##2391": 3543,
      "##238\\n": 3544,
      "##26536": 3545,
      "##26\\n99886424": 3546,
      "##2679489": 3547,
      "##1\\n-1\\n-1\\n-1\\n-1\\n-1\\n-1\\n-1\\n-1\\n-1\\n-1\\n-1\\n-1\\n-1\\n-1\\n-1\\n-1\\n-1\\n-1\\n-1\\n-1\\n-1\\n-1\\n-1\\n-1\\n-1\\n-1\\n-1\\n-1\\n-1\\n-1\\n-1\\n-1\\n-1\\n-1\\n-1\\n-1\\n-1\\n-1\\n-1\\n-1\\n-1\\n-1\\n-1\\n-1\\n-1\\n-1\\n-1\\n-1\\n-1\\n-1\\n-1\\n-1\\n-1\\n-1\\n-1\\n-1\\n-1\\n-1\\n-1\\n-1\\n-1\\n-1\\n-1\\n-1\\n-1\\n-1\\n-1\\n-1\\n-1\\n-1\\n-1\\n-1\\n-1\\n-1\\n-1\\n-1\\n-1\\n-1\\n-1\\n-1\\n-1\\n-1\\n-1\\n-1\\n-1\\n-1\\n-1\\n-1\\n-1\\n-1\\n-1\\n-1\\n-1\\n-1\\n-1\\n-1\\n-1\\n-1\\n-1\\n-1\\n-1\\n-1\\n-1\\n-1\\n-1\\n-1\\n-1\\n-1\\n-1\\n-1\\n-1\\n-1\\n-1\\n-1\\n-1\\n-1\\n-1\\n-1\\n-1\\n-1\\n-1\\n-1\\n-1\\n-1\\n-1\\n-1\\n-1\\n-1\\n-1\\n-1\\n-1\\n-1\\n-1\\n-1\\n-1\\n-1\\n-1\\n-1\\n-1\\n-1\\n-1\\n-1\\n-1\\n-1\\n-1\\n-1\\n-1\\n-1\\n-1\\n-1\\n-1\\n-1\\n-1\\n-1\\n-1\\n-1\\n-1\\n-1\\n-1\\n-1\\n-1\\n-1\\n-1\\n-1\\n-1\\n-1\\n-1\\n-1\\n-1\\n-1\\n-1\\n-1\\n-1\\n-1\\n-1\\n-1\\n-1\\n-1\\n-1\\n-1\\n-1\\n-1\\n-1\\n-1\\n-1\\n-1\\n-1\\n-1\\n-1\\n-1\\n-1\\n-1\\n-1\\n-1\\n-1\\n-1\\n-1\\n-1\\n-1\\n-1\\n-1\\n-1\\n-1\\n-1\\n-1\\n-1\\n-1\\n-1\\n-1\\n-1\\n-1\\n-1\\n-1\\n-1\\n-1\\n-1\\n-1\\n-1\\n-1\\n-1\\n-1\\n-1\\n-1\\n-1\\n-1\\n-1\\n-1\\n-1\\n-1\\n-1\\n-1\\n-1\\n-1\\n-1\\n-1\\n-1\\n-1\\n-1\\n-1\\n-1\\n-1\\n-1\\n-1\\n-1\\n-1\\n-1\\n-1\\n-1\\n-1\\n-1\\n-1\\n-1\\n-1\\n-1\\n-1\\n-1\\n-1\\n-1\\n-1\\n-1\\n-1\\n-1\\n-1\\n-1\\n-1\\n-1\\n-1\\n-1\\n-1\\n-1\\n-1\\n": 3548,
      "##%ld%d": 3549,
      "2000000009": 3550,
      "520": 3551,
      "529": 3552,
      "520000": 3553,
      "##4830": 3554,
      "##48246": 3555,
      "##fffffff": 3556,
      "53687": 3557,
      "531441": 3558,
      "300000000": 3559,
      "3000017": 3560,
      "##7664": 3561,
      "##76543": 3562,
      "1400": 3563,
      "14\\n9": 3564,
      "14\\n5\\n400": 3565,
      "##oshi": 3566,
      "##os'[": 3567,
      "%*d%lf%lf": 3568,
      "%*d%d\\n": 3569,
      "%*d%*d": 3570,
      "%*d%f%f%f%f": 3571,
      "%*d/%d": 3572,
      "%*d%18": 3573,
      "%*d\\n%[^": 3574,
      "%*d%ld%d": 3575,
      "-13": 3576,
      "-11": 3577,
      "##1819810364364": 3578,
      "273": 3579,
      "277": 3580,
      "270000": 3581,
      "27859": 3582,
      "647": 3583,
      "641": 3584,
      "##er|era": 3585,
      "##er_clock": 3586,
      "##896": 3587,
      "##890625": 3588,
      "10000003": 3589,
      "##8440": 3590,
      "##84697": 3591,
      "##loop\\n": 3592,
      "20005": 3593,
      "20001": 3594,
      "4002": 3595,
      "4007": 3596,
      "40050": 3597,
      "400400": 3598,
      "4112": 3599,
      "241": 3600,
      "2499": 3601,
      "24414": 3602,
      "36969": 3603,
      "362880": 3604,
      "##mea": 3605,
      "##me\\n": 3606,
      "%d%n": 3607,
      "%d%+d": 3608,
      "%d%.3s": 3609,
      "%d%f%f": 3610,
      "%d%+di": 3611,
      "##141592": 3612,
      "3.27": 3613,
      "3.141592": 3614,
      "0.000000": 3615,
      "0.6666666666666666": 3616,
      "193": 3617,
      "197": 3618,
      "191": 3619,
      "1926": 3620,
      "1912": 3621,
      "1900000": 3622,
      "19668": 3623,
      "1953125": 3624,
      "##2029": 3625,
      "##2016": 3626,
      "##20100": 3627,
      "##2024031043": 3628,
      "##201402": 3629,
      "##53580": 3630,
      "50005": 3631,
      "50001": 3632,
      "3.14159265359": 3633,
      "500005": 3634,
      "5000000": 3635,
      "421": 3636,
      "4200": 3637,
      "42000": 3638,
      "30003": 3639,
      "300017": 3640,
      "##aa\\n": 3641,
      "##45885384": 3642,
      "%s%s%d": 3643,
      "%s%s%d%d": 3644,
      "reject": 3645,
      "##663": 3646,
      "##6667": 3647,
      "##661923": 3648,
      "757": 3649,
      "751": 3650,
      "7500": 3651,
      "##ccab": 3652,
      "%d:%s": 3653,
      "%d:%02": 3654,
      "%.9llf": 3655,
      "%.9llf\\n": 3656,
      "557": 3657,
      "55440": 3658,
      "625": 3659,
      "##1\\n-1\\n-1\\n-1\\n-1\\n-1\\n-1\\n-1\\n-1\\n-1\\n-1\\n-1\\n-1\\n-1\\n-1\\n-1\\n-1\\n-1\\n-1\\n-1\\n-1\\n-1\\n-1\\n-1\\n-1\\n-1\\n-1\\n-1\\n-1\\n-1\\n-1\\n-1\\n-1\\n-1\\n-1\\n-1\\n-1\\n-1\\n-1\\n-1\\n-1\\n-1\\n-1\\n-1\\n-1\\n-1\\n-1\\n-1\\n-1\\n-1\\n-1\\n-1\\n-1\\n-1\\n-1\\n-1\\n-1\\n-1\\n-1\\n-1\\n-1\\n-1\\n-1\\n-1\\n-1\\n-1\\n-1\\n-1\\n-1\\n-1\\n-1\\n-1\\n-1\\n-1\\n-1\\n-1\\n-1\\n-1\\n-1\\n-1\\n-1\\n-1\\n-1\\n-1\\n-1\\n-1\\n-1\\n-1\\n-1\\n-1\\n-1\\n-1\\n-1\\n-1\\n-1\\n-1\\n-1\\n-1\\n-1\\n-1\\n-1\\n-1\\n-1\\n-1\\n-1\\n-1\\n-1\\n-1\\n-1\\n-1\\n-1\\n-1\\n-1\\n-1\\n-1\\n-1\\n-1\\n-1\\n-1\\n-1\\n-1\\n-1\\n-1\\n-1\\n-1\\n-1\\n-1\\n-1\\n-1\\n-1\\n-1\\n-1\\n-1\\n-1\\n-1\\n-1\\n-1\\n-1\\n-1\\n-1\\n-1\\n-1\\n-1\\n-1\\n-1\\n-1\\n-1\\n-1\\n-1\\n-1\\n-1\\n-1\\n-1\\n-1\\n-1\\n-1\\n-1\\n-1\\n-1\\n-1\\n-1\\n-1\\n-1\\n-1\\n-1\\n-1\\n-1\\n-1\\n-1\\n-1\\n-1\\n-1\\n-1\\n-1\\n-1\\n-1\\n-1\\n-1\\n-1\\n-1\\n-1\\n-1\\n-1\\n-1\\n-1\\n-1\\n-1\\n-1\\n-1\\n-1\\n-1\\n-1\\n-1\\n-1\\n-1\\n-1\\n-1\\n-1\\n-1\\n-1\\n-1\\n-1\\n-1\\n-1\\n-1\\n-1\\n-1\\n-1\\n-1\\n-1\\n-1\\n-1\\n-1\\n-1\\n-1\\n-1\\n-1\\n-1\\n-1\\n-1\\n-1\\n-1\\n-1\\n-1\\n-1\\n-1\\n-1\\n-1\\n-1\\n-1\\n-1\\n-1\\n-1\\n-1\\n-1\\n-1\\n-1\\n-1\\n-1\\n-1\\n-1\\n-1\\n-1\\n-1\\n-1\\n-1\\n-1\\n-1\\n-1\\n-1\\n-1\\n-1\\n-1\\n-1\\n-1\\n-1\\n-1\\n-1\\n-1\\n-1\\n-1\\n-1\\n-1\\n-1\\n-1\\n-1\\n-1\\n-1\\n-1\\n-1\\n-1\\n-1\\n-1\\n-1\\n-1\\n-1\\n-1\\n-1\\n-1\\n-1\\n-1\\n-1\\n-1\\n-1\\n-1\\n-1\\n-1\\n-1\\n-1\\n-1\\n-1\\n-1\\n-1\\n-1\\n-1\\n-1\\n-1\\n-1\\n-1\\n-1\\n-1\\n-1\\n-1\\n-1\\n-1\\n-1\\n-1\\n-1\\n-1\\n-1\\n-1\\n-1\\n-1\\n-1\\n-1\\n-1\\n-1\\n-1\\n-1\\n-1\\n-1\\n-1\\n-1\\n-1\\n-1\\n-1\\n-1\\n-1\\n-1\\n-1\\n-1\\n-1\\n-1\\n-1\\n-1\\n-1\\n-1\\n-1\\n-1\\n-1\\n-1\\n-1\\n-1\\n-1\\n-1\\n-1\\n-1\\n-1\\n-1\\n-1\\n-1\\n-1\\n-1\\n-1\\n-1\\n-1\\n-1\\n-1\\n-1\\n-1\\n-1\\n-1\\n-1\\n-1\\n-1\\n-1\\n-1\\n-1\\n-1\\n-1\\n-1\\n-1\\n-1\\n-1\\n-1\\n-1\\n-1\\n-1\\n-1\\n-1\\n-1\\n-1\\n-1\\n-1\\n-1\\n-1\\n-1\\n-1\\n-1\\n-1\\n-1\\n-1\\n-1\\n-1\\n-1\\n-1\\n-1\\n-1\\n-1\\n-1\\n-1\\n-1\\n-1\\n-1\\n-1\\n-1\\n-1\\n-1\\n-1\\n-1\\n-1\\n-1\\n-1\\n-1\\n-1\\n-1\\n-1\\n-1\\n-1\\n-1\\n-1\\n-1\\n-1\\n-1\\n-1\\n-1\\n-1\\n-1\\n-1\\n-1\\n-1\\n-1\\n-1\\n-1\\n-1\\n-1\\n-1\\n-1\\n-1\\n-1\\n-1\\n-1\\n-1\\n-1\\n-1\\n-1\\n-1\\n-1\\n-1\\n-1\\n-1\\n-1\\n-1\\n-1\\n-1\\n-1\\n-1\\n-1\\n-1\\n-1\\n-1\\n-1\\n-1\\n-1\\n-1\\n-1\\n-1\\n-1\\n-1\\n-1\\n-1\\n-1\\n-1\\n-1\\n-1\\n-1\\n-1\\n-1\\n-1\\n-1\\n-1\\n-1\\n-1\\n-1\\n-1\\n-1\\n-1\\n-1\\n-1\\n-1\\n-1\\n-1\\n-1\\n-1\\n-1\\n-1\\n-1\\n-1\\n-1\\n-1\\n-1\\n-1\\n-1\\n-1\\n-1\\n-1\\n-1\\n-1\\n-1\\n-1\\n-1\\n-1\\n-1\\n-1\\n-1\\n-1\\n-1\\n-1\\n-1\\n-1\\n-1\\n-1\\n-1\\n-1\\n-1\\n-1\\n-1\\n-1\\n-1\\n-1\\n-1\\n-1\\n-1\\n-1\\n-1\\n-1\\n-1\\n-1\\n-1\\n-1\\n-1\\n-1\\n-1\\n-1\\n-1\\n-1\\n-1\\n-1\\n-1\\n-1\\n-1\\n-1\\n-1\\n-1\\n-1\\n-1\\n-1\\n-1\\n-1\\n-1\\n-1\\n-1\\n-1\\n-1\\n-1\\n-1\\n-1\\n-1\\n-1\\n-1\\n-1\\n-1\\n-1\\n-1\\n-1\\n-1\\n-1\\n-1\\n-1\\n-1\\n-1\\n-1\\n-1\\n-1\\n-1\\n-1\\n-1\\n-1\\n-1\\n-1\\n-1\\n-1\\n-1\\n-1\\n-1\\n-1\\n-1\\n-1\\n-1\\n-1\\n-1\\n-1\\n-1\\n-1\\n-1\\n-1\\n-1\\n-1\\n-1\\n-1\\n-1\\n-1\\n-1\\n-1\\n-1\\n-1\\n-1\\n-1\\n-1\\n-1\\n-1\\n-1\\n-1\\n-1\\n-1\\n-1\\n-1\\n-1\\n-1\\n-1\\n-1\\n-1\\n-1\\n-1\\n-1\\n-1\\n-1\\n-1\\n-1\\n-1\\n-1\\n-1\\n-1\\n-1\\n-1\\n-1\\n-1\\n-1\\n-1\\n-1\\n-1\\n-1\\n-1\\n-1\\n-1\\n-1\\n-1\\n-1\\n-1\\n-1\\n-1\\n-1\\n-1\\n-1\\n-1\\n-1\\n-1\\n-1\\n-1\\n-1\\n-1\\n-1\\n-1\\n-1\\n-1\\n-1\\n-1\\n-1\\n-1\\n-1\\n-1\\n-1\\n-1\\n-1\\n-1\\n-1\\n-1\\n-1\\n-1\\n-1\\n-1\\n-1\\n-1\\n-1\\n-1\\n-1\\n-1\\n-1\\n-1\\n-1\\n-1\\n-1\\n-1\\n-1\\n-1\\n-1\\n-1\\n-1\\n-1\\n-1\\n-1\\n-1\\n-1\\n-1\\n-1\\n-1\\n-1\\n-1\\n-1\\n-1\\n-1\\n-1\\n-1\\n-1\\n-1\\n-1\\n-1\\n-1\\n-1\\n-1\\n-1\\n-1\\n-1\\n-1\\n-1\\n-1\\n-1\\n-1\\n-1\\n-1\\n-1\\n-1\\n-1\\n-1\\n-1\\n-1\\n-1\\n-1\\n-1\\n-1\\n-1\\n-1\\n-1\\n-1\\n-1\\n-1\\n-1\\n-1\\n-1\\n-1\\n-1\\n-1\\n-1\\n-1\\n-1\\n-1\\n-1\\n-1\\n-1\\n-1\\n-1\\n-1\\n-1\\n-1\\n-1\\n-1\\n-1\\n-1\\n-1\\n-1\\n-1\\n-1\\n-1\\n-1\\n": 3660,
      "##363": 3661,
      "##3648": 3662,
      "##36147": 3663,
      "##36854": 3664,
      "##mas": 3665,
      "##mage": 3666,
      "659": 3667,
      "6500": 3668,
      "65537": 3669,
      "##2177": 3670,
      "##2169": 3671,
      "##21hgfed": 3672,
      "##%d\\n%d\\n": 3673,
      "##%d\\n\",": 3674,
      "%f\\n%lld\\n": 3675,
      "%f\\n%f\\n": 3676,
      "##11s%d": 3677,
      "%f,": 3678,
      "%f,%f,%f": 3679,
      "%f%f%f%f": 3680,
      "337": 3681,
      "331": 3682,
      "33433433": 3683,
      "33h6h": 3684,
      "33554432": 3685,
      "##000000000000": 3686,
      "##8359": 3687,
      "##83668": 3688,
      "yes\\n%d\\n": 3689,
      "99991": 3690,
      "999983": 3691,
      "977": 3692,
      "971": 3693,
      "##eich": 3694,
      "##agi": 3695,
      "##agon": 3696,
      "##ch\\0%": 3697,
      "##chsia": 3698,
      "2e6": 3699,
      "359": 3700,
      "350000": 3701,
      "inf\\n": 3702,
      "inval": 3703,
      "inorder": 3704,
      "##prov": 3705,
      "0x70": 3706,
      "0x77": 3707,
      "0x707": 3708,
      "##popcnt,": 3709,
      "1\\n%d": 3710,
      "1\\n1\\n1\\n0\\n": 3711,
      "##\\0ap": 3712,
      "##\\0+\\2": 3713,
      "##\\0sun": 3714,
      "##\\0c\\0": 3715,
      "##\\0jfc": 3716,
      "200000000000001": 3717,
      "905": 3718,
      "902": 3719,
      "907": 3720,
      "%d,%lld": 3721,
      "%d,%*d": 3722,
      "293": 3723,
      "292": 3724,
      "##291": 3725,
      "##29215": 3726,
      "##10101010101": 3727,
      "491": 3728,
      "498": 3729,
      "4901": 3730,
      "400003": 3731,
      "400004": 3732,
      "809": 3733,
      "%s%d%*d": 3734,
      "##4339": 3735,
      "##1919810364364": 3736,
      "571": 3737,
      "%lf%lf%lf%d": 3738,
      "%lf%lf%lf%lf%lf%lf": 3739,
      "%lf%lf%lf%lf%lf%lf%lf%lf": 3740,
      "##2580": 3741,
      "##25534": 3742,
      "%.12lf": 3743,
      "232": 3744,
      "281": 3745,
      "28679": 3746,
      "285577": 3747,
      "##01\\\"": 3748,
      "##0123456789": 3749,
      "##01+-": 3750,
      "##6780": 3751,
      "##00100": 3752,
      "##3030303": 3753,
      "370": 3754,
      "373": 3755,
      "6005": 3756,
      "6002": 3757,
      "acl": 3758,
      "##020081": 3759,
      "##07070": 3760,
      "##17\\n0\\n": 3761,
      "##17578": 3762,
      "##--c2": 3763,
      "##--c1": 3764,
      "1000000033": 3765,
      "1000000087": 3766,
      "abd": 3767,
      "abun": 3768,
      "##ical": 3769,
      "##ic!!": 3770,
      "0xff00ff": 3771,
      "30100": 3772,
      "%.8f\\n": 3773,
      "%.10f": 3774,
      "%.10lf": 3775,
      "##7758": 3776,
      "##7726536": 3777,
      "##ount,": 3778,
      "##[^\\n]": 3779,
      "##[^>]>": 3780,
      "##[^a]": 3781,
      "#####": 3782,
      "11110yy": 3783,
      "##1\\n-1\\n-1\\n-1\\n-1\\n-1\\n-1\\n-1\\n-1\\n-1\\n-1\\n-1\\n-1\\n-1\\n-1\\n-1\\n-1\\n-1\\n-1\\n-1\\n-1\\n-1\\n-1\\n-1\\n-1\\n-1\\n-1\\n-1\\n-1\\n-1\\n-1\\n-1\\n-1\\n-1\\n-1\\n-1\\n-1\\n-1\\n-1\\n-1\\n-1\\n-1\\n-1\\n-1\\n-1\\n-1\\n-1\\n-1\\n-1\\n-1\\n-1\\n-1\\n-1\\n-1\\n-1\\n-1\\n-1\\n-1\\n-1\\n-1\\n-1\\n-1\\n-1\\n-1\\n-1\\n-1\\n-1\\n-1\\n-1\\n-1\\n-1\\n-1\\n-1\\n-1\\n-1\\n-1\\n-1\\n-1\\n-1\\n-1\\n-1\\n-1\\n-1\\n-1\\n-1\\n-1\\n-1\\n-1\\n-1\\n-1\\n-1\\n-1\\n-1\\n-1\\n-1\\n-1\\n-1\\n-1\\n-1\\n-1\\n-1\\n-1\\n-1\\n-1\\n-1\\n-1\\n-1\\n-1\\n-1\\n-1\\n-1\\n-1\\n-1\\n-1\\n-1\\n-1\\n-1\\n-1\\n-1\\n-1\\n-1\\n-1\\n-1\\n-1\\n-1\\n-1\\n-1\\n-1\\n-1\\n-1\\n-1\\n-1\\n-1\\n-1\\n-1\\n-1\\n-1\\n-1\\n-1\\n-1\\n-1\\n-1\\n-1\\n-1\\n-1\\n-1\\n-1\\n-1\\n-1\\n-1\\n-1\\n-1\\n-1\\n-1\\n-1\\n-1\\n-1\\n-1\\n-1\\n-1\\n-1\\n-1\\n-1\\n-1\\n-1\\n-1\\n-1\\n-1\\n-1\\n-1\\n-1\\n-1\\n-1\\n-1\\n-1\\n-1\\n-1\\n-1\\n-1\\n-1\\n-1\\n-1\\n-1\\n-1\\n-1\\n-1\\n-1\\n-1\\n-1\\n-1\\n-1\\n-1\\n-1\\n-1\\n-1\\n-1\\n-1\\n-1\\n-1\\n-1\\n-1\\n-1\\n-1\\n-1\\n-1\\n-1\\n-1\\n-1\\n-1\\n-1\\n-1\\n-1\\n-1\\n-1\\n-1\\n-1\\n-1\\n-1\\n-1\\n-1\\n-1\\n-1\\n-1\\n-1\\n-1\\n-1\\n-1\\n-1\\n-1\\n-1\\n-1\\n-1\\n-1\\n-1\\n-1\\n-1\\n-1\\n-1\\n-1\\n-1\\n-1\\n-1\\n-1\\n-1\\n-1\\n-1\\n-1\\n-1\\n-1\\n-1\\n-1\\n-1\\n-1\\n-1\\n-1\\n-1\\n-1\\n-1\\n-1\\n-1\\n-1\\n-1\\n-1\\n-1\\n-1\\n-1\\n-1\\n-1\\n-1\\n-1\\n-1\\n-1\\n-1\\n-1\\n-1\\n-1\\n-1\\n-1\\n-1\\n-1\\n-1\\n-1\\n-1\\n-1\\n-1\\n-1\\n-1\\n-1\\n-1\\n-1\\n-1\\n-1\\n-1\\n-1\\n-1\\n-1\\n-1\\n-1\\n-1\\n-1\\n-1\\n-1\\n-1\\n-1\\n-1\\n-1\\n-1\\n-1\\n-1\\n-1\\n-1\\n-1\\n-1\\n-1\\n-1\\n-1\\n-1\\n-1\\n-1\\n-1\\n-1\\n-1\\n-1\\n-1\\n-1\\n-1\\n-1\\n-1\\n-1\\n-1\\n-1\\n-1\\n-1\\n-1\\n-1\\n-1\\n-1\\n-1\\n-1\\n-1\\n-1\\n-1\\n-1\\n-1\\n-1\\n-1\\n-1\\n-1\\n-1\\n-1\\n-1\\n-1\\n-1\\n-1\\n-1\\n-1\\n-1\\n-1\\n-1\\n-1\\n-1\\n-1\\n-1\\n-1\\n-1\\n-1\\n-1\\n-1\\n-1\\n-1\\n-1\\n-1\\n-1\\n-1\\n-1\\n-1\\n-1\\n-1\\n-1\\n-1\\n-1\\n-1\\n-1\\n-1\\n-1\\n-1\\n-1\\n-1\\n-1\\n-1\\n-1\\n-1\\n-1\\n-1\\n-1\\n-1\\n-1\\n-1\\n-1\\n-1\\n-1\\n-1\\n-1\\n-1\\n-1\\n-1\\n-1\\n-1\\n-1\\n-1\\n-1\\n-1\\n-1\\n-1\\n-1\\n-1\\n-1\\n-1\\n-1\\n-1\\n-1\\n-1\\n-1\\n-1\\n-1\\n-1\\n-1\\n-1\\n-1\\n-1\\n-1\\n-1\\n-1\\n-1\\n-1\\n-1\\n-1\\n-1\\n-1\\n-1\\n-1\\n-1\\n-1\\n-1\\n-1\\n-1\\n-1\\n-1\\n-1\\n-1\\n-1\\n-1\\n-1\\n-1\\n-1\\n-1\\n-1\\n-1\\n-1\\n-1\\n-1\\n-1\\n-1\\n-1\\n-1\\n-1\\n-1\\n-1\\n-1\\n-1\\n-1\\n-1\\n-1\\n-1\\n-1\\n-1\\n-1\\n-1\\n-1\\n-1\\n-1\\n-1\\n-1\\n-1\\n-1\\n-1\\n-1\\n-1\\n-1\\n-1\\n-1\\n-1\\n-1\\n-1\\n-1\\n-1\\n-1\\n-1\\n-1\\n-1\\n-1\\n-1\\n-1\\n-1\\n-1\\n-1\\n-1\\n-1\\n-1\\n-1\\n-1\\n-1\\n-1\\n-1\\n-1\\n-1\\n-1\\n-1\\n-1\\n-1\\n-1\\n-1\\n-1\\n-1\\n-1\\n-1\\n-1\\n-1\\n-1\\n-1\\n-1\\n-1\\n-1\\n-1\\n-1\\n-1\\n-1\\n-1\\n-1\\n-1\\n-1\\n-1\\n-1\\n-1\\n-1\\n-1\\n-1\\n-1\\n-1\\n-1\\n-1\\n-1\\n-1\\n-1\\n-1\\n-1\\n-1\\n-1\\n-1\\n-1\\n-1\\n-1\\n-1\\n-1\\n-1\\n-1\\n-1\\n-1\\n-1\\n-1\\n-1\\n-1\\n-1\\n-1\\n-1\\n-1\\n-1\\n-1\\n-1\\n-1\\n-1\\n-1\\n-1\\n-1\\n-1\\n-1\\n-1\\n-1\\n-1\\n-1\\n-1\\n-1\\n-1\\n-1\\n-1\\n-1\\n-1\\n-1\\n-1\\n-1\\n-1\\n-1\\n-1\\n-1\\n-1\\n-1\\n-1\\n-1\\n-1\\n-1\\n-1\\n-1\\n-1\\n-1\\n-1\\n-1\\n-1\\n-1\\n-1\\n-1\\n-1\\n-1\\n-1\\n-1\\n-1\\n-1\\n-1\\n-1\\n-1\\n-1\\n-1\\n-1\\n-1\\n-1\\n-1\\n-1\\n-1\\n-1\\n-1\\n-1\\n-1\\n-1\\n-1\\n-1\\n-1\\n-1\\n-1\\n-1\\n-1\\n-1\\n-1\\n-1\\n-1\\n-1\\n-1\\n-1\\n-1\\n-1\\n-1\\n-1\\n-1\\n-1\\n-1\\n-1\\n-1\\n-1\\n-1\\n-1\\n-1\\n-1\\n-1\\n-1\\n-1\\n-1\\n-1\\n-1\\n-1\\n-1\\n-1\\n-1\\n-1\\n-1\\n-1\\n-1\\n-1\\n-1\\n-1\\n-1\\n-1\\n-1\\n-1\\n-1\\n-1\\n-1\\n-1\\n-1\\n-1\\n-1\\n-1\\n-1\\n-1\\n-1\\n-1\\n-1\\n-1\\n-1\\n-1\\n-1\\n-1\\n-1\\n-1\\n-1\\n-1\\n-1\\n-1\\n-1\\n-1\\n-1\\n-1\\n-1\\n-1\\n-1\\n-1\\n-1\\n-1\\n-1\\n-1\\n-1\\n-1\\n-1\\n-1\\n-1\\n-1\\n-1\\n-1\\n-1\\n-1\\n-1\\n-1\\n-1\\n-1\\n-1\\n-1\\n-1\\n-1\\n-1\\n-1\\n-1\\n-1\\n-1\\n-1\\n-1\\n-1\\n-1\\n-1\\n-1\\n-1\\n-1\\n-1\\n-1\\n-1\\n-1\\n-1\\n-1\\n-1\\n-1\\n-1\\n-1\\n-1\\n-1\\n-1\\n-1\\n-1\\n-1\\n-1\\n-1\\n-1\\n-1\\n-1\\n-1\\n-1\\n-1\\n-1\\n-1\\n-1\\n-1\\n-1\\n-1\\n-1\\n-1\\n-1\\n-1\\n-1\\n-1\\n-1\\n-1\\n-1\\n-1\\n-1\\n-1\\n-1\\n-1\\n-1\\n-1\\n-1\\n-1\\n-1\\n-1\\n-1\\n-1\\n-1\\n-1\\n-1\\n-1\\n-1\\n-1\\n-1\\n-1\\n-1\\n-1\\n-1\\n-1\\n-1\\n-1\\n-1\\n-1\\n-1\\n-1\\n-1\\n-1\\n-1\\n-1\\n-1\\n-1\\n-1\\n-1\\n-1\\n-1\\n-1\\n-1\\n-1\\n-1\\n-1\\n-1\\n-1\\n-1\\n-1\\n-1\\n-1\\n-1\\n-1\\n-1\\n-1\\n-1\\n-1\\n-1\\n-1\\n-1\\n-1\\n-1\\n-1\\n-1\\n-1\\n-1\\n-1\\n-1\\n-1\\n-1\\n-1\\n-1\\n-1\\n-1\\n-1\\n-1\\n-1\\n-1\\n-1\\n-1\\n-1\\n-1\\n-1\\n-1\\n-1\\n-1\\n-1\\n-1\\n-1\\n-1\\n-1\\n-1\\n-1\\n-1\\n-1\\n-1\\n-1\\n-1\\n-1\\n-1\\n-1\\n-1\\n-1\\n-1\\n-1\\n-1\\n-1\\n-1\\n-1\\n-1\\n-1\\n-1\\n-1\\n-1\\n-1\\n-1\\n-1\\n-1\\n-1\\n-1\\n-1\\n-1\\n-1\\n-1\\n-1\\n-1\\n-1\\n-1\\n-1\\n-1\\n-1\\n-1\\n-1\\n-1\\n-1\\n-1\\n-1\\n-1\\n-1\\n-1\\n-1\\n-1\\n-1\\n-1\\n-1\\n-1\\n-1\\n-1\\n-1\\n-1\\n-1\\n-1\\n-1\\n-1\\n-1\\n-1\\n-1\\n-1\\n-1\\n-1\\n-1\\n-1\\n-1\\n-1\\n-1\\n-1\\n-1\\n-1\\n-1\\n-1\\n-1\\n-1\\n-1\\n-1\\n-1\\n-1\\n-1\\n-1\\n-1\\n-1\\n-1\\n-1\\n-1\\n-1\\n-1\\n-1\\n-1\\n-1\\n-1\\n-1\\n-1\\n-1\\n-1\\n-1\\n-1\\n-1\\n-1\\n-1\\n-1\\n-1\\n-1\\n-1\\n-1\\n-1\\n-1\\n-1\\n-1\\n-1\\n-1\\n-1\\n-1\\n-1\\n-1\\n-1\\n-1\\n-1\\n-1\\n-1\\n-1\\n-1\\n-1\\n-1\\n-1\\n-1\\n-1\\n-1\\n-1\\n-1\\n-1\\n-1\\n-1\\n-1\\n-1\\n-1\\n-1\\n-1\\n-1\\n-1\\n-1\\n-1\\n-1\\n-1\\n-1\\n-1\\n-1\\n-1\\n-1\\n-1\\n-1\\n-1\\n-1\\n-1\\n-1\\n-1\\n-1\\n-1\\n-1\\n-1\\n-1\\n-1\\n-1\\n-1\\n-1\\n-1\\n-1\\n-1\\n-1\\n-1\\n-1\\n-1\\n-1\\n-1\\n-1\\n-1\\n-1\\n-1\\n-1\\n-1\\n-1\\n-1\\n-1\\n-1\\n-1\\n-1\\n-1\\n-1\\n-1\\n-1\\n-1\\n-1\\n-1\\n-1\\n-1\\n-1\\n-1\\n-1\\n-1\\n-1\\n-1\\n-1\\n-1\\n-1\\n-1\\n-1\\n-1\\n-1\\n-1\\n-1\\n-1\\n-1\\n-1\\n-1\\n-1\\n-1\\n-1\\n-1\\n-1\\n-1\\n-1\\n-1\\n-1\\n-1\\n-1\\n-1\\n-1\\n-1\\n-1\\n-1\\n-1\\n-1\\n-1\\n-1\\n-1\\n-1\\n-1\\n-1\\n-1\\n-1\\n-1\\n-1\\n-1\\n-1\\n-1\\n-1\\n-1\\n-1\\n-1\\n-1\\n-1\\n-1\\n-1\\n-1\\n-1\\n-1\\n-1\\n-1\\n-1\\n-1\\n-1\\n-1\\n-1\\n-1\\n-1\\n-1\\n-1\\n-1\\n-1\\n-1\\n-1\\n-1\\n-1\\n-1\\n-1\\n-1\\n-1\\n-1\\n-1\\n-1\\n-1\\n-1\\n-1\\n-1\\n-1\\n-1\\n-1\\n-1\\n-1\\n-1\\n-1\\n-1\\n-1\\n-1\\n-1\\n-1\\n-1\\n-1\\n-1\\n-1\\n-1\\n-1\\n-1\\n-1\\n-1\\n-1\\n-1\\n-1\\n-1\\n-1\\n-1\\n-1\\n-1\\n-1\\n-1\\n-1\\n-1\\n-1\\n-1\\n-1\\n-1\\n-1\\n-1\\n-1\\n-1\\n-1\\n-1\\n-1\\n-1\\n-1\\n-1\\n-1\\n-1\\n-1\\n-1\\n-1\\n-1\\n-1\\n-1\\n-1\\n-1\\n-1\\n-1\\n-1\\n-1\\n-1\\n-1\\n-1\\n-1\\n-1\\n-1\\n-1\\n-1\\n-1\\n-1\\n-1\\n-1\\n-1\\n-1\\n-1\\n-1\\n-1\\n-1\\n-1\\n-1\\n-1\\n-1\\n-1\\n-1\\n-1\\n-1\\n-1\\n-1\\n-1\\n-1\\n-1\\n-1\\n-1\\n-1\\n-1\\n-1\\n-1\\n-1\\n-1\\n-1\\n-1\\n-1\\n-1\\n-1\\n-1\\n-1\\n-1\\n-1\\n-1\\n-1\\n-1\\n-1\\n-1\\n-1\\n-1\\n-1\\n-1\\n-1\\n-1\\n-1\\n-1\\n-1\\n-1\\n-1\\n-1\\n-1\\n-1\\n-1\\n-1\\n-1\\n-1\\n-1\\n-1\\n-1\\n-1\\n-1\\n-1\\n-1\\n-1\\n-1\\n-1\\n-1\\n-1\\n-1\\n-1\\n-1\\n-1\\n-1\\n-1\\n-1\\n-1\\n-1\\n-1\\n-1\\n-1\\n-1\\n-1\\n-1\\n-1\\n-1\\n-1\\n-1\\n-1\\n-1\\n-1\\n-1\\n-1\\n-1\\n-1\\n-1\\n-1\\n-1\\n-1\\n-1\\n-1\\n-1\\n-1\\n-1\\n-1\\n-1\\n-1\\n-1\\n-1\\n-1\\n-1\\n-1\\n-1\\n-1\\n-1\\n-1\\n-1\\n-1\\n-1\\n-1\\n-1\\n-1\\n-1\\n-1\\n-1\\n-1\\n-1\\n-1\\n-1\\n-1\\n-1\\n-1\\n-1\\n-1\\n-1\\n-1\\n-1\\n-1\\n-1\\n-1\\n-1\\n-1\\n-1\\n-1\\n-1\\n-1\\n-1\\n-1\\n-1\\n-1\\n-1\\n-1\\n-1\\n-1\\n-1\\n-1\\n-1\\n-1\\n-1\\n-1\\n-1\\n-1\\n-1\\n-1\\n-1\\n-1\\n-1\\n-1\\n-1\\n-1\\n-1\\n-1\\n-1\\n-1\\n-1\\n-1\\n-1\\n-1\\n-1\\n-1\\n-1\\n-1\\n-1\\n-1\\n-1\\n-1\\n-1\\n-1\\n-1\\n-1\\n-1\\n-1\\n-1\\n-1\\n-1\\n-1\\n-1\\n-1\\n-1\\n-1\\n-1\\n-1\\n-1\\n-1\\n-1\\n-1\\n-1\\n-1\\n-1\\n-1\\n-1\\n-1\\n-1\\n-1\\n-1\\n-1\\n-1\\n-1\\n-1\\n-1\\n-1\\n-1\\n-1\\n-1\\n-1\\n-1\\n-1\\n-1\\n-1\\n-1\\n-1\\n-1\\n-1\\n-1\\n-1\\n-1\\n-1\\n-1\\n-1\\n-1\\n-1\\n-1\\n-1\\n-1\\n-1\\n-1\\n-1\\n-1\\n-1\\n-1\\n-1\\n-1\\n-1\\n-1\\n-1\\n-1\\n-1\\n-1\\n-1\\n-1\\n-1\\n-1\\n-1\\n-1\\n-1\\n-1\\n-1\\n-1\\n-1\\n-1\\n-1\\n-1\\n-1\\n-1\\n-1\\n-1\\n-1\\n-1\\n-1\\n-1\\n-1\\n-1\\n-1\\n-1\\n-1\\n-1\\n-1\\n-1\\n-1\\n-1\\n-1\\n-1\\n-1\\n-1\\n-1\\n-1\\n-1\\n-1\\n-1\\n-1\\n-1\\n-1\\n-1\\n-1\\n-1\\n-1\\n-1\\n-1\\n-1\\n-1\\n-1\\n-1\\n-1\\n-1\\n-1\\n-1\\n-1\\n-1\\n-1\\n-1\\n-1\\n-1\\n-1\\n-1\\n-1\\n-1\\n-1\\n-1\\n-1\\n-1\\n-1\\n-1\\n-1\\n-1\\n-1\\n-1\\n-1\\n-1\\n-1\\n-1\\n-1\\n-1\\n-1\\n-1\\n-1\\n-1\\n-1\\n-1\\n-1\\n-1\\n-1\\n-1\\n-1\\n-1\\n-1\\n-1\\n-1\\n-1\\n-1\\n-1\\n-1\\n-1\\n-1\\n-1\\n-1\\n-1\\n-1\\n-1\\n-1\\n-1\\n-1\\n-1\\n-1\\n-1\\n-1\\n-1\\n-1\\n-1\\n-1\\n-1\\n-1\\n-1\\n-1\\n-1\\n-1\\n-1\\n-1\\n-1\\n-1\\n-1\\n-1\\n-1\\n-1\\n-1\\n-1\\n-1\\n-1\\n-1\\n-1\\n-1\\n-1\\n-1\\n-1\\n-1\\n-1\\n-1\\n-1\\n-1\\n-1\\n-1\\n-1\\n-1\\n-1\\n-1\\n-1\\n-1\\n-1\\n-1\\n-1\\n-1\\n-1\\n-1\\n-1\\n-1\\n-1\\n-1\\n-1\\n-1\\n-1\\n-1\\n-1\\n-1\\n-1\\n-1\\n-1\\n-1\\n-1\\n-1\\n-1\\n-1\\n-1\\n-1\\n-1\\n-1\\n-1\\n-1\\n-1\\n-1\\n-1\\n-1\\n-1\\n-1\\n-1\\n-1\\n-1\\n-1\\n-1\\n-1\\n-1\\n-1\\n-1\\n-1\\n-1\\n-1\\n-1\\n-1\\n-1\\n-1\\n-1\\n-1\\n-1\\n-1\\n-1\\n-1\\n-1\\n-1\\n-1\\n-1\\n-1\\n-1\\n-1\\n-1\\n-1\\n-1\\n-1\\n-1\\n-1\\n-1\\n-1\\n-1\\n-1\\n-1\\n-1\\n-1\\n-1\\n-1\\n-1\\n-1\\n-1\\n-1\\n-1\\n-1\\n-1\\n-1\\n-1\\n-1\\n-1\\n-1\\n-1\\n-1\\n-1\\n-1\\n-1\\n-1\\n-1\\n-1\\n-1\\n-1\\n-1\\n-1\\n-1\\n-1\\n-1\\n-1\\n-1\\n-1\\n-1\\n-1\\n-1\\n-1\\n-1\\n-1\\n-1\\n-1\\n-1\\n-1\\n-1\\n-1\\n-1\\n-1\\n-1\\n-1\\n-1\\n-1\\n-1\\n-1\\n-1\\n-1\\n-1\\n-1\\n-1\\n-1\\n-1\\n": 3784,
      "##40\\n": 3785,
      "%.15lf": 3786,
      "%.15s\\n": 3787,
      "500500": 3788,
      "380": 3789,
      "38e4": 3790,
      "38\\n11": 3791,
      "380000.0": 3792,
      "##abm,": 3793,
      "457": 3794,
      "syo-kichi": 3795,
      "##spicious": 3796,
      "%*d%d%s": 3797,
      "%*d%d%*d": 3798,
      "1.57": 3799,
      "1.0001": 3800,
      "ok\\n": 3801,
      "##06d\\n": 3802,
      "##04\\n7": 3803,
      "##04606": 3804,
      "1080": 3805,
      "1082": 3806,
      "0x01010101010101": 3807,
      "%*d%d%d%d%d%d%d": 3808,
      "%*d%d%d%d%d%s": 3809,
      "##66666667": 3810,
      "0x90": 3811,
      "0x93": 3812,
      "0x92": 3813,
      "0x9f": 3814,
      "0x9d": 3815,
      "0x9e": 3816,
      "0x9a": 3817,
      "0x91": 3818,
      "0x98": 3819,
      "0x9c": 3820,
      "0x9b": 3821,
      "0x94fea": 3822,
      "0x92029": 3823,
      "%d%*d%d": 3824,
      "%d%*d%*d": 3825,
      "%d%*d%*d%*d": 3826,
      "397": 3827,
      "3933": 3828,
      "390625": 3829,
      "463": 3830,
      "461": 3831,
      "449": 3832,
      "739": 3833,
      "##03515": 3834,
      "##ec750": 3835,
      "##80879": 3836,
      "##%d,%d,": 3837,
      "strncat": 3838,
      "strtol": 3839,
      "##23456780": 3840,
      "1145141819810364364": 3841,
      "1145141919810364364": 3842,
      "563": 3843,
      "569": 3844,
      "631": 3845,
      "6378": 3846,
      "613": 3847,
      "727": 3848,
      "alway": 3849,
      "algor": 3850,
      "alread": 3851,
      "##222": 3852,
      "##ookuman": 3853,
      "##oovz": 3854,
      "##16398": 3855,
      "##16\\n10": 3856,
      "##1633974": 3857,
      "##\\n]\\n": 3858,
      "##\\n]\\0ap": 3859,
      "111111": 3860,
      "11111111": 3861,
      "334000": 3862,
      "%[^0-9]": 3863,
      "439": 3864,
      "431": 3865,
      "[%d](": 3866,
      "thu": 3867,
      "thur": 3868,
      "%s%d%d%d\\n": 3869,
      "expired": 3870,
      "4040000": 3871,
      "99999999": 3872,
      "99999999999999999999999": 3873,
      "over!!": 3874,
      "%1d%1d": 3875,
      "349": 3876,
      "347": 3877,
      "3443144": 3878,
      "342391": 3879,
      "593": 3880,
      "587": 3881,
      "547": 3882,
      "clockwise": 3883,
      "love": 3884,
      "##\\\"<>": 3885,
      "##\\\"input(": 3886,
      "##\\\"]\\\"": 3887,
      "##\\\"01\\\"": 3888,
      "100300": 3889,
      "120.0": 3890,
      "##99999999999": 3891,
      "%s%s%s%d": 3892,
      "##irst_part": 3893,
      "%*s\\n": 3894,
      "859": 3895,
      "827": 3896,
      "a..bb": 3897,
      "a..c.a": 3898,
      "gave": 3899,
      "pay": 3900,
      "paper": 3901,
      "##%02d\\n": 3902,
      "##%02d:%02d\\n": 3903,
      "##7218": 3904,
      "%d/%d%d:%d": 3905,
      "0x5555555555555555": 3906,
      "%.5lf": 3907,
      "%.201f\\n": 3908,
      "end_of": 3909,
      "undefined": 3910,
      "abc%s": 3911,
      "alice\\n": 3912,
      "%lu%lu": 3913,
      "600011": 3914,
      "797": 3915,
      "79879": 3916,
      "887": 3917,
      "800020": 3918,
      "9876": 3919,
      "dragon": 3920,
      "##0907": 3921,
      "##09\\n120": 3922,
      "##\\7?_": 3923,
      "##%*c%[": 3924,
      "##ai!\\n": 3925,
      "##8b\u0007h+\u0006": 3926,
      "##c2]=": 3927,
      "3059": 3928,
      "30517578": 3929,
      "1123456": 3930,
      "150011": 3931,
      "365896": 3932,
      "0.00000000000001": 3933,
      "0.00000000000000000000": 3934,
      "%[^\\n]\\n": 3935,
      "%[^\\n]%*c": 3936,
      "%.20lf\\n%.20": 3937,
      "012357": 3938,
      "012024031043": 3939,
      "0123456780": 3940,
      "5e5": 3941,
      "661": 3942,
      "787": 3943,
      "9e6": 3944,
      "win=%s\\n": 3945,
      "##28125": 3946,
      "##\\6+\\7": 3947,
      "##ddab": 3948,
      "##%[q=]": 3949,
      "##%[v]": 3950,
      "##%[<]": 3951,
      "##en\\n": 3952,
      "##++;": 3953,
      "##++]=i;": 3954,
      "##oken\\n": 3955,
      "node,": 3956,
      "node=%d,": 3957,
      "150002": 3958,
      "2222222": 3959,
      "##6666666666666667": 3960,
      "bob\\n": 3961,
      "\\x8b\\6+\\7": 3962,
      "root,": 3963,
      "root:": 3964,
      "%3.f": 3965,
      "%g\\n": 3966,
      "199070": 3967,
      "6.28": 3968,
      "673": 3969,
      "67540": 3970,
      "839": 3971,
      "947": 3972,
      "941094": 3973,
      "full": 3974,
      "fuchsia": 3975,
      "keyenc": 3976,
      "miser": 3977,
      "midnight": 3978,
      "milli": 3979,
      "one": 3980,
      "on_se": 3981,
      "##5625": 3982,
      "##5\\n9\\n": 3983,
      "##5\\n99410": 3984,
      "##5\\n1951\\n": 3985,
      "##2\\n2\\n": 3986,
      "##2\\n59": 3987,
      "##2\\n24950307\\n": 3988,
      "##2\\n1\\n2": 3989,
      "##);print(": 3990,
      "##13515": 3991,
      "##132154": 3992,
      "##132169": 3993,
      "##49713": 3994,
      "##bb.": 3995,
      "%lld%d%d%lld%lld": 3996,
      "%lld%d%d%lld%d%d": 3997,
      "0x08": 3998,
      "0x03030303": 3999,
      "0x1ffff": 4000,
      "0x10001": 4001,
      "200105": 4002,
      "\\n%c-%d%d": 4003,
      "1001001001": 4004,
      "%d%*c%d": 4005,
      "%lld%lld%lld%lld%lld%lld%lld": 4006,
      "57.296": 4007,
      "%ld%ld%ld%ld%ld": 4008,
      "##%d,%d<": 4009,
      "##,%f,%f,%f": 4010,
      "none\\n": 4011,
      "##d:%02d": 4012,
      "%x\\n": 4013,
      "%x%x": 4014,
      ".aacbb": 4015,
      "....ccab": 4016,
      "....ddab": 4017,
      "2\\n17\\n0\\n": 4018,
      "4e5": 4019,
      "4e3": 4020,
      "49900": 4021,
      "6103515": 4022,
      "863": 4023,
      "95000": 4024,
      "910000": 4025,
      ":(\\n": 4026,
      "\\'print(": 4027,
      "\\\"%[^": 4028,
      "\\\"%s\\\"": 4029,
      "bdpq": 4030,
      "bdfh": 4031,
      "brown": 4032,
      "broccoli": 4033,
      "broken\\n": 4034,
      "bbej": 4035,
      "bbca..": 4036,
      "egi": 4037,
      "egg": 4038,
      "mode": 4039,
      "mo3tt": 4040,
      "movet": 4041,
      "suspicious": 4042,
      "sz=%d\\n": 4043,
      "sz=%d.": 4044,
      "##58648": 4045,
      "##584300921": 4046,
      "##581988": 4047,
      "##98702": 4048,
      "##9876543": 4049,
      "##981633974": 4050,
      "##istmas": 4051,
      "##avx,": 4052,
      "##12024031043": 4053,
      "##ssse3,sse": 4054,
      "##\\n3\\n4": 4055,
      "##\\n34\\n4": 4056,
      "##\\n904\\n7": 4057,
      "%d.%d.%d": 4058,
      "%d.%d.%d.%d": 4059,
      "%d.%d.%d\\n": 4060,
      "printf(\"\\n\");": 4061,
      "printf(\"%d\",": 4062,
      "printf(\"%d\\n\",": 4063,
      "0xffffffff": 4064,
      "120011": 4065,
      "##ather\\0": 4066,
      "%.2lf\\n": 4067,
      "%.2lf:": 4068,
      "%lf%d%lf%lf%lf": 4069,
      "300000000000000000000": 4070,
      "%*d%s%d": 4071,
      "%*d%s%*d": 4072,
      "%d:\\n%d\\n%d\\n": 4073,
      "##abcdefghi": 4074,
      "##999999999999999999999999999": 4075,
      "a..a..c": 4076,
      "%d/%d*": 4077,
      "%d/%d/%d": 4078,
      "1234567890": 4079,
      "2147483648": 4080,
      "%2s%*c": 4081,
      "%4d": 4082,
      "%02x": 4083,
      "%04d": 4084,
      "-e\\\"<>": 4085,
      "2244": 4086,
      "224\\n": 4087,
      "299993": 4088,
      "3247726536": 4089,
      "761": 4090,
      "76543": 4091,
      "adj[%d]": 4092,
      "closed": 4093,
      "fire": 4094,
      "hom": 4095,
      "hole": 4096,
      "hoshino": 4097,
      "hi=%d,": 4098,
      "snake": 4099,
      "##0*d\\n": 4100,
      "##drey": 4101,
      "##%+d)": 4102,
      "##%+d%+d": 4103,
      "##xt\\n": 4104,
      "##tta": 4105,
      "##uro": 4106,
      "##ur\\0sun": 4107,
      "##am\\0": 4108,
      "##+\u0006ð": 4109,
      "##632679489": 4110,
      "##87890625": 4111,
      "##rdbl": 4112,
      "##,sse2,sse": 4113,
      "##<>+<>": 4114,
      "##\\n71\\n73": 4115,
      "##\\n709\\n120": 4116,
      "##\\n4\\n83": 4117,
      "%d00\\n": 4118,
      "##anced": 4119,
      "##seikan": 4120,
      "##sert_avl_sub':\\n": 4121,
      "100453580": 4122,
      "%d%d%*d%d%d": 4123,
      "%d%d%*d%*d%*d": 4124,
      "0x454545": 4125,
      "1000000000000000018": 4126,
      "1178359": 4127,
      "11780879": 4128,
      "1110yyyy": 4129,
      "1100110": 4130,
      "16500": 4131,
      "%.0lf": 4132,
      "%.0f\\n": 4133,
      "%.0lf\\n": 4134,
      "%.3lf\\n": 4135,
      "%.4f\\n": 4136,
      "unrestorable": 4137,
      "1870": 4138,
      "200000000000000000": 4139,
      "2000000000000000000": 4140,
      "2000000000000000007": 4141,
      "0.7853": 4142,
      "%s%s(+5)": 4143,
      "%s%s(-5)": 4144,
      "%s%s(%s)": 4145,
      "##668697": 4146,
      "%d:%d:%d\\n": 4147,
      "1048574": 4148,
      "##4334334317": 4149,
      "diff\\n": 4150,
      "overfuro": 4151,
      "pairwise": 4152,
      "#############": 4153,
      "##1\\n-1\\n-1\\n-1\\n-1\\n-1\\n-1\\n-1\\n-1\\n-1\\n-1\\n-1\\n-1\\n-1\\n-1\\n-1\\n-1\\n-1\\n-1\\n-1\\n-1\\n-1\\n-1\\n-1\\n-1\\n-1\\n-1\\n-1\\n-1\\n-1\\n-1\\n-1\\n-1\\n-1\\n-1\\n-1\\n-1\\n-1\\n-1\\n-1\\n-1\\n-1\\n-1\\n-1\\n-1\\n-1\\n-1\\n-1\\n-1\\n-1\\n-1\\n-1\\n-1\\n-1\\n-1\\n-1\\n-1\\n-1\\n-1\\n-1\\n-1\\n-1\\n-1\\n-1\\n-1\\n-1\\n-1\\n-1\\n-1\\n-1\\n-1\\n-1\\n-1\\n-1\\n-1\\n-1\\n-1\\n-1\\n-1\\n-1\\n-1\\n-1\\n-1\\n-1\\n-1\\n-1\\n-1\\n-1\\n-1\\n-1\\n-1\\n-1\\n-1\\n-1\\n-1\\n-1\\n-1\\n-1\\n-1\\n-1\\n-1\\n-1\\n-1\\n-1\\n-1\\n-1\\n-1\\n-1\\n-1\\n-1\\n-1\\n-1\\n-1\\n-1\\n-1\\n-1\\n-1\\n-1\\n-1\\n-1\\n-1\\n-1\\n-1\\n-1\\n-1\\n-1\\n-1\\n-1\\n-1\\n-1\\n-1\\n-1\\n-1\\n-1\\n-1\\n-1\\n-1\\n-1\\n-1\\n-1\\n-1\\n-1\\n-1\\n-1\\n-1\\n-1\\n-1\\n-1\\n-1\\n-1\\n-1\\n-1\\n-1\\n-1\\n-1\\n-1\\n-1\\n-1\\n-1\\n-1\\n-1\\n-1\\n-1\\n-1\\n-1\\n-1\\n-1\\n-1\\n-1\\n-1\\n-1\\n-1\\n-1\\n-1\\n-1\\n-1\\n-1\\n-1\\n-1\\n-1\\n-1\\n-1\\n-1\\n-1\\n-1\\n-1\\n-1\\n-1\\n-1\\n-1\\n-1\\n-1\\n-1\\n-1\\n-1\\n-1\\n-1\\n-1\\n-1\\n-1\\n-1\\n-1\\n-1\\n-1\\n-1\\n-1\\n-1\\n-1\\n-1\\n-1\\n-1\\n-1\\n-1\\n-1\\n-1\\n-1\\n-1\\n-1\\n-1\\n-1\\n-1\\n-1\\n-1\\n-1\\n-1\\n-1\\n-1\\n-1\\n-1\\n-1\\n-1\\n-1\\n-1\\n-1\\n-1\\n-1\\n-1\\n-1\\n-1\\n-1\\n-1\\n-1\\n-1\\n-1\\n-1\\n-1\\n-1\\n-1\\n-1\\n-1\\n-1\\n-1\\n-1\\n-1\\n-1\\n-1\\n-1\\n-1\\n-1\\n-1\\n-1\\n-1\\n-1\\n-1\\n-1\\n-1\\n-1\\n-1\\n-1\\n-1\\n-1\\n-1\\n-1\\n-1\\n-1\\n-1\\n-1\\n-1\\n-1\\n-1\\n-1\\n-1\\n-1\\n-1\\n-1\\n-1\\n-1\\n-1\\n-1\\n-1\\n-1\\n-1\\n-1\\n-1\\n-1\\n-1\\n-1\\n-1\\n-1\\n-1\\n-1\\n-1\\n-1\\n-1\\n-1\\n-1\\n-1\\n-1\\n-1\\n-1\\n-1\\n-1\\n-1\\n-1\\n-1\\n-1\\n-1\\n-1\\n-1\\n-1\\n-1\\n-1\\n-1\\n-1\\n-1\\n-1\\n-1\\n-1\\n-1\\n-1\\n-1\\n-1\\n-1\\n-1\\n-1\\n-1\\n-1\\n-1\\n-1\\n-1\\n-1\\n-1\\n-1\\n-1\\n-1\\n-1\\n-1\\n-1\\n-1\\n-1\\n-1\\n-1\\n-1\\n-1\\n-1\\n-1\\n-1\\n-1\\n-1\\n-1\\n-1\\n-1\\n-1\\n-1\\n-1\\n-1\\n-1\\n-1\\n-1\\n-1\\n-1\\n-1\\n-1\\n-1\\n-1\\n-1\\n-1\\n-1\\n-1\\n-1\\n-1\\n-1\\n-1\\n-1\\n-1\\n-1\\n-1\\n-1\\n-1\\n-1\\n-1\\n-1\\n-1\\n-1\\n-1\\n-1\\n-1\\n-1\\n-1\\n-1\\n-1\\n-1\\n-1\\n-1\\n-1\\n-1\\n-1\\n-1\\n-1\\n-1\\n-1\\n-1\\n-1\\n-1\\n-1\\n-1\\n-1\\n-1\\n-1\\n-1\\n-1\\n-1\\n-1\\n-1\\n-1\\n-1\\n-1\\n-1\\n-1\\n-1\\n-1\\n-1\\n-1\\n-1\\n-1\\n-1\\n-1\\n-1\\n-1\\n-1\\n-1\\n-1\\n-1\\n-1\\n-1\\n-1\\n-1\\n-1\\n-1\\n-1\\n-1\\n-1\\n-1\\n-1\\n-1\\n-1\\n-1\\n-1\\n-1\\n-1\\n-1\\n-1\\n-1\\n-1\\n-1\\n-1\\n-1\\n-1\\n-1\\n-1\\n-1\\n-1\\n-1\\n-1\\n-1\\n-1\\n-1\\n-1\\n-1\\n-1\\n-1\\n-1\\n-1\\n-1\\n-1\\n-1\\n-1\\n-1\\n-1\\n-1\\n-1\\n-1\\n-1\\n-1\\n-1\\n-1\\n-1\\n-1\\n-1\\n-1\\n-1\\n-1\\n-1\\n-1\\n-1\\n-1\\n-1\\n-1\\n-1\\n-1\\n-1\\n-1\\n-1\\n-1\\n-1\\n-1\\n-1\\n-1\\n-1\\n-1\\n-1\\n-1\\n-1\\n-1\\n-1\\n-1\\n-1\\n-1\\n-1\\n-1\\n-1\\n-1\\n-1\\n-1\\n-1\\n-1\\n-1\\n-1\\n-1\\n-1\\n-1\\n-1\\n-1\\n-1\\n-1\\n-1\\n-1\\n-1\\n-1\\n-1\\n-1\\n-1\\n-1\\n-1\\n-1\\n-1\\n-1\\n-1\\n-1\\n-1\\n-1\\n-1\\n-1\\n-1\\n-1\\n-1\\n-1\\n-1\\n-1\\n-1\\n-1\\n-1\\n-1\\n-1\\n-1\\n-1\\n-1\\n-1\\n-1\\n-1\\n-1\\n-1\\n-1\\n-1\\n-1\\n-1\\n-1\\n-1\\n-1\\n-1\\n-1\\n-1\\n-1\\n-1\\n-1\\n-1\\n-1\\n-1\\n-1\\n-1\\n-1\\n-1\\n-1\\n-1\\n-1\\n-1\\n-1\\n-1\\n-1\\n-1\\n-1\\n-1\\n-1\\n-1\\n-1\\n-1\\n-1\\n-1\\n-1\\n-1\\n-1\\n-1\\n-1\\n-1\\n-1\\n-1\\n-1\\n-1\\n-1\\n-1\\n-1\\n-1\\n-1\\n-1\\n-1\\n-1\\n-1\\n-1\\n-1\\n-1\\n-1\\n-1\\n-1\\n-1\\n-1\\n-1\\n-1\\n-1\\n-1\\n-1\\n-1\\n-1\\n-1\\n-1\\n-1\\n-1\\n-1\\n-1\\n-1\\n-1\\n-1\\n-1\\n-1\\n-1\\n-1\\n-1\\n-1\\n-1\\n-1\\n-1\\n-1\\n-1\\n-1\\n-1\\n-1\\n-1\\n-1\\n-1\\n-1\\n-1\\n-1\\n-1\\n-1\\n-1\\n-1\\n-1\\n-1\\n-1\\n-1\\n-1\\n-1\\n-1\\n-1\\n-1\\n-1\\n-1\\n-1\\n-1\\n-1\\n-1\\n-1\\n-1\\n-1\\n-1\\n-1\\n-1\\n-1\\n-1\\n-1\\n-1\\n-1\\n-1\\n-1\\n-1\\n-1\\n-1\\n-1\\n-1\\n-1\\n-1\\n-1\\n-1\\n-1\\n-1\\n-1\\n-1\\n-1\\n-1\\n-1\\n-1\\n-1\\n-1\\n-1\\n-1\\n-1\\n-1\\n-1\\n-1\\n-1\\n-1\\n-1\\n-1\\n-1\\n-1\\n-1\\n-1\\n-1\\n-1\\n-1\\n-1\\n-1\\n-1\\n-1\\n-1\\n-1\\n-1\\n-1\\n-1\\n-1\\n-1\\n-1\\n-1\\n-1\\n-1\\n-1\\n-1\\n-1\\n-1\\n-1\\n-1\\n-1\\n-1\\n-1\\n-1\\n-1\\n-1\\n-1\\n-1\\n-1\\n-1\\n-1\\n-1\\n-1\\n-1\\n-1\\n-1\\n-1\\n-1\\n-1\\n-1\\n-1\\n-1\\n-1\\n-1\\n-1\\n-1\\n-1\\n-1\\n-1\\n-1\\n-1\\n-1\\n-1\\n-1\\n-1\\n-1\\n-1\\n-1\\n-1\\n-1\\n-1\\n-1\\n-1\\n-1\\n-1\\n-1\\n-1\\n-1\\n-1\\n-1\\n-1\\n-1\\n-1\\n-1\\n-1\\n-1\\n-1\\n-1\\n-1\\n-1\\n-1\\n-1\\n-1\\n-1\\n-1\\n-1\\n-1\\n-1\\n-1\\n-1\\n-1\\n-1\\n-1\\n-1\\n-1\\n-1\\n-1\\n-1\\n-1\\n-1\\n-1\\n-1\\n-1\\n-1\\n-1\\n-1\\n-1\\n-1\\n-1\\n-1\\n-1\\n-1\\n-1\\n-1\\n-1\\n-1\\n-1\\n-1\\n-1\\n-1\\n-1\\n-1\\n-1\\n-1\\n-1\\n-1\\n-1\\n-1\\n-1\\n-1\\n-1\\n-1\\n-1\\n-1\\n-1\\n-1\\n-1\\n-1\\n-1\\n-1\\n-1\\n-1\\n-1\\n-1\\n-1\\n-1\\n-1\\n-1\\n-1\\n-1\\n-1\\n-1\\n-1\\n-1\\n-1\\n-1\\n-1\\n-1\\n-1\\n-1\\n-1\\n-1\\n-1\\n-1\\n-1\\n-1\\n-1\\n-1\\n-1\\n-1\\n-1\\n-1\\n-1\\n-1\\n-1\\n-1\\n-1\\n-1\\n-1\\n-1\\n-1\\n-1\\n-1\\n-1\\n-1\\n-1\\n-1\\n-1\\n-1\\n-1\\n-1\\n-1\\n-1\\n-1\\n-1\\n-1\\n-1\\n-1\\n-1\\n-1\\n-1\\n-1\\n-1\\n-1\\n-1\\n-1\\n-1\\n-1\\n-1\\n-1\\n-1\\n-1\\n-1\\n-1\\n-1\\n-1\\n-1\\n-1\\n-1\\n-1\\n-1\\n-1\\n-1\\n-1\\n-1\\n-1\\n-1\\n-1\\n-1\\n-1\\n-1\\n-1\\n-1\\n-1\\n-1\\n-1\\n-1\\n-1\\n-1\\n-1\\n-1\\n-1\\n-1\\n-1\\n-1\\n-1\\n-1\\n-1\\n-1\\n-1\\n-1\\n-1\\n-1\\n-1\\n-1\\n-1\\n-1\\n-1\\n-1\\n-1\\n-1\\n-1\\n-1\\n-1\\n-1\\n-1\\n-1\\n-1\\n-1\\n-1\\n-1\\n-1\\n-1\\n-1\\n-1\\n-1\\n-1\\n-1\\n-1\\n-1\\n-1\\n-1\\n-1\\n-1\\n-1\\n-1\\n-1\\n-1\\n-1\\n-1\\n-1\\n-1\\n-1\\n-1\\n-1\\n-1\\n-1\\n-1\\n-1\\n-1\\n-1\\n-1\\n-1\\n-1\\n-1\\n-1\\n-1\\n-1\\n-1\\n-1\\n-1\\n-1\\n-1\\n-1\\n-1\\n-1\\n-1\\n-1\\n-1\\n-1\\n-1\\n-1\\n-1\\n-1\\n-1\\n-1\\n-1\\n-1\\n-1\\n-1\\n-1\\n-1\\n-1\\n-1\\n-1\\n-1\\n-1\\n-1\\n-1\\n-1\\n-1\\n-1\\n-1\\n-1\\n-1\\n-1\\n-1\\n-1\\n-1\\n-1\\n-1\\n-1\\n-1\\n-1\\n-1\\n-1\\n-1\\n-1\\n-1\\n-1\\n-1\\n-1\\n-1\\n-1\\n-1\\n-1\\n-1\\n-1\\n-1\\n-1\\n-1\\n-1\\n-1\\n-1\\n-1\\n-1\\n-1\\n-1\\n-1\\n-1\\n-1\\n-1\\n-1\\n-1\\n-1\\n-1\\n-1\\n-1\\n-1\\n-1\\n-1\\n-1\\n-1\\n-1\\n-1\\n-1\\n-1\\n-1\\n-1\\n-1\\n-1\\n-1\\n-1\\n-1\\n-1\\n-1\\n-1\\n-1\\n-1\\n-1\\n-1\\n-1\\n-1\\n-1\\n-1\\n-1\\n-1\\n-1\\n-1\\n-1\\n-1\\n-1\\n-1\\n-1\\n-1\\n-1\\n-1\\n-1\\n-1\\n-1\\n-1\\n-1\\n-1\\n-1\\n-1\\n-1\\n-1\\n-1\\n-1\\n-1\\n-1\\n-1\\n-1\\n-1\\n-1\\n-1\\n-1\\n-1\\n-1\\n-1\\n-1\\n-1\\n-1\\n-1\\n-1\\n-1\\n-1\\n-1\\n-1\\n-1\\n-1\\n-1\\n-1\\n-1\\n-1\\n-1\\n-1\\n-1\\n-1\\n-1\\n-1\\n-1\\n-1\\n-1\\n-1\\n-1\\n-1\\n-1\\n-1\\n-1\\n-1\\n-1\\n-1\\n-1\\n-1\\n-1\\n-1\\n-1\\n-1\\n-1\\n-1\\n-1\\n-1\\n-1\\n-1\\n-1\\n-1\\n-1\\n-1\\n-1\\n-1\\n-1\\n-1\\n-1\\n-1\\n-1\\n-1\\n-1\\n-1\\n-1\\n-1\\n-1\\n-1\\n-1\\n-1\\n-1\\n-1\\n-1\\n-1\\n-1\\n-1\\n-1\\n-1\\n-1\\n-1\\n-1\\n-1\\n-1\\n-1\\n-1\\n-1\\n-1\\n-1\\n-1\\n-1\\n-1\\n-1\\n-1\\n-1\\n-1\\n-1\\n-1\\n-1\\n-1\\n-1\\n-1\\n-1\\n-1\\n-1\\n-1\\n-1\\n-1\\n-1\\n-1\\n-1\\n-1\\n-1\\n-1\\n-1\\n-1\\n-1\\n-1\\n-1\\n-1\\n-1\\n-1\\n-1\\n-1\\n-1\\n-1\\n-1\\n-1\\n-1\\n-1\\n-1\\n-1\\n-1\\n-1\\n-1\\n-1\\n-1\\n-1\\n-1\\n-1\\n-1\\n-1\\n-1\\n-1\\n-1\\n-1\\n-1\\n-1\\n-1\\n-1\\n-1\\n-1\\n-1\\n-1\\n-1\\n-1\\n-1\\n-1\\n-1\\n-1\\n-1\\n-1\\n-1\\n-1\\n-1\\n-1\\n-1\\n-1\\n-1\\n-1\\n-1\\n-1\\n-1\\n-1\\n-1\\n-1\\n-1\\n-1\\n-1\\n-1\\n-1\\n-1\\n-1\\n-1\\n-1\\n-1\\n-1\\n-1\\n-1\\n-1\\n-1\\n-1\\n-1\\n-1\\n-1\\n-1\\n-1\\n-1\\n-1\\n-1\\n-1\\n-1\\n-1\\n-1\\n-1\\n-1\\n-1\\n-1\\n-1\\n-1\\n-1\\n-1\\n-1\\n-1\\n-1\\n-1\\n-1\\n-1\\n-1\\n-1\\n-1\\n-1\\n-1\\n-1\\n-1\\n-1\\n-1\\n-1\\n-1\\n-1\\n-1\\n-1\\n-1\\n-1\\n-1\\n-1\\n-1\\n-1\\n-1\\n-1\\n-1\\n-1\\n-1\\n-1\\n-1\\n-1\\n-1\\n-1\\n-1\\n-1\\n-1\\n-1\\n-1\\n-1\\n-1\\n-1\\n-1\\n-1\\n-1\\n-1\\n-1\\n-1\\n-1\\n-1\\n-1\\n-1\\n-1\\n-1\\n-1\\n-1\\n-1\\n-1\\n-1\\n-1\\n-1\\n-1\\n-1\\n-1\\n-1\\n-1\\n-1\\n-1\\n-1\\n-1\\n-1\\n-1\\n-1\\n-1\\n-1\\n-1\\n-1\\n-1\\n-1\\n-1\\n-1\\n-1\\n-1\\n-1\\n-1\\n-1\\n-1\\n-1\\n-1\\n-1\\n-1\\n-1\\n-1\\n-1\\n-1\\n-1\\n-1\\n-1\\n-1\\n-1\\n-1\\n-1\\n-1\\n-1\\n-1\\n-1\\n-1\\n-1\\n-1\\n-1\\n-1\\n-1\\n-1\\n-1\\n-1\\n-1\\n-1\\n-1\\n-1\\n-1\\n-1\\n-1\\n-1\\n-1\\n-1\\n-1\\n-1\\n-1\\n-1\\n-1\\n-1\\n-1\\n-1\\n-1\\n-1\\n-1\\n-1\\n-1\\n-1\\n-1\\n-1\\n-1\\n-1\\n-1\\n-1\\n-1\\n-1\\n-1\\n-1\\n-1\\n-1\\n-1\\n-1\\n-1\\n-1\\n-1\\n-1\\n-1\\n-1\\n-1\\n-1\\n-1\\n-1\\n-1\\n-1\\n-1\\n-1\\n-1\\n-1\\n-1\\n-1\\n-1\\n-1\\n-1\\n-1\\n-1\\n-1\\n-1\\n-1\\n-1\\n-1\\n-1\\n-1\\n-1\\n-1\\n-1\\n-1\\n-1\\n-1\\n-1\\n-1\\n-1\\n-1\\n-1\\n-1\\n-1\\n-1\\n-1\\n-1\\n-1\\n-1\\n-1\\n-1\\n-1\\n-1\\n-1\\n-1\\n-1\\n-1\\n-1\\n-1\\n-1\\n-1\\n-1\\n-1\\n-1\\n-1\\n-1\\n-1\\n-1\\n-1\\n-1\\n-1\\n-1\\n-1\\n-1\\n-1\\n-1\\n-1\\n-1\\n-1\\n-1\\n-1\\n-1\\n-1\\n-1\\n-1\\n-1\\n-1\\n-1\\n-1\\n-1\\n-1\\n-1\\n-1\\n-1\\n-1\\n-1\\n-1\\n-1\\n-1\\n-1\\n-1\\n-1\\n-1\\n-1\\n-1\\n-1\\n-1\\n-1\\n-1\\n-1\\n-1\\n-1\\n-1\\n-1\\n-1\\n-1\\n-1\\n-1\\n-1\\n-1\\n-1\\n-1\\n-1\\n-1\\n-1\\n-1\\n-1\\n-1\\n-1\\n-1\\n-1\\n-1\\n-1\\n-1\\n-1\\n-1\\n-1\\n-1\\n-1\\n-1\\n-1\\n-1\\n-1\\n-1\\n-1\\n-1\\n-1\\n-1\\n-1\\n-1\\n-1\\n-1\\n-1\\n-1\\n-1\\n-1\\n-1\\n-1\\n-1\\n-1\\n-1\\n-1\\n-1\\n-1\\n-1\\n-1\\n-1\\n-1\\n-1\\n-1\\n-1\\n-1\\n-1\\n-1\\n-1\\n-1\\n-1\\n-1\\n-1\\n-1\\n-1\\n-1\\n-1\\n-1\\n-1\\n-1\\n-1\\n-1\\n-1\\n-1\\n-1\\n-1\\n-1\\n-1\\n-1\\n-1\\n-1\\n-1\\n-1\\n-1\\n-1\\n-1\\n-1\\n-1\\n-1\\n-1\\n-1\\n-1\\n-1\\n-1\\n-1\\n-1\\n-1\\n-1\\n-1\\n-1\\n-1\\n-1\\n-1\\n-1\\n-1\\n-1\\n-1\\n-1\\n-1\\n-1\\n-1\\n-1\\n-1\\n-1\\n-1\\n-1\\n-1\\n-1\\n-1\\n-1\\n-1\\n-1\\n-1\\n-1\\n-1\\n-1\\n-1\\n-1\\n-1\\n-1\\n-1\\n-1\\n-1\\n-1\\n-1\\n-1\\n-1\\n-1\\n-1\\n-1\\n-1\\n-1\\n-1\\n-1\\n-1\\n-1\\n-1\\n-1\\n-1\\n-1\\n-1\\n-1\\n-1\\n-1\\n-1\\n-1\\n-1\\n-1\\n-1\\n-1\\n-1\\n-1\\n-1\\n-1\\n-1\\n-1\\n-1\\n-1\\n-1\\n-1\\n-1\\n-1\\n-1\\n-1\\n-1\\n-1\\n-1\\n-1\\n-1\\n-1\\n-1\\n-1\\n-1\\n-1\\n-1\\n-1\\n-1\\n-1\\n-1\\n-1\\n-1\\n-1\\n-1\\n-1\\n-1\\n-1\\n-1\\n-1\\n-1\\n-1\\n-1\\n-1\\n-1\\n-1\\n-1\\n-1\\n-1\\n-1\\n-1\\n-1\\n-1\\n-1\\n-1\\n-1\\n-1\\n-1\\n-1\\n-1\\n-1\\n-1\\n-1\\n-1\\n-1\\n-1\\n-1\\n-1\\n-1\\n-1\\n-1\\n-1\\n-1\\n-1\\n-1\\n-1\\n-1\\n-1\\n-1\\n-1\\n-1\\n-1\\n-1\\n-1\\n-1\\n-1\\n-1\\n-1\\n-1\\n-1\\n-1\\n-1\\n-1\\n-1\\n-1\\n-1\\n-1\\n-1\\n-1\\n-1\\n-1\\n-1\\n-1\\n-1\\n-1\\n-1\\n-1\\n-1\\n-1\\n-1\\n-1\\n-1\\n-1\\n-1\\n-1\\n-1\\n-1\\n-1\\n-1\\n-1\\n-1\\n-1\\n-1\\n-1\\n-1\\n-1\\n-1\\n-1\\n-1\\n-1\\n-1\\n-1\\n-1\\n-1\\n-1\\n-1\\n-1\\n-1\\n-1\\n-1\\n-1\\n-1\\n-1\\n-1\\n-1\\n-1\\n-1\\n-1\\n-1\\n-1\\n-1\\n-1\\n-1\\n-1\\n-1\\n-1\\n-1\\n-1\\n-1\\n-1\\n-1\\n-1\\n-1\\n-1\\n-1\\n-1\\n-1\\n-1\\n-1\\n-1\\n-1\\n-1\\n-1\\n-1\\n-1\\n-1\\n-1\\n-1\\n-1\\n-1\\n-1\\n-1\\n-1\\n-1\\n-1\\n-1\\n-1\\n-1\\n-1\\n-1\\n-1\\n-1\\n-1\\n-1\\n-1\\n-1\\n-1\\n-1\\n-1\\n-1\\n-1\\n-1\\n-1\\n-1\\n-1\\n-1\\n-1\\n-1\\n-1\\n-1\\n-1\\n-1\\n-1\\n-1\\n-1\\n-1\\n-1\\n-1\\n-1\\n-1\\n-1\\n-1\\n-1\\n-1\\n-1\\n-1\\n-1\\n-1\\n-1\\n-1\\n-1\\n-1\\n-1\\n-1\\n-1\\n-1\\n-1\\n-1\\n-1\\n-1\\n-1\\n-1\\n-1\\n-1\\n-1\\n-1\\n-1\\n-1\\n-1\\n-1\\n-1\\n-1\\n-1\\n-1\\n-1\\n-1\\n-1\\n-1\\n-1\\n-1\\n-1\\n-1\\n-1\\n-1\\n-1\\n-1\\n-1\\n-1\\n-1\\n-1\\n-1\\n-1\\n-1\\n-1\\n-1\\n-1\\n-1\\n-1\\n-1\\n-1\\n-1\\n-1\\n-1\\n-1\\n-1\\n-1\\n-1\\n-1\\n-1\\n-1\\n-1\\n-1\\n-1\\n-1\\n-1\\n-1\\n-1\\n-1\\n-1\\n-1\\n-1\\n-1\\n-1\\n-1\\n-1\\n-1\\n-1\\n-1\\n-1\\n-1\\n-1\\n-1\\n-1\\n-1\\n-1\\n-1\\n-1\\n-1\\n-1\\n-1\\n-1\\n-1\\n-1\\n-1\\n-1\\n-1\\n-1\\n-1\\n-1\\n-1\\n-1\\n-1\\n-1\\n-1\\n-1\\n-1\\n-1\\n-1\\n-1\\n-1\\n-1\\n-1\\n-1\\n-1\\n-1\\n-1\\n-1\\n-1\\n-1\\n-1\\n-1\\n-1\\n-1\\n-1\\n-1\\n-1\\n-1\\n-1\\n-1\\n-1\\n-1\\n-1\\n-1\\n-1\\n-1\\n-1\\n-1\\n-1\\n-1\\n-1\\n-1\\n-1\\n-1\\n-1\\n-1\\n-1\\n-1\\n-1\\n-1\\n-1\\n-1\\n-1\\n-1\\n-1\\n-1\\n-1\\n-1\\n-1\\n-1\\n-1\\n-1\\n-1\\n-1\\n-1\\n-1\\n-1\\n-1\\n-1\\n-1\\n-1\\n-1\\n-1\\n-1\\n-1\\n-1\\n-1\\n-1\\n-1\\n-1\\n-1\\n-1\\n-1\\n-1\\n-1\\n-1\\n-1\\n-1\\n-1\\n-1\\n-1\\n-1\\n-1\\n-1\\n-1\\n-1\\n-1\\n-1\\n-1\\n-1\\n-1\\n-1\\n-1\\n-1\\n-1\\n-1\\n-1\\n-1\\n-1\\n-1\\n-1\\n-1\\n-1\\n-1\\n-1\\n-1\\n-1\\n-1\\n-1\\n-1\\n-1\\n-1\\n-1\\n-1\\n-1\\n-1\\n-1\\n-1\\n-1\\n-1\\n-1\\n-1\\n-1\\n-1\\n-1\\n-1\\n-1\\n-1\\n-1\\n-1\\n-1\\n-1\\n-1\\n-1\\n-1\\n-1\\n-1\\n-1\\n-1\\n-1\\n-1\\n-1\\n-1\\n-1\\n-1\\n-1\\n-1\\n-1\\n-1\\n-1\\n-1\\n-1\\n-1\\n-1\\n-1\\n-1\\n-1\\n-1\\n-1\\n-1\\n-1\\n-1\\n-1\\n-1\\n-1\\n-1\\n-1\\n-1\\n-1\\n-1\\n-1\\n-1\\n-1\\n-1\\n-1\\n-1\\n-1\\n-1\\n-1\\n-1\\n-1\\n-1\\n-1\\n-1\\n-1\\n-1\\n-1\\n-1\\n-1\\n-1\\n-1\\n-1\\n-1\\n-1\\n-1\\n-1\\n-1\\n-1\\n-1\\n-1\\n-1\\n-1\\n-1\\n-1\\n-1\\n-1\\n-1\\n-1\\n-1\\n-1\\n-1\\n-1\\n-1\\n-1\\n-1\\n-1\\n-1\\n-1\\n-1\\n-1\\n-1\\n-1\\n-1\\n-1\\n-1\\n-1\\n-1\\n-1\\n-1\\n-1\\n-1\\n-1\\n-1\\n-1\\n-1\\n-1\\n-1\\n-1\\n-1\\n-1\\n-1\\n-1\\n-1\\n-1\\n-1\\n-1\\n-1\\n-1\\n-1\\n-1\\n-1\\n-1\\n-1\\n-1\\n-1\\n-1\\n-1\\n-1\\n-1\\n-1\\n-1\\n-1\\n-1\\n-1\\n-1\\n-1\\n-1\\n-1\\n-1\\n-1\\n-1\\n-1\\n-1\\n-1\\n-1\\n-1\\n-1\\n-1\\n-1\\n-1\\n-1\\n-1\\n-1\\n-1\\n-1\\n-1\\n-1\\n-1\\n-1\\n-1\\n-1\\n-1\\n-1\\n-1\\n-1\\n-1\\n-1\\n-1\\n-1\\n-1\\n-1\\n-1\\n-1\\n-1\\n-1\\n-1\\n-1\\n-1\\n-1\\n-1\\n-1\\n-1\\n-1\\n-1\\n-1\\n-1\\n-1\\n-1\\n-1\\n-1\\n-1\\n-1\\n-1\\n-1\\n-1\\n-1\\n-1\\n-1\\n-1\\n-1\\n-1\\n-1\\n-1\\n-1\\n-1\\n-1\\n-1\\n-1\\n-1\\n-1\\n-1\\n-1\\n-1\\n-1\\n-1\\n-1\\n-1\\n-1\\n-1\\n-1\\n-1\\n-1\\n-1\\n-1\\n-1\\n-1\\n-1\\n-1\\n-1\\n-1\\n-1\\n-1\\n-1\\n-1\\n-1\\n-1\\n-1\\n-1\\n-1\\n-1\\n-1\\n-1\\n-1\\n-1\\n-1\\n-1\\n-1\\n-1\\n-1\\n-1\\n-1\\n-1\\n-1\\n-1\\n-1\\n-1\\n-1\\n-1\\n-1\\n-1\\n-1\\n-1\\n-1\\n-1\\n-1\\n-1\\n-1\\n-1\\n-1\\n-1\\n-1\\n-1\\n-1\\n-1\\n-1\\n-1\\n-1\\n-1\\n-1\\n-1\\n-1\\n-1\\n-1\\n-1\\n-1\\n-1\\n-1\\n-1\\n-1\\n-1\\n-1\\n-1\\n-1\\n-1\\n-1\\n-1\\n-1\\n-1\\n-1\\n-1\\n-1\\n-1\\n-1\\n-1\\n-1\\n-1\\n-1\\n-1\\n-1\\n-1\\n-1\\n-1\\n-1\\n-1\\n-1\\n-1\\n-1\\n-1\\n-1\\n-1\\n-1\\n-1\\n-1\\n-1\\n-1\\n-1\\n-1\\n-1\\n-1\\n-1\\n-1\\n-1\\n-1\\n-1\\n-1\\n-1\\n-1\\n-1\\n-1\\n-1\\n-1\\n-1\\n-1\\n-1\\n-1\\n-1\\n-1\\n-1\\n-1\\n-1\\n-1\\n-1\\n-1\\n-1\\n-1\\n-1\\n-1\\n-1\\n-1\\n-1\\n-1\\n-1\\n-1\\n-1\\n-1\\n-1\\n-1\\n-1\\n-1\\n-1\\n-1\\n-1\\n-1\\n-1\\n-1\\n-1\\n-1\\n-1\\n-1\\n-1\\n-1\\n-1\\n-1\\n-1\\n-1\\n-1\\n-1\\n-1\\n-1\\n-1\\n-1\\n-1\\n-1\\n-1\\n-1\\n-1\\n-1\\n-1\\n-1\\n-1\\n-1\\n-1\\n-1\\n-1\\n-1\\n-1\\n-1\\n-1\\n-1\\n-1\\n-1\\n-1\\n-1\\n-1\\n-1\\n-1\\n-1\\n-1\\n-1\\n-1\\n-1\\n-1\\n-1\\n-1\\n-1\\n-1\\n-1\\n-1\\n-1\\n-1\\n-1\\n-1\\n-1\\n-1\\n-1\\n-1\\n-1\\n-1\\n-1\\n-1\\n-1\\n-1\\n-1\\n-1\\n-1\\n-1\\n-1\\n-1\\n-1\\n-1\\n-1\\n-1\\n-1\\n-1\\n-1\\n-1\\n-1\\n-1\\n-1\\n-1\\n-1\\n-1\\n-1\\n-1\\n-1\\n-1\\n-1\\n-1\\n-1\\n-1\\n-1\\n-1\\n-1\\n-1\\n-1\\n-1\\n-1\\n-1\\n-1\\n-1\\n-1\\n-1\\n-1\\n-1\\n-1\\n-1\\n-1\\n-1\\n-1\\n-1\\n-1\\n-1\\n-1\\n-1\\n-1\\n-1\\n-1\\n-1\\n-1\\n-1\\n-1\\n-1\\n-1\\n-1\\n-1\\n-1\\n-1\\n-1\\n-1\\n-1\\n-1\\n-1\\n-1\\n-1\\n-1\\n-1\\n-1\\n-1\\n-1\\n-1\\n-1\\n-1\\n-1\\n-1\\n-1\\n-1\\n-1\\n-1\\n-1\\n-1\\n-1\\n-1\\n-1\\n-1\\n-1\\n-1\\n-1\\n-1\\n-1\\n-1\\n-1\\n-1\\n-1\\n-1\\n-1\\n-1\\n-1\\n-1\\n-1\\n-1\\n-1\\n-1\\n-1\\n-1\\n-1\\n-1\\n-1\\n-1\\n-1\\n-1\\n-1\\n-1\\n-1\\n-1\\n-1\\n-1\\n-1\\n-1\\n-1\\n-1\\n-1\\n-1\\n-1\\n-1\\n-1\\n-1\\n-1\\n-1\\n-1\\n-1\\n-1\\n-1\\n-1\\n-1\\n-1\\n-1\\n-1\\n-1\\n-1\\n-1\\n-1\\n-1\\n-1\\n-1\\n-1\\n-1\\n-1\\n-1\\n-1\\n-1\\n-1\\n-1\\n-1\\n-1\\n-1\\n-1\\n-1\\n-1\\n-1\\n-1\\n-1\\n-1\\n-1\\n-1\\n-1\\n-1\\n-1\\n-1\\n-1\\n-1\\n-1\\n-1\\n-1\\n-1\\n-1\\n-1\\n-1\\n-1\\n-1\\n-1\\n-1\\n-1\\n-1\\n-1\\n-1\\n-1\\n-1\\n-1\\n-1\\n-1\\n-1\\n-1\\n-1\\n-1\\n-1\\n-1\\n-1\\n-1\\n-1\\n-1\\n-1\\n-1\\n-1\\n-1\\n-1\\n-1\\n-1\\n-1\\n-1\\n-1\\n-1\\n-1\\n-1\\n-1\\n-1\\n-1\\n-1\\n-1\\n-1\\n-1\\n-1\\n-1\\n-1\\n-1\\n-1\\n-1\\n-1\\n-1\\n-1\\n-1\\n-1\\n-1\\n-1\\n-1\\n-1\\n-1\\n-1\\n-1\\n-1\\n-1\\n-1\\n-1\\n-1\\n-1\\n-1\\n-1\\n-1\\n-1\\n-1\\n-1\\n-1\\n-1\\n-1\\n-1\\n-1\\n-1\\n-1\\n-1\\n-1\\n-1\\n-1\\n-1\\n-1\\n-1\\n-1\\n-1\\n-1\\n-1\\n-1\\n-1\\n-1\\n-1\\n-1\\n-1\\n-1\\n-1\\n-1\\n-1\\n-1\\n-1\\n-1\\n-1\\n-1\\n-1\\n-1\\n-1\\n-1\\n-1\\n-1\\n-1\\n-1\\n-1\\n-1\\n-1\\n-1\\n-1\\n-1\\n-1\\n-1\\n-1\\n-1\\n-1\\n-1\\n-1\\n-1\\n-1\\n-1\\n-1\\n-1\\n-1\\n-1\\n-1\\n-1\\n-1\\n-1\\n-1\\n-1\\n-1\\n-1\\n-1\\n-1\\n-1\\n-1\\n-1\\n-1\\n-1\\n-1\\n-1\\n-1\\n-1\\n-1\\n-1\\n-1\\n-1\\n-1\\n-1\\n-1\\n-1\\n-1\\n-1\\n-1\\n-1\\n-1\\n-1\\n-1\\n-1\\n-1\\n-1\\n-1\\n-1\\n-1\\n-1\\n-1\\n-1\\n-1\\n-1\\n-1\\n-1\\n-1\\n-1\\n-1\\n-1\\n-1\\n-1\\n-1\\n-1\\n-1\\n-1\\n-1\\n-1\\n-1\\n-1\\n-1\\n-1\\n-1\\n-1\\n-1\\n-1\\n-1\\n-1\\n-1\\n-1\\n-1\\n-1\\n-1\\n-1\\n-1\\n-1\\n-1\\n-1\\n-1\\n-1\\n-1\\n-1\\n-1\\n-1\\n-1\\n-1\\n-1\\n-1\\n-1\\n-1\\n-1\\n-1\\n-1\\n-1\\n-1\\n-1\\n-1\\n-1\\n-1\\n-1\\n-1\\n-1\\n-1\\n-1\\n-1\\n-1\\n-1\\n-1\\n-1\\n-1\\n-1\\n-1\\n-1\\n-1\\n-1\\n-1\\n-1\\n-1\\n-1\\n-1\\n-1\\n-1\\n-1\\n-1\\n-1\\n-1\\n-1\\n-1\\n-1\\n-1\\n-1\\n-1\\n-1\\n-1\\n-1\\n-1\\n-1\\n-1\\n-1\\n-1\\n-1\\n-1\\n-1\\n-1\\n-1\\n-1\\n-1\\n-1\\n-1\\n-1\\n-1\\n-1\\n-1\\n-1\\n-1\\n-1\\n-1\\n-1\\n-1\\n-1\\n-1\\n-1\\n-1\\n-1\\n-1\\n-1\\n-1\\n-1\\n-1\\n-1\\n-1\\n-1\\n-1\\n-1\\n-1\\n-1\\n-1\\n-1\\n-1\\n-1\\n-1\\n-1\\n-1\\n-1\\n-1\\n-1\\n-1\\n-1\\n-1\\n-1\\n-1\\n-1\\n-1\\n-1\\n-1\\n-1\\n-1\\n-1\\n-1\\n-1\\n-1\\n-1\\n-1\\n-1\\n-1\\n-1\\n-1\\n-1\\n-1\\n-1\\n-1\\n-1\\n-1\\n-1\\n-1\\n-1\\n-1\\n-1\\n-1\\n-1\\n-1\\n-1\\n-1\\n-1\\n-1\\n-1\\n-1\\n-1\\n-1\\n-1\\n-1\\n-1\\n-1\\n-1\\n-1\\n-1\\n-1\\n-1\\n-1\\n-1\\n-1\\n-1\\n-1\\n-1\\n-1\\n-1\\n-1\\n-1\\n-1\\n-1\\n-1\\n-1\\n-1\\n-1\\n-1\\n-1\\n-1\\n-1\\n-1\\n-1\\n-1\\n-1\\n-1\\n-1\\n-1\\n-1\\n-1\\n-1\\n-1\\n-1\\n-1\\n-1\\n-1\\n-1\\n-1\\n-1\\n-1\\n-1\\n-1\\n-1\\n-1\\n-1\\n-1\\n-1\\n-1\\n-1\\n-1\\n-1\\n-1\\n-1\\n-1\\n-1\\n-1\\n-1\\n-1\\n-1\\n-1\\n-1\\n-1\\n-1\\n-1\\n-1\\n-1\\n-1\\n-1\\n-1\\n-1\\n-1\\n-1\\n-1\\n-1\\n-1\\n-1\\n-1\\n-1\\n-1\\n-1\\n-1\\n-1\\n-1\\n-1\\n-1\\n-1\\n-1\\n-1\\n-1\\n-1\\n-1\\n-1\\n-1\\n-1\\n-1\\n-1\\n-1\\n-1\\n-1\\n-1\\n-1\\n-1\\n-1\\n-1\\n-1\\n-1\\n-1\\n-1\\n-1\\n-1\\n-1\\n-1\\n-1\\n-1\\n-1\\n-1\\n-1\\n-1\\n-1\\n-1\\n-1\\n-1\\n-1\\n-1\\n-1\\n-1\\n-1\\n-1\\n-1\\n-1\\n-1\\n-1\\n-1\\n-1\\n-1\\n-1\\n-1\\n-1\\n-1\\n-1\\n-1\\n-1\\n-1\\n-1\\n-1\\n-1\\n-1\\n-1\\n-1\\n-1\\n-1\\n-1\\n-1\\n-1\\n-1\\n-1\\n-1\\n-1\\n-1\\n-1\\n-1\\n-1\\n-1\\n-1\\n-1\\n-1\\n-1\\n-1\\n-1\\n-1\\n-1\\n-1\\n-1\\n-1\\n-1\\n-1\\n-1\\n-1\\n-1\\n-1\\n-1\\n-1\\n-1\\n-1\\n-1\\n-1\\n-1\\n-1\\n-1\\n-1\\n-1\\n-1\\n-1\\n-1\\n-1\\n-1\\n-1\\n-1\\n-1\\n-1\\n-1\\n-1\\n-1\\n-1\\n-1\\n-1\\n-1\\n-1\\n-1\\n-1\\n-1\\n-1\\n-1\\n-1\\n-1\\n-1\\n-1\\n-1\\n-1\\n-1\\n-1\\n-1\\n-1\\n-1\\n-1\\n-1\\n-1\\n-1\\n-1\\n-1\\n-1\\n-1\\n-1\\n-1\\n-1\\n-1\\n-1\\n-1\\n-1\\n-1\\n-1\\n-1\\n-1\\n-1\\n-1\\n-1\\n-1\\n-1\\n-1\\n-1\\n-1\\n-1\\n-1\\n-1\\n-1\\n-1\\n-1\\n-1\\n-1\\n-1\\n-1\\n-1\\n-1\\n-1\\n-1\\n-1\\n-1\\n-1\\n-1\\n-1\\n-1\\n-1\\n-1\\n-1\\n-1\\n-1\\n-1\\n-1\\n-1\\n-1\\n-1\\n-1\\n-1\\n-1\\n-1\\n-1\\n-1\\n-1\\n-1\\n-1\\n-1\\n-1\\n-1\\n-1\\n-1\\n-1\\n-1\\n-1\\n-1\\n-1\\n-1\\n-1\\n-1\\n-1\\n-1\\n-1\\n-1\\n-1\\n-1\\n-1\\n-1\\n-1\\n-1\\n-1\\n-1\\n-1\\n-1\\n-1\\n-1\\n-1\\n-1\\n-1\\n-1\\n-1\\n-1\\n-1\\n-1\\n-1\\n-1\\n-1\\n-1\\n-1\\n-1\\n-1\\n-1\\n-1\\n-1\\n-1\\n-1\\n-1\\n-1\\n-1\\n-1\\n-1\\n-1\\n-1\\n-1\\n-1\\n-1\\n-1\\n-1\\n-1\\n-1\\n-1\\n-1\\n-1\\n-1\\n-1\\n-1\\n-1\\n-1\\n-1\\n-1\\n-1\\n-1\\n-1\\n-1\\n-1\\n-1\\n-1\\n-1\\n-1\\n-1\\n-1\\n-1\\n-1\\n-1\\n-1\\n-1\\n-1\\n-1\\n-1\\n-1\\n-1\\n-1\\n-1\\n-1\\n-1\\n-1\\n-1\\n-1\\n-1\\n-1\\n-1\\n-1\\n-1\\n-1\\n-1\\n-1\\n-1\\n-1\\n-1\\n-1\\n-1\\n-1\\n-1\\n-1\\n-1\\n-1\\n-1\\n-1\\n-1\\n-1\\n-1\\n-1\\n-1\\n-1\\n-1\\n-1\\n-1\\n-1\\n-1\\n-1\\n-1\\n-1\\n-1\\n-1\\n-1\\n-1\\n-1\\n-1\\n-1\\n-1\\n-1\\n-1\\n-1\\n-1\\n-1\\n-1\\n-1\\n-1\\n-1\\n-1\\n-1\\n-1\\n-1\\n-1\\n-1\\n-1\\n-1\\n-1\\n-1\\n-1\\n-1\\n-1\\n-1\\n-1\\n-1\\n-1\\n-1\\n-1\\n-1\\n-1\\n-1\\n-1\\n-1\\n-1\\n-1\\n-1\\n-1\\n-1\\n-1\\n-1\\n-1\\n-1\\n-1\\n-1\\n-1\\n-1\\n-1\\n-1\\n-1\\n-1\\n-1\\n-1\\n-1\\n-1\\n-1\\n-1\\n-1\\n-1\\n-1\\n-1\\n-1\\n-1\\n-1\\n-1\\n-1\\n-1\\n-1\\n-1\\n-1\\n-1\\n-1\\n-1\\n-1\\n-1\\n-1\\n-1\\n-1\\n-1\\n-1\\n-1\\n-1\\n-1\\n-1\\n-1\\n-1\\n-1\\n-1\\n-1\\n-1\\n-1\\n-1\\n-1\\n-1\\n-1\\n-1\\n-1\\n-1\\n-1\\n-1\\n-1\\n-1\\n-1\\n-1\\n-1\\n-1\\n-1\\n-1\\n-1\\n-1\\n-1\\n-1\\n-1\\n-1\\n-1\\n-1\\n-1\\n-1\\n-1\\n-1\\n-1\\n-1\\n-1\\n-1\\n-1\\n-1\\n-1\\n-1\\n-1\\n-1\\n-1\\n-1\\n-1\\n-1\\n-1\\n-1\\n-1\\n-1\\n-1\\n-1\\n-1\\n-1\\n-1\\n-1\\n-1\\n-1\\n-1\\n-1\\n-1\\n-1\\n-1\\n-1\\n-1\\n-1\\n-1\\n-1\\n-1\\n-1\\n-1\\n-1\\n-1\\n-1\\n-1\\n-1\\n-1\\n-1\\n-1\\n-1\\n-1\\n-1\\n-1\\n-1\\n-1\\n-1\\n-1\\n-1\\n-1\\n-1\\n-1\\n-1\\n-1\\n-1\\n-1\\n-1\\n-1\\n-1\\n-1\\n-1\\n-1\\n-1\\n-1\\n-1\\n-1\\n-1\\n-1\\n-1\\n-1\\n-1\\n-1\\n-1\\n-1\\n-1\\n-1\\n-1\\n-1\\n-1\\n-1\\n-1\\n-1\\n-1\\n-1\\n-1\\n-1\\n-1\\n-1\\n-1\\n-1\\n-1\\n-1\\n-1\\n-1\\n-1\\n-1\\n-1\\n-1\\n-1\\n-1\\n-1\\n-1\\n-1\\n-1\\n-1\\n-1\\n-1\\n-1\\n-1\\n-1\\n-1\\n-1\\n-1\\n-1\\n-1\\n-1\\n-1\\n-1\\n-1\\n-1\\n-1\\n-1\\n-1\\n-1\\n-1\\n-1\\n-1\\n-1\\n-1\\n-1\\n-1\\n-1\\n-1\\n-1\\n-1\\n-1\\n-1\\n-1\\n-1\\n-1\\n-1\\n-1\\n-1\\n-1\\n-1\\n-1\\n-1\\n-1\\n-1\\n-1\\n-1\\n-1\\n-1\\n-1\\n-1\\n-1\\n-1\\n-1\\n-1\\n-1\\n-1\\n-1\\n-1\\n-1\\n-1\\n-1\\n-1\\n-1\\n-1\\n-1\\n-1\\n-1\\n-1\\n-1\\n-1\\n-1\\n-1\\n-1\\n-1\\n-1\\n-1\\n-1\\n-1\\n-1\\n-1\\n-1\\n-1\\n-1\\n-1\\n-1\\n-1\\n-1\\n-1\\n-1\\n-1\\n-1\\n-1\\n-1\\n-1\\n-1\\n-1\\n-1\\n-1\\n-1\\n-1\\n-1\\n-1\\n-1\\n-1\\n-1\\n-1\\n-1\\n-1\\n-1\\n-1\\n-1\\n-1\\n-1\\n-1\\n-1\\n-1\\n-1\\n-1\\n-1\\n-1\\n-1\\n-1\\n-1\\n-1\\n-1\\n-1\\n-1\\n-1\\n-1\\n-1\\n-1\\n-1\\n-1\\n-1\\n-1\\n-1\\n-1\\n-1\\n-1\\n-1\\n-1\\n-1\\n-1\\n-1\\n-1\\n-1\\n-1\\n-1\\n-1\\n-1\\n-1\\n-1\\n-1\\n-1\\n-1\\n-1\\n-1\\n-1\\n-1\\n-1\\n-1\\n-1\\n-1\\n-1\\n-1\\n-1\\n-1\\n-1\\n-1\\n-1\\n-1\\n-1\\n-1\\n-1\\n-1\\n-1\\n-1\\n-1\\n-1\\n-1\\n-1\\n-1\\n-1\\n-1\\n-1\\n-1\\n-1\\n-1\\n-1\\n-1\\n-1\\n-1\\n-1\\n-1\\n-1\\n-1\\n-1\\n-1\\n-1\\n-1\\n-1\\n-1\\n-1\\n-1\\n-1\\n-1\\n-1\\n-1\\n-1\\n-1\\n-1\\n-1\\n-1\\n-1\\n-1\\n-1\\n-1\\n-1\\n-1\\n-1\\n-1\\n-1\\n-1\\n-1\\n-1\\n-1\\n-1\\n-1\\n-1\\n-1\\n-1\\n-1\\n-1\\n-1\\n-1\\n-1\\n-1\\n-1\\n-1\\n-1\\n-1\\n-1\\n-1\\n-1\\n-1\\n-1\\n-1\\n-1\\n-1\\n-1\\n-1\\n-1\\n-1\\n-1\\n-1\\n-1\\n-1\\n-1\\n-1\\n-1\\n-1\\n-1\\n-1\\n-1\\n-1\\n-1\\n-1\\n-1\\n-1\\n-1\\n-1\\n-1\\n-1\\n-1\\n-1\\n-1\\n-1\\n-1\\n-1\\n-1\\n-1\\n-1\\n-1\\n-1\\n-1\\n-1\\n-1\\n-1\\n-1\\n-1\\n-1\\n-1\\n-1\\n-1\\n-1\\n-1\\n-1\\n-1\\n-1\\n-1\\n-1\\n-1\\n-1\\n-1\\n-1\\n-1\\n-1\\n-1\\n-1\\n-1\\n-1\\n-1\\n-1\\n-1\\n-1\\n-1\\n-1\\n-1\\n-1\\n-1\\n-1\\n-1\\n-1\\n-1\\n-1\\n-1\\n-1\\n-1\\n-1\\n-1\\n-1\\n-1\\n-1\\n-1\\n-1\\n-1\\n-1\\n-1\\n-1\\n-1\\n-1\\n-1\\n-1\\n-1\\n-1\\n-1\\n-1\\n-1\\n-1\\n-1\\n-1\\n-1\\n-1\\n-1\\n-1\\n-1\\n-1\\n-1\\n-1\\n-1\\n-1\\n-1\\n-1\\n-1\\n-1\\n-1\\n-1\\n-1\\n-1\\n-1\\n-1\\n-1\\n-1\\n-1\\n-1\\n-1\\n-1\\n-1\\n-1\\n-1\\n-1\\n-1\\n-1\\n-1\\n-1\\n-1\\n-1\\n-1\\n-1\\n-1\\n-1\\n-1\\n-1\\n-1\\n-1\\n-1\\n-1\\n-1\\n-1\\n-1\\n-1\\n-1\\n-1\\n-1\\n-1\\n-1\\n-1\\n-1\\n-1\\n-1\\n-1\\n-1\\n-1\\n-1\\n-1\\n-1\\n-1\\n-1\\n-1\\n-1\\n-1\\n-1\\n-1\\n-1\\n-1\\n-1\\n-1\\n-1\\n-1\\n-1\\n-1\\n-1\\n-1\\n-1\\n-1\\n-1\\n-1\\n-1\\n-1\\n-1\\n-1\\n-1\\n-1\\n-1\\n-1\\n-1\\n-1\\n-1\\n-1\\n-1\\n-1\\n-1\\n-1\\n-1\\n-1\\n-1\\n-1\\n-1\\n-1\\n-1\\n-1\\n-1\\n-1\\n-1\\n-1\\n-1\\n-1\\n-1\\n-1\\n-1\\n-1\\n-1\\n-1\\n-1\\n-1\\n-1\\n-1\\n-1\\n-1\\n-1\\n-1\\n-1\\n-1\\n-1\\n-1\\n-1\\n-1\\n-1\\n-1\\n-1\\n-1\\n-1\\n-1\\n-1\\n-1\\n-1\\n-1\\n-1\\n-1\\n-1\\n-1\\n-1\\n-1\\n-1\\n-1\\n-1\\n-1\\n-1\\n-1\\n-1\\n-1\\n-1\\n-1\\n-1\\n-1\\n-1\\n-1\\n-1\\n-1\\n-1\\n-1\\n-1\\n-1\\n-1\\n-1\\n-1\\n-1\\n-1\\n-1\\n-1\\n-1\\n-1\\n-1\\n-1\\n-1\\n-1\\n-1\\n-1\\n-1\\n-1\\n-1\\n-1\\n-1\\n-1\\n-1\\n-1\\n-1\\n-1\\n-1\\n-1\\n-1\\n-1\\n-1\\n-1\\n-1\\n-1\\n-1\\n-1\\n-1\\n-1\\n-1\\n-1\\n-1\\n-1\\n-1\\n-1\\n-1\\n-1\\n-1\\n-1\\n-1\\n-1\\n-1\\n-1\\n-1\\n-1\\n-1\\n-1\\n-1\\n-1\\n-1\\n-1\\n-1\\n-1\\n-1\\n-1\\n-1\\n-1\\n-1\\n-1\\n-1\\n-1\\n-1\\n-1\\n-1\\n-1\\n-1\\n-1\\n-1\\n-1\\n-1\\n-1\\n-1\\n-1\\n-1\\n-1\\n-1\\n-1\\n-1\\n-1\\n-1\\n-1\\n-1\\n-1\\n-1\\n-1\\n-1\\n-1\\n-1\\n-1\\n-1\\n-1\\n-1\\n-1\\n-1\\n-1\\n-1\\n-1\\n-1\\n-1\\n-1\\n-1\\n-1\\n-1\\n-1\\n-1\\n-1\\n-1\\n-1\\n-1\\n-1\\n-1\\n-1\\n-1\\n-1\\n-1\\n-1\\n-1\\n-1\\n-1\\n-1\\n-1\\n-1\\n-1\\n-1\\n-1\\n-1\\n-1\\n-1\\n-1\\n-1\\n-1\\n-1\\n-1\\n-1\\n-1\\n-1\\n-1\\n-1\\n-1\\n-1\\n-1\\n-1\\n-1\\n-1\\n-1\\n-1\\n-1\\n-1\\n-1\\n-1\\n-1\\n-1\\n-1\\n-1\\n-1\\n-1\\n-1\\n-1\\n-1\\n-1\\n-1\\n-1\\n-1\\n-1\\n-1\\n-1\\n-1\\n-1\\n-1\\n-1\\n-1\\n-1\\n-1\\n-1\\n-1\\n-1\\n-1\\n-1\\n-1\\n-1\\n-1\\n-1\\n-1\\n-1\\n-1\\n-1\\n-1\\n-1\\n-1\\n-1\\n-1\\n-1\\n-1\\n-1\\n-1\\n-1\\n-1\\n-1\\n-1\\n-1\\n-1\\n-1\\n-1\\n-1\\n-1\\n-1\\n-1\\n-1\\n-1\\n-1\\n-1\\n-1\\n-1\\n-1\\n-1\\n-1\\n-1\\n-1\\n-1\\n-1\\n-1\\n-1\\n-1\\n-1\\n-1\\n-1\\n-1\\n-1\\n-1\\n-1\\n-1\\n-1\\n-1\\n-1\\n-1\\n-1\\n-1\\n-1\\n-1\\n-1\\n-1\\n-1\\n-1\\n-1\\n-1\\n-1\\n-1\\n-1\\n-1\\n-1\\n-1\\n-1\\n-1\\n-1\\n-1\\n-1\\n-1\\n-1\\n-1\\n-1\\n-1\\n-1\\n-1\\n-1\\n-1\\n-1\\n-1\\n-1\\n-1\\n-1\\n-1\\n-1\\n-1\\n-1\\n-1\\n-1\\n-1\\n-1\\n-1\\n-1\\n-1\\n-1\\n-1\\n-1\\n-1\\n-1\\n-1\\n-1\\n-1\\n-1\\n-1\\n-1\\n-1\\n-1\\n-1\\n-1\\n-1\\n-1\\n-1\\n-1\\n-1\\n-1\\n-1\\n-1\\n-1\\n-1\\n-1\\n-1\\n-1\\n-1\\n-1\\n-1\\n-1\\n-1\\n-1\\n-1\\n-1\\n-1\\n-1\\n-1\\n-1\\n-1\\n-1\\n-1\\n-1\\n-1\\n-1\\n-1\\n-1\\n-1\\n-1\\n-1\\n-1\\n-1\\n-1\\n-1\\n-1\\n-1\\n-1\\n-1\\n-1\\n-1\\n-1\\n-1\\n-1\\n-1\\n-1\\n-1\\n-1\\n-1\\n-1\\n-1\\n-1\\n-1\\n-1\\n-1\\n-1\\n-1\\n-1\\n-1\\n-1\\n-1\\n-1\\n-1\\n-1\\n-1\\n-1\\n-1\\n-1\\n-1\\n-1\\n-1\\n-1\\n-1\\n-1\\n-1\\n-1\\n-1\\n-1\\n-1\\n-1\\n-1\\n-1\\n-1\\n-1\\n-1\\n-1\\n-1\\n-1\\n-1\\n-1\\n-1\\n-1\\n-1\\n-1\\n-1\\n-1\\n-1\\n-1\\n-1\\n-1\\n-1\\n-1\\n-1\\n-1\\n-1\\n-1\\n-1\\n-1\\n-1\\n-1\\n-1\\n-1\\n-1\\n-1\\n-1\\n-1\\n-1\\n-1\\n-1\\n-1\\n-1\\n-1\\n-1\\n-1\\n-1\\n-1\\n-1\\n-1\\n-1\\n-1\\n-1\\n-1\\n-1\\n-1\\n-1\\n-1\\n-1\\n-1\\n-1\\n-1\\n-1\\n-1\\n-1\\n-1\\n-1\\n-1\\n-1\\n-1\\n-1\\n-1\\n-1\\n-1\\n-1\\n-1\\n-1\\n-1\\n-1\\n-1\\n-1\\n-1\\n-1\\n-1\\n-1\\n-1\\n-1\\n-1\\n-1\\n-1\\n-1\\n-1\\n-1\\n-1\\n-1\\n-1\\n-1\\n-1\\n-1\\n-1\\n-1\\n-1\\n-1\\n-1\\n-1\\n-1\\n-1\\n-1\\n-1\\n-1\\n-1\\n-1\\n-1\\n-1\\n-1\\n-1\\n-1\\n-1\\n-1\\n-1\\n-1\\n-1\\n-1\\n-1\\n-1\\n-1\\n-1\\n-1\\n-1\\n-1\\n-1\\n-1\\n-1\\n-1\\n-1\\n-1\\n-1\\n-1\\n-1\\n-1\\n-1\\n-1\\n-1\\n-1\\n-1\\n-1\\n-1\\n-1\\n-1\\n-1\\n-1\\n-1\\n-1\\n-1\\n-1\\n-1\\n-1\\n-1\\n-1\\n-1\\n-1\\n-1\\n-1\\n-1\\n-1\\n-1\\n-1\\n-1\\n-1\\n-1\\n-1\\n-1\\n-1\\n-1\\n-1\\n-1\\n-1\\n-1\\n-1\\n-1\\n-1\\n-1\\n-1\\n-1\\n-1\\n-1\\n-1\\n-1\\n-1\\n-1\\n-1\\n-1\\n-1\\n-1\\n-1\\n-1\\n-1\\n-1\\n-1\\n-1\\n-1\\n-1\\n-1\\n-1\\n-1\\n-1\\n-1\\n-1\\n-1\\n-1\\n-1\\n-1\\n-1\\n-1\\n-1\\n-1\\n-1\\n-1\\n-1\\n-1\\n-1\\n-1\\n-1\\n-1\\n-1\\n-1\\n-1\\n-1\\n-1\\n-1\\n-1\\n-1\\n-1\\n-1\\n-1\\n-1\\n-1\\n-1\\n-1\\n-1\\n-1\\n-1\\n-1\\n-1\\n-1\\n-1\\n-1\\n-1\\n-1\\n-1\\n-1\\n-1\\n-1\\n-1\\n-1\\n-1\\n-1\\n-1\\n-1\\n-1\\n-1\\n-1\\n-1\\n-1\\n-1\\n-1\\n-1\\n-1\\n-1\\n-1\\n-1\\n-1\\n-1\\n-1\\n-1\\n-1\\n-1\\n-1\\n-1\\n-1\\n-1\\n-1\\n-1\\n-1\\n-1\\n-1\\n-1\\n-1\\n-1\\n-1\\n-1\\n-1\\n-1\\n-1\\n-1\\n-1\\n-1\\n-1\\n-1\\n-1\\n-1\\n-1\\n-1\\n-1\\n-1\\n-1\\n-1\\n-1\\n-1\\n-1\\n-1\\n-1\\n-1\\n-1\\n-1\\n-1\\n-1\\n-1\\n-1\\n-1\\n-1\\n-1\\n-1\\n-1\\n-1\\n-1\\n-1\\n-1\\n-1\\n-1\\n-1\\n-1\\n-1\\n-1\\n-1\\n-1\\n-1\\n-1\\n-1\\n-1\\n-1\\n-1\\n-1\\n-1\\n-1\\n-1\\n-1\\n-1\\n-1\\n-1\\n-1\\n-1\\n-1\\n-1\\n-1\\n-1\\n-1\\n-1\\n-1\\n-1\\n-1\\n-1\\n-1\\n-1\\n-1\\n-1\\n-1\\n-1\\n-1\\n-1\\n-1\\n-1\\n-1\\n-1\\n-1\\n-1\\n-1\\n-1\\n-1\\n-1\\n-1\\n-1\\n-1\\n-1\\n-1\\n-1\\n-1\\n-1\\n-1\\n-1\\n-1\\n-1\\n-1\\n-1\\n-1\\n-1\\n-1\\n-1\\n-1\\n-1\\n-1\\n-1\\n-1\\n-1\\n-1\\n-1\\n-1\\n-1\\n-1\\n-1\\n-1\\n-1\\n-1\\n-1\\n-1\\n-1\\n-1\\n-1\\n-1\\n-1\\n-1\\n-1\\n-1\\n-1\\n-1\\n-1\\n-1\\n-1\\n-1\\n-1\\n-1\\n-1\\n-1\\n-1\\n-1\\n-1\\n-1\\n-1\\n-1\\n-1\\n-1\\n-1\\n-1\\n-1\\n-1\\n-1\\n-1\\n-1\\n-1\\n-1\\n-1\\n-1\\n-1\\n-1\\n-1\\n-1\\n-1\\n-1\\n-1\\n-1\\n-1\\n-1\\n-1\\n-1\\n-1\\n-1\\n-1\\n-1\\n-1\\n-1\\n-1\\n-1\\n-1\\n-1\\n-1\\n-1\\n-1\\n-1\\n-1\\n-1\\n-1\\n-1\\n-1\\n-1\\n-1\\n-1\\n-1\\n-1\\n-1\\n-1\\n-1\\n-1\\n-1\\n-1\\n-1\\n-1\\n-1\\n-1\\n-1\\n-1\\n-1\\n-1\\n-1\\n-1\\n-1\\n-1\\n-1\\n-1\\n-1\\n-1\\n-1\\n-1\\n-1\\n-1\\n-1\\n-1\\n-1\\n-1\\n-1\\n-1\\n-1\\n-1\\n-1\\n-1\\n-1\\n-1\\n-1\\n-1\\n-1\\n-1\\n-1\\n-1\\n-1\\n-1\\n-1\\n-1\\n-1\\n-1\\n-1\\n-1\\n-1\\n-1\\n-1\\n-1\\n-1\\n-1\\n-1\\n-1\\n-1\\n-1\\n-1\\n-1\\n-1\\n-1\\n-1\\n-1\\n-1\\n-1\\n-1\\n-1\\n-1\\n-1\\n-1\\n-1\\n-1\\n-1\\n-1\\n-1\\n-1\\n-1\\n-1\\n-1\\n-1\\n-1\\n-1\\n-1\\n-1\\n-1\\n-1\\n-1\\n-1\\n-1\\n-1\\n-1\\n-1\\n-1\\n-1\\n-1\\n-1\\n-1\\n-1\\n-1\\n-1\\n-1\\n-1\\n-1\\n-1\\n-1\\n-1\\n-1\\n-1\\n-1\\n-1\\n-1\\n-1\\n-1\\n-1\\n-1\\n-1\\n-1\\n-1\\n-1\\n-1\\n-1\\n-1\\n-1\\n-1\\n-1\\n-1\\n-1\\n-1\\n-1\\n-1\\n-1\\n-1\\n-1\\n-1\\n-1\\n-1\\n-1\\n-1\\n-1\\n-1\\n-1\\n-1\\n-1\\n-1\\n-1\\n-1\\n-1\\n-1\\n-1\\n-1\\n-1\\n-1\\n-1\\n-1\\n-1\\n-1\\n-1\\n-1\\n-1\\n-1\\n-1\\n-1\\n-1\\n-1\\n-1\\n-1\\n-1\\n-1\\n-1\\n-1\\n-1\\n-1\\n-1\\n-1\\n-1\\n-1\\n-1\\n-1\\n-1\\n-1\\n-1\\n-1\\n-1\\n-1\\n-1\\n-1\\n-1\\n-1\\n-1\\n-1\\n-1\\n-1\\n-1\\n-1\\n-1\\n-1\\n-1\\n-1\\n-1\\n-1\\n-1\\n-1\\n-1\\n-1\\n-1\\n-1\\n-1\\n-1\\n-1\\n-1\\n-1\\n-1\\n-1\\n-1\\n-1\\n-1\\n-1\\n-1\\n-1\\n-1\\n-1\\n-1\\n-1\\n-1\\n-1\\n-1\\n-1\\n-1\\n-1\\n-1\\n-1\\n-1\\n-1\\n-1\\n-1\\n-1\\n-1\\n-1\\n-1\\n-1\\n-1\\n-1\\n-1\\n-1\\n-1\\n-1\\n-1\\n-1\\n-1\\n-1\\n-1\\n-1\\n-1\\n-1\\n-1\\n-1\\n-1\\n-1\\n-1\\n-1\\n-1\\n-1\\n-1\\n-1\\n-1\\n-1\\n-1\\n-1\\n-1\\n-1\\n-1\\n-1\\n-1\\n-1\\n-1\\n-1\\n-1\\n-1\\n-1\\n-1\\n-1\\n-1\\n-1\\n-1\\n-1\\n-1\\n-1\\n-1\\n-1\\n-1\\n-1\\n-1\\n-1\\n-1\\n-1\\n-1\\n-1\\n-1\\n-1\\n-1\\n-1\\n-1\\n-1\\n-1\\n-1\\n-1\\n-1\\n-1\\n-1\\n-1\\n-1\\n-1\\n-1\\n-1\\n-1\\n-1\\n-1\\n-1\\n-1\\n-1\\n-1\\n-1\\n-1\\n-1\\n-1\\n-1\\n-1\\n-1\\n-1\\n-1\\n-1\\n-1\\n-1\\n-1\\n-1\\n-1\\n-1\\n-1\\n-1\\n-1\\n-1\\n-1\\n-1\\n-1\\n-1\\n-1\\n-1\\n-1\\n-1\\n-1\\n-1\\n-1\\n-1\\n-1\\n-1\\n-1\\n-1\\n-1\\n-1\\n-1\\n-1\\n-1\\n-1\\n-1\\n-1\\n-1\\n-1\\n-1\\n-1\\n-1\\n-1\\n-1\\n-1\\n-1\\n-1\\n-1\\n-1\\n-1\\n-1\\n-1\\n-1\\n-1\\n-1\\n-1\\n-1\\n-1\\n-1\\n-1\\n-1\\n-1\\n-1\\n-1\\n-1\\n-1\\n-1\\n-1\\n-1\\n-1\\n-1\\n-1\\n-1\\n-1\\n-1\\n-1\\n-1\\n-1\\n-1\\n-1\\n-1\\n-1\\n-1\\n-1\\n-1\\n-1\\n-1\\n-1\\n-1\\n-1\\n-1\\n-1\\n-1\\n-1\\n-1\\n-1\\n-1\\n-1\\n-1\\n-1\\n-1\\n-1\\n-1\\n-1\\n-1\\n-1\\n-1\\n-1\\n-1\\n-1\\n-1\\n-1\\n-1\\n-1\\n-1\\n-1\\n-1\\n-1\\n-1\\n-1\\n-1\\n-1\\n-1\\n-1\\n-1\\n-1\\n-1\\n-1\\n-1\\n-1\\n-1\\n-1\\n-1\\n-1\\n-1\\n-1\\n-1\\n-1\\n-1\\n-1\\n-1\\n-1\\n-1\\n-1\\n-1\\n-1\\n-1\\n-1\\n-1\\n-1\\n-1\\n-1\\n-1\\n-1\\n-1\\n-1\\n-1\\n-1\\n-1\\n-1\\n-1\\n-1\\n-1\\n-1\\n-1\\n-1\\n-1\\n-1\\n-1\\n-1\\n-1\\n-1\\n-1\\n-1\\n-1\\n-1\\n-1\\n-1\\n-1\\n-1\\n-1\\n-1\\n-1\\n-1\\n-1\\n-1\\n-1\\n-1\\n-1\\n-1\\n-1\\n-1\\n-1\\n-1\\n-1\\n-1\\n-1\\n-1\\n-1\\n-1\\n-1\\n-1\\n-1\\n-1\\n-1\\n-1\\n-1\\n": 4154,
      "##.%lld.%lld\\n": 4155,
      "blackjack": 4156,
      "%[a-z]%d%[v]": 4157,
      "%5d": 4158,
      "%511s%d": 4159,
      "%*c%d": 4160,
      "%*c%*": 4161,
      "%llf%llf": 4162,
      "%llf%llf%llf": 4163,
      "%0*d\\n": 4164,
      "(%d)\\n": 4165,
      "-c\\\"input(": 4166,
      ".,!?": 4167,
      ".,-'": 4168,
      "1439": 4169,
      "14350000": 4170,
      "230500": 4171,
      "230584300921": 4172,
      "3e5": 4173,
      "3e3": 4174,
      "48828125": 4175,
      "9248440": 4176,
      "9765625": 4177,
      "c2);": 4178,
      "c2++;": 4179,
      "ccab": 4180,
      "ccab....": 4181,
      "clear": 4182,
      "cleared": 4183,
      "cats.": 4184,
      "ddab": 4185,
      "ddab....": 4186,
      "festival": 4187,
      "feather\\0": 4188,
      "fri": 4189,
      "greater": 4190,
      "greedy": 4191,
      "hit\\n": 4192,
      "lightning": 4193,
      "mtsh": 4194,
      "mtsfk": 4195,
      "mon\\0": 4196,
      "open": 4197,
      "opened": 4198,
      "poly": 4199,
      "postorder": 4200,
      "panel": 4201,
      "panic!!": 4202,
      "perl": 4203,
      "perfec": 4204,
      "same\\n": 4205,
      "sciss": 4206,
      "satur\\0sun": 4207,
      "sum);": 4208,
      "sum+=result[": 4209,
      "sunny": 4210,
      "tues\\0": 4211,
      "val,": 4212,
      "valid": 4213,
      "write\\n": 4214,
      "wednes": 4215,
      "welter\\0": 4216,
      "welcome": 4217,
      "yocto": 4218,
      "yotta": 4219,
      "##.%0*d\\n": 4220,
      "##.count,": 4221,
      "##\\2\\7?_": 4222,
      "##%2::": 4223,
      "##%*[": 4224,
      "##%1d%d": 4225,
      "##72036854": 4226,
      "##x,avx,": 4227,
      "##ekq[": 4228,
      "##usai!\\n": 4229,
      "##mmx,avx,": 4230,
      "##a[^\\n]\\0ap": 4231,
      "##wa\\n": 4232,
      "##6\\n238\\n": 4233,
      "##4105\\n99410": 4234,
      "##ront": 4235,
      "##c1++]=i;": 4236,
      "##bhhph": 4237,
      "##bhv`": 4238,
      "##gggsgok": 4239,
      "##>0){": 4240,
      "##_first_part": 4241,
      "##_front": 4242,
      "##1\\n0\\n5\\n9\\n": 4243,
      "%d%llu%d": 4244,
      "preorder": 4245,
      "pre-me": 4246,
      "##ser)+$'": 4247,
      "delicious": 4248,
      "delete": 4249,
      "deci": 4250,
      "deca": 4251,
      "10302": 4252,
      "%d\\n\\0loop\\n": 4253,
      "0x3ff": 4254,
      "0x3fffffff": 4255,
      "0x3020100": 4256,
      "%s,%d\\n": 4257,
      "%s,%s\\n": 4258,
      "11529215": 4259,
      "160010": 4260,
      "1677721": 4261,
      "16777218": 4262,
      "1010000000": 4263,
      "1344": 4264,
      "1342177": 4265,
      "%lld%lld\\n%s": 4266,
      "ca..a": 4267,
      "ca..b": 4268,
      "1461": 4269,
      "144000": 4270,
      "0.0000\\n": 4271,
      "0.00000001": 4272,
      "0.000005": 4273,
      "19890": 4274,
      "##369394": 4275,
      "%f%f%f%f%f%f%f%f": 4276,
      "##\\0%p_": 4277,
      "##\\0b$`": 4278,
      "##\\0b\\0c\\0": 4279,
      "%lf\\n%lf\\n%lf\\n%lf\\n": 4280,
      "370003": 4281,
      "abbcc": 4282,
      "abb.aa": 4283,
      "abcc....": 4284,
      "abdd....": 4285,
      "709\\n709\\n120": 4286,
      "%d%*d%d%d%d": 4287,
      "0123456789abcdefghijklmnopqrstuvwxyz": 4288,
      "0123456789abcdefghi": 4289,
      "##%[=]#%[=]": 4290,
      "miss\\n": 4291,
      "online_back": 4292,
      "online_front": 4293,
      "##5\\n4002\\n24950307\\n": 4294,
      "##ubu10gok": 4295,
      ".aa.aac": 4296,
      ".aa.aab": 4297,
      "....abcc": 4298,
      "....abdd": 4299,
      "ans:": 4300,
      "bbcca": 4301,
      "bbccbb.": 4302,
      "found)": 4303,
      "height)": 4304,
      "leaf,": 4305,
      "##)))\\'": 4306,
      "##\\n9548\\n9548": 4307,
      "%2d%d": 4308,
      "%4s,%f,%f": 4309,
      "%4s%8": 4310,
      "%02d:%02d:%02d\\n": 4311,
      "%02d:%02d:%02d": 4312,
      "rgbyp": 4313,
      "warning\\n": 4314,
      "##21542453": 4315,
      "##dream|dream": 4316,
      "1100100100100": 4317,
      "unreachable\\n": 4318,
      "abcdefghijklmnopqrstuvwxyzabcdefghijklmnopqrstuvwxyz0123456789": 4319,
      "##input().count,": 4320,
      "'^(hi)*": 4321,
      "'^(dream|dream": 4322,
      "(%.6lf,%.6lf)": 4323,
      "(%.6lf,%.6lf)\\n": 4324,
      "***\\n": 4325,
      ",.]%*[": 4326,
      ".\\\\test\\\\t%d.txt": 4327,
      ".\\\\test\\\\a%d.txt": 4328,
      "dangerous": 4329,
      "result[i]": 4330,
      "result[c2]=": 4331,
      "s2[c2]=i;": 4332,
      "s2[c2-1]": 4333,
      "##(map(int,input()": 4334,
      "##(map(input().count,": 4335,
      "-----\\n": 4336,
      "----------\\n": 4337,
      "##24950307\\n200": 4338,
      "4294967311": 4339,
      "4294967291": 4340,
      "infinity\\n": 4341,
      "##\\n99886424\\n400": 4342,
      "!out": 4343,
      "####################": 4344,
      "#%x\\n": 4345,
      "%*[^>]>": 4346,
      "%1lld": 4347,
      "%1023s": 4348,
      "%3332": 4349,
      "%06d%": 4350,
      "%09d": 4351,
      "%74[01\\n": 4352,
      "%a[^/>]>": 4353,
      "&+%": 4354,
      "'s/7/": 4355,
      "'$0^": 4356,
      "'insert_avl_sub':\\n": 4357,
      "'%d'": 4358,
      "'1d;p'": 4359,
      "',.!?": 4360,
      "(x%+d)": 4361,
      "()01+-": 4362,
      "(mod": 4363,
      "(ttl": 4364,
      "(key,": 4365,
      ")[%d](": 4366,
      "-0+": 4367,
      "-nan": 4368,
      "-%u.%0*d\\n": 4369,
[...]
