{
  "version": "1.0",
  "truncation": null,
  "padding": {
    "strategy": "BatchLongest",
    "direction": "Right",
    "pad_to_multiple_of": null,
    "pad_id": 0,
    "pad_type_id": 0,
    "pad_token": "[PAD]"
  },
  "added_tokens": [
    {
      "id": 0,
      "content": "[PAD]",
      "single_word": false,
      "lstrip": false,
      "rstrip": false,
      "normalized": false,
      "special": true
    },
    {
      "id": 1,
      "content": "[UNK]",
      "single_word": false,
      "lstrip": false,
      "rstrip": false,
      "normalized": false,
      "special": true
    },
    {
      "id": 2,
      "content": "[CLS]",
      "single_word": false,
      "lstrip": false,
      "rstrip": false,
      "normalized": false,
      "special": true
    },
    {
      "id": 3,
      "content": "[SEP]",
      "single_word": false,
      "lstrip": false,
      "rstrip": false,
      "normalized": false,
      "special": true
    }
  ],
  "normalizer": {
    "type": "BertNormalizer",
    "clean_text": false,
    "handle_chinese_chars": true,
    "strip_accents": null,
    "lowercase": true
  },
  "pre_tokenizer": {
    "type": "WhitespaceSplit"
  },
  "post_processor": {
    "type": "BertProcessing",
    "sep": [
      "[CLS]",
      2
    ],
    "cls": [
      "[SEP]",
      3
    ]
  },
  "decoder": {
    "type": "WordPiece",
    "prefix": "##",
    "cleanup": true
  },
  "model": {
    "type": "WordPiece",
    "unk_token": "[UNK]",
    "continuing_subword_prefix": "##",
    "max_input_chars_per_word": 100,
    "vocab": {
      "[PAD]": 0,
      "[UNK]": 1,
      "[CLS]": 2,
      "[SEP]": 3,
      "!": 4,
      "#": 5,
      "$": 6,
      "%": 7,
      "&": 8,
      "'": 9,
      "+": 10,
      ",": 11,
      "-": 12,
      ".": 13,
      "/": 14,
      "0": 15,
      "1": 16,
      "2": 17,
      "3": 18,
      "4": 19,
      "5": 20,
      "6": 21,
      "7": 22,
      "8": 23,
      "9": 24,
      ":": 25,
      ";": 26,
      "<": 27,
      "=": 28,
      ">": 29,
      "?": 30,
      "@": 31,
      "[": 32,
      "\\": 33,
      "]": 34,
      "^": 35,
      "_": 36,
      "`": 37,
      "a": 38,
      "b": 39,
      "c": 40,
      "d": 41,
      "e": 42,
      "f": 43,
      "g": 44,
      "h": 45,
      "i": 46,
      "j": 47,
      "k": 48,
      "l": 49,
      "m": 50,
      "n": 51,
      "o": 52,
      "p": 53,
      "q": 54,
      "r": 55,
      "s": 56,
      "t": 57,
      "u": 58,
      "v": 59,
      "w": 60,
      "x": 61,
      "y": 62,
      "z": 63,
      "{": 64,
      "|": 65,
      "~": 66,
      "##m": 67,
      "##p": 68,
      "##a": 69,
      "##c": 70,
      "##t": 71,
      "##i": 72,
      "##n": 73,
      "##g": 74,
      "##e": 75,
      "##l": 76,
      "##q": 77,
      "##u": 78,
      "##z": 79,
      "##s": 80,
      "##r": 81,
      "##y": 82,
      "##1": 83,
      "##d": 84,
      "##o": 85,
      "##4": 86,
      "##v": 87,
      "##.": 88,
      "##x": 89,
      "##h": 90,
      "##k": 91,
      "##<": 92,
      "##>": 93,
      "##w": 94,
      "##j": 95,
      "##[": 96,
      "##]": 97,
      "##_": 98,
      "##f": 99,
      "##b": 100,
      "##,": 101,
      "##?": 102,
      "##3": 103,
      "##2": 104,
      "##9": 105,
      "##0": 106,
      "##8": 107,
      "##5": 108,
      "##-": 109,
      "##$": 110,
      "##6": 111,
      "##:": 112,
      "##/": 113,
      "##@": 114,
      "##7": 115,
      "##'": 116,
      "###": 117,
      "##=": 118,
      "##!": 119,
      "##&": 120,
      "##+": 121,
      "##;": 122,
      "##%": 123,
      "##`": 124,
      "##~": 125,
      "##{": 126,
      "##\\": 127,
      "##on": 128,
      "##de": 129,
      "##le": 130,
      "##se": 131,
      "##co": 132,
      "con": 133,
      "##code": 134,
      "##_se": 135,
      "##_sep": 136,
      "##code_": 137,
      "concode_": 138,
      "##ele": 139,
      "##elem": 140,
      "concode_elem": 141,
      "concode_elem_sep": 142,
      "##et": 143,
      "##in": 144,
      "##id": 145,
      "##te": 146,
      "##tr": 147,
      "##ing": 148,
      "##oid": 149,
      "void": 150,
      "##er": 151,
      "get": 152,
      "##nt": 153,
      "##tring": 154,
      "##an": 155,
      "##re": 156,
      "##ti": 157,
      "##fi": 158,
      "##or": 159,
      "string": 160,
      "##st": 161,
      "##al": 162,
      "##el": 163,
      "set": 164,
      "##me": 165,
      "##at": 166,
      "##he": 167,
      "##tion": 168,
      "##eld": 169,
      "##field": 170,
      "##ar": 171,
      "##oo": 172,
      "concode_field": 173,
      "concode_field_sep": 174,
      "##ce": 175,
      "int": 176,
      "##ate": 177,
      "##lean": 178,
      "##oolean": 179,
      "boolean": 180,
      "##ro": 181,
      "##ss": 182,
      "##pe": 183,
      "##ac": 184,
      "the": 185,
      "##li": 186,
      "##ec": 187,
      "##ty": 188,
      "##ou": 189,
      "##ri": 190,
      "##na": 191,
      "##la": 192,
      "##ue": 193,
      "##lo": 194,
      "re": 195,
      "##si": 196,
      "##ge": 197,
      "##der": 198,
      "##ble": 199,
      "##string": 200,
      "##ter": 201,
      "##ap": 202,
      "##mo": 203,
      "in": 204,
      "##ation": 205,
      "##mp": 206,
      "##is": 207,
      "##it": 208,
      "##en": 209,
      "##ad": 210,
      "##ur": 211,
      "##con": 212,
      "##name": 213,
      "##as": 214,
      "##ect": 215,
      "##ser": 216,
      "to": 217,
      "is": 218,
      "##il": 219,
      "##vi": 220,
      "##ul": 221,
      "##ho": 222,
      "co": 223,
      "##ong": 224,
      "##ve": 225,
      "##per": 226,
      "##bu": 227,
      "##ch": 228,
      "##ject": 229,
      "long": 230,
      "##ver": 231,
      "##ay": 232,
      "##ut": 233,
      "##ist": 234,
      "##type": 235,
      "##nd": 236,
      "##alue": 237,
      "##mode": 238,
      "##sc": 239,
      "##age": 240,
      "##bject": 241,
      "th": 242,
      "##ed": 243,
      "##fer": 244,
      "##ger": 245,
      "##model": 246,
      "##qu": 247,
      "##pro": 248,
      "##ort": 249,
      "##[]": 250,
      "##va": 251,
      "##am": 252,
      "##ex": 253,
      "list": 254,
      "##reate": 255,
      "##um": 256,
      "##ck": 257,
      "##res": 258,
      "##ment": 259,
      "##to": 260,
      "##es": 261,
      "##dd": 262,
      "##and": 263,
      "ja": 264,
      "of": 265,
      "lo": 266,
      "##ult": 267,
      "##up": 268,
      "##di": 269,
      "##able": 270,
      "create": 271,
      "##set": 272,
      "##ent": 273,
      "java": 274,
      "##ption": 275,
      "##ey": 276,
      "##que": 277,
      "list<": 278,
      "java.": 279,
      "##tor": 280,
      "##un": 281,
      "add": 282,
      "##po": 283,
      "##no": 284,
      "##tri": 285,
      "##ata": 286,
      "##th": 287,
      "pro": 288,
      "de": 289,
      "##ted": 290,
      "##orm": 291,
      "##fa": 292,
      "##iz": 293,
      "##date": 294,
      "##list": 295,
      "##g.": 296,
      "##port": 297,
      "##sion": 298,
      "##yte": 299,
      "##our": 300,
      "##ic": 301,
      "ex": 302,
      "##value": 303,
      "##ith": 304,
      "##ma": 305,
      "##lass": 306,
      "ret": 307,
      "##ype": 308,
      "##int": 309,
      "##ew": 310,
      "##ig": 311,
      "##ouble": 312,
      "has": 313,
      "##tex": 314,
      "##us": 315,
      "com": 316,
      "##urn": 317,
      "##vice": 318,
      "st": 319,
      "object": 320,
      "##lan": 321,
      "##ci": 322,
      "this": 323,
      "##str": 324,
      "##ache": 325,
      "return": 326,
      "##ta": 327,
      "##ction": 328,
      "log": 329,
      "##par": 330,
      "double": 331,
      "##scri": 332,
      "##ack": 333,
      "##map": 334,
      "##key": 335,
      "##pa": 336,
      "##ource": 337,
      "##ten": 338,
      "##all": 339,
      "##ilder": 340,
      "##fo": 341,
      "##ator": 342,
      "##ame": 343,
      "##ion": 344,
      "value": 345,
      "##lder": 346,
      "no": 347,
      "##text": 348,
      "##tribu": 349,
      "##time": 350,
      "##lace": 351,
      "com.": 352,
      "##ase": 353,
      "gets": 354,
      "##out": 355,
      "##etho": 356,
      "##tem": 357,
      "##file": 358,
      "##unt": 359,
      "fi": 360,
      "##lang.": 361,
      "map": 362,
      "##ethod": 363,
      "##<string": 364,
      "java.lang.": 365,
      "##ress": 366,
      "tostring": 367,
      "##qual": 368,
      "##ay.": 369,
      "##teger": 370,
      "##lifer": 371,
      "##liferay.": 372,
      "##object": 373,
      "##art": 374,
      "##ray": 375,
      "##est": 376,
      "##tribute": 377,
      "##count": 378,
      "byte": 379,
      "##do": 380,
      "##holder": 381,
      "##model.": 382,
      "##ol": 383,
      "##service": 384,
      "with": 385,
      "##cation": 386,
      "##user": 387,
      "##ub": 388,
      "##.model.": 389,
      "##aliz": 390,
      "##form": 391,
      "##fault": 392,
      "##ance": 393,
      "place": 394,
      "##ery": 395,
      "for": 396,
      "on": 397,
      "bu": 398,
      "##get": 399,
      "hash": 400,
      "##ssage": 401,
      "placeholder": 402,
      "##col": 403,
      "be": 404,
      "##ber": 405,
      "##perty": 406,
      "##dex": 407,
      "or": 408,
      "##ob": 409,
      "##ct": 410,
      "##loat": 411,
      "##ure": 412,
      "res": 413,
      "##fig": 414,
      "##ath": 415,
      "##quest": 416,
      "com.liferay.": 417,
      "##ity": 418,
      "##comp": 419,
      "sets": 420,
      "##ale": 421,
      "##rom": 422,
      "##wor": 423,
      "##tory": 424,
      "returns": 425,
      "##rent": 426,
      "ser": 427,
      "an": 428,
      "##im": 429,
      "test": 430,
      "##ader": 431,
      "##ime": 432,
      "##ary": 433,
      "##version": 434,
      "##tent": 435,
      "getc": 436,
      "##ly": 437,
      "##action": 438,
      "##attribute": 439,
      "##siz": 440,
      "ch": 441,
      "##builder": 442,
      "##pre": 443,
      "##ax": 444,
      "float": 445,
      "##ine": 446,
      "##quals": 447,
      "##scription": 448,
      "##put": 449,
      "en": 450,
      "##data": 451,
      "##ht": 452,
      "##cess": 453,
      "##size": 454,
      "##ext": 455,
      "##atus": 456,
      "##ler": 457,
      "##sto": 458,
      "java.lang.string": 459,
      "##vent": 460,
      "##try": 461,
      "##mic": 462,
      "##query": 463,
      "comp": 464,
      "##one": 465,
      "name": 466,
      "##class": 467,
      "##pon": 468,
      "##ans": 469,
      "##red": 470,
      "##eter": 471,
      "##umber": 472,
      "##lay": 473,
      "##ag": 474,
      "##val": 475,
      "method": 476,
      "equals": 477,
      "ar": 478,
      "sh": 479,
      "##<string,": 480,
      "remo": 481,
      "##read": 482,
      "##cal": 483,
      "##of": 484,
      "##ection": 485,
      "if": 486,
      "tr": 487,
      "##fac": 488,
      "as": 489,
      "##com": 490,
      "type": 491,
      "##cache": 492,
      "##tre": 493,
      "##info": 494,
      "##portal": 495,
      "##ange": 496,
      "hashcode": 497,
      "##stance": 498,
      "and": 499,
      "##yna": 500,
      "par": 501,
      "##state": 502,
      "##heck": 503,
      "##sed": 504,
      "##ror": 505,
      "##ynamic": 506,
      "##ind": 507,
      "##add": 508,
      "##ssion": 509,
      "##ker": 510,
      "##uid": 511,
      "##pri": 512,
      "##sh": 513,
      "##ponse": 514,
      "al": 515,
      "##til": 516,
      "##low": 517,
      "##inter": 518,
      "##roup": 519,
      "##log": 520,
      "##ameter": 521,
      "##rite": 522,
      "##nection": 523,
      "##list<": 524,
      "##du": 525,
      "##dent": 526,
      "integer": 527,
      "##nable": 528,
      "##tener": 529,
      "col": 530,
      "##tive": 531,
      "##message": 532,
      "##man": 533,
      "##util": 534,
      "se": 535,
      "##nel": 536,
      "read": 537,
      "me": 538,
      "##reg": 539,
      "file": 540,
      "mo": 541,
      "##path": 542,
      "##ffer": 543,
      "##exp": 544,
      "##string>": 545,
      "##lock": 546,
      "##status": 547,
      "##ence": 548,
      "##node": 549,
      "com.liferay.portal": 550,
      "default": 551,
      "##config": 552,
      "do": 553,
      "##ild": 554,
      "##description": 555,
      "##cate": 556,
      "##ml": 557,
      "class": 558,
      "##rap": 559,
      "##ynamicquery": 560,
      "##index": 561,
      "##element": 562,
      "po": 563,
      "##urrent": 564,
      "##stre": 565,
      "up": 566,
      "##amp": 567,
      "##result": 568,
      "##context": 569,
      "date": 570,
      "##lis": 571,
      "ap": 572,
      "##wn": 573,
      "remove": 574,
      "un": 575,
      "##be": 576,
      "##ven": 577,
      "##array": 578,
      "##util.": 579,
      "##ip": 580,
      "##atch": 581,
      "map<string,": 582,
      "##ped": 583,
      "##ory": 584,
      "##by": 585,
      "##son": 586,
      "##uration": 587,
      "##group": 588,
      "property": 589,
      "##cu": 590,
      "java.util.": 591,
      "##ties": 592,
      "byte[]": 593,
      "##t>": 594,
      "##ference": 595,
      "logger": 596,
      "that": 597,
      "##byte": 598,
      "##tain": 599,
      "##ull": 600,
      "##pen": 601,
      "##lient": 602,
      "##rid": 603,
      "##ask": 604,
      "##fin": 605,
      "pre": 606,
      "##tt": 607,
      "ac": 608,
      "##vel": 609,
      "##fied": 610,
      "##stream": 611,
      "id": 612,
      "##factory": 613,
      "##for": 614,
      "array": 615,
      "##lu": 616,
      "##attributes": 617,
      "##seri": 618,
      "##mary": 619,
      "##ill": 620,
      "##ager": 621,
      "##met": 622,
      "##nc": 623,
      "from": 624,
      "seri": 625,
      "##pli": 626,
      "##tern": 627,
      "##cor": 628,
      "data": 629,
      "##lection": 630,
      "##min": 631,
      "##ld": 632,
      "##so": 633,
      "##content": 634,
      "##ab": 635,
      "##led": 636,
      "dele": 637,
      "##sition": 638,
      "##url": 639,
      "##act": 640,
      "##gin": 641,
      "##view": 642,
      "new": 643,
      "##ded": 644,
      "##nabled": 645,
      "##ken": 646,
      "##ard": 647,
      "##aut": 648,
      "check": 649,
      "##<?": 650,
      "##bo": 651,
      "##parameter": 652,
      "##max": 653,
      "##integer": 654,
      "##item": 655,
      "##lement": 656,
      "##ir": 657,
      "start": 658,
      "key": 659,
      "cl": 660,
      "##address": 661,
      "write": 662,
      "##ifi": 663,
      "getde": 664,
      "##base": 665,
      "##ink": 666,
      "time": 667,
      "##mi": 668,
      "##hand": 669,
      "##sis": 670,
      "##serializ": 671,
      "user": 672,
      "m_": 673,
      "##word": 674,
      "char": 675,
      "getre": 676,
      "##format": 677,
      "update": 678,
      "not": 679,
      "##end": 680,
      "##kernel": 681,
      "##nce": 682,
      "##cket": 683,
      "##.kernel": 684,
      "setc": 685,
      "##atet": 686,
      "##perties": 687,
      "##response": 688,
      "##iti": 689,
      "##from": 690,
      "##back": 691,
      "gi": 692,
      "##number": 693,
      "##fil": 694,
      "by": 695,
      "org.": 696,
      "per": 697,
      "##row": 698,
      "##manager": 699,
      "##ridge": 700,
      "##listener": 701,
      "##property": 702,
      "##ast": 703,
      "at": 704,
      "##ra": 705,
      "##ke": 706,
      "##work": 707,
      "##connection": 708,
      "##peci": 709,
      "##ding": 710,
      "##arch": 711,
      "given": 712,
      "##start": 713,
      "##line": 714,
      "##anc": 715,
      "##mpl": 716,
      "##ps": 717,
      "delete": 718,
      "##dis": 719,
      "##resource": 720,
      "##we": 721,
      "##ception": 722,
      "ma": 723,
      "##ys": 724,
      "##ute": 725,
      "##ector": 726,
      "wh": 727,
      "##eto": 728,
      "##gth": 729,
      "getname": 730,
      "sc": 731,
      "##axis": 732,
      "##umn": 733,
      "it": 734,
      "##<string>": 735,
      "builder": 736,
      "##buffer": 737,
      "dis": 738,
      "##ool": 739,
      "ise": 740,
      "##method": 741,
      "##etype": 742,
      "com.liferay.portal.kernel": 743,
      "##tal": 744,
      "##request": 745,
      "##ound": 746,
      "##.d": 747,
      "##arget": 748,
      "##point": 749,
      "##ping": 750,
      "##expand": 751,
      "##ach": 752,
      "list<string>": 753,
      "pa": 754,
      "##obridge": 755,
      "##primary": 756,
      "##let": 757,
      "##tifi": 758,
      "##valid": 759,
      "##with": 760,
      "##ated": 761,
      "##rint": 762,
      "##pt": 763,
      "##len": 764,
      "##header": 765,
      "will": 766,
      "##lear": 767,
      "max": 768,
      "##ref": 769,
      "message": 770,
      "##mpty": 771,
      "##local": 772,
      "##instance": 773,
      "instance": 774,
      "##trans": 775,
      "##not": 776,
      "##fix": 777,
      "##mit": 778,
      "##vider": 779,
      "##ash": 780,
      "##ifier": 781,
      "##ight": 782,
      "##load": 783,
      "##.axis": 784,
      "##tic": 785,
      "##desc": 786,
      "##.axis.": 787,
      "string[]": 788,
      "##new": 789,
      "getp": 790,
      "##rst": 791,
      "##lab": 792,
      "##ere": 793,
      "##handler": 794,
      "serial": 795,
      "clone": 796,
      "end": 797,
      "##ang": 798,
      "state": 799,
      "##apache": 800,
      "##ize": 801,
      "result": 802,
      "##terator": 803,
      "##primarykey": 804,
      "##if": 805,
      "qu": 806,
      "##lic": 807,
      "java.util.list<": 808,
      "##ner": 809,
      "##<?>": 810,
      "dynamicquery": 811,
      "##ao": 812,
      "are": 813,
      "org.apache": 814,
      "##expandobridge": 815,
      "vi": 816,
      "##coding": 817,
      "##serializer": 818,
      "##onent": 819,
      "##gis": 820,
      "##ssword": 821,
      "##versionuid": 822,
      "##play": 823,
      "##fe": 824,
      "##ret": 825,
      "getb": 826,
      "er": 827,
      "serialversionuid": 828,
      "config": 829,
      "##rec": 830,
      "clear": 831,
      "##long": 832,
      "contain": 833,
      "ver": 834,
      "##io": 835,
      "##ant": 836,
      "##peration": 837,
      "getuser": 838,
      "##cord": 839,
      "##ign": 840,
      "##ms": 841,
      "##uri": 842,
      "##ces": 843,
      "speci": 844,
      "##lose": 845,
      "getw": 846,
      "##filter": 847,
      "##xy": 848,
      "find": 849,
      "##object>": 850,
      "##ave": 851,
      "reset": 852,
      "##lec": 853,
      "##main": 854,
      "##unction": 855,
      "sto": 856,
      "big": 857,
      "current": 858,
      "out": 859,
      "##su": 860,
      "##ff": 861,
      "##mar": 862,
      "##pedmodel": 863,
      "number": 864,
      "##ph": 865,
      "##table": 866,
      "##tit": 867,
      "gettype": 868,
      "json": 869,
      "##are": 870,
      "request": 871,
      "##char": 872,
      "next": 873,
      "##change": 874,
      "##ne": 875,
      "##last": 876,
      "gen": 877,
      "node": 878,
      "##ting": 879,
      "##persis": 880,
      "form": 881,
      "org.apache.axis.": 882,
      "exec": 883,
      "getid": 884,
      "##quence": 885,
      "##wri": 886,
      "sub": 887,
      "print": 888,
      "##use": 889,
      "##ments": 890,
      "##server": 891,
      "he": 892,
      "error": 893,
      "##sert": 894,
      "##ite": 895,
      "##py": 896,
      "##stru": 897,
      "##mand": 898,
      "##bytes": 899,
      "##default": 900,
      "##sca": 901,
      "di": 902,
      "can": 903,
      "##session": 904,
      "##ren": 905,
      "##tag": 906,
      "##client": 907,
      "##host": 908,
      "##dule": 909,
      "parse": 910,
      "size": 911,
      "trans": 912,
      "index": 913,
      "##enabled": 914,
      "##ook": 915,
      "##ount": 916,
      "##stom": 917,
      "##gn": 918,
      "##modi": 919,
      "##qui": 920,
      "run": 921,
      "##ync": 922,
      "val": 923,
      "##option": 924,
      "##ry": 925,
      "ro": 926,
      "##idth": 927,
      "gener": 928,
      "##ature": 929,
      "##<t>": 930,
      "##properties": 931,
      "##error": 932,
      "##sche": 933,
      "##dat": 934,
      "int[]": 935,
      "##putstream": 936,
      "##s.": 937,
      "collection": 938,
      "##hash": 939,
      "use": 940,
      "##vo": 941,
      "##sent": 942,
      "##color": 943,
      "##column": 944,
      "all": 945,
      "##label": 946,
      "##pend": 947,
      "ad": 948,
      "##values": 949,
      "##attern": 950,
      "##plication": 951,
      "cal": 952,
      "##om": 953,
      "##ive": 954,
      "le": 955,
      "call": 956,
      "##event": 957,
      "##pace": 958,
      "##level": 959,
      "##cument": 960,
      "regis": 961,
      "##face": 962,
      "##update": 963,
      "##location": 964,
      "resource": 965,
      "##gu": 966,
      "##auth": 967,
      "##xml": 968,
      "##sub": 969,
      "##token": 970,
      "##alend": 971,
      "im": 972,
      "##ptor": 973,
      "put": 974,
      "path": 975,
      "##next": 976,
      "we": 977,
      "##how": 978,
      "##tivi": 979,
      "iss": 980,
      "##image": 981,
      "##dentifier": 982,
      "##ution": 983,
      "item": 984,
      "getf": 985,
      "##s_": 986,
      "getmodel": 987,
      "##provider": 988,
      "##timeout": 989,
      "##ression": 990,
      "##hen": 991,
      "##bean": 992,
      "##block": 993,
      "##lugin": 994,
      "hand": 995,
      "##alendar": 996,
      "##tp": 997,
      "##task": 998,
      "##ould": 999,
      "default_": 1000,
      "##tivity": 1001,
      "##position": 1002,
      "##ulti": 1003,
      "##names": 1004,
      "##ample": 1005,
      "##configuration": 1006,
      "initi": 1007,
      "so": 1008,
      "##ition": 1009,
      "##gory": 1010,
      "close": 1011,
      "##mem": 1012,
      "setuser": 1013,
      "##adata": 1014,
      "##lag": 1015,
      "event": 1016,
      "##men": 1017,
      "htt": 1018,
      "##length": 1019,
      "##alize": 1020,
      "compar": 1021,
      "##mon": 1022,
      "##cre": 1023,
      "aut": 1024,
      "##tail": 1025,
      "connection": 1026,
      "##selec": 1027,
      "##store": 1028,
      "##>>": 1029,
      "##dy": 1030,
      "##ystem": 1031,
      "short": 1032,
      "##abled": 1033,
      "build": 1034,
      "##regis": 1035,
      "##br": 1036,
      "##clu": 1037,
      "##uuid": 1038,
      "init": 1039,
      "format": 1040,
      "exp": 1041,
      "##stamp": 1042,
      "##writer": 1043,
      "field": 1044,
      "##any": 1045,
      "##arn": 1046,
      "pri": 1047,
      "valid": 1048,
      "##xb": 1049,
      "##password": 1050,
      "##istener": 1051,
      "##queue": 1052,
      "##sen": 1053,
      "##mal": 1054,
      "##ili": 1055,
      "load": 1056,
      "##tension": 1057,
      "used": 1058,
      "xml": 1059,
      "su": 1060,
      "##licy": 1061,
      "##dition": 1062,
      "##scapedmodel": 1063,
      "last": 1064,
      "##persisted": 1065,
      "##net": 1066,
      "##order": 1067,
      "thread": 1068,
      "##trol": 1069,
      "##component": 1070,
      "specified": 1071,
      "##down": 1072,
      "jaxb": 1073,
      "##sing": 1074,
      "iterator": 1075,
      "content": 1076,
      "##ule": 1077,
      "##test": 1078,
      "##ari": 1079,
      "map<": 1080,
      "##detail": 1081,
      "##ds": 1082,
      "vector": 1083,
      "##sum": 1084,
      "##econ": 1085,
      "##rl": 1086,
      "##gr": 1087,
      "##ndle": 1088,
      "##kale": 1089,
      "##ght": 1090,
      "##persistedmodel": 1091,
      "##link": 1092,
      "##deci": 1093,
      "context": 1094,
      "##greg": 1095,
      "setexpandobridge": 1096,
      "setexpandobridgeattributes": 1097,
      "##parent": 1098,
      "cache": 1099,
      "''": 1100,
      "##fr": 1101,
      "##defin": 1102,
      "##thread": 1103,
      "##imp": 1104,
      "##mplate": 1105,
      "##page": 1106,
      "##ses": 1107,
      "attribute": 1108,
      "##atetime": 1109,
      "element": 1110,
      "##ila": 1111,
      "##her": 1112,
      "##.dao": 1113,
      "status": 1114,
      "##role": 1115,
      "##ql": 1116,
      "##rect": 1117,
      "##obj": 1118,
      "##fter": 1119,
      "##raw": 1120,
      "uri": 1121,
      "##mail": 1122,
      "##orted": 1123,
      "##target": 1124,
      "##unit": 1125,
      "##ts": 1126,
      "##entry": 1127,
      "conver": 1128,
      "query": 1129,
      "geto": 1130,
      "##access": 1131,
      "##ust": 1132,
      "sele": 1133,
      "##posi": 1134,
      "setname": 1135,
      "session": 1136,
      "##elo": 1137,
      "should": 1138,
      "##ori": 1139,
      "##pec": 1140,
      "setre": 1141,
      "##lete": 1142,
      "##bug": 1143,
      "##web": 1144,
      "##flow": 1145,
      "com.liferay.portal.kernel.model.": 1146,
      "##ther": 1147,
      "##sign": 1148,
      "##ass": 1149,
      "wri": 1150,
      "cor": 1151,
      "##pi": 1152,
      "##ode": 1153,
      "mode": 1154,
      "##sequence": 1155,
      "cre": 1156,
      "##lus": 1157,
      "setid": 1158,
      "##ative": 1159,
      "##null": 1160,
      "##qname": 1161,
      "##layout": 1162,
      "min": 1163,
      "inter": 1164,
      "##oot": 1165,
      "##encoding": 1166,
      "http": 1167,
      "##decimal": 1168,
      "##source": 1169,
      "jaxbelement": 1170,
      "##modified": 1171,
      "##fset": 1172,
      "url": 1173,
      "wor": 1174,
      "ho": 1175,
      "getin": 1176,
      "##tification": 1177,
      "ab": 1178,
      "##coun": 1179,
      "set<": 1180,
      "##cent": 1181,
      "getpro": 1182,
      "##raph": 1183,
      "##ava": 1184,
      "##ply": 1185,
      "text": 1186,
      "##ati": 1187,
      "##call": 1188,
      "tag": 1189,
      "##ternal": 1190,
      "##child": 1191,
      "when": 1192,
      "##den": 1193,
      "contains": 1194,
      "##dmodel": 1195,
      "##scriptor": 1196,
      "##ron": 1197,
      "##bit": 1198,
      "com.liferay.portal.model.": 1199,
      "##param": 1200,
      "imp": 1201,
      "##mission": 1202,
      "##socket": 1203,
      "##match": 1204,
      "##ility": 1205,
      "order": 1206,
      "##actionabled": 1207,
      "##actionabledynamicquery": 1208,
      "##title": 1209,
      "##fore": 1210,
      "##ntity": 1211,
      "getd": 1212,
      "##interface": 1213,
      "bo": 1214,
      "##ters": 1215,
      "java.lang.object": 1216,
      "##cs": 1217,
      "null": 1218,
      "##cer": 1219,
      "color": 1220,
      "arraylist<": 1221,
      "option": 1222,
      "##rou": 1223,
      "##search": 1224,
      "##policy": 1225,
      "##sty": 1226,
      "##tend": 1227,
      "##localservice": 1228,
      "##tra": 1229,
      "description": 1230,
      "process": 1231,
      "##utable": 1232,
      "##che": 1233,
      "##com.": 1234,
      "##ual": 1235,
      "##.type": 1236,
      "##identifier": 1237,
      "##tocol": 1238,
      "##cle": 1239,
      "any": 1240,
      "fil": 1241,
      "##.dao.": 1242,
      "class<?>": 1243,
      "##http": 1244,
      "##classname": 1245,
      "com.liferay.portal.kernel.dao.": 1246,
      "com.liferay.portal.kernel.dao.orm": 1247,
      "##pack": 1248,
      "##total": 1249,
      "getm": 1250,
      "##num": 1251,
      "__": 1252,
      "##upport": 1253,
      "parameter": 1254,
      "##notation": 1255,
      "service": 1256,
      "##andom": 1257,
      "##ous": 1258,
      "##lin": 1259,
      "##ree": 1260,
      "##annel": 1261,
      "##visi": 1262,
      "##stat": 1263,
      "copy": 1264,
      "##exception": 1265,
      "##orig": 1266,
      "##nal": 1267,
      "##db": 1268,
      "buffer": 1269,
      "##rectory": 1270,
      "##ntic": 1271,
      "response": 1272,
      "##contain": 1273,
      "getvalue": 1274,
      "##map<string,": 1275,
      "header": 1276,
      "##definition": 1277,
      "##first": 1278,
      "##ont": 1279,
      "##options": 1280,
      "##space": 1281,
      "my": 1282,
      "##place": 1283,
      "##lob": 1284,
      "##account": 1285,
      "action": 1286,
      "getmax": 1287,
      "fa": 1288,
      "##gress": 1289,
      "##aw": 1290,
      "##descriptor": 1291,
      "entry": 1292,
      "##ncy": 1293,
      "getwrap": 1294,
      "##pr": 1295,
      "map<string,object>": 1296,
      "##fy": 1297,
      "first": 1298,
      "met": 1299,
      "##inding": 1300,
      "assert": 1301,
      "##prefix": 1302,
      "image": 1303,
      "##command": 1304,
      "compareto": 1305,
      "##tim": 1306,
      "##check": 1307,
      "source": 1308,
      "server": 1309,
      "##kaleo": 1310,
      "stop": 1311,
      "bigdecimal": 1312,
      "getr": 1313,
      "##ustom": 1314,
      "##dir": 1315,
      "##nect": 1316,
      "##width": 1317,
      "##box": 1318,
      "##ating": 1319,
      "send": 1320,
      "##output": 1321,
      "fin": 1322,
      "##ft": 1323,
      "##metadata": 1324,
      "##pool": 1325,
      "##very": 1326,
      "##hentic": 1327,
      "##track": 1328,
      "##style": 1329,
      "##files": 1330,
      "##ume": 1331,
      "##activity": 1332,
      "##tream": 1333,
      "##parameters": 1334,
      "##etch": 1335,
      "##com.liferay.": 1336,
      "client": 1337,
      "##cachedmodel": 1338,
      "##primarykeyobj": 1339,
      "##lation": 1340,
      "##las": 1341,
      "qname": 1342,
      "##gener": 1343,
      "##present": 1344,
      "##allow": 1345,
      "##process": 1346,
      "sche": 1347,
      "ass": 1348,
      "##company": 1349,
      "##api": 1350,
      "ne": 1351,
      "##origin": 1352,
      "##trix": 1353,
      "##av": 1354,
      "##height": 1355,
      "te": 1356,
      "version": 1357,
      "##cale": 1358,
      "##ell": 1359,
      "true": 1360,
      "##temp": 1361,
      "##ait": 1362,
      "##control": 1363,
      "##ority": 1364,
      "##pository": 1365,
      "append": 1366,
      "##function": 1367,
      "##flag": 1368,
      "##ain": 1369,
      "##secon": 1370,
      "##description.type": 1371,
      "org.apache.axis.description.type": 1372,
      "org.apache.axis.description.typedesc": 1373,
      "##boolean": 1374,
      "##_c": 1375,
      "``": 1376,
      "##details": 1377,
      "setde": 1378,
      "##ise": 1379,
      "##tres": 1380,
      "base": 1381,
      "code": 1382,
      "'s": 1383,
      "empty": 1384,
      "##setting": 1385,
      "##open": 1386,
      "##ariable": 1387,
      "##ferences": 1388,
      "##tro": 1389,
      "##mapping": 1390,
      "configuration": 1391,
      "##record": 1392,
      "##ile": 1393,
      "properties": 1394,
      "getj": 1395,
      "##type>": 1396,
      "##anch": 1397,
      "##template": 1398,
      "##reen": 1399,
      "##imum": 1400,
      "register": 1401,
      "open": 1402,
      "##ich": 1403,
      "##pan": 1404,
      "##collection": 1405,
      "##ilable": 1406,
      "##ination": 1407,
      "##valu": 1408,
      "##active": 1409,
      "##display": 1410,
      "java.util.list<t>": 1411,
      "link": 1412,
      "##tiv": 1413,
      "##dow": 1414,
      "point": 1415,
      "task": 1416,
      "##category": 1417,
      "##oci": 1418,
      "bit": 1419,
      "##clude": 1420,
      "##internal": 1421,
      "##utor": 1422,
      "##ie": 1423,
      "##vision": 1424,
      "##formation": 1425,
      "count": 1426,
      "##encoding.": 1427,
      "org.apache.axis.encoding.": 1428,
      "##vector": 1429,
      "##initi": 1430,
      "##region": 1431,
      "##ccess": 1432,
      "total": 1433,
      "view": 1434,
      "values": 1435,
      "##_name": 1436,
      "##angle": 1437,
      "man": 1438,
      "creates": 1439,
      "dat": 1440,
      "##document": 1441,
      "extend": 1442,
      "##double": 1443,
      "##zon": 1444,
      "##_qname": 1445,
      "##cachemodel": 1446,
      "##indow": 1447,
      "##bound": 1448,
      "##create": 1449,
      "##cur": 1450,
      "database": 1451,
      "##wrap": 1452,
      "##dicate": 1453,
      "##_type": 1454,
      "##abel": 1455,
      "reference": 1456,
      "##lex": 1457,
      "##cope": 1458,
      "line": 1459,
      "##elper": 1460,
      "##duct": 1461,
      "over": 1462,
      "map<string,string>": 1463,
      "show": 1464,
      "##transaction": 1465,
      "##igh": 1466,
      "##cen": 1467,
      "##changed": 1468,
      "##pattern": 1469,
      "##cial": 1470,
      "##part": 1471,
      "web": 1472,
      "##input": 1473,
      "##loy": 1474,
      "##itor": 1475,
      "##stor": 1476,
      "gete": 1477,
      "debug": 1478,
      "token": 1479,
      "getex": 1480,
      "##only": 1481,
      "##ride": 1482,
      "after": 1483,
      "##pos": 1484,
      "##current": 1485,
      "##tificate": 1486,
      "proxy": 1487,
      "handle": 1488,
      "##loader": 1489,
      "tes": 1490,
      "##ord": 1491,
      "##ll": 1492,
      "##site": 1493,
      "##upp": 1494,
      "##au": 1495,
      "filter": 1496,
      "##operation": 1497,
      "##zone": 1498,
      "address": 1499,
      "called": 1500,
      "execute": 1501,
      "model": 1502,
      "##json": 1503,
      "which": 1504,
      "##proxy": 1505,
      "encode": 1506,
      "biginteger": 1507,
      "##ved": 1508,
      "##portlet": 1509,
      "##ak": 1510,
      "##ason": 1511,
      "exit": 1512,
      "visi": 1513,
      "setp": 1514,
      "allow": 1515,
      "##medi": 1516,
      "##atype": 1517,
      "search": 1518,
      "getdescription": 1519,
      "##entity": 1520,
      "len": 1521,
      "##trequest": 1522,
      "mar": 1523,
      "one": 1524,
      "##lat": 1525,
      "getcon": 1526,
      "##hop": 1527,
      "##offset": 1528,
      "convert": 1529,
      "##og": 1530,
      "##ers": 1531,
      "dec": 1532,
      "label": 1533,
      "extends": 1534,
      "setb": 1535,
      "##ancel": 1536,
      "##core": 1537,
      "##ether": 1538,
      "application": 1539,
      "main": 1540,
      "##quired": 1541,
      "##mb": 1542,
      "##stype": 1543,
      "##ctor": 1544,
      "##companyid": 1545,
      "function": 1546,
      "whether": 1547,
      "##timestamp": 1548,
      "block": 1549,
      "setup": 1550,
      "implement": 1551,
      "##cept": 1552,
      "##map<": 1553,
      "simp": 1554,
      "row": 1555,
      "##olver": 1556,
      "##fail": 1557,
      "generate": 1558,
      "##frame": 1559,
      "##integer>": 1560,
      "##tran": 1561,
      "##ceive": 1562,
      "##device": 1563,
      "##fields": 1564,
      "##struct": 1565,
      "##cap": 1566,
      "match": 1567,
      "##module": 1568,
      "##_2": 1569,
      "##mil": 1570,
      "##elease": 1571,
      "custom": 1572,
      "##cacheenabled": 1573,
      "ct": 1574,
      "##rie": 1575,
      "##hot": 1576,
      "fetch": 1577,
      "##memory": 1578,
      "##sec": 1579,
      "##tries": 1580,
      "collection<": 1581,
      "##aged": 1582,
      "host": 1583,
      "##ning": 1584,
      "settype": 1585,
      "##nder": 1586,
      "table": 1587,
      "port": 1588,
      "##stic": 1589,
      "##cl": 1590,
      "local": 1591,
      "job": 1592,
      "com.liferay.portal.kernel.dao.orm.": 1593,
      "jsonbuilder": 1594,
      "change": 1595,
      "##01": 1596,
      "listener": 1597,
      "##headers": 1598,
      "##_id": 1599,
      "input": 1600,
      "que": 1601,
      "##_size": 1602,
      "jaxbelement<": 1603,
      "java.util.list<com.liferay.": 1604,
      "##compar": 1605,
      "##gate": 1606,
      "##ancalendar": 1607,
      "##oriancalendar": 1608,
      "##permission": 1609,
      "testget": 1610,
      "position": 1611,
      "output": 1612,
      "other": 1613,
      "##rule": 1614,
      "pattern": 1615,
      "random": 1616,
      "##naps": 1617,
      "##ful": 1618,
      "##ubli": 1619,
      "##bundle": 1620,
      "##ies": 1621,
      "##impl": 1622,
      "##network": 1623,
      "arraylist": 1624,
      "##als": 1625,
      "##vide": 1626,
      "##gregoriancalendar": 1627,
      "getlast": 1628,
      "##condition": 1629,
      "##scal": 1630,
      "##dentity": 1631,
      "##yn": 1632,
      "invo": 1633,
      "##sor": 1634,
      "##sist": 1635,
      "##stats": 1636,
      "getn": 1637,
      "##project": 1638,
      "parent": 1639,
      "cordo": 1640,
      "##oriz": 1641,
      "throw": 1642,
      "##custom": 1643,
      "##oun": 1644,
      "mem": 1645,
      "ob": 1646,
      "##ourc": 1647,
      "save": 1648,
      "##iled": 1649,
      "##body": 1650,
      "##_key": 1651,
      "setm": 1652,
      "set<string>": 1653,
      "##.s": 1654,
      "target": 1655,
      "##reader": 1656,
      "##workflow": 1657,
      "xmlgregoriancalendar": 1658,
      "##hopping": 1659,
      "##write": 1660,
      "##limit": 1661,
      "returned": 1662,
      "##gle": 1663,
      "adds": 1664,
      "##light": 1665,
      "##_s": 1666,
      "setf": 1667,
      "there": 1668,
      "##cry": 1669,
      "document": 1670,
      "length": 1671,
      "xcontent": 1672,
      "##oin": 1673,
      "column": 1674,
      "##icon": 1675,
      "##ycle": 1676,
      "##job": 1677,
      "group": 1678,
      "case": 1679,
      "serializ": 1680,
      "##reference": 1681,
      "##ques": 1682,
      "multi": 1683,
      "##social": 1684,
      "##mark": 1685,
      "##metri": 1686,
      "##channel": 1687,
      "info": 1688,
      "record": 1689,
      "##mutable": 1690,
      "getdefault": 1691,
      "##stra": 1692,
      "fe": 1693,
      "##way": 1694,
      "##statement": 1695,
      "##selector": 1696,
      "##istance": 1697,
      "##sin": 1698,
      "##ok": 1699,
      "fr": 1700,
      "##interval": 1701,
      "##directory": 1702,
      "work": 1703,
      "##selected": 1704,
      "##iss": 1705,
      "##tract": 1706,
      "stream": 1707,
      "##counter": 1708,
      "##round": 1709,
      "##ations": 1710,
      "##gger": 1711,
      "##cul": 1712,
      "##ha": 1713,
      "##ids": 1714,
      "##tep": 1715,
      "setlog": 1716,
      "##top": 1717,
      "##folder": 1718,
      "##sl": 1719,
      "does": 1720,
      "##gment": 1721,
      "##container": 1722,
      "##gs": 1723,
      "num": 1724,
      "only": 1725,
      "warn": 1726,
      "##os": 1727,
      "##straint": 1728,
      "rect": 1729,
      "##plugin": 1730,
      "##stack": 1731,
      "##ally": 1732,
      "##application": 1733,
      "##adap": 1734,
      "simple": 1735,
      "##cted": 1736,
      "##alse": 1737,
      "##serv": 1738,
      "##wit": 1739,
      "##tact": 1740,
      "using": 1741,
      "getstatus": 1742,
      "##groupid": 1743,
      "##hex": 1744,
      "entity": 1745,
      "##stant": 1746,
      "##atche": 1747,
      "##range": 1748,
      "##tered": 1749,
      "##variable": 1750,
      "getfile": 1751,
      "exist": 1752,
      "##original": 1753,
      "##ordin": 1754,
      "represent": 1755,
      "getcurrent": 1756,
      "##progress": 1757,
      "access": 1758,
      "##acity": 1759,
      "##ls": 1760,
      "setvalue": 1761,
      "location": 1762,
      "##hashcode": 1763,
      "writ": 1764,
      "##denti": 1765,
      "##feature": 1766,
      "##auto": 1767,
      "##rt": 1768,
      "li": 1769,
      "component": 1770,
      "display": 1771,
      "##tracker": 1772,
      "##cli": 1773,
      "##vic": 1774,
      "##protocol": 1775,
      "getkey": 1776,
      "##ffect": 1777,
      "bundle": 1778,
      "##ddate": 1779,
      "make": 1780,
      "##ep": 1781,
      "##stination": 1782,
      "level": 1783,
      "##gh": 1784,
      "validate": 1785,
      "getdata": 1786,
      "enter": 1787,
      "##late": 1788,
      "geth": 1789,
      "native": 1790,
      "you": 1791,
      "cur": 1792,
      "sign": 1793,
      "##unk": 1794,
      "exception": 1795,
      "##comment": 1796,
      "tra": 1797,
      "##reatedate": 1798,
      "##equal": 1799,
      "##leted": 1800,
      "##hed": 1801,
      "bean": 1802,
      "##_b": 1803,
      "##resh": 1804,
      "sec": 1805,
      "setmax": 1806,
      "##exec": 1807,
      "##modifieddate": 1808,
      "getinstance": 1809,
      "persist": 1810,
      "operation": 1811,
      "render": 1812,
      "##annotation": 1813,
      "##go": 1814,
      "##day": 1815,
      "##ali": 1816,
      "##sql": 1817,
      "dynamicquerycount": 1818,
      "##upported": 1819,
      "setdescription": 1820,
      "bytes": 1821,
      "##2d": 1822,
      "##direct": 1823,
      "##gest": 1824,
      "##napshot": 1825,
      "##ategory": 1826,
      "inputstream": 1827,
      "ref": 1828,
      "##ick": 1829,
      "##matrix": 1830,
      "isempty": 1831,
      "##ected": 1832,
      "##stract": 1833,
      "have": 1834,
      "##alog": 1835,
      "##vious": 1836,
      "setnew": 1837,
      "##inary": 1838,
      "retrie": 1839,
      "was": 1840,
      "geten": 1841,
      "##wner": 1842,
      "##ging": 1843,
      "##acter": 1844,
      "getclass": 1845,
      "##ssag": 1846,
      "system": 1847,
      "##mapper": 1848,
      "##run": 1849,
      "queue": 1850,
      "pack": 1851,
      "##ical": 1852,
      "##member": 1853,
      "tri": 1854,
      "##tton": 1855,
      "##ape": 1856,
      "getindex": 1857,
      "##tab": 1858,
      "##rection": 1859,
      "##app": 1860,
      "modi": 1861,
      "##parti": 1862,
      "##gi": 1863,
      "##v>": 1864,
      "##ploy": 1865,
      "##settings": 1866,
      "descri": 1867,
      "##gor": 1868,
      "##portlet.": 1869,
      "xcontentbuilder": 1870,
      "##erge": 1871,
      "##clo": 1872,
      "then": 1873,
      "getcontent": 1874,
      "seth": 1875,
      "##asource": 1876,
      "double[]": 1877,
      "##binding": 1878,
      "##over": 1879,
      "##notification": 1880,
      "##comparator": 1881,
      "password": 1882,
      "##sync": 1883,
      "##post": 1884,
      "##expression": 1885,
      "plugin": 1886,
      "gett": 1887,
      "cordova": 1888,
      "##button": 1889,
      "##params": 1890,
      "##domain": 1891,
      "sequence": 1892,
      "toxml": 1893,
      "##tify": 1894,
      "##roll": 1895,
      "##ateg": 1896,
      "isnew": 1897,
      "ed": 1898,
      "into": 1899,
      "##olume": 1900,
      "##callback": 1901,
      "##tifac": 1902,
      "command": 1903,
      "apply": 1904,
      "##gorith": 1905,
      "##copy": 1906,
      "##graph": 1907,
      "##remo": 1908,
      "##star": 1909,
      "##sumer": 1910,
      "fac": 1911,
      "##lect": 1912,
      "setting": 1913,
      "before": 1914,
      "del": 1915,
      "gettotal": 1916,
      "##multi": 1917,
      "##kip": 1918,
      "getservice": 1919,
      "ato": 1920,
      "but": 1921,
      "##_in": 1922,
      "##wer": 1923,
      "##ates": 1924,
      "asser": 1925,
      "getlog": 1926,
      "##_region": 1927,
      "##alized": 1928,
      "char[]": 1929,
      "decode": 1930,
      "##att": 1931,
      "getall": 1932,
      "##deli": 1933,
      "##fs": 1934,
      "##brary": 1935,
      "##helper": 1936,
      "##amount": 1937,
      "##scale": 1938,
      "##rc": 1939,
      "tou": 1940,
      "##types": 1941,
      "##e>": 1942,
      "post": 1943,
      "lay": 1944,
      "##af": 1945,
      "##elistener": 1946,
      "##k,": 1947,
      "initialize": 1948,
      "##right": 1949,
      "##ures": 1950,
      "##datetime": 1951,
      "range": 1952,
      "##lasses": 1953,
      "page": 1954,
      "##gation": 1955,
      "compare": 1956,
      "##window": 1957,
      "##luster": 1958,
      "##branch": 1959,
      "##acy": 1960,
      "java.util.date": 1961,
      "setstatus": 1962,
      "socket": 1963,
      "##wo": 1964,
      "implementation": 1965,
      "##case": 1966,
      "##tration": 1967,
      "setin": 1968,
      "enum": 1969,
      "may": 1970,
      "##marker": 1971,
      "rou": 1972,
      "##vate": 1973,
      "##package": 1974,
      "draw": 1975,
      "##items": 1976,
      "##ges": 1977,
      "fail": 1978,
      "getresource": 1979,
      "##ech": 1980,
      "body": 1981,
      "resol": 1982,
      "begin": 1983,
      "##authentic": 1984,
      "##vc": 1985,
      "##side": 1986,
      "##ableactionabledynamicquery": 1987,
      "##calc": 1988,
      "##edi": 1989,
      "sete": 1990,
      "##ero": 1991,
      "##schema": 1992,
      "##ple": 1993,
      "##float": 1994,
      "ori": 1995,
      "getparent": 1996,
      "##viron": 1997,
      "auth": 1998,
      "str": 1999,
      "##sp": 2000,
      "retrieve": 2001,
      "atomic": 2002,
      "back": 2003,
      "activity": 2004,
      "isfin": 2005,
      "lock": 2006,
      "createt": 2007,
      "ge": 2008,
      "##short": 2009,
      "toxmlstring": 2010,
      "au": 2011,
      "##pay": 2012,
      "##nown": 2013,
      "##iod": 2014,
      "##latform": 2015,
      "##api.": 2016,
      "extension": 2017,
      "##tence": 2018,
      "##gine": 2019,
      "insert": 2020,
      "##ards": 2021,
      "##millis": 2022,
      "##java": 2023,
      "##istory": 2024,
      "##parser": 2025,
      "##hold": 2026,
      "associ": 2027,
      "##wait": 2028,
      "##gram": 2029,
      "##ude": 2030,
      "##ek": 2031,
      "handler": 2032,
      "##scalc": 2033,
      "note": 2034,
      "provider": 2035,
      "##ank": 2036,
      "fol": 2037,
      "object[]": 2038,
      "iter": 2039,
      "typedesc": 2040,
      "##io.": 2041,
      "##ique": 2042,
      "__hashcode": 2043,
      "__equal": 2044,
      "__hashcodecalc": 2045,
      "__equalscalc": 2046,
      "sing": 2047,
      "##elist": 2048,
      "##titem": 2049,
      "same": 2050,
      "perform": 2051,
      "getstring": 2052,
      "##ix": 2053,
      "toe": 2054,
      "setmodel": 2055,
      "##cator": 2056,
      "setd": 2057,
      "##iver": 2058,
      "##failure": 2059,
      "##used": 2060,
      "getmodelclass": 2061,
      "##stro": 2062,
      "resetoriginal": 2063,
      "getexpandobridge": 2064,
      "getprimarykeyobj": 2065,
      "setcachedmodel": 2066,
      "setprimarykeyobj": 2067,
      "tocachemodel": 2068,
      "iscachedmodel": 2069,
      "##cated": 2070,
      "isescapedmodel": 2071,
      "getmodelclassname": 2072,
      "getwrappedmodel": 2073,
      "toescapedmodel": 2074,
      "resetoriginalvalues": 2075,
      "##riteri": 2076,
      "norm": 2077,
      "##ared": 2078,
      "ok": 2079,
      "rectangle": 2080,
      "getstart": 2081,
      "##rity": 2082,
      "getmin": 2083,
      "been": 2084,
      "calcul": 2085,
      "##storage": 2086,
      "##bar": 2087,
      "##perator": 2088,
      "##set<": 2089,
      "datetime": 2090,
      "##fication": 2091,
      "##profile": 2092,
      "expand": 2093,
      "ter": 2094,
      "##00": 2095,
      "iterator<": 2096,
      "##ws": 2097,
      "##ategy": 2098,
      "##org": 2099,
      "getprimarykey": 2100,
      "##seconds": 2101,
      "##rate": 2102,
      "getse": 2103,
      "coun": 2104,
      "det": 2105,
      "##oc": 2106,
      "##handle": 2107,
      "##vironment": 2108,
      "##ings": 2109,
      "getmessage": 2110,
      "##aster": 2111,
      "##deserializer": 2112,
      "##ublish": 2113,
      "##adapter": 2114,
      "##teral": 2115,
      "##langu": 2116,
      "##locale": 2117,
      "net": 2118,
      "##ify": 2119,
      "##bility": 2120,
      "##main_region": 2121,
      "writeto": 2122,
      "##note": 2123,
      "##non": 2124,
      "##argu": 2125,
      "child": 2126,
      "getusername": 2127,
      "getpre": 2128,
      "setprimarykey": 2129,
      "##visible": 2130,
      "##ynch": 2131,
      "##agent": 2132,
      "initial": 2133,
      "##pose": 2134,
      "##adi": 2135,
      "##feed": 2136,
      "getsub": 2137,
      "##transition": 2138,
      "follow": 2139,
      "getx": 2140,
      "##structor": 2141,
      "##asi": 2142,
      "##delete": 2143,
      "sort": 2144,
      "##cp": 2145,
      "##sa": 2146,
      "##pair": 2147,
      "##gorithm": 2148,
      "##logger": 2149,
      "##patch": 2150,
      "##connect": 2151,
      "##repository": 2152,
      "##ished": 2153,
      "getserializer": 2154,
      "##ade": 2155,
      "##64": 2156,
      "created": 2157,
      "##aded": 2158,
      "##ookup": 2159,
      "getal": 2160,
      "##ide": 2161,
      "##ama": 2162,
      "##generator": 2163,
      "example": 2164,
      "false": 2165,
      "timestamp": 2166,
      "##river": 2167,
      "primary": 2168,
      "##shopping": 2169,
      "##available": 2170,
      "##registry": 2171,
      "getg": 2172,
      "ssl": 2173,
      "getwrapped": 2174,
      "##doc": 2175,
      "##product": 2176,
      "remov": 2177,
      "##ns": 2178,
      "linked": 2179,
      "setlast": 2180,
      "##etime": 2181,
      "##itle": 2182,
      "##op": 2183,
      "##parator": 2184,
      "##curity": 2185,
      "##second": 2186,
      "##014": 2187,
      "##language": 2188,
      "include": 2189,
      "##vailable": 2190,
      "objects": 2191,
      "##fill": 2192,
      "##oogle": 2193,
      "visit": 2194,
      "##atches": 2195,
      "executor": 2196,
      "##eres": 2197,
      "##managed": 2198,
      "##md": 2199,
      "##imetype": 2200,
      "##validation": 2201,
      "getdeserializer": 2202,
      "locale": 2203,
      "##matcher": 2204,
      "rel": 2205,
      "##iterator": 2206,
      "immutable": 2207,
      "top": 2208,
      "##chang": 2209,
      "org.apache.axis.encoding.serializer": 2210,
      "org.apache.axis.encoding.deserializer": 2211,
      "##spec": 2212,
      "##ular": 2213,
      "##sentry": 2214,
      "##activ": 2215,
      "gettypedesc": 2216,
      "##left": 2217,
      "##utdown": 2218,
      "non": 2219,
      "##certificate": 2220,
      "##stop": 2221,
      "##priority": 2222,
      "des": 2223,
      "getas": 2224,
      "transaction": 2225,
      "##.api.": 2226,
      "##dbc": 2227,
      "##lot": 2228,
      "##pth": 2229,
      "##sig": 2230,
      "##ublic": 2231,
      "##results": 2232,
      "module": 2233,
      "store": 2234,
      "internal": 2235,
      "getco": 2236,
      "##its": 2237,
      "##build": 2238,
      "##dk": 2239,
      "hasnext": 2240,
      "flag": 2241,
      "connect": 2242,
      "##render": 2243,
      "##fic": 2244,
      "getmodelattributes": 2245,
      "success": 2246,
      "##ai": 2247,
      "##tf": 2248,
      "##ush": 2249,
      "setmodelattributes": 2250,
      "pd": 2251,
      "##_1": 2252,
      "support": 2253,
      "cancel": 2254,
      "##delay": 2255,
      "##tree": 2256,
      "release": 2257,
      "##sure": 2258,
      "mark": 2259,
      "##ceived": 2260,
      "##ling": 2261,
      "account": 2262,
      "##amazon": 2263,
      "isset": 2264,
      "##script": 2265,
      "authentic": 2266,
      "project": 2267,
      "##complete": 2268,
      "##nescapedmodel": 2269,
      "tounescapedmodel": 2270,
      "##cel": 2271,
      "##ynchron": 2272,
      "##crement": 2273,
      "##leg": 2274,
      "pop": 2275,
      "calendar": 2276,
      "##keys": 2277,
      "getint": 2278,
      "##screen": 2279,
      "defin": 2280,
      "##atic": 2281,
      "##conn": 2282,
      "getuserid": 2283,
      "stack": 2284,
      "medi": 2285,
      "##vents": 2286,
      "sty": 2287,
      "##sol": 2288,
      "getsh": 2289,
      "auto": 2290,
      "##lobal": 2291,
      "its": 2292,
      "##mt": 2293,
      "gettime": 2294,
      "annotation": 2295,
      "##preferences": 2296,
      "getobject": 2297,
      "##ish": 2298,
      "##layer": 2299,
      "##enum": 2300,
      "cer": 2301,
      "##strategy": 2302,
      "##amer": 2303,
      "inet": 2304,
      "##ground": 2305,
      "##cip": 2306,
      "##children": 2307,
      "merge": 2308,
      "mon": 2309,
      "##constraint": 2310,
      "setusername": 2311,
      "##menu": 2312,
      "equal": 2313,
      "op": 2314,
      "##quire": 2315,
      "##ceptor": 2316,
      "##_re": 2317,
      "##segment": 2318,
      "##init": 2319,
      "title": 2320,
      "##etr": 2321,
      "##rency": 2322,
      "layout": 2323,
      "device": 2324,
      "wrap": 2325,
      "factory": 2326,
      "##cat": 2327,
      "##sm": 2328,
      "##ump": 2329,
      "getnext": 2330,
      "previous": 2331,
      "##numberof": 2332,
      "##ture": 2333,
      "condition": 2334,
      "getversion": 2335,
      "##chart": 2336,
      "##ins": 2337,
      "##pc": 2338,
      "optional": 2339,
      "com.g": 2340,
      "hashmap<string,": 2341,
      "##trace": 2342,
      "##trac": 2343,
      "extract": 2344,
      "com.liferay.portal.kernel.model.persistedmodel": 2345,
      "role": 2346,
      "##aggreg": 2347,
      "getrequest": 2348,
      "metadata": 2349,
      "geo": 2350,
      "configure": 2351,
      "##sets": 2352,
      "##v2": 2353,
      "##lap": 2354,
      "##iration": 2355,
      "##inst": 2356,
      "##extension": 2357,
      "getlabel": 2358,
      "each": 2359,
      "##volume": 2360,
      "deter": 2361,
      "xcontentbuilderstring": 2362,
      "##commit": 2363,
      "wait": 2364,
      "##ffix": 2365,
      "tree": 2366,
      "must": 2367,
      "##filename": 2368,
      "##suite": 2369,
      "max_": 2370,
      "##var": 2371,
      "rec": 2372,
      "##resolver": 2373,
      "##uple": 2374,
      "graph": 2375,
      "offset": 2376,
      "raw": 2377,
      "java.io.": 2378,
      "##ification": 2379,
      "ph": 2380,
      "##percent": 2381,
      "getsource": 2382,
      "sp": 2383,
      "notification": 2384,
      "float[]": 2385,
      "serializable": 2386,
      "com.liferay.portlet.": 2387,
      "##cryption": 2388,
      "pol": 2389,
      "skip": 2390,
      "##park": 2391,
      "argu": 2392,
      "##ceiver": 2393,
      "isentity": 2394,
      "##wise": 2395,
      "reg": 2396,
      "##listeners": 2397,
      "cap": 2398,
      "##ice": 2399,
      "##oom": 2400,
      "##oop": 2401,
      "##price": 2402,
      "##system": 2403,
      "##trigger": 2404,
      "##t_": 2405,
      "accept": 2406,
      "##titution": 2407,
      "expression": 2408,
      "##allowed": 2409,
      "##gen": 2410,
      "##enode": 2411,
      "##bal": 2412,
      "replace": 2413,
      "##allback": 2414,
      "##imation": 2415,
      "prefix": 2416,
      "##scount": 2417,
      "##wh": 2418,
      "lang": 2419,
      "prepa": 2420,
      "selected": 2421,
      "uuid": 2422,
      "compute": 2423,
      "##vigation": 2424,
      "param": 2425,
      "##untime": 2426,
      "callback": 2427,
      "frame": 2428,
      "##aly": 2429,
      "##direction": 2430,
      "##off": 2431,
      "##database": 2432,
      "##struction": 2433,
      "font": 2434,
      "gettitle": 2435,
      "##termin": 2436,
      "##dercacheenabled": 2437,
      "isfindercacheenabled": 2438,
      "isentitycacheenabled": 2439,
      "##warn": 2440,
      "setuserid": 2441,
      "##simp": 2442,
      "act": 2443,
      "available": 2444,
      "##contact": 2445,
      "##card": 2446,
      "##sgi": 2447,
      "category": 2448,
      "root": 2449,
      "gettarget": 2450,
      "##ause": 2451,
      "required": 2452,
      "##userid": 2453,
      "parti": 2454,
      "getpersistedmodel": 2455,
      "transform": 2456,
      "##httpclient": 2457,
      "##ready": 2458,
      "abstract": 2459,
      "attributes": 2460,
      "getconnection": 2461,
      "##ln": 2462,
      "getproperty": 2463,
      "##reason": 2464,
      "setsub": 2465,
      "##gex": 2466,
      "##lines": 2467,
      "invoke": 2468,
      "ali": 2469,
      "bound": 2470,
      "##route": 2471,
      "##return": 2472,
      "##cachemodel<": 2473,
      "##print": 2474,
      "##atistic": 2475,
      "effect": 2476,
      "control": 2477,
      "##parse": 2478,
      "##tifact": 2479,
      "paint": 2480,
      "cli": 2481,
      "##serializable": 2482,
      "##webservice": 2483,
      "setwrap": 2484,
      "origin": 2485,
      "override": 2486,
      "##ow": 2487,
      "##speci": 2488,
      "snapshot": 2489,
      "##med": 2490,
      "memory": 2491,
      "tim": 2492,
      "pr": 2493,
      "##_r": 2494,
      "setdefault": 2495,
      "##upload": 2496,
      "##attach": 2497,
      "##tin": 2498,
      "##ww": 2499,
      "##lush": 2500,
      "db": 2501,
      "##pk": 2502,
      "##dit": 2503,
      "##security": 2504,
      "##ween": 2505,
      "getcompanyid": 2506,
      "report": 2507,
      "##signature": 2508,
      "enable": 2509,
      "##aget": 2510,
      "setcompanyid": 2511,
      "##ized": 2512,
      "##failed": 2513,
      "##tequals": 2514,
      "bytebuffer": 2515,
      "##jection": 2516,
      "##actions": 2517,
      "##assign": 2518,
      "channel": 2519,
      "##conver": 2520,
      "pas": 2521,
      "##mask": 2522,
      "##ear": 2523,
      "##period": 2524,
      "parameters": 2525,
      "##resol": 2526,
      "results": 2527,
      "##shal": 2528,
      "##rowser": 2529,
      "##<?>>": 2530,
      "representation": 2531,
      "trace": 2532,
      "ra": 2533,
      "getdate": 2534,
      "gr": 2535,
      "associated": 2536,
      "##fir": 2537,
      "##close": 2538,
      "##support": 2539,
      "getsize": 2540,
      "##rop": 2541,
      "##asure": 2542,
      "##.workflow": 2543,
      "##reshold": 2544,
      "rot": 2545,
      "##gra": 2546,
      "##.kaleo": 2547,
      "getpath": 2548,
      "getparameter": 2549,
      "isvalid": 2550,
      "##zip": 2551,
      "checks": 2552,
      "charset": 2553,
      "##por": 2554,
      "pag": 2555,
      "##move": 2556,
      "java.util.list<com.liferay.portal": 2557,
      "##points": 2558,
      "maximum": 2559,
      "need": 2560,
      "##gon": 2561,
      "getfirst": 2562,
      "##register": 2563,
      "two": 2564,
      "##vm": 2565,
      "##information": 2566,
      "clus": 2567,
      "##node>": 2568,
      "ip": 2569,
      "##lable": 2570,
      "timeout": 2571,
      "##book": 2572,
      "##50": 2573,
      "##city": 2574,
      "##.workflow.kaleo": 2575,
      "##.workflow.kaleo.model.": 2576,
      "##secret": 2577,
      "##metric": 2578,
      "getdisplay": 2579,
      "##ouse": 2580,
      "listeners": 2581,
      "##ib": 2582,
      "username": 2583,
      "##after": 2584,
      "la": 2585,
      "##selection": 2586,
      "select": 2587,
      "cook": 2588,
      "##tom": 2589,
      "com.amazon": 2590,
      "##groups": 2591,
      "getimage": 2592,
      "##ible": 2593,
      "sample": 2594,
      "getend": 2595,
      "information": 2596,
      "##quo": 2597,
      "##ript": 2598,
      "fill": 2599,
      "##consumer": 2600,
      "##.webservice": 2601,
      "##etween": 2602,
      "options": 2603,
      "notify": 2604,
      "##incip": 2605,
      "##bose": 2606,
      "gety": 2607,
      "getaddress": 2608,
      "##plit": 2609,
      "##k,v>": 2610,
      "rule": 2611,
      "##devent": 2612,
      "setex": 2613,
      "createget": 2614,
      "style": 2615,
      "##uppli": 2616,
      "##month": 2617,
      "##socketfactory": 2618,
      "##send": 2619,
      "##mote": 2620,
      "##kaleon": 2621,
      "##ily": 2622,
      "width": 2623,
      "com.google": 2624,
      "##.kernel.model.": 2625,
      "##jec": 2626,
      "gethost": 2627,
      "##library": 2628,
      "##witch": 2629,
      "##changelistener": 2630,
      "##ym": 2631,
      "##_h": 2632,
      "##report": 2633,
      "isde": 2634,
      "##thing": 2635,
      "##faces": 2636,
      "##cies": 2637,
      "##duler": 2638,
      "##tags": 2639,
      "##ourcetype": 2640,
      "destro": 2641,
      "isin": 2642,
      "##verage": 2643,
      "identifier": 2644,
      "##font": 2645,
      "getattribute": 2646,
      "sql": 2647,
      "setparent": 2648,
      "##ability": 2649,
      "##eline": 2650,
      "##.dynamicquery": 2651,
      "com.liferay.portal.kernel.dao.orm.dynamicquery": 2652,
      "##props": 2653,
      "##controller": 2654,
      "css": 2655,
      "##ton": 2656,
      "##classes": 2657,
      "##eded": 2658,
      "gettext": 2659,
      "##signed": 2660,
      "##cook": 2661,
      "##ors": 2662,
      "getnum": 2663,
      "##list<string>": 2664,
      "##ship": 2665,
      "matrix": 2666,
      "clean": 2667,
      "elements": 2668,
      "##dentials": 2669,
      "##letion": 2670,
      "##virt": 2671,
      "##criteri": 2672,
      "##covery": 2673,
      "predicate": 2674,
      "calculate": 2675,
      "##tribution": 2676,
      "##ressed": 2677,
      "protocol": 2678,
      "##asic": 2679,
      "cluster": 2680,
      "getcolumn": 2681,
      "##exist": 2682,
      "com.liferay.social": 2683,
      "container": 2684,
      "stor": 2685,
      "##dio": 2686,
      "down": 2687,
      "sett": 2688,
      "setcontent": 2689,
      "##diction": 2690,
      "##ested": 2691,
      "##ached": 2692,
      "##sole": 2693,
      "##ities": 2694,
      "persis": 2695,
      "destroy": 2696,
      "icon": 2697,
      "##gno": 2698,
      "##scheme": 2699,
      "##cr": 2700,
      "##incipal": 2701,
      "network": 2702,
      "##platform": 2703,
      "##verti": 2704,
      "##ier": 2705,
      "character": 2706,
      "##interceptor": 2707,
      "##nodes": 2708,
      "##[]>": 2709,
      "##integer,": 2710,
      "route": 2711,
      "##attemp": 2712,
      "##phone": 2713,
      "running": 2714,
      "setr": 2715,
      "##eration": 2716,
      "##verse": 2717,
      "##udent": 2718,
      "##inputstream": 2719,
      "join": 2720,
      "lis": 2721,
      "setstart": 2722,
      "##romp": 2723,
      "##args": 2724,
      "##outputstream": 2725,
      "##crole": 2726,
      "##uate": 2727,
      "keys": 2728,
      "describ": 2729,
      "##begin": 2730,
      "##transform": 2731,
      "single": 2732,
      "##namespace": 2733,
      "getcontext": 2734,
      "##allo": 2735,
      "##socketaddress": 2736,
      "setkey": 2737,
      "##simple": 2738,
      "##addres": 2739,
      "full": 2740,
      "getstate": 2741,
      "move": 2742,
      "com.google.api.": 2743,
      "##quested": 2744,
      "##prequest": 2745,
      "##df": 2746,
      "getst": 2747,
      "##ployment": 2748,
      "##plan": 2749,
      "getsu": 2750,
      "more": 2751,
      "secon": 2752,
      "##delement": 2753,
      "##tostring": 2754,
      "list<t>": 2755,
      "dateformat": 2756,
      "##persistence": 2757,
      "sorted": 2758,
      "getfield": 2759,
      "scale": 2760,
      "setpassword": 2761,
      "##vn": 2762,
      "##_main_region": 2763,
      "##success": 2764,
      "##country": 2765,
      "##havi": 2766,
      "##closed": 2767,
      "lin": 2768,
      "metri": 2769,
      "com.google.api.ad": 2770,
      "##_f": 2771,
      "##_time": 2772,
      "##bucket": 2773,
      "##ferred": 2774,
      "fire": 2775,
      "##dn": 2776,
      "##treenode": 2777,
      "##ince": 2778,
      "pe": 2779,
      "getitem": 2780,
      "under": 2781,
      "##depen": 2782,
      "getcreatedate": 2783,
      "##elog": 2784,
      "headers": 2785,
      "pay": 2786,
      "##sresult": 2787,
      "##_tag": 2788,
      "##tip": 2789,
      "##arg": 2790,
      "##tick": 2791,
      "##a_": 2792,
      "serv": 2793,
      "##old": 2794,
      "##32": 2795,
      "ag": 2796,
      "##uture": 2797,
      "##elements": 2798,
      "setcreatedate": 2799,
      "iterable": 2800,
      "class<?": 2801,
      "seto": 2802,
      "##mbol": 2803,
      "resolve": 2804,
      "##virtual": 2805,
      "##rel": 2806,
      "##messag": 2807,
      "hashtable": 2808,
      "##calendar": 2809,
      "##andard": 2810,
      "settitle": 2811,
      "directory": 2812,
      "##jb": 2813,
      "##dl": 2814,
      "react": 2815,
      "##ssl": 2816,
      "geterror": 2817,
      "##imit": 2818,
      "##flags": 2819,
      "##leton": 2820,
      "##paint": 2821,
      "pool": 2822,
      "st_": 2823,
      "getun": 2824,
      "##started": 2825,
      "##transport": 2826,
      "##orization": 2827,
      "##bin": 2828,
      "##coder": 2829,
      "vector3": 2830,
      "invalid": 2831,
      "##plic": 2832,
      "writer": 2833,
      "mock": 2834,
      "##antity": 2835,
      "##ward": 2836,
      "geturl": 2837,
      "##admin": 2838,
      "allowed": 2839,
      "enabled": 2840,
      "deletepersistedmodel": 2841,
      "calls": 2842,
      "sync": 2843,
      "isex": 2844,
      "##structure": 2845,
      "bind": 2846,
      "removes": 2847,
      "##bounds": 2848,
      "##_0": 2849,
      "##tere": 2850,
      "they": 2851,
      "n'": 2852,
      "getactionabledynamicquery": 2853,
      "priority": 2854,
      "##center": 2855,
      "com.liferay.portal.kernel.dao.orm.actionabledynamicquery": 2856,
      "matches": 2857,
      "getlocal": 2858,
      "getpassword": 2859,
      "##ticle": 2860,
      "n't": 2861,
      "##scope": 2862,
      "buffered": 2863,
      "##_de": 2864,
      "##native": 2865,
      "##info>": 2866,
      "okhttpclient": 2867,
      "type_": 2868,
      "duration": 2869,
      "##servic": 2870,
      "execution": 2871,
      "comparator": 2872,
      "##registration": 2873,
      "##select": 2874,
      "##verride": 2875,
      "exists": 2876,
      "setwrapped": 2877,
      "##history": 2878,
      "##derror": 2879,
      "encoding": 2880,
      "names": 2881,
      "foo": 2882,
      "##cend": 2883,
      "getserver": 2884,
      "##ways": 2885,
      "coordin": 2886,
      "##factor": 2887,
      "distance": 2888,
      "part": 2889,
      "##batch": 2890,
      "##etup": 2891,
      "##ged": 2892,
      "height": 2893,
      "##ann": 2894,
      "##agment": 2895,
      "##threads": 2896,
      "##ui": 2897,
      "items": 2898,
      "##login": 2899,
      "##before": 2900,
      "##scape": 2901,
      "outputstream": 2902,
      "##dao": 2903,
      "throwable": 2904,
      "##metrics": 2905,
      "ms": 2906,
      "##.axis.v2": 2907,
      "##pu": 2908,
      "##reque": 2909,
      "dispose": 2910,
      "##click": 2911,
      "##dor": 2912,
      "setuseruuid": 2913,
      "##vided": 2914,
      "getuseruuid": 2915,
      "ke": 2916,
      "##a.": 2917,
      "##uct": 2918,
      "##partition": 2919,
      "variable": 2920,
      "##join": 2921,
      "##entation": 2922,
      "##usage": 2923,
      "feature": 2924,
      "igno": 2925,
      "getdat": 2926,
      "##bytearray": 2927,
      "fo": 2928,
      "##faul": 2929,
      "onre": 2930,
      "tests": 2931,
      "verify": 2932,
      "##delivery": 2933,
      "##reated": 2934,
      "app": 2935,
      "unit": 2936,
      "##yp": 2937,
      "##dered": 2938,
      "##ization": 2939,
      "##pant": 2940,
      "tran": 2941,
      "appro": 2942,
      "##wrapper": 2943,
      "##pass": 2944,
      "classloader": 2945,
      "##single": 2946,
      "##.c": 2947,
      "repository": 2948,
      "api": 2949,
      "##ift": 2950,
      "statement": 2951,
      "##tresponse": 2952,
      "##ymbol": 2953,
      "##schedule": 2954,
      "##sex": 2955,
      "##imen": 2956,
      "##pected": 2957,
      "cla": 2958,
      "##timezone": 2959,
      "placeholdertype": 2960,
      "##cessed": 2961,
      "jsonwriter": 2962,
      "##execution": 2963,
      "##duration": 2964,
      "##align": 2965,
      "##literal": 2966,
      "setcon": 2967,
      "##urity": 2968,
      "instances": 2969,
      "getter": 2970,
      "##oud": 2971,
      "##ddm": 2972,
      "scope": 2973,
      "##jector": 2974,
      "raise": 2975,
      "##cluster": 2976,
      "##section": 2977,
      "##maila": 2978,
      "##ing_": 2979,
      "isre": 2980,
      "member": 2981,
      "##stroy": 2982,
      "##processor": 2983,
      "##pas": 2984,
      "reader": 2985,
      "##redit": 2986,
      "getdi": 2987,
      "remote": 2988,
      "##panel": 2989,
      "##ttom": 2990,
      "star": 2991,
      "##html": 2992,
      "jaxbelement<string>": 2993,
      "##ounce": 2994,
      "messag": 2995,
      "##words": 2996,
      "##relation": 2997,
      "##customer": 2998,
      "enumeration": 2999,
      "java.lang.integer": 3000,
      "present": 3001,
      "##layoutbranch": 3002,
      "##solute": 3003,
      "shutdown": 3004,
      "clo": 3005,
      "##bl": 3006,
      "##ighlight": 3007,
      "setis": 3008,
      "certificate": 3009,
      "##publish": 3010,
      "getlocation": 3011,
      "##weight": 3012,
      "##going": 3013,
      "grid": 3014,
      "both": 3015,
      "refresh": 3016,
      "evalu": 3017,
      "##ddata": 3018,
      "##packet": 3019,
      "package": 3020,
      "##dictionary": 3021,
      "stringbuilder": 3022,
      "##cir": 3023,
      "##norm": 3024,
      "##11": 3025,
      "##now": 3026,
      "##background": 3027,
      "##ffec": 3028,
      "template": 3029,
      "setdata": 3030,
      "product": 3031,
      "jsonobject": 3032,
      "added": 3033,
      "##separator": 3034,
      "##nam": 3035,
      "##edge": 3036,
      "##cipant": 3037,
      "##treference": 3038,
      "long[]": 3039,
      "than": 3040,
      "##tax": 3041,
      "removeall": 3042,
      "serialize": 3043,
      "security": 3044,
      "##alias": 3045,
      "binding": 3046,
      "##osite": 3047,
      "##respon": 3048,
      "##js": 3049,
      "##pending": 3050,
      "##mailadd": 3051,
      "att": 3052,
      "##dto": 3053,
      "##revision": 3054,
      "policy": 3055,
      "##formatter": 3056,
      "getevent": 3057,
      "com.liferay.portal.model.persistedmodel": 3058,
      "loc": 3059,
      "##htt": 3060,
      "##monitor": 3061,
      "##lf": 3062,
      "##has": 3063,
      "stat": 3064,
      "##served": 3065,
      "##capacity": 3066,
      "empty_": 3067,
      "##lav": 3068,
      "##enumber": 3069,
      "##,?": 3070,
      "##vertex": 3071,
      "progress": 3072,
      "ensure": 3073,
      "seten": 3074,
      "##pha": 3075,
      "##rows": 3076,
      "##elp": 3077,
      "##urch": 3078,
      "fix": 3079,
      "com.liferay.portal.workflow.kaleo.model.": 3080,
      "##summary": 3081,
      "##coming": 3082,
      "##adding": 3083,
      "timezone": 3084,
      "printwriter": 3085,
      "cookie": 3086,
      "##<e>": 3087,
      "based": 3088,
      "##issue": 3089,
      "conn": 3090,
      "getclient": 3091,
      "concurrent": 3092,
      "comment": 3093,
      "permission": 3094,
      "temp": 3095,
      "##imension": 3096,
      "##_value": 3097,
      "##idget": 3098,
      "##updated": 3099,
      "provided": 3100,
      "endpoint": 3101,
      "getwidth": 3102,
      "##uted": 3103,
      "##adat": 3104,
      "println": 3105,
      "useful": 3106,
      "expandobridge": 3107,
      "##heet": 3108,
      "##rot": 3109,
      "login": 3110,
      "am": 3111,
      "##verifier": 3112,
      "orderby": 3113,
      "##servlet": 3114,
      "##attachment": 3115,
      "setmessage": 3116,
      "##lif": 3117,
      "##verb": 3118,
      "getport": 3119,
      "##mension": 3120,
      "getclassname": 3121,
      "flush": 3122,
      "getmodifieddate": 3123,
      "##home": 3124,
      "where": 3125,
      "##marshal": 3126,
      "##ake": 3127,
      "##amily": 3128,
      "##readonly": 3129,
      "##ntype": 3130,
      "##urchase": 3131,
      "push": 3132,
      "##topic": 3133,
      "tool": 3134,
      "##havior": 3135,
      "##destroy": 3136,
      "##indi": 3137,
      "mapping": 3138,
      "bitmap": 3139,
      "##fp": 3140,
      "#get": 3141,
      "dynamic": 3142,
      "##ec2": 3143,
      "list<object>": 3144,
      "track": 3145,
      "otherwise": 3146,
      "##bi": 3147,
      "##metry": 3148,
      "servlet": 3149,
      "sen": 3150,
      "##unch": 3151,
      "jdbc": 3152,
      "lookup": 3153,
      "##cla": 3154,
      "##listener>": 3155,
      "##connections": 3156,
      "##long>": 3157,
      "getlong": 3158,
      "##asc": 3159,
      "##character": 3160,
      "getsession": 3161,
      "##acters": 3162,
      "white": 3163,
      "##methods": 3164,
      "right": 3165,
      "##indexableactionabledynamicquery": 3166,
      "com.liferay.portal.kernel.dao.orm.indexableactionabledynamicquery": 3167,
      "getindexableactionabledynamicquery": 3168,
      "testset": 3169,
      "binary": 3170,
      "##uage": 3171,
      "getcomp": 3172,
      "setmodifieddate": 3173,
      "settings": 3174,
      "hostname": 3175,
      "getgroupid": 3176,
      "##asset": 3177,
      "domain": 3178,
      "##msg": 3179,
      "##modifi": 3180,
      "window": 3181,
      "##pression": 3182,
      "##full": 3183,
      "##veto": 3184,
      "getmap": 3185,
      "getosgi": 3186,
      "spark": 3187,
      "##_length": 3188,
      "events": 3189,
      "##chunk": 3190,
      "##pix": 3191,
      "##allen": 3192,
      "##serviceidentifier": 3193,
      "also": 3194,
      "##known": 3195,
      "##_default": 3196,
      "receive": 3197,
      "##shard": 3198,
      "registered": 3199,
      "##cluded": 3200,
      "private": 3201,
      "##atistics": 3202,
      "##ecutor": 3203,
      "retrieves": 3204,
      "##managedbean": 3205,
      "getosgiserviceidentifier": 3206,
      "##common": 3207,
      "##servle": 3208,
      "zz": 3209,
      "##duled": 3210,
      "mutable": 3211,
      "wit": 3212,
      "getnode": 3213,
      "verbose": 3214,
      "##vcc": 3215,
      "##async": 3216,
      "##bus": 3217,
      "##resultset": 3218,
      "##feat": 3219,
      "##identity": 3220,
      "##ware": 3221,
      "##coordin": 3222,
      "starttime": 3223,
      "##algorithm": 3224,
      "doc": 3225,
      "##aws.": 3226,
      "tear": 3227,
      "##jir": 3228,
      "##big": 3229,
      "##shape": 3230,
      "getrole": 3231,
      "##vendor": 3232,
      "##units": 3233,
      "hsql": 3234,
      "setmin": 3235,
      "activ": 3236,
      "##sort": 3237,
      "##media": 3238,
      "##gb": 3239,
      "indicate": 3240,
      "increment": 3241,
      "##velo": 3242,
      "##filters": 3243,
      "datatype": 3244,
      "##messages": 3245,
      "schedule": 3246,
      "com.amazonaws.": 3247,
      "##da": 3248,
      "##teri": 3249,
      "region": 3250,
      "getuuid": 3251,
      "##endpoint": 3252,
      "##resources": 3253,
      "settotal": 3254,
      "##mailaddress": 3255,
      "##head": 3256,
      "##poly": 3257,
      "##pted": 3258,
      "##paces": 3259,
      "setcurrent": 3260,
      "##titude": 3261,
      "##requency": 3262,
      "com.amazonaws.internal": 3263,
      "##direc": 3264,
      "##ints": 3265,
      "see": 3266,
      "##feren": 3267,
      "signature": 3268,
      "##connected": 3269,
      "##seq": 3270,
      "getcolor": 3271,
      "email": 3272,
      "##draw": 3273,
      "##ffi": 3274,
      "##zy": 3275,
      "##ather": 3276,
      "generated": 3277,
      "##dynamic": 3278,
      "scinterface": 3279,
      "##eric": 3280,
      "setlabel": 3281,
      "##my": 3282,
      "##meetup": 3283,
      "##ecycle": 3284,
      "##lar": 3285,
      "##ptions": 3286,
      "##download": 3287,
      "sys": 3288,
      "##ram": 3289,
      "##ipeline": 3290,
      "datasource": 3291,
      "external": 3292,
      "script": 3293,
      "##mine": 3294,
      "##oft": 3295,
      "##white": 3296,
      "orderbycomparator": 3297,
      "canc": 3298,
      "##comments": 3299,
      "getselected": 3300,
      "##lip": 3301,
      "##validator": 3302,
      "##tended": 3303,
      "##jar": 3304,
      "##mitive": 3305,
      "##lability": 3306,
      "dimension": 3307,
      "##jav": 3308,
      "##cost": 3309,
      "##coding.model.": 3310,
      "##amera": 3311,
      "ins": 3312,
      "##patcher": 3313,
      "##depth": 3314,
      "transport": 3315,
      "struct": 3316,
      "hex": 3317,
      "##cast": 3318,
      "##loaded": 3319,
      "##ips": 3320,
      "tab": 3321,
      "##alization": 3322,
      "getcre": 3323,
      "##ventory": 3324,
      "##expando": 3325,
      "##targeting": 3326,
      "setuuid": 3327,
      "commit": 3328,
      "language": 3329,
      "currently": 3330,
      "inetaddress": 3331,
      "finish": 3332,
      "##cell": 3333,
      "##dency": 3334,
      "getheight": 3335,
      "##initial": 3336,
      "##s.model.": 3337,
      "##_to": 3338,
      "##defined": 3339,
      "##associ": 3340,
      "io": 3341,
      "##s.d": 3342,
      "##eth": 3343,
      "##buf": 3344,
      "trigger": 3345,
      "##ail": 3346,
      "##ked": 3347,
      "##_file": 3348,
      "geticon": 3349,
      "##webview": 3350,
      "##orizon": 3351,
      "##geo": 3352,
      "getnumberof": 3353,
      "##tentry": 3354,
      "##pages": 3355,
      "##lapsed": 3356,
      "oauth": 3357,
      "##sk": 3358,
      "##processing": 3359,
      "setloglevel": 3360,
      "##dateformat": 3361,
      "teardown": 3362,
      "getaction": 3363,
      "##ords": 3364,
      "reason": 3365,
      "##invo": 3366,
      "allo": 3367,
      "java.io.serializable": 3368,
      "java.util.list": 3369,
      "age": 3370,
      "setversion": 3371,
      "setsh": 3372,
      "zero": 3373,
      "getexp": 3374,
      "fields": 3375,
      "argument": 3376,
      "getar": 3377,
      "com.net": 3378,
      "shared": 3379,
      "##paths": 3380,
      "##014_2": 3381,
      "##suite.webservice": 3382,
      "com.google.api.ads.d": 3383,
      "com.netsuite.webservice": 3384,
      "com.netsuite.webservices.": 3385,
      "br": 3386,
      "##classloader": 3387,
      "##_type_": 3388,
      "prepare": 3389,
      "##orizontal": 3390,
      "##beanidentifier": 3391,
      "##ouncements": 3392,
      "##bits": 3393,
      "##vis": 3394,
      "##conf": 3395,
      "active": 3396,
      "authentication": 3397,
      "batch": 3398,
      "##.dtt": 3399,
      "##created": 3400,
      "##ire": 3401,
      "setpre": 3402,
      "##scheduler": 3403,
      "managed": 3404,
      "##addresses": 3405,
      "getview": 3406,
      "getbytes": 3407,
      "hashmap<": 3408,
      "settext": 3409,
      "##alizable": 3410,
      "##private": 3411,
      "##.dao.model.": 3412,
      "between": 3413,
      "##intent": 3414,
      "##vable": 3415,
      "##root": 3416,
      "##.e": 3417,
      "setgroupid": 3418,
      "stage": 3419,
      "files": 3420,
      "resources": 3421,
      "##vccversion": 3422,
      "##miss": 3423,
      "sum": 3424,
      "suppli": 3425,
      "hashmap": 3426,
      "following": 3427,
      "us": 3428,
      "##authentication": 3429,
      "children": 3430,
      "##aggregation": 3431,
      "##expando.model.": 3432,
      "##_ser": 3433,
      "namespace": 3434,
      "##fferent": 3435,
      "quo": 3436,
      "super": 3437,
      "##lain": 3438,
      "complete": 3439,
      "##ansform": 3440,
      "disable": 3441,
      "##_2014_2": 3442,
      "##payment": 3443,
      "passed": 3444,
      "##ssaget": 3445,
      "##person": 3446,
      "##urer": 3447,
      "##ducer": 3448,
      "mak": 3449,
      "submit": 3450,
      "##iter": 3451,
      "##step": 3452,
      "##lash": 3453,
      "com.liferay.portlet.expando.model.": 3454,
      "done": 3455,
      "##itude": 3456,
      "##username": 3457,
      "unique": 3458,
      "##suffix": 3459,
      "getwrappedservice": 3460,
      "getpage": 3461,
      "left": 3462,
      "##timer": 3463,
      "non-": 3464,
      "##circle": 3465,
      "##peed": 3466,
      "interface": 3467,
      "rows": 3468,
      "##ticket": 3469,
      "setwrappedservice": 3470,
      "##tile": 3471,
      "setshow": 3472,
      "upload": 3473,
      "found": 3474,
      "##bon": 3475,
      "##cene": 3476,
      "##sitive": 3477,
      "gettool": 3478,
      "##_g": 3479,
      "customer": 3480,
      "##ierarch": 3481,
      "##reak": 3482,
      "na": 3483,
      "sw": 3484,
      "##navigation": 3485,
      "runtime": 3486,
      "setg": 3487,
      "ui": 3488,
      "arraylist<string>": 3489,
      "##sample": 3490,
      "##worker": 3491,
      "##meta": 3492,
      "com.liferay.portlet.expando.model.expandobridge": 3493,
      "constructor": 3494,
      "##party": 3495,
      "##scriber": 3496,
      "types": 3497,
      "collection<string>": 3498,
      "##question": 3499,
      "##objects": 3500,
      "##agno": 3501,
      "gettimestamp": 3502,
      "getposition": 3503,
      "##prote": 3504,
      "##.core": 3505,
      "##destination": 3506,
      "##alive": 3507,
      "##columns": 3508,
      "##tresult": 3509,
      "getv": 3510,
      "##blem": 3511,
      "shape": 3512,
      "packet": 3513,
      "##_version": 3514,
      "##sess": 3515,
      "##rating": 3516,
      "##byid": 3517,
      "formattest": 3518,
      "executorservice": 3519,
      "indi": 3520,
      "##meto": 3521,
      "##reenode": 3522,
      "step": 3523,
      "##just": 3524,
      "##inet": 3525,
      "##utf": 3526,
      "##type.": 3527,
      "##all_": 3528,
      "##rough": 3529,
      "feed": 3530,
      "getsequence": 3531,
      "##maining": 3532,
      "matching": 3533,
      "##cookie": 3534,
      "##diff": 3535,
      "interval": 3536,
      "list<integer>": 3537,
      "filename": 3538,
      "pair": 3539,
      "##bb": 3540,
      "webview": 3541,
      "##running": 3542,
      "##lower": 3543,
      "##notnull": 3544,
      "adderror": 3545,
      "##safe": 3546,
      "tostringhelper": 3547,
      "##etag": 3548,
      "getgroup": 3549,
      "##hoach": 3550,
      "manage": 3551,
      "##_a": 3552,
      "getcache": 3553,
      "getproxy": 3554,
      "##uth": 3555,
      "##achange": 3556,
      "findall": 3557,
      "##tl": 3558,
      "##ross": 3559,
      "##acon": 3560,
      "##subcategory": 3561,
      "##video": 3562,
      "##typ": 3563,
      "rest": 3564,
      "parser": 3565,
      "##ained": 3566,
      "##ckey": 3567,
      "addall": 3568,
      "##predicate": 3569,
      "getjob": 3570,
      "##,string>": 3571,
      "getauth": 3572,
      "iso": 3573,
      "getcount": 3574,
      "##dimension": 3575,
      "rotate": 3576,
      "##servletrequest": 3577,
      "##mage": 3578,
      "##pect": 3579,
      "schema": 3580,
      "testre": 3581,
      "termin": 3582,
      "getline": 3583,
      "##peri": 3584,
      "workflow": 3585,
      "##show": 3586,
      "##quantity": 3587,
      "##lector": 3588,
      "##pient": 3589,
      "limit": 3590,
      "rout": 3591,
      "##iler": 3592,
      "##def": 3593,
      "##chat": 3594,
      "##fp.axis.v2": 3595,
      "com.google.api.ads.dfp.axis.v2": 3596,
      "com.netsuite.webservices.platform": 3597,
      "basic": 3598,
      "helper": 3599,
      "##score": 3600,
      "##.data": 3601,
      "vertex": 3602,
      "numberof": 3603,
      "##roid": 3604,
      "##onical": 3605,
      "##trun": 3606,
      "##gative": 3607,
      "##rag": 3608,
      "##.xml": 3609,
      "##coords": 3610,
      "getad": 3611,
      "gethttp": 3612,
      "setn": 3613,
      "static": 3614,
      "##redu": 3615,
      "some": 3616,
      "##cycle": 3617,
      "##scan": 3618,
      "getresponse": 3619,
      "##tedata": 3620,
      "##ics": 3621,
      "getcustom": 3622,
      "readfrom": 3623,
      "##ampa": 3624,
      "##ness": 3625,
      "threadlocal": 3626,
      "##permissions": 3627,
      "just": 3628,
      "##oauth": 3629,
      "edge": 3630,
      "counter": 3631,
      "destination": 3632,
      "timer": 3633,
      "identity": 3634,
      "##dicon": 3635,
      "##priate": 3636,
      "##fixed": 3637,
      "##map<string,string>": 3638,
      "##tories": 3639,
      "##byname": 3640,
      "##abstract": 3641,
      "##board": 3642,
      "##tresource": 3643,
      "##ading": 3644,
      "java.lang.boolean": 3645,
      "vector2": 3646,
      "##mob": 3647,
      "##trip": 3648,
      "##imal": 3649,
      "warning": 3650,
      "##rup": 3651,
      "##16": 3652,
      "##lend": 3653,
      "gettable": 3654,
      "##arm": 3655,
      "##lative": 3656,
      "inst": 3657,
      "getcur": 3658,
      "indexof": 3659,
      "##rown": 3660,
      "##charset": 3661,
      "##asstring": 3662,
      "conf": 3663,
      "setservice": 3664,
      "##rott": 3665,
      "already": 3666,
      "##warning": 3667,
      "getto": 3668,
      "##rex": 3669,
      "setw": 3670,
      "##measure": 3671,
      "##foo": 3672,
      "getlength": 3673,
      "setexp": 3674,
      "##ced": 3675,
      "##hashmap": 3676,
      "##empty": 3677,
      "##decl": 3678,
      "##tras": 3679,
      "##rout": 3680,
      "##term": 3681,
      "##milli": 3682,
      "##zero": 3683,
      "getth": 3684,
      "validation": 3685,
      "##linked": 3686,
      "##recent": 3687,
      "##mploy": 3688,
      "##actuate": 3689,
      "determine": 3690,
      "##ality": 3691,
      "##player": 3692,
      "second": 3693,
      "day": 3694,
      "treenode": 3695,
      "##ilability": 3696,
      "##otification": 3697,
      "##ligh": 3698,
      "##external": 3699,
      "##infotype": 3700,
      "unset": 3701,
      "amount": 3702,
      "##ries": 3703,
      "no_": 3704,
      "scal": 3705,
      "##p_": 3706,
      "##t.": 3707,
      "##vance": 3708,
      "##idle": 3709,
      "##alle": 3710,
      "##_array": 3711,
      "profile": 3712,
      "ws": 3713,
      "##none": 3714,
      "##swith": 3715,
      "getelement": 3716,
      "##adow": 3717,
      "##cho": 3718,
      "geturi": 3719,
      "##matic": 3720,
      "cached": 3721,
      "##datet": 3722,
      "##sive": 3723,
      "##usted": 3724,
      "##lang": 3725,
      "##blocking": 3726,
      "##firm": 3727,
      "##codes": 3728,
      "##texception": 3729,
      "within": 3730,
      "setsource": 3731,
      "getcategory": 3732,
      "##ffective": 3733,
      "##<t": 3734,
      "manager": 3735,
      "##cending": 3736,
      "setaddress": 3737,
      "real": 3738,
      "##irationdate": 3739,
      "getoutput": 3740,
      "##lyph": 3741,
      "##inbytes": 3742,
      "##true": 3743,
      "poly": 3744,
      "setdate": 3745,
      "##constructor": 3746,
      "##lying": 3747,
      "marker": 3748,
      "##adius": 3749,
      "getac": 3750,
      "##cision": 3751,
      "##addr": 3752,
      "failure": 3753,
      "driver": 3754,
      "getheader": 3755,
      "##logging": 3756,
      "##509": 3757,
      "##rank": 3758,
      "##tevent": 3759,
      "##chan": 3760,
      "button": 3761,
      "##master": 3762,
      "##oint": 3763,
      "##debug": 3764,
      "##constant": 3765,
      "methods": 3766,
      "mil": 3767,
      "##zer": 3768,
      "##ilreason": 3769,
      "##balance": 3770,
      "##fromp": 3771,
      "addition": 3772,
      "artifact": 3773,
      "selection": 3774,
      "correspon": 3775,
      "cen": 3776,
      "acc": 3777,
      "##remote": 3778,
      "##ulk": 3779,
      "generic": 3780,
      "##eresult": 3781,
      "original": 3782,
      "split": 3783,
      "##supported": 3784,
      "##references": 3785,
      "##terror": 3786,
      "unknown": 3787,
      "appropriate": 3788,
      "##ferenc": 3789,
      "##added": 3790,
      "buf": 3791,
      "##partment": 3792,
      "none": 3793,
      "setter": 3794,
      "##digest": 3795,
      "##_format": 3796,
      "##blob": 3797,
      "##stoken": 3798,
      "audit": 3799,
      "##save": 3800,
      "##ater": 3801,
      "stored": 3802,
      "getl": 3803,
      "setx": 3804,
      "##uring": 3805,
      "getbase": 3806,
      "setresource": 3807,
      "##arguments": 3808,
      "typ": 3809,
      "##cancel": 3810,
      "##withd": 3811,
      "such": 3812,
      "##_p": 3813,
      "##java.": 3814,
      "##announcements": 3815,
      "##unique": 3816,
      "shard": 3817,
      "shouldallow": 3818,
      "##pring": 3819,
      "##ierarchy": 3820,
      "##_class": 3821,
      "##pop": 3822,
      "##argument": 3823,
      "com.liferay.socialcoding.model.": 3824,
      "card": 3825,
      "##nan": 3826,
      "isactive": 3827,
      "##olution": 3828,
      "readobject": 3829,
      "characters": 3830,
      "##jor": 3831,
      "##3d": 3832,
      "delegate": 3833,
      "##release": 3834,
      "##sect": 3835,
      "provide": 3836,
      "describe": 3837,
      "##_d": 3838,
      "logic": 3839,
      "##objectid": 3840,
      "##sinh": 3841,
      "play": 3842,
      "seterror": 3843,
      "##trict": 3844,
      "depen": 3845,
      "messages": 3846,
      "contenttype": 3847,
      "cle": 3848,
      "##observer": 3849,
      "##sisdn": 3850,
      "##cachemodel<com.liferay.": 3851,
      "localizable": 3852,
      "since": 3853,
      "gettask": 3854,
      "##animation": 3855,
      "setstate": 3856,
      "translate": 3857,
      "##.sdk": 3858,
      "determin": 3859,
      "##mploye": 3860,
      "##ration": 3861,
      "##instances": 3862,
      "##chars": 3863,
      "##_2014_2.": 3864,
      "##_t": 3865,
      "##astream": 3866,
      "sa": 3867,
      "getrow": 3868,
      "getchild": 3869,
      "setrole": 3870,
      "##atal": 3871,
      "asset": 3872,
      "word": 3873,
      "##cart": 3874,
      "##codec": 3875,
      "cordovawebview": 3876,
      "cleanup": 3877,
      "##,t": 3878,
      "constant": 3879,
      "##gges": 3880,
      "environment": 3881,
      "##dataset": 3882,
      "##initialize": 3883,
      "##currency": 3884,
      "##lator": 3885,
      "##elen": 3886,
      "##tes": 3887,
      "##umb": 3888,
      "try": 3889,
      "es": 3890,
      "##cover": 3891,
      "##inner": 3892,
      "boolean[]": 3893,
      "##ublickey": 3894,
      "secret": 3895,
      "ama": 3896,
      "ident": 3897,
      "owner": 3898,
      "##binary": 3899,
      "##creator": 3900,
      "cell": 3901,
      "##road": 3902,
      "##ases": 3903,
      "##feedback": 3904,
      "##activation": 3905,
      "global": 3906,
      "##team": 3907,
      "inside": 3908,
      "##components": 3909,
      "import": 3910,
      "##secure": 3911,
      "##dlfile": 3912,
      "##can": 3913,
      "setclassname": 3914,
      "##ynchronous": 3915,
      "com.netsuite.webservices.platform.core": 3916,
      "##ateri": 3917,
      "##threshold": 3918,
      "loglevel": 3919,
      "##pause": 3920,
      "##achine": 3921,
      "##double>": 3922,
      "delay": 3923,
      "##_in_": 3924,
      "defined": 3925,
      "pagination": 3926,
      "oc": 3927,
      "##come": 3928,
      "##cipient": 3929,
      "##builder<": 3930,
      "finalize": 3931,
      "##sation": 3932,
      "getlayout": 3933,
      "setnext": 3934,
      "supported": 3935,
      "##_prefix": 3936,
      "restore": 3937,
      "specific": 3938,
      "cursor": 3939,
      "##legal": 3940,
      "setpro": 3941,
      "amazon": 3942,
      "##_pattern": 3943,
      "##bridge": 3944,
      "getnew": 3945,
      "java.lang.long": 3946,
      "##loading": 3947,
      "library": 3948,
      "##mun": 3949,
      "##_path": 3950,
      "##idden": 3951,
      "##izer": 3952,
      "##uby": 3953,
      "##itemp": 3954,
      "public": 3955,
      "##ident": 3956,
      "construct": 3957,
      "getis": 3958,
      "##peat": 3959,
      "##chain": 3960,
      "##legacy": 3961,
      "##anchor": 3962,
      "md": 3963,
      "##widget": 3964,
      "cos": 3965,
      "vide": 3966,
      "##executor": 3967,
      "##typer": 3968,
      "##item>": 3969,
      "##dential": 3970,
      "##deri": 3971,
      "##alert": 3972,
      "percent": 3973,
      "men": 3974,
      "##ssible": 3975,
      "##scroll": 3976,
      "##logy": 3977,
      "##without": 3978,
      "subject": 3979,
      "##lue": 3980,
      "##_m": 3981,
      "##student": 3982,
      "direct": 3983,
      "tags": 3984,
      "actions": 3985,
      "##grade": 3986,
      "getdisplayname": 3987,
      "##criteria": 3988,
      "##ing.model.": 3989,
      "##entry>": 3990,
      "modification": 3991,
      "##ampaign": 3992,
      "##vg": 3993,
      "##_count": 3994,
      "unregister": 3995,
      "containing": 3996,
      "converts": 3997,
      "jn": 3998,
      "sethost": 3999,
      "entries": 4000,
      "always": 4001,
      "normalize": 4002,
      "##agnostic": 4003,
      "##less": 4004,
      "##oul": 4005,
      "##uer": 4006,
      "##finished": 4007,
      "isenabled": 4008,
      "##virtualhost": 4009,
      "go": 4010,
      "generator": 4011,
      "##registered": 4012,
      "##<v": 4013,
      "setposition": 4014,
      "assign": 4015,
      "getout": 4016,
      "require": 4017,
      "##ismet": 4018,
      "modified": 4019,
      "##file>": 4020,
      "##.model.shopping": 4021,
      "registry": 4022,
      "##bind": 4023,
      "##attr": 4024,
      "javax": 4025,
      "##states": 4026,
      "storage": 4027,
      "rol": 4028,
      "##gend": 4029,
      "##world": 4030,
      "vector<": 4031,
      "s_": 4032,
      "runnable": 4033,
      "##withdynamicquery": 4034,
      "##self": 4035,
      "being": 4036,
      "##fragment": 4037,
      "##.data.": 4038,
      "##zz": 4039,
      "setsize": 4040,
      "setproperty": 4041,
      "##subscription": 4042,
      "proxyselector": 4043,
      "##fully": 4044,
      "media": 4045,
      "cach": 4046,
      "miss": 4047,
      "##etable": 4048,
      "getmethod": 4049,
      "setuse": 4050,
      "reinit": 4051,
      "##writ": 4052,
      "##delimi": 4053,
      "##converter": 4054,
      "utf": 4055,
      "##poo": 4056,
      "##charge": 4057,
      "##authenticator": 4058,
      "ist": 4059,
      "seturl": 4060,
      "engine": 4061,
      "##transi": 4062,
      "multiple": 4063,
      "##power": 4064,
      "##week": 4065,
      "absent": 4066,
      "failed": 4067,
      "free": 4068,
      "##car": 4069,
      "##ud": 4070,
      "##sby": 4071,
      "selec": 4072,
      "operator": 4073,
      "contact": 4074,
      "setto": 4075,
      "##completion": 4076,
      "iterable<": 4077,
      "gl": 4078,
      "sim": 4079,
      "##dav": 4080,
      "gettag": 4081,
      "existing": 4082,
      "##renderer": 4083,
      "attach": 4084,
      "com.amazonaws.internal.sdk": 4085,
      "com.netsuite.webservices.platform.core_2014_2.": 4086,
      "com.amazonaws.internal.sdkinternal": 4087,
      "##ulate": 4088,
      "##remove": 4089,
      "supports": 4090,
      "##limi": 4091,
      "indicates": 4092,
      "##ku": 4093,
      "getdis": 4094,
      "setqueue": 4095,
      "minimum": 4096,
      "href": 4097,
      "jav": 4098,
      "digest": 4099,
      "##editor": 4100,
      "getboolean": 4101,
      "aggreg": 4102,
      "##anded": 4103,
      "attemp": 4104,
      "##objec": 4105,
      "##bitmap": 4106,
      "finished": 4107,
      "#all_": 4108,
      "##gl": 4109,
      "##artifac": 4110,
      "##reater": 4111,
      "##dialog": 4112,
      "##starttime": 4113,
      "##dmodeltype": 4114,
      "#all_pos": 4115,
      "nodes": 4116,
      "##www": 4117,
      "##m_": 4118,
      "##gable": 4119,
      "##deg": 4120,
      "##apro": 4121,
      "##igno": 4122,
      "##compati": 4123,
      "removel": 4124,
      "reads": 4125,
      "capacity": 4126,
      "coordinate": 4127,
      "##paste": 4128,
      "getso": 4129,
      "##serial": 4130,
      "##labor": 4131,
      "underlying": 4132,
      "constraint": 4133,
      "toarray": 4134,
      "##connectionfactory": 4135,
      "##lid": 4136,
      "##watch": 4137,
      "metrics": 4138,
      "##bottom": 4139,
      "vn": 4140,
      "var": 4141,
      "getstyle": 4142,
      "##variables": 4143,
      "##instruction": 4144,
      "##tili": 4145,
      "##activityresult": 4146,
      "##f_": 4147,
      "standard": 4148,
      "blob": 4149,
      "##er<": 4150,
      "setfile": 4151,
      "##esult": 4152,
      "audio": 4153,
      "##kaleonotification": 4154,
      "volume": 4155,
      "##cour": 4156,
      "##elevel": 4157,
      "getformat": 4158,
      "setar": 4159,
      "##completed": 4160,
      "##orientation": 4161,
      "##0140": 4162,
      "##attempt": 4163,
      "com.liferay.portal.workflow.kaleo.model.kaleo": 4164,
      "##aggregationbuilder": 4165,
      "buil": 4166,
      "servicename": 4167,
      "##visitor": 4168,
      "##kaleonode": 4169,
      "##m.": 4170,
      "##max_": 4171,
      "accessor": 4172,
      "##unknown": 4173,
      "##davprops": 4174,
      "##mig": 4175,
      "##cd": 4176,
      "##eclass": 4177,
      "##builder<t>": 4178,
      "##ified": 4179,
      "##acing": 4180,
      "log_tag": 4181,
      "peek": 4182,
      "##legate": 4183,
      "getproperties": 4184,
      "setcre": 4185,
      "##stroke": 4186,
      "##ied": 4187,
      "settarget": 4188,
      "##exists": 4189,
      "##_state": 4190,
      "##static": 4191,
      "setcolor": 4192,
      "getcheck": 4193,
      "calling": 4194,
      "vn.dtt": 4195,
      "##shi": 4196,
      "canonical": 4197,
      "##dynamic.data.": 4198,
      "ejb": 4199,
      "unt": 4200,
      "##operator": 4201,
      "shoul": 4202,
      "testequals": 4203,
      "##networking.model.": 4204,
      "##participant": 4205,
      "want": 4206,
      "##cense": 4207,
      "agent": 4208,
      "_service": 4209,
      "fast": 4210,
      "getaccount": 4211,
      "##archive": 4212,
      "##tls": 4213,
      "##dexception": 4214,
      "country": 4215,
      "escape": 4216,
      "getquery": 4217,
      "##redirect": 4218,
      "setsequence": 4219,
      "valuebuilder": 4220,
      "##_network": 4221,
      "geta": 4222,
      "##ounds": 4223,
      "live": 4224,
      "##same": 4225,
      "##jax": 4226,
      "##future": 4227,
      "##trust": 4228,
      "##datasource": 4229,
      "initializ": 4230,
      "##ighligh": 4231,
      "assertequals": 4232,
      "##elength": 4233,
      "##transfer": 4234,
      "##gateway": 4235,
      "##alth": 4236,
      "setfirst": 4237,
      "##dented": 4238,
      "##_pro": 4239,
      "##coded": 4240,
      "##formed": 4241,
      "closed": 4242,
      "corresponding": 4243,
      "##lent": 4244,
      "##datatype": 4245,
      "##polygon": 4246,
      "video": 4247,
      "player": 4248,
      "##xcontent": 4249,
      "##analy": 4250,
      "setdisplay": 4251,
      "##arrayof": 4252,
      "scan": 4253,
      "##ffset": 4254,
      "##principal": 4255,
      "##ationdate": 4256,
      "optional<": 4257,
      "gettoken": 4258,
      "expected": 4259,
      "pos": 4260,
      "##atur": 4261,
      "##dob": 4262,
      "getoptions": 4263,
      "##ato": 4264,
      "segment": 4265,
      "vir": 4266,
      "setproxy": 4267,
      "##vere": 4268,
      "##queryutil": 4269,
      "##final": 4270,
      "##kehoach": 4271,
      "getpack": 4272,
      "selector": 4273,
      "##ories": 4274,
      "obtain": 4275,
      "##sys": 4276,
      "##.w": 4277,
      "different": 4278,
      "##tasks": 4279,
      "##visibility": 4280,
      "com.liferay.portal.kernel.dao.orm.queryutil": 4281,
      "##_ex": 4282,
      "getk": 4283,
      "setrequest": 4284,
      "##blocks": 4285,
      "intersect": 4286,
      "about": 4287,
      "##vari": 4288,
      "##set<string>": 4289,
      "##override": 4290,
      "##_string": 4291,
      "##mag": 4292,
      "##authorization": 4293,
      "##mbed": 4294,
      "##asci": 4295,
      "##retry": 4296,
      "invokemethod": 4297,
      "##vor": 4298,
      "without": 4299,
      "getshort": 4300,
      "dump": 4301,
      "##ik": 4302,
      "##teme": 4303,
      "##loc": 4304,
      "getremote": 4305,
      "##disabled": 4306,
      "polygon": 4307,
      "##distance": 4308,
      "getcode": 4309,
      "##required": 4310,
      "setport": 4311,
      "getshow": 4312,
      "encryption": 4313,
      "##element>": 4314,
      "##records": 4315,
      "beandefinition": 4316,
      "cir": 4317,
      "getlist": 4318,
      "getentity": 4319,
      "##preference": 4320,
      "args": 4321,
      "##indicator": 4322,
      "##servable": 4323,
      "##valuetype": 4324,
      "keep": 4325,
      "##cesstoken": 4326,
      "virt": 4327,
      "getme": 4328,
      "##launch": 4329,
      "##behavior": 4330,
      "##mail.model.": 4331,
      "changed": 4332,
      "inetsocketaddress": 4333,
      "routing": 4334,
      "##nu": 4335,
      "##upli": 4336,
      "initialized": 4337,
      "##dencies": 4338,
      "waitfor": 4339,
      "additional": 4340,
      "mul": 4341,
      "getmo": 4342,
      "getnumber": 4343,
      "animation": 4344,
      "##ilities": 4345,
      "topic": 4346,
      "##uff": 4347,
      "##rees": 4348,
      "##ceip": 4349,
      "##tobject": 4350,
      "##pointer": 4351,
      "##field>": 4352,
      "world": 4353,
      "reactmain_region": 4354,
      "##mobile": 4355,
      "##rs": 4356,
      "##deleted": 4357,
      "getconfig": 4358,
      "map<integer,": 4359,
      "edit": 4360,
      "##association": 4361,
      "ano": 4362,
      "##les": 4363,
      "getorder": 4364,
      "setj": 4365,
      "##vesinh": 4366,
      "##quality": 4367,
      "deleted": 4368,
      "##boolean>": 4369,
      "##clip": 4370,
      "##nonnull": 4371,
      "kale": 4372,
      "mouse": 4373,
      "##.networking.model.": 4374,
      "getthread": 4375,
      "named": 4376,
      "##shift": 4377,
      "##fference": 4378,
      "uses": 4379,
      "##sfor": 4380,
      "##invalid": 4381,
      "##trash": 4382,
      "##rol": 4383,
      "common": 4384,
      "##info[]": 4385,
      "pass": 4386,
      "getdouble": 4387,
      "partition": 4388,
      "ignore": 4389,
      "transition": 4390,
      "setcategory": 4391,
      "##ecution": 4392,
      "##entries": 4393,
      "##refresh": 4394,
      "##subject": 4395,
      "##organ": 4396,
      "##_io": 4397,
      "##leaf": 4398,
      "getcomponent": 4399,
      "getapplication": 4400,
      "##aming": 4401,
      "createe": 4402,
      "##margin": 4403,
      "##akismet": 4404,
      "##jectreference": 4405,
      "##lon": 4406,
      "##_error": 4407,
      "##anager": 4408,
      "setevent": 4409,
      "##hes": 4410,
      "##manage": 4411,
      "getph": 4412,
      "align": 4413,
      "java.util.list<com.liferay.portal.kernel.model.": 4414,
      "lif": 4415,
      "plan": 4416,
      "space": 4417,
      "##jected": 4418,
      "##bs": 4419,
      "servic": 4420,
      "##serialize": 4421,
      "##multiple": 4422,
      "spark_network": 4423,
      "##whitespace": 4424,
      "navigation": 4425,
      "fs": 4426,
      "##poolsize": 4427,
      "##periment": 4428,
      "pix": 4429,
      "##tetype": 4430,
      "##sheet": 4431,
      "##_property": 4432,
      "##grid": 4433,
      "##dul": 4434,
      "sety": 4435,
      "##heap": 4436,
      "##slot": 4437,
      "##_4": 4438,
      "##atalog": 4439,
      "bundlecontext": 4440,
      "##tems": 4441,
      "preferences": 4442,
      "##absolute": 4443,
      "##declar": 4444,
      "dir": 4445,
      "getcol": 4446,
      "setattribute": 4447,
      "islog": 4448,
      "##resourcetype": 4449,
      "##upper": 4450,
      "##arraylist": 4451,
      "browser": 4452,
      "##fact": 4453,
      "getfilename": 4454,
      "##aterial": 4455,
      "ht": 4456,
      "##icket": 4457,
      "incre": 4458,
      "org.apache.": 4459,
      "##grad": 4460,
      "##presentation": 4461,
      "##rp": 4462,
      "##ither": 4463,
      "##minute": 4464,
      "nati": 4465,
      "##letitem": 4466,
      "##entrequest": 4467,
      "##bytebuffer": 4468,
      "##troke": 4469,
      "performs": 4470,
      "onreceived": 4471,
      "##_mode": 4472,
      "##type,": 4473,
      "##andid": 4474,
      "##unsigned": 4475,
      "##rotation": 4476,
      "##features": 4477,
      "vm": 4478,
      "##ru": 4479,
      "##roker": 4480,
      "##this": 4481,
      "##keep": 4482,
      "getduration": 4483,
      "##mediate": 4484,
      "virtual": 4485,
      "old": 4486,
      "##.0": 4487,
      "##serialization": 4488,
      "##ifest": 4489,
      "##econtent": 4490,
      "##accept": 4491,
      "##pher": 4492,
      "##tende": 4493,
      "charsequence": 4494,
      "subscription": 4495,
      "##<t>>": 4496,
      "cancelo": 4497,
      "sm": 4498,
      "##lback": 4499,
      "##statistics": 4500,
      "##eregis": 4501,
      "atomiclong": 4502,
      "##arion": 4503,
      "##dig": 4504,
      "writes": 4505,
      "##phase": 4506,
      "head": 4507,
      "##import": 4508,
      "##timate": 4509,
      "##closing": 4510,
      "##shiprequest": 4511,
      "##browser": 4512,
      "org": 4513,
      "singleton": 4514,
      "mid": 4515,
      "##rob": 4516,
      "intent": 4517,
      "##disk": 4518,
      "##initialized": 4519,
      "##curacy": 4520,
      "definition": 4521,
      "##resolution": 4522,
      "##_e": 4523,
      "##preview": 4524,
      "##atis": 4525,
      "##market": 4526,
      "hostnameverifier": 4527,
      "_get": 4528,
      "##tx": 4529,
      "##tool": 4530,
      "##ante": 4531,
      "setoutput": 4532,
      "##.model.ddm": 4533,
      "##social.model.": 4534,
      "atomicinteger": 4535,
      "rectangle2d": 4536,
      "month": 4537,
      "##sid": 4538,
      "##attribu": 4539,
      "##cuments": 4540,
      "download": 4541,
      "setclass": 4542,
      "setselected": 4543,
      "##verity": 4544,
      "##primitive": 4545,
      "##links": 4546,
      "bits": 4547,
      "geometry": 4548,
      "persistent": 4549,
      "##switch": 4550,
      "##<k,v>": 4551,
      "redirect": 4552,
      "##sity": 4553,
      "setclient": 4554,
      "resets": 4555,
      "getdatabase": 4556,
      "##list<string>>": 4557,
      "##tedatabase": 4558,
      "##vap": 4559,
      "##fc": 4560,
      "##anim": 4561,
      "##licies": 4562,
      "receiver": 4563,
      "##poin": 4564,
      "def": 4565,
      "##wning": 4566,
      "##forread": 4567,
      "##metadat": 4568,
      "requests": 4569,
      "##website": 4570,
      "##sessment": 4571,
      "threadlocal<": 4572,
      "another": 4573,
      "consumer": 4574,
      "##minor": 4575,
      "##quiva": 4576,
      "##allentry": 4577,
      "##_url": 4578,
      "##object,": 4579,
      "analy": 4580,
      "simpledateformat": 4581,
      "mimetype": 4582,
      "##the": 4583,
      "##andwidth": 4584,
      "##unc": 4585,
      "##eli": 4586,
      "export": 4587,
      "##ressor": 4588,
      "##purchase": 4589,
      "##senabled": 4590,
      "##aml": 4591,
      "##sender": 4592,
      "js": 4593,
      "##ited": 4594,
      "getresult": 4595,
      "##alpha": 4596,
      "notifi": 4597,
      "zip": 4598,
      "##value>": 4599,
      "testing": 4600,
      "##ffici": 4601,
      "getfrom": 4602,
      "setlocation": 4603,
      "##hashmap<": 4604,
      "like": 4605,
      "##munic": 4606,
      "##orary": 4607,
      "##shards": 4608,
      "##buffersize": 4609,
      "validator": 4610,
      "containskey": 4611,
      "af": 4612,
      "game": 4613,
      "##ynt": 4614,
      "setfield": 4615,
      "##apacity": 4616,
      "##validate": 4617,
      "##shopping.model.shopping": 4618,
      "##false": 4619,
      "refer": 4620,
      "##edit": 4621,
      "##throw": 4622,
      "##implement": 4623,
      "getemail": 4624,
      "##ired": 4625,
      "##10": 4626,
      "##_timeout": 4627,
      "##replace": 4628,
      "##timeto": 4629,
      "getcreate": 4630,
      "##iness": 4631,
      "##series": 4632,
      "##cording": 4633,
      "period": 4634,
      "throws": 4635,
      "params": 4636,
      "##r>": 4637,
      "##driver": 4638,
      "settime": 4639,
      "setcomp": 4640,
      "##ournal": 4641,
      "##scrip": 4642,
      "##usertracker": 4643,
      "algorithm": 4644,
      "connectionpool": 4645,
      "##sequence_main_region": 4646,
      "therefore": 4647,
      "com.netsuite.webservices.platform.core_2014_2.record": 4648,
      "##dynamic.data.mapping": 4649,
      "round": 4650,
      "##mx": 4651,
      "##iv": 4652,
      "##lookup": 4653,
      "##engine": 4654,
      "##ours": 4655,
      "##mitted": 4656,
      "##itempri": 4657,
      "spark_network_io": 4658,
      "##alt": 4659,
      "##fol": 4660,
      "##<?,?": 4661,
      "person": 4662,
      "##eloader": 4663,
      "final": 4664,
      "until": 4665,
      "##uplicate": 4666,
      "##talend": 4667,
      "logging": 4668,
      "nothing": 4669,
      "bucket": 4670,
      "##matching": 4671,
      "alias": 4672,
      "comparator<": 4673,
      "##find": 4674,
      "##contents": 4675,
      "clearcache": 4676,
      "arguments": 4677,
      "switch": 4678,
      "##_start": 4679,
      "extra": 4680,
      "disk": 4681,
      "##area": 4682,
      "scheduled": 4683,
      "##annotations": 4684,
      "##institution": 4685,
      "evaluate": 4686,
      "##meetupsentry": 4687,
      "aler": 4688,
      "##bed": 4689,
      "##ending": 4690,
      "##retries": 4691,
      "##mappings": 4692,
      "##tinu": 4693,
      "payment": 4694,
      "supplied": 4695,
      "com.netsuite.webservices.platform.core_2014_2.recordref": 4696,
      "camera": 4697,
      "##sq": 4698,
      "##bill": 4699,
      "##console": 4700,
      "screen": 4701,
      "processing": 4702,
      "##audi": 4703,
      "tuple": 4704,
      "##pat": 4705,
      "##under": 4706,
      "##distribution": 4707,
      "gethref": 4708,
      "detail": 4709,
      "##lavour": 4710,
      "##routing": 4711,
      "##resume": 4712,
      "dataset": 4713,
      "issue": 4714,
      "sslsocketfactory": 4715,
      "flags": 4716,
      "##dynamic.data.mapping.model.ddm": 4717,
      "nested": 4718,
      "prev": 4719,
      "##payload": 4720,
      "getaccess": 4721,
      "##uni": 4722,
      "clarion": 4723,
      "direction": 4724,
      "actual": 4725,
      "sq": 4726,
      "measure": 4727,
      "##utf8": 4728,
      "##des": 4729,
      "##inh": 4730,
      "setpath": 4731,
      "##address>": 4732,
      "##atetype": 4733,
      "##witter": 4734,
      "##sync.model.": 4735,
      "##install": 4736,
      "hm": 4737,
      "pipeline": 4738,
      "##_no": 4739,
      "##insert": 4740,
      "##entities": 4741,
      "invoked": 4742,
      "configured": 4743,
      "##parcel": 4744,
      "updates": 4745,
      "##phon": 4746,
      "##ditional": 4747,
      "multiply": 4748,
      "menu": 4749,
      "##clean": 4750,
      "##<k": 4751,
      "requested": 4752,
      "##trow": 4753,
      "##hexstring": 4754,
      "fixed": 4755,
      "car": 4756,
      "dns": 4757,
      "them": 4758,
      "##nant": 4759,
      "injector": 4760,
      "##dispatcher": 4761,
      "##contains": 4762,
      "##fresh": 4763,
      "getpa": 4764,
      "##amap": 4765,
      "produ": 4766,
      "##dom": 4767,
      "##many": 4768,
      "removed": 4769,
      "##working": 4770,
      "getpay": 4771,
      "getblock": 4772,
      "getcontenttype": 4773,
      "##ssagetype": 4774,
      "##fficient": 4775,
      "##fetch": 4776,
      "##del": 4777,
      "##recipient": 4778,
      "##strings": 4779,
      "dialog": 4780,
      "adap": 4781,
      "linkedlist<": 4782,
      "##nowled": 4783,
      "##sresponse": 4784,
      "##_separ": 4785,
      "getprovider": 4786,
      "setitem": 4787,
      "resultset": 4788,
      "##recur": 4789,
      "##sensor": 4790,
      "cordovap": 4791,
      "relative": 4792,
      "##==": 4793,
      "retry": 4794,
      "##visited": 4795,
      "getroot": 4796,
      "##ynco": 4797,
      "el": 4798,
      "publish": 4799,
      "##pto": 4800,
      "##_get": 4801,
      "getbody": 4802,
      "##lobject": 4803,
      "revision": 4804,
      "##producer": 4805,
      "##qualifier": 4806,
      "getcallback": 4807,
      "shouldo": 4808,
      "##sync.model.sync": 4809,
      "elapsed": 4810,
      "zone": 4811,
      "##game": 4812,
      "##uc": 4813,
      "##typename": 4814,
      "##ndo": 4815,
      "##users": 4816,
      "annot": 4817,
      "getinput": 4818,
      "##openforread": 4819,
      "either": 4820,
      "t[]": 4821,
      "##ula": 4822,
      "##sv": 4823,
      "deployment": 4824,
      "parsed": 4825,
      "##stanti": 4826,
      "##public": 4827,
      "##per_": 4828,
      "##prop": 4829,
      "##cessary": 4830,
      "resultmatcher": 4831,
      "getfont": 4832,
      "##frequency": 4833,
      "##inte": 4834,
      "getattributes": 4835,
      "##ood": 4836,
      "##iso": 4837,
      "##collector": 4838,
      "##portalpreferences": 4839,
      "ir": 4840,
      "prote": 4841,
      "##listtype": 4842,
      "##complex": 4843,
      "classname": 4844,
      "appli": 4845,
      "##iry": 4846,
      "specify": 4847,
      "##defaults": 4848,
      "follows": 4849,
      "controller": 4850,
      "metric": 4851,
      "##biginteger": 4852,
      "tick": 4853,
      "##ysi": 4854,
      "chunk": 4855,
      "writeobject": 4856,
      "decimal": 4857,
      "obj": 4858,
      "##etransform": 4859,
      "msg": 4860,
      "##_header": 4861,
      "encoded": 4862,
      "previousprogress": 4863,
      "vec2": 4864,
      "##tead": 4865,
      "getkaleo": 4866,
      "##sth": 4867,
      "setfrom": 4868,
      "##asl": 4869,
      "lower": 4870,
      "getsystem": 4871,
      "##trecord": 4872,
      "cloud": 4873,
      "creator": 4874,
      "adderrormessage": 4875,
      "classes": 4876,
      "getconfiguration": 4877,
      "off": 4878,
      "getdevice": 4879,
      "findwithdynamicquery": 4880,
      "##pl": 4881,
      "##--": 4882,
      "##ingbox": 4883,
      "##tical": 4884,
      "setenabled": 4885,
      "##tions": 4886,
      "##viation": 4887,
      "##prepa": 4888,
      "changes": 4889,
      "##terminal": 4890,
      "allocate": 4891,
      "##missing": 4892,
      "##l2": 4893,
      "##20": 4894,
      "getle": 4895,
      "getor": 4896,
      "##ured": 4897,
      "##infomessage": 4898,
      "##jirachange": 4899,
      "##.o": 4900,
      "getno": 4901,
      "setend": 4902,
      "##pex": 4903,
      "received": 4904,
      "##environment": 4905,
      "getreference": 4906,
      "updateprogress": 4907,
      "##negative": 4908,
      "##pane": 4909,
      "sethref": 4910,
      "##criterion": 4911,
      "servletcontext": 4912,
      "milli": 4913,
      "isi": 4914,
      "##dle": 4915,
      "consu": 4916,
      "##urntype": 4917,
      "list<s": 4918,
      "separator": 4919,
      "java.util.calendar": 4920,
      "getproject": 4921,
      "term": 4922,
      "##porter": 4923,
      "getap": 4924,
      "setauth": 4925,
      "##peer": 4926,
      "##force": 4927,
      "##abilities": 4928,
      "##filesystem": 4929,
      "##pixel": 4930,
      "branch": 4931,
      "setno": 4932,
      "##live": 4933,
      "##layoutset": 4934,
      "recordref": 4935,
      "##orglabor": 4936,
      "##entrequestid": 4937,
      "processed": 4938,
      "async": 4939,
      "cordovainterface": 4940,
      "##written": 4941,
      "##deployment": 4942,
      "incoming": 4943,
      "##gere": 4944,
      "##services": 4945,
      "uni": 4946,
      "credentials": 4947,
      "##cursor": 4948,
      "getextension": 4949,
      "folder": 4950,
      "##leep": 4951,
      "chart": 4952,
      "encry": 4953,
      "##atched": 4954,
      "stats": 4955,
      "##nul": 4956,
      "##alizer": 4957,
      "onmessage": 4958,
      "##handlers": 4959,
      "##nonnullvalue": 4960,
      "##mle": 4961,
      "##tuple": 4962,
      "##war": 4963,
      "##echange": 4964,
      "##vorite": 4965,
      "guid": 4966,
      "##.n": 4967,
      "##ender": 4968,
      "##hoto": 4969,
      "##attempts": 4970,
      "##_separator": 4971,
      "gu": 4972,
      "ign": 4973,
      "##structureversion": 4974,
      "##follow": 4975,
      "##ze": 4976,
      "##fl": 4977,
      "getactivity": 4978,
      "##foc": 4979,
      "getowner": 4980,
      "##year": 4981,
      "##other": 4982,
      "##concurrent": 4983,
      "##propertychangelistener": 4984,
      "beandefinitionbuilder": 4985,
      "##quivalent": 4986,
      "notifies": 4987,
      "pending": 4988,
      "sent": 4989,
      "##rame": 4990,
      "##kind": 4991,
      "getvalues": 4992,
      "newinstance": 4993,
      "e.": 4994,
      "x509": 4995,
      "##mer": 4996,
      "##td": 4997,
      "##_date": 4998,
      "setsession": 4999,
      "through": 5000,
      "complex": 5001,
      "##membershiprequest": 5002,
      "sslcontext": 5003,
      "##vertical": 5004,
      "html": 5005,
      "gra": 5006,
      "setconnection": 5007,
      "setimage": 5008,
      "onactivityresult": 5009,
      "##finish": 5010,
      "checksum": 5011,
      "resourcebundle": 5012,
      "##econfig": 5013,
      "started": 5014,
      "##ares": 5015,
      "getmodule": 5016,
      "setcreate": 5017,
      "getbit": 5018,
      "rawheaders": 5019,
      "##eper": 5020,
      "##owner": 5021,
      "##based": 5022,
      "valu": 5023,
      "##ighb": 5024,
      "routedatabase": 5025,
      "##ferencetype": 5026,
      "##focus": 5027,
      "getparameters": 5028,
      "##real": 5029,
      "##byprimarykey": 5030,
      "##ldfilter": 5031,
      "##truncated": 5032,
      "##typere": 5033,
      "##artifact>": 5034,
      "ax": 5035,
      "##ingthreads": 5036,
      "chang": 5037,
      "##labels": 5038,
      "firstname": 5039,
      "##runnable": 5040,
      "trim": 5041,
      "##etrack": 5042,
      "##gments": 5043,
      "getlocale": 5044,
      "setauto": 5045,
      "##group>": 5046,
      "##urls": 5047,
      "##amel": 5048,
      "##resul": 5049,
      "starts": 5050,
      "getreal": 5051,
      "raisee": 5052,
      "##resultsetsize": 5053,
      "bar": 5054,
      "ide": 5055,
      "getfilter": 5056,
      "setview": 5057,
      "##namet": 5058,
      "isb": 5059,
      "##program": 5060,
      "trust": 5061,
      "##abs": 5062,
      "checked": 5063,
      "jsonarray": 5064,
      "getexternal": 5065,
      "represents": 5066,
      "principal": 5067,
      "##ascii": 5068,
      "site": 5069,
      "##random": 5070,
      "getsc": 5071,
      "##roject": 5072,
      "##ipher": 5073,
      "future": 5074,
      "##sstats": 5075,
      "##hook": 5076,
      "##dem": 5077,
      "##shutdown": 5078,
      "##lifecycle": 5079,
      "##mployee": 5080,
      "rollback": 5081,
      "selectitem": 5082,
      "city": 5083,
      "##global": 5084,
      "getcommand": 5085,
      "##class<?": 5086,
      "correct": 5087,
      "##adaptor": 5088,
      "bufferedimage": 5089,
      "center": 5090,
      "safe": 5091,
      "com.amazonaws.internal.sdkinternallist<": 5092,
      "##email": 5093,
      "##usto": 5094,
      "##esponse": 5095,
      "errors": 5096,
      "modify": 5097,
      "##declaration": 5098,
      "filters": 5099,
      "entrynonnullvalue": 5100,
      "##lexception": 5101,
      "##operations": 5102,
      "##compatible": 5103,
      "drop": 5104,
      "sel": 5105,
      "##pet": 5106,
      "##<k,": 5107,
      "getraw": 5108,
      "##scribe": 5109,
      "dot": 5110,
      "##uristic": 5111,
      "box": 5112,
      "pur": 5113,
      "##stitution": 5114,
      "##18": 5115,
      "getsearch": 5116,
      "addinfomessage": 5117,
      "times": 5118,
      "##rottle": 5119,
      "##mips": 5120,
      "##sd": 5121,
      "##dence": 5122,
      "##trate": 5123,
      "##ecause": 5124,
      "##vant": 5125,
      "createuser": 5126,
      "##strap": 5127,
      "why": 5128,
      "putall": 5129,
      "getfloat": 5130,
      "##credentials": 5131,
      "home": 5132,
      "##policyrel": 5133,
      "getchildren": 5134,
      "getcreated": 5135,
      "##yncoperation": 5136,
      "every": 5137,
      "##lms": 5138,
      "toxcontent": 5139,
      "core": 5140,
      "##orth": 5141,
      "##posed": 5142,
      "##pati": 5143,
      "filesystem": 5144,
      "##ipaddress": 5145,
      "tile": 5146,
      "##emon": 5147,
      "##include": 5148,
      "getlanguage": 5149,
      "isd": 5150,
      "thrown": 5151,
      "##fromstring": 5152,
      "org.talend": 5153,
      "##phan": 5154,
      "getfunction": 5155,
      "quote": 5156,
      "##temevent": 5157,
      "even": 5158,
      "who": 5159,
      "##irap": 5160,
      "##equals": 5161,
      "##ynce": 5162,
      "##vp": 5163,
      "inser": 5164,
      "##viction": 5165,
      "lastname": 5166,
      "##ootstrap": 5167,
      "##invocation": 5168,
      "mob": 5169,
      "section": 5170,
      "your": 5171,
      "##seque": 5172,
      "setaccount": 5173,
      "##acao": 5174,
      "thus": 5175,
      "bund": 5176,
      "##ath.": 5177,
      "allows": 5178,
      "##dobjectreference": 5179,
      "##iraproject": 5180,
      "ono": 5181,
      "##tc": 5182,
      "##s>": 5183,
      "##4j": 5184,
      "##latitude": 5185,
      "##major": 5186,
      "##textension": 5187,
      "java.lang.double": 5188,
      "##groupname": 5189,
      "newitem": 5190,
      "##audio": 5191,
      "whitebox": 5192,
      "##loop": 5193,
      "indent": 5194,
      "##resourc": 5195,
      "##policies": 5196,
      "##<?>,": 5197,
      "indexes": 5198,
      "##optional": 5199,
      "scala.": 5200,
      "affin": 5201,
      "##gt": 5202,
      "getentry": 5203,
      "##ario": 5204,
      "##mpt": 5205,
      "##parameter>": 5206,
      "##erequest": 5207,
      "##eventlistener": 5208,
      "##dirty": 5209,
      "##tresolver": 5210,
      "shopping": 5211,
      "##ific": 5212,
      "##availability": 5213,
      "##days": 5214,
      "relation": 5215,
      "##duling": 5216,
      "##uter": 5217,
      "getoffset": 5218,
      "typecode": 5219,
      "getrevision": 5220,
      "contents": 5221,
      "scheme": 5222,
      "background": 5223,
      "book": 5224,
      "tmp": 5225,
      "gettemplate": 5226,
      "addchild": 5227,
      "getlogin": 5228,
      "prin": 5229,
      "##ot": 5230,
      "##adio": 5231,
      "##hoi": 5232,
      "##model<": 5233,
      "propertychange": 5234,
      "starting": 5235,
      "##writable": 5236,
      "##stacktrace": 5237,
      "i.e": 5238,
      "span": 5239,
      "setint": 5240,
      "##isation": 5241,
      "##composite": 5242,
      "arcrole": 5243,
      "setemail": 5244,
      "bounds": 5245,
      "##resolve": 5246,
      "org.talend.": 5247,
      "kind": 5248,
      "##wallentry": 5249,
      "##deploy": 5250,
      "tojson": 5251,
      "##byte[]>": 5252,
      "##responsetype": 5253,
      "saved": 5254,
      "##tractor": 5255,
      "managedobjectreference": 5256,
      "platform": 5257,
      "lognode": 5258,
      "##presen": 5259,
      "diagnostic": 5260,
      "java.util.list<com.liferay.portal.model.": 5261,
      "##grou": 5262,
      "##lack": 5263,
      "##.builder": 5264,
      "conversion": 5265,
      "setstyle": 5266,
      "##lib": 5267,
      "##ism": 5268,
      "##vers": 5269,
      "userid": 5270,
      "cleare": 5271,
      "occur": 5272,
      "during": 5273,
      "history": 5274,
      "look": 5275,
      "##.get": 5276,
      "##_field": 5277,
      "##anode": 5278,
      "setbeanidentifier": 5279,
      "##ulated": 5280,
      "##queu": 5281,
      "##ponent": 5282,
      "asyncoperation": 5283,
      "##managerfactory": 5284,
      "decre": 5285,
      "##since": 5286,
      "click": 5287,
      "com.liferay.social.networking.model.": 5288,
      "dist": 5289,
      "##dete": 5290,
      "##titerator": 5291,
      "##oute": 5292,
      "getsys": 5293,
      "##viewer": 5294,
      "getproduct": 5295,
      "##placement": 5296,
      "meta": 5297,
      "usage": 5298,
      "e.g.": 5299,
      "osgi": 5300,
      "##_info": 5301,
      "strings": 5302,
      "recent": 5303,
      "##valueof": 5304,
      "resourc": 5305,
      "disconnect": 5306,
      "listen": 5307,
      "##ubyobject": 5308,
      "##vec": 5309,
      "##ado": 5310,
      "getsample": 5311,
      "onnew": 5312,
      "company": 5313,
      "arch": 5314,
      "##veni": 5315,
      "##existing": 5316,
      "##.ns.": 5317,
      "don": 5318,
      "##border": 5319,
      "reverse": 5320,
      "##iem": 5321,
      "messagelog": 5322,
      "com.google.api.ads.dfp.axis.v20140": 5323,
      "irubyobject": 5324,
      "##svn": 5325,
      "getcomment": 5326,
      "##ooth": 5327,
      "##unmarshal": 5328,
      "getnamespace": 5329,
      "##needed": 5330,
      "##omelement": 5331,
      "com.liferay.portal.model.cachemodel<com.liferay.": 5332,
      "##sli": 5333,
      "list<?": 5334,
      "setsu": 5335,
      "##beans": 5336,
      "##vely": 5337,
      "##errors": 5338,
      "adjust": 5339,
      "performance": 5340,
      "framework": 5341,
      "instead": 5342,
      "determines": 5343,
      "circle": 5344,
      "#set": 5345,
      "our": 5346,
      "##_attribute": 5347,
      "getmetadata": 5348,
      "##filepath": 5349,
      "cachemodel<": 5350,
      "i.e.": 5351,
      "bulk": 5352,
      "wtf": 5353,
      "##_of": 5354,
      "their": 5355,
      "##sensitive": 5356,
      "##commandbutton": 5357,
      "##sf": 5358,
      "##_3": 5359,
      "##stage": 5360,
      "setstring": 5361,
      "##facet": 5362,
      "setcheck": 5363,
      "points": 5364,
      "isloggable": 5365,
      "##roblog": 5366,
      "##ggle": 5367,
      "##dr": 5368,
      "##xception": 5369,
      "##_mask": 5370,
      "##ertificate": 5371,
      "setaction": 5372,
      "##arche": 5373,
      "composite": 5374,
      "##tref": 5375,
      "getmimetype": 5376,
      "##generated": 5377,
      "serializer": 5378,
      "displayname": 5379,
      "##delimiter": 5380,
      "##nowledge": 5381,
      "setas": 5382,
      "defaul": 5383,
      "##acket": 5384,
      "com.liferay.sync.model.sync": 5385,
      "chained": 5386,
      "mean": 5387,
      "actuate": 5388,
      "persistence": 5389,
      "getcustomer": 5390,
      "alert": 5391,
      "selectitem[]": 5392,
      "##mas": 5393,
      "##ingenabled": 5394,
      "##mes": 5395,
      "ascending": 5396,
      "possible": 5397,
      "com.liferay.portal.kernel.model.cachemodel<": 5398,
      "assume": 5399,
      "##publisher": 5400,
      "##implementation": 5401,
      "bus": 5402,
      "recon": 5403,
      "synchron": 5404,
      "spring": 5405,
      "##_text": 5406,
      "##hoice": 5407,
      "##gether": 5408,
      "com.liferay.dynamic.data.mapping.model.ddm": 5409,
      "compression": 5410,
      "##modification": 5411,
      "##propertiesset": 5412,
      "##dentry": 5413,
      "setmvccversion": 5414,
      "nativeget": 5415,
      "##roadcast": 5416,
      "##course": 5417,
      "##cc": 5418,
      "##nested": 5419,
      "##rans": 5420,
      "##_8": 5421,
      "conveni": 5422,
      "getxml": 5423,
      "##fired": 5424,
      "setcode": 5425,
      "regex": 5426,
      "list<c": 5427,
      "force": 5428,
      "##resource>": 5429,
      "err": 5430,
      "##queue<": 5431,
      "getmvccversion": 5432,
      "##adient": 5433,
      "##inetsocketaddress": 5434,
      "cipher": 5435,
      "getbyte": 5436,
      "##construct": 5437,
      "printstream": 5438,
      "##normal": 5439,
      "ent": 5440,
      "##merge": 5441,
      "##12": 5442,
      "##_list": 5443,
      "getbeanidentifier": 5444,
      "##rift": 5445,
      "##poll": 5446,
      "##cipher": 5447,
      "android": 5448,
      "##datastream": 5449,
      "##reference<": 5450,
      "kaleo": 5451,
      "##uh": 5452,
      "##zoom": 5453,
      "rename": 5454,
      "##interaction": 5455,
      "convertto": 5456,
      "clock": 5457,
      "##kb": 5458,
      "getupdate": 5459,
      "seton": 5460,
      "anim": 5461,
      "##beat": 5462,
      "##startdate": 5463,
      "getiniti": 5464,
      "##.xml.": 5465,
      "aws": 5466,
      "sur": 5467,
      "tl": 5468,
      "##ufact": 5469,
      "##dap": 5470,
      "via": 5471,
      "##checked": 5472,
      "afterpropertiesset": 5473,
      "connected": 5474,
      "##migration": 5475,
      "pi": 5476,
      "getservlet": 5477,
      "setout": 5478,
      "inner": 5479,
      "together": 5480,
      "addto": 5481,
      "##removed": 5482,
      "##mdm": 5483,
      "fromp": 5484,
      "mis": 5485,
      "##lst": 5486,
      "##inger": 5487,
      "##ndata": 5488,
      "getrecord": 5489,
      "##quires": 5490,
      "##clusive": 5491,
      "debugging": 5492,
      "asserti": 5493,
      "because": 5494,
      "sk": 5495,
      "##clear": 5496,
      "##hierarchy": 5497,
      "##oning": 5498,
      "##acl": 5499,
      "entryaction": 5500,
      "##constraints": 5501,
      "##adex": 5502,
      "##seu": 5503,
      "getbuild": 5504,
      "##reset": 5505,
      "##reply": 5506,
      "setmanagedbean": 5507,
      "##contrac": 5508,
      "outgoing": 5509,
      "##modify": 5510,
      "getservicename": 5511,
      "sig": 5512,
      "##cret": 5513,
      "##xt": 5514,
      "##_data": 5515,
      "getby": 5516,
      "setjob": 5517,
      "##pes": 5518,
      "##ves": 5519,
      "com.liferay.shopping.model.shopping": 5520,
      "setso": 5521,
      "##opensocial.model.": 5522,
      "##vertices": 5523,
      "org.talend.mdm": 5524,
      "org.talend.mdm.webservice": 5525,
      "setad": 5526,
      "##nation": 5527,
      "##ummary": 5528,
      "prints": 5529,
      "##dyconnection": 5530,
      "##napsho": 5531,
      "phone": 5532,
      "##ceipt": 5533,
      "setmanagedbeanin": 5534,
      "##padding": 5535,
      "##delegate": 5536,
      "##etest": 5537,
      "getinfo": 5538,
      "##within": 5539,
      "##never": 5540,
      "leg": 5541,
      "##roles": 5542,
      "absolute": 5543,
      "##hared": 5544,
      "curren": 5545,
      "gethostname": 5546,
      "##lifetime": 5547,
      "##itemprice": 5548,
      "stroke": 5549,
      "##xx": 5550,
      "##_bytes": 5551,
      "##break": 5552,
      "##ationtime": 5553,
      "##locked": 5554,
      "defaults": 5555,
      "populate": 5556,
      "##sper": 5557,
      "##hit": 5558,
      "##inf": 5559,
      "##calservice": 5560,
      "state[]": 5561,
      "getnorm": 5562,
      "getqueue": 5563,
      "isrunning": 5564,
      "##colors": 5565,
      "texture": 5566,
      "##statuse": 5567,
      "base64": 5568,
      "##eresponse": 5569,
      "clearevents": 5570,
      "criteri": 5571,
      "dic": 5572,
      "##ial": 5573,
      "##eled": 5574,
      "setorder": 5575,
      "onpause": 5576,
      "needs": 5577,
      "src": 5578,
      "##err": 5579,
      "##proto": 5580,
      "##unnel": 5581,
      "chat": 5582,
      "##finder": 5583,
      "##p2": 5584,
      "setcache": 5585,
      "##ists": 5586,
      "loaded": 5587,
      "ondestroy": 5588,
      "##result>": 5589,
      "##datap": 5590,
      "##jira": 5591,
      "##geometry": 5592,
      "##millisecond": 5593,
      "##marketplace": 5594,
      "##eliteral": 5595,
      "##osition": 5596,
      "##trule": 5597,
      "isclosed": 5598,
      "comb": 5599,
      "ship": 5600,
      "subclasses": 5601,
      "advance": 5602,
      "getprotocol": 5603,
      "##chat.model.": 5604,
      "install": 5605,
      "cause": 5606,
      "##pret": 5607,
      "##_token": 5608,
      "##dere": 5609,
      "gettrans": 5610,
      "getlin": 5611,
      "##lite": 5612,
      "once": 5613,
      "##shared": 5614,
      "price": 5615,
      "records": 5616,
      "payload": 5617,
      "##commandbuttonid": 5618,
      "relo": 5619,
      "getright": 5620,
      "##aler": 5621,
      "##tregis": 5622,
      "subtract": 5623,
      "registers": 5624,
      "##positions": 5625,
      "needed": 5626,
      "##channels": 5627,
      "##iemdem": 5628,
      "whe": 5629,
      "get_": 5630,
      "setrender": 5631,
      "##more": 5632,
      "isqueue": 5633,
      "##amage": 5634,
      "onresume": 5635,
      "setsample": 5636,
      "newarray": 5637,
      "writeqname": 5638,
      "getinputstream": 5639,
      "seconds": 5640,
      "gps": 5641,
      "##cach": 5642,
      "##99": 5643,
      "##regex": 5644,
      "setapplication": 5645,
      "doswitch": 5646,
      "##resourceaction": 5647,
      "general": 5648,
      "##onlytype": 5649,
      "##dlfileversion": 5650,
      "-1": 5651,
      "way": 5652,
      "##machine": 5653,
      "getfeature": 5654,
      "getauto": 5655,
      "##license": 5656,
      "com.liferay.mail.model.": 5657,
      "##forward": 5658,
      "##modifier": 5659,
      "##ysical": 5660,
      "dig": 5661,
      "flow": 5662,
      "##emplate": 5663,
      "##using": 5664,
      "##ilation": 5665,
      "layer": 5666,
      "##dlfileversiondiff": 5667,
      "year": 5668,
      "getret": 5669,
      "settimeout": 5670,
      "##urlconnection": 5671,
      "##backup": 5672,
      "##sessions": 5673,
      "##audit": 5674,
      "##useridmapper": 5675,
      "affinetransform": 5676,
      "av": 5677,
      "##hic": 5678,
      "getread": 5679,
      "##lision": 5680,
      "##andler": 5681,
      "normal": 5682,
      "##clared": 5683,
      "ha": 5684,
      "jj": 5685,
      "xpath": 5686,
      "##math.": 5687,
      "##elong": 5688,
      "setpage": 5689,
      "##locator": 5690,
      "##mod": 5691,
      "##encryption": 5692,
      "##irth": 5693,
      "##ticast": 5694,
      "setpay": 5695,
      "##clone": 5696,
      "messagecon": 5697,
      "##alled": 5698,
      "remap": 5699,
      "addattribute": 5700,
      "##favorite": 5701,
      "returning": 5702,
      "readonly": 5703,
      "defaultvalue": 5704,
      "##pentry": 5705,
      "##ateto": 5706,
      "admin": 5707,
      "##wninginstitution": 5708,
      "##ulation": 5709,
      "##vas": 5710,
      "##h.": 5711,
      "##_o": 5712,
      "##moved": 5713,
      "isconnected": 5714,
      "std": 5715,
      "##ildcard": 5716,
      "scroll": 5717,
      "##tag>": 5718,
      "##.sol": 5719,
      "##publishdate": 5720,
      "##onym": 5721,
      "##tech": 5722,
      "setbase": 5723,
      "isun": 5724,
      "worker": 5725,
      "##_to_": 5726,
      "##java.lang.": 5727,
      "refers": 5728,
      "hass": 5729,
      "setcontext": 5730,
      "##confi": 5731,
      "isuse": 5732,
      "##shake": 5733,
      "##uffle": 5734,
      "##marketplace.model.": 5735,
      "##hint": 5736,
      "##fies": 5737,
      "ish": 5738,
      "createc": 5739,
      "dispatch": 5740,
      "statevector": 5741,
      "getfull": 5742,
      "rendering": 5743,
      "clause": 5744,
      "dependency": 5745,
      "side": 5746,
      "##ring": 5747,
      "resourcetype": 5748,
      "##data>": 5749,
      "parcel": 5750,
      "pagin": 5751,
      "secretkey": 5752,
      "pan": 5753,
      "tax": 5754,
      "##family": 5755,
      "##_set": 5756,
      "##into": 5757,
      "setdis": 5758,
      "setheader": 5759,
      "setfilter": 5760,
      "these": 5761,
      "reserved": 5762,
      "instruction": 5763,
      "##urbon": 5764,
      "##contex": 5765,
      "##state>": 5766,
      "getbounds": 5767,
      "##updatedate": 5768,
      "map<qname": 5769,
      "##accessor": 5770,
      "##webdavprops": 5771,
      "implements": 5772,
      "##rollback": 5773,
      "##cedure": 5774,
      "##nanos": 5775,
      "nilreason": 5776,
      "p_": 5777,
      "##named": 5778,
      "java.math.": 5779,
      "addlistener": 5780,
      "pause": 5781,
      "##assignment": 5782,
      "##_index": 5783,
      "##decoder": 5784,
      "setac": 5785,
      "##ison": 5786,
      "program": 5787,
      "student": 5788,
      "##previous": 5789,
      "mail": 5790,
      "responseentity": 5791,
      "observable": 5792,
      "##velope": 5793,
      "cross": 5794,
      "##mid": 5795,
      "##rence": 5796,
      "##serve": 5797,
      "##tof": 5798,
      "##portletitem": 5799,
      "behavior": 5800,
      "testserialization": 5801,
      "##.cmon": 5802,
      "javax.xml.": 5803,
      "##limited": 5804,
      "##management": 5805,
      "remapuri": 5806,
      "##cut": 5807,
      "##cores": 5808,
      "setv": 5809,
      "setproperties": 5810,
      "setinput": 5811,
      "##arameter": 5812,
      "resume": 5813,
      "##interfaces": 5814,
      "processor": 5815,
      "getlogwriter": 5816,
      "##allocated": 5817,
      "ignored": 5818,
      "##_dir": 5819,
      "sethttp": 5820,
      "setcustomer": 5821,
      "##health": 5822,
      "##lict": 5823,
      "##sim": 5824,
      "##ditem": 5825,
      "##texture": 5826,
      "most": 5827,
      "##iff": 5828,
      "threadfactory": 5829,
      "getprocess": 5830,
      "setlogin": 5831,
      "##plicit": 5832,
      "##urbonet": 5833,
      "bin": 5834,
      "rating": 5835,
      "##ntry": 5836,
      "##emp": 5837,
      "##ba": 5838,
      "included": 5839,
      "angle": 5840,
      "allocation": 5841,
      "collect": 5842,
      "##custo": 5843,
      "##veloci": 5844,
      "##object>>": 5845,
      "least": 5846,
      "decla": 5847,
      "##vidence": 5848,
      "delim": 5849,
      "getfirstname": 5850,
      "##dependency": 5851,
      "lifecycle": 5852,
      "convenience": 5853,
      "sax": 5854,
      "setserver": 5855,
      "setactivity": 5856,
      "setactuate": 5857,
      "##cep": 5858,
      "onstart": 5859,
      "##street": 5860,
      "##aries": 5861,
      "##decision": 5862,
      "exitaction": 5863,
      "##econtents": 5864,
      "##iname": 5865,
      "##elin": 5866,
      "##atable": 5867,
      "##aring": 5868,
      "##ouch": 5869,
      "##layou": 5870,
      "mod": 5871,
      "##rati": 5872,
      "nextstate": 5873,
      "##beandefinition": 5874,
      "##signo": 5875,
      "##seudo": 5876,
      "##cv": 5877,
      "##_not": 5878,
      "##orderi": 5879,
      "##than": 5880,
      "descriptor": 5881,
      "depth": 5882,
      "setcreated": 5883,
      "stopwatch": 5884,
      "scheduler": 5885,
      "##copyoperation": 5886,
      "##www.": 5887,
      "##tility": 5888,
      "bundler": 5889,
      "highlight": 5890,
      "setap": 5891,
      "trun": 5892,
      "##infos": 5893,
      "timevalue": 5894,
      "##recase": 5895,
      "lastmodified": 5896,
      "extensions": 5897,
      "##quote": 5898,
      "##deventid": 5899,
      "java.math.biginteger": 5900,
      "##clock": 5901,
      "##sn": 5902,
      "##bool": 5903,
      "getavailable": 5904,
      "getactuate": 5905,
      "list<connection": 5906,
      "##boards": 5907,
      "##rypt": 5908,
      "##dirs": 5909,
      "##marks": 5910,
      "setlogwriter": 5911,
      "wrapper": 5912,
      "##secretkey": 5913,
      "master": 5914,
      "##meter": 5915,
      "caller": 5916,
      "##aware": 5917,
      "bitset": 5918,
      "##hexpan": 5919,
      "tooltip": 5920,
      "##layoutsetbranch": 5921,
      "##opensocial.model.oauth": 5922,
      "##velocity": 5923,
      "ec": 5924,
      "mask": 5925,
      "##ibility": 5926,
      "##slist": 5927,
      "setresponse": 5928,
      "##artbeat": 5929,
      "##contenttype": 5930,
      "getstarttime": 5931,
      "writetoparcel": 5932,
      "recur": 5933,
      "again": 5934,
      "transi": 5935,
      "os": 5936,
      "##gau": 5937,
      "##vid": 5938,
      "logwriter": 5939,
      "bytesto": 5940,
      "ordered": 5941,
      "users": 5942,
      "getlastname": 5943,
      "columns": 5944,
      "pluginmanager": 5945,
      "getarcrole": 5946,
      "hit": 5947,
      "tak": 5948,
      "##23": 5949,
      "##tedicon": 5950,
      "##iling": 5951,
      "##triction": 5952,
      "completed": 5953,
      "##ampler": 5954,
      "##aving": 5955,
      "prepared": 5956,
      "participant": 5957,
      "##specific": 5958,
      "describecontents": 5959,
      "##scanner": 5960,
      "cour": 5961,
      "mbean": 5962,
      "pet": 5963,
      "rate": 5964,
      "##afi": 5965,
      "getbegin": 5966,
      "##problem": 5967,
      "deletes": 5968,
      "##hashmap<string,": 5969,
      "##mented": 5970,
      "##rectangle": 5971,
      "##descriptors": 5972,
      "visible": 5973,
      "##mediatype": 5974,
      "##bre": 5975,
      "setcomment": 5976,
      "##riend": 5977,
      "##s.e": 5978,
      "##subnet": 5979,
      "##atio": 5980,
      "##lighttime": 5981,
      "extensiononlytype": 5982,
      "##messagelog": 5983,
      "fatal": 5984,
      "##ving": 5985,
      "##etext": 5986,
      "##tread": 5987,
      "keyset": 5988,
      "issu": 5989,
      "atomicboolean": 5990,
      "##percentage": 5991,
      "##coordinates": 5992,
      "##transitory": 5993,
      "embed": 5994,
      "##when": 5995,
      "##_set_": 5996,
      "getlevel": 5997,
      "##conci": 5998,
      "isc": 5999,
      "getdestination": 6000,
      "runcycle": 6001,
      "social": 6002,
      "connections": 6003,
      "##ograph": 6004,
      "##rules": 6005,
      "numeric": 6006,
      "onreset": 6007,
      "setarcrole": 6008,
      "nextstateindex": 6009,
      "help": 6010,
      "spaces": 6011,
      "##decor": 6012,
      "##standard": 6013,
      "arg": 6014,
      "preferred": 6015,
      "special": 6016,
      "##econnection": 6017,
      "##generic": 6018,
      "setplugin": 6019,
      "##partial": 6020,
      "getstage": 6021,
      "withe": 6022,
      "onnewintent": 6023,
      "##aficon": 6024,
      "##v4": 6025,
      "##.portlet.": 6026,
      "##dedicon": 6027,
      "##injection": 6028,
      "##tenabled": 6029,
      "##tral": 6030,
      "gettimeout": 6031,
      "##ceeded": 6032,
      "##limpl": 6033,
      "instanti": 6034,
      "##[][]": 6035,
      "##dimage": 6036,
      "deploy": 6037,
      "getsp": 6038,
      "##comma": 6039,
      "##urlloading": 6040,
      "setcur": 6041,
      "##anchexpan": 6042,
      "weight": 6043,
      "map<class": 6044,
      "##pired": 6045,
      "geteffective": 6046,
      "declar": 6047,
      "drawable": 6048,
      "##balanc": 6049,
      "invalidate": 6050,
      "swap": 6051,
      "##contractedicon": 6052,
      "##anchexpandedicon": 6053,
      "##ires": 6054,
      "##..": 6055,
      "setoptions": 6056,
      "##projection": 6057,
      "##sizes": 6058,
      "##class<?>>": 6059,
      "##message>": 6060,
      "##requests": 6061,
      "executed": 6062,
      "map<k,v>": 6063,
      "istatus": 6064,
      "ldap": 6065,
      "##ian": 6066,
      "##ran": 6067,
      "setwidth": 6068,
      "red": 6069,
      "##answer": 6070,
      "##plier": 6071,
      "##instanceid": 6072,
      "##datal": 6073,
      "##herit": 6074,
      "min_": 6075,
      "##cert": 6076,
      "equality": 6077,
      "##verrideurlloading": 6078,
      "##umbna": 6079,
      "##redirects": 6080,
      "##jaxb": 6081,
      "##stmt": 6082,
      "setl": 6083,
      "setformat": 6084,
      "##tionary": 6085,
      "createre": 6086,
      "##lexecutor": 6087,
      "representing": 6088,
      "setduration": 6089,
      "hashmap<string,string>": 6090,
      "md5": 6091,
      "details": 6092,
      "##.uh": 6093,
      "##ingle": 6094,
      "getlink": 6095,
      "setlocal": 6096,
      "##vile": 6097,
      "##g.plugin": 6098,
      "choo": 6099,
      "##share": 6100,
      "##licit": 6101,
      "##changes": 6102,
      "blocks": 6103,
      "partial": 6104,
      "##l2g.plugin": 6105,
      "##h.l2g.plugin": 6106,
      "##.uhh.l2g.plugin": 6107,
      "mut": 6108,
      "##mac": 6109,
      "##yc": 6110,
      "##.entry": 6111,
      "##_message": 6112,
      "##_offset": 6113,
      "##ones": 6114,
      "##eries": 6115,
      "getand": 6116,
      "getprefix": 6117,
      "getregion": 6118,
      "toin": 6119,
      "cost": 6120,
      "##longitude": 6121,
      "##tables": 6122,
      "transfer": 6123,
      "closes": 6124,
      "getrun": 6125,
      "##issuer": 6126,
      "optim": 6127,
      "s2": 6128,
      "symbol": 6129,
      "##cm": 6130,
      "getactive": 6131,
      "getsignature": 6132,
      "##acer": 6133,
      "##lots": 6134,
      "##difference": 6135,
      "forward": 6136,
      "##tentity": 6137,
      "##ttl": 6138,
      "##mise": 6139,
      "portal": 6140,
      "coordinates": 6141,
      "##_server": 6142,
      "##tlsmode": 6143,
      "getpackage": 6144,
      "spark_network_io_": 6145,
      "ep": 6146,
      "mac": 6147,
      "sol": 6148,
      "##tru": 6149,
      "getencoding": 6150,
      "setgroup": 6151,
      "setaccess": 6152,
      "actor": 6153,
      "##response>": 6154,
      "##events": 6155,
      "##positive": 6156,
      "##signal": 6157,
      "structure": 6158,
      "##ignore": 6159,
      "...": 6160,
      "##etask": 6161,
      "##sturbonet": 6162,
      "setread": 6163,
      "setdatabase": 6164,
      "##mpro": 6165,
      "getbr": 6166,
      "getoperation": 6167,
      "##orized": 6168,
      "currency": 6169,
      "##umbnail": 6170,
      "ful": 6171,
      "s3": 6172,
      "gettransaction": 6173,
      "getscale": 6174,
      "##stand": 6175,
      "bytestring": 6176,
      "##passwordpolicyrel": 6177,
      "##graphic": 6178,
      "##specified": 6179,
      "lazy": 6180,
      "der": 6181,
      "pk": 6182,
      "##dget": 6183,
      "##teps": 6184,
      "getdocument": 6185,
      "setal": 6186,
      "##cepted": 6187,
      "##lick": 6188,
      "##setup": 6189,
      "##arrays": 6190,
      "##view>": 6191,
      "keystore": 6192,
      "##response_qname": 6193,
      "distribution": 6194,
      "httpclient": 6195,
      "getnilreason": 6196,
      "isfinished": 6197,
      "##specification": 6198,
      "##allocate": 6199,
      "onoverrideurlloading": 6200,
      "da": 6201,
      "ont": 6202,
      "would": 6203,
      "settimestamp": 6204,
      "##ooper": 6205,
      "##scap": 6206,
      "##mant": 6207,
      "monitor": 6208,
      "managedconnection": 6209,
      "##frompar": 6210,
      "cordovapreferences": 6211,
      "##.sol.ns.": 6212,
      "map<qname,string>": 6213,
      "ticket": 6214,
      "##nate": 6215,
      "##found": 6216,
      "##between": 6217,
      "##inmillis": 6218,
      "##esource": 6219,
      "##agraph": 6220,
      "##insn": 6221,
      "setowner": 6222,
      "reasons": 6223,
      "intersects": 6224,
      "asc": 6225,
      "pu": 6226,
      "sus": 6227,
      "##_json": 6228,
      "##_secon": 6229,
      "getarray": 6230,
      "getexception": 6231,
      "setparameter": 6232,
      "##rore": 6233,
      "inc": 6234,
      "##confirm": 6235,
      "##icture": 6236,
      "logs": 6237,
      "##mlink": 6238,
      "##streams": 6239,
      "attr": 6240,
      "##phab": 6241,
      "##event>": 6242,
      "resourceadapter": 6243,
      "##subscriber": 6244,
      "afterunmarshal": 6245,
      "groups": 6246,
      "##connector": 6247,
      "launch": 6248,
      "attempt": 6249,
      "getsocket": 6250,
      "paginating": 6251,
      "here": 6252,
      "##aresource": 6253,
      "##dt": 6254,
      "getcountry": 6255,
      "stringbuffer": 6256,
      "setallow": 6257,
      "##stringbuffer": 6258,
      "deg": 6259,
      "##pauth": 6260,
      "##tributed": 6261,
      "##aging": 6262,
      "##actual": 6263,
      "getop": 6264,
      "##lsynce": 6265,
      "getclassnameid": 6266,
      "##_service": 6267,
      "##kiemdem": 6268,
      "##journal": 6269,
      "##2.": 6270,
      "##inventory": 6271,
      "getchar": 6272,
      "gettags": 6273,
      "##aclass": 6274,
      "##accuracy": 6275,
      "##genabled": 6276,
      "##sertion": 6277,
      "##andview": 6278,
      "mapper": 6279,
      "##updater": 6280,
      "marshal": 6281,
      "##tinue": 6282,
      "getcurren": 6283,
      "##dentedstring": 6284,
      "toindentedstring": 6285,
      "las": 6286,
      "vo": 6287,
      "vari": 6288,
      "yet": 6289,
      "##free": 6290,
      "getdomain": 6291,
      "##stone": 6292,
      "setse": 6293,
      "isopen": 6294,
      "##verter": 6295,
      "messagetype": 6296,
      "endtime": 6297,
      "sendmessage": 6298,
      "##.spark": 6299,
      "fragment": 6300,
      "##transports": 6301,
      "##modifiable": 6302,
      "##hicle": 6303,
      "cms": 6304,
      "emit": 6305,
      "hase": 6306,
      "mu": 6307,
      "ond": 6308,
      "##s3": 6309,
      "##_protocol": 6310,
      "##ssue": 6311,
      "##lazy": 6312,
      "##pot": 6313,
      "exclude": 6314,
      "retur": 6315,
      "##lank": 6316,
      "idle": 6317,
      "##cors": 6318,
      "##capture": 6319,
      "double[][]": 6320,
      "removech": 6321,
      "isdeleted": 6322,
      "##credit": 6323,
      "##dlobject": 6324,
      "##hu": 6325,
      "##indent": 6326,
      "settag": 6327,
      "##motion": 6328,
      "##conversion": 6329,
      "prop": 6330,
      "chain": 6331,
      "upper": 6332,
      "discovery": 6333,
      "overrid": 6334,
      "initialvalue": 6335,
      "bill": 6336,
      "den": 6337,
      "##flav": 6338,
      "##bid": 6339,
      "getuse": 6340,
      "gethash": 6341,
      "inventory": 6342,
      "##serror": 6343,
      "##requestverb": 6344,
      "setdestination": 6345,
      "automatic": 6346,
      "##iki": 6347,
      "lex": 6348,
      "mat": 6349,
      "##rase": 6350,
      "##_end": 6351,
      "##fre": 6352,
      "gettop": 6353,
      "##pended": 6354,
      "arrayof": 6355,
      "##iodi": 6356,
      "addex": 6357,
      "threads": 6358,
      "constraints": 6359,
      "jar": 6360,
      "##cause": 6361,
      "##ivery": 6362,
      "##xtension": 6363,
      "gettab": 6364,
      "redu": 6365,
      "##aylighttime": 6366,
      "##isto": 6367,
      "##poch": 6368,
      "extended": 6369,
      "##tencoding": 6370,
      "##atory": 6371,
      "##manifest": 6372,
      "##elocalservice": 6373,
      "bottom": 6374,
      "modelnode": 6375,
      "##memoryinbytes": 6376,
      "delivery": 6377,
      "cmd": 6378,
      "horizontal": 6379,
      "take": 6380,
      "##ually": 6381,
      "##vacy": 6382,
      "getel": 6383,
      "##sitem": 6384,
      "deserialize": 6385,
      "##outgoing": 6386,
      "##microblog": 6387,
      "##calcul": 6388,
      "##maximum": 6389,
      "##methodname": 6390,
      "https": 6391,
      "##0150": 6392,
      "orientation": 6393,
      "self": 6394,
      "##department": 6395,
      "##ely": 6396,
      "##verbose": 6397,
      "##proper": 6398,
      "##example": 6399,
      "##quiet": 6400,
      "##capability": 6401,
      "##ounded": 6402,
      "##ufacturer": 6403,
      "##phabet": 6404,
      "setcount": 6405,
      "##atures": 6406,
      "##actor": 6407,
      "##ddl": 6408,
      "##andget": 6409,
      "addvalue": 6410,
      "##lanation": 6411,
      "testcl": 6412,
      "readstring": 6413,
      "unmarshal": 6414,
      "while": 6415,
      "less": 6416,
      "##checksum": 6417,
      "modelandview": 6418,
      "jobid": 6419,
      "mediatype": 6420,
      "##rink": 6421,
      "##_byte": 6422,
      "##reach": 6423,
      "##attende": 6424,
      "##exit": 6425,
      "##indexshard": 6426,
      "operations": 6427,
      "getcook": 6428,
      "hsqlname": 6429,
      "define": 6430,
      "encrypt": 6431,
      "##textensionlist": 6432,
      "##efficient": 6433,
      "geti": 6434,
      "##loor": 6435,
      "##compound": 6436,
      "testadd": 6437,
      "nexttoken": 6438,
      "##componentid": 6439,
      "##generate": 6440,
      "##activate": 6441,
      "##traso": 6442,
      "missing": 6443,
      "##fromparcel": 6444,
      "##emailaddress": 6445,
      "##yper": 6446,
      "##_en": 6447,
      "##elevant": 6448,
      "##increment": 6449,
      "getliteral": 6450,
      "##ano": 6451,
      "##apsed": 6452,
      "##uretype": 6453,
      "classpath": 6454,
      "##super": 6455,
      "suffix": 6456,
      "testi": 6457,
      "terms": 6458,
      "activation": 6459,
      "##akismetdata": 6460,
      "fre": 6461,
      "getmember": 6462,
      "getresults": 6463,
      "setnumber": 6464,
      "##ros": 6465,
      "isreadonly": 6466,
      "##compression": 6467,
      "area": 6468,
      "##hentry": 6469,
      "##creation": 6470,
      "getoverride": 6471,
      "##generation": 6472,
      "##notes": 6473,
      "wrapped": 6474,
      "##minorversion": 6475,
      "mc": 6476,
      "sli": 6477,
      "supp": 6478,
      "##gap": 6479,
      "##.ec2": 6480,
      "##_bit": 6481,
      "##,integer>": 6482,
      "##dev": 6483,
      "getu": 6484,
      "getcall": 6485,
      "##categ": 6486,
      "writeattribute": 6487,
      "quantity": 6488,
      "contained": 6489,
      "leaf": 6490,
      "isshow": 6491,
      "containsvalue": 6492,
      "##tracking": 6493,
      "com.amazon.ec2": 6494,
      "externalcontext": 6495,
      "##visor": 6496,
      "##ingerprint": 6497,
      "drag": 6498,
      "jdk": 6499,
      "nex": 6500,
      "tcp": 6501,
      "##yy": 6502,
      "getlock": 6503,
      "##artifact": 6504,
      "##perand": 6505,
      "proto": 6506,
      "preview": 6507,
      "getdelay": 6508,
      "statechart": 6509,
      "getother": 6510,
      "non-null": 6511,
      "setfirstname": 6512,
      "##mgr": 6513,
      "##speed": 6514,
      "##jo": 6515,
      "##cogn": 6516,
      "##receiver": 6517,
      "##heuristic": 6518,
      "remaining": 6519,
      "##isplay": 6520,
      "##ital": 6521,
      "withname": 6522,
      "##till": 6523,
      "callable": 6524,
      "getentries": 6525,
      "##ailer": 6526,
      "##facesstate": 6527,
      "lar": 6528,
      "svg": 6529,
      "##wd": 6530,
      "##,list<": 6531,
      "##tret": 6532,
      "setrow": 6533,
      "objectmapper": 6534,
      "getsql": 6535,
      "##extlst": 6536,
      "alpha": 6537,
      "##agere": 6538,
      "##linecolumn": 6539,
      "sock": 6540,
      "detached": 6541,
      "successful": 6542,
      "removelistener": 6543,
      "hide": 6544,
      "##ng": 6545,
      "##yle": 6546,
      "setproject": 6547,
      "##sstring": 6548,
      "##ench": 6549,
      "##parts": 6550,
      "##configur": 6551,
      "##method>": 6552,
      "##hostname": 6553,
      "##failures": 6554,
      "setlastname": 6555,
      "persistentfacesstate": 6556,
      "getinitial": 6557,
      "testcloning": 6558,
      "tell": 6559,
      "##hints": 6560,
      "##tenant": 6561,
      "##aller": 6562,
      "resto": 6563,
      "list<long>": 6564,
      "addres": 6565,
      "getsort": 6566,
      "completion": 6567,
      "map<string,integer>": 6568,
      "##corder": 6569,
      "##mile": 6570,
      "stagedmodeltype": 6571,
      "getstagedmodeltype": 6572,
      "score": 6573,
      "getpriority": 6574,
      "setth": 6575,
      "setsearch": 6576,
      "##prob": 6577,
      "except": 6578,
      "##compressed": 6579,
      "compile": 6580,
      "readfully": 6581,
      "writable": 6582,
      "##upplier": 6583,
      "##popup": 6584,
      "##usertrackerpath": 6585,
      "axis": 6586,
      "dictionary": 6587,
      "##istogram": 6588,
      "own": 6589,
      "##plus": 6590,
      "##_fi": 6591,
      "##_group": 6592,
      "##ban": 6593,
      "##eta": 6594,
      "##stub": 6595,
      "setindex": 6596,
      "onstop": 6597,
      "getprofile": 6598,
      "##notempty": 6599,
      "clip": 6600,
      "##ymbo": 6601,
      "cssnode": 6602,
      "activate": 6603,
      "ast": 6604,
      "could": 6605,
      "ker": 6606,
      "getcollection": 6607,
      "setle": 6608,
      "##getype": 6609,
      "##precated": 6610,
      "##tokens": 6611,
      "##storag": 6612,
      "matcher": 6613,
      "##goti": 6614,
      "graphics": 6615,
      "##directories": 6616,
      "##poolexecutor": 6617,
      "##inct": 6618,
      "getssl": 6619,
      "##anew": 6620,
      "##timezon": 6621,
      "##credential": 6622,
      "##modifiedsince": 6623,
      "working": 6624,
      "##binder": 6625,
      "##announcementsflag": 6626,
      "##browsertracker": 6627,
      "archive": 6628,
      "turn": 6629,
      "##rgb": 6630,
      "##_user": 6631,
      "##ceed": 6632,
      "compo": 6633,
      "typed": 6634,
      "##tempro": 6635,
      "##posal": 6636,
      "invocation": 6637,
      "##optim": 6638,
      "##quota": 6639,
      "##alignment": 6640,
      "cookiehandler": 6641,
      "indices": 6642,
      "##lms.model.": 6643,
      "##bt": 6644,
      "##deque": 6645,
      "getres": 6646,
      "##android": 6647,
      "moveto": 6648,
      "dispatcher": 6649,
      "issub": 6650,
      "httpservletrequest": 6651,
      "appends": 6652,
      "##latest": 6653,
      "authorization": 6654,
      "##ascript": 6655,
      "propertychangesupport": 6656,
      "cast": 6657,
      "slot": 6658,
      "too": 6659,
      "xhtml": 6660,
      "getpolicy": 6661,
      "setline": 6662,
      "##sired": 6663,
      "##quare": 6664,
      "prop_": 6665,
      "##strac": 6666,
      "##agram": 6667,
      "updated": 6668,
      "##providers": 6669,
      "getday": 6670,
      "responsecache": 6671,
      "deci": 6672,
      "components": 6673,
      "exceptions": 6674,
      "editor": 6675,
      "audi": 6676,
      "recycle": 6677,
      "attachment": 6678,
      "##dp": 6679,
      "##vet": 6680,
      "setheight": 6681,
      "settransaction": 6682,
      "##assessment": 6683,
      "threshold": 6684,
      "##ewidth": 6685,
      "##ncry": 6686,
      "##ereference": 6687,
      "poll": 6688,
      "getsubject": 6689,
      "##https": 6690,
      "terminate": 6691,
      "were": 6692,
      "##mis": 6693,
      "##evalu": 6694,
      "##sorted": 6695,
      "##_un": 6696,
      "##fx": 6697,
      "continu": 6698,
      "getheaders": 6699,
      "setun": 6700,
      "objectid": 6701,
      "com.liferay.chat.model.": 6702,
      "readraw": 6703,
      "##ird": 6704,
      "getplugin": 6705,
      "##retrie": 6706,
      "comparable": 6707,
      "myb": 6708,
      "linear": 6709,
      "##transitions": 6710,
      "lat": 6711,
      "##loud": 6712,
      "##llegal": 6713,
      "##sregistration": 6714,
      "##decode": 6715,
      "getbundle": 6716,
      "##able>": 6717,
      "##filerank": 6718,
      "##factory>": 6719,
      "key_": 6720,
      "##authority": 6721,
      "primitive": 6722,
      "httpurlconnection": 6723,
      "getmy": 6724,
      "plugininitialize": 6725,
      "detect": 6726,
      "authenticator": 6727,
      "##antee": 6728,
      "milliseconds": 6729,
      "tx": 6730,
      "getpo": 6731,
      "getinteger": 6732,
      "##vert": 6733,
      "##beh": 6734,
      "##ticular": 6735,
      "httprequest": 6736,
      "portlet": 6737,
      "##organization": 6738,
      "##favoritesite": 6739,
      "catalog": 6740,
      "##push": 6741,
      "##_table": 6742,
      "##alance": 6743,
      "seticon": 6744,
      "settab": 6745,
      "##ssign": 6746,
      "toggle": 6747,
      "##buil": 6748,
      "setsync": 6749,
      "readint": 6750,
      "map<string,list<": 6751,
      "##argeting": 6752,
      "clears": 6753,
      "applicationcontext": 6754,
      "##argumen": 6755,
      "callbacks": 6756,
      "ipaddress": 6757,
      "##<t,": 6758,
      "mer": 6759,
      "##runtime": 6760,
      "##vs": 6761,
      "##_log": 6762,
      "##rest": 6763,
      "##manual": 6764,
      "##rapper": 6765,
      "##econtext": 6766,
      "##devices": 6767,
      "variables": 6768,
      "##fro": 6769,
      "getapp": 6770,
      "##fit": 6771,
      "setresult": 6772,
      "##sible": 6773,
      "##vailability": 6774,
      "pointer": 6775,
      "delet": 6776,
      "registration": 6777,
      "opencv": 6778,
      "##pluginhost": 6779,
      "##recentlayoutbranch": 6780,
      "consume": 6781,
      "whiteboxpluginhost": 6782,
      "known": 6783,
      "mime": 6784,
      "ren": 6785,
      "##appen": 6786,
      "##metadata>": 6787,
      "necessary": 6788,
      "##yntax": 6789,
      "##18n": 6790,
      "com.amazon.ec2.": 6791,
      "n_": 6792,
      "siz": 6793,
      "##tac": 6794,
      "##v>>": 6795,
      "##_number": 6796,
      "getz": 6797,
      "fired": 6798,
      "##poned": 6799,
      "removen": 6800,
      "particular": 6801,
      "stops": 6802,
      "##attributetype": 6803,
      "##lli": 6804,
      "##zation": 6805,
      "##tr0": 6806,
      "##ingleton": 6807,
      "setdocument": 6808,
      "setbody": 6809,
      "##counts": 6810,
      "withstatus": 6811,
      "com.liferay.marketplace.model.": 6812,
      "##status>": 6813,
      "##description>": 6814,
      "series": 6815,
      "##keeper": 6816,
      "##weather": 6817,
      "##datac": 6818,
      "##s.migration": 6819,
      "creating": 6820,
      "getalign": 6821,
      "##business": 6822,
      "scinterfaceimpl": 6823,
      "getscinterface": 6824,
      "##orderitem": 6825,
      "##.uhh.l2g.plugins.migration": 6826,
      "isis": 6827,
      "##_x": 6828,
      "##coverage": 6829,
      "setlocale": 6830,
      "##isk": 6831,
      "##name>": 6832,
      "bytesize": 6833,
      "##documents": 6834,
      "##stock": 6835,
      "##cached": 6836,
      "##dump": 6837,
      "fromstring": 6838,
      "##client>": 6839,
      "int[][]": 6840,
      "how": 6841,
      "getrandom": 6842,
      "##aliases": 6843,
      "writetoconsole": 6844,
      "makes": 6845,
      "decimalformat": 6846,
      "equivalent": 6847,
      "##dm": 6848,
      "##vl": 6849,
      "getcity": 6850,
      "##statistic": 6851,
      "##adoop": 6852,
      "##adjust": 6853,
      "##intersection": 6854,
      "##nodeid": 6855,
      "according": 6856,
      "##.dm": 6857,
      "##neighb": 6858,
      "##updateuser": 6859,
      "##s_per_": 6860,
      "##collection.": 6861,
      "getdefaultvalue": 6862,
      "author": 6863,
      "dono": 6864,
      "##.uhh.l2g.plugins.migration.model.": 6865,
      "cycle": 6866,
      "##xanew": 6867,
      "##jdbc": 6868,
      "##_width": 6869,
      "geton": 6870,
      "repeat": 6871,
      "##adoc": 6872,
      "isvisible": 6873,
      "##modelimpl": 6874,
      "##models": 6875,
      "##ewrapper": 6876,
      "##tenc": 6877,
      "##service>": 6878,
      "##usergroup": 6879,
      "##cols": 6880,
      "##imer": 6881,
      "setremote": 6882,
      "##commands": 6883,
      "feedback": 6884,
      "setclassnameid": 6885,
      "cacheresult": 6886,
      "##kehoachvesinh": 6887,
      "##ratio": 6888,
      "fully": 6889,
      "ami": 6890,
      "mcontext": 6891,
      "vec": 6892,
      "##mimetype": 6893,
      "getch": 6894,
      "##annot": 6895,
      "##article": 6896,
      "##prox": 6897,
      "##compressor": 6898,
      "##stopped": 6899,
      "##_main_region_": 6900,
      "##nametype": 6901,
      "legacy": 6902,
      "##.cmon.dm": 6903,
      "##.cmon.dm.dao.model.": 6904,
      "greater": 6905,
      "mix": 6906,
      "spec": 6907,
      "##aff": 6908,
      "##latch": 6909,
      "requires": 6910,
      "##edges": 6911,
      "bytearray": 6912,
      "##servicecomponent": 6913,
      "com.liferay.opensocial.model.oauth": 6914,
      "##correct": 6915,
      "##searchparameter": 6916,
      "invok": 6917,
      "pdf": 6918,
      "auditcriterion": 6919,
      "sasl": 6920,
      "##.www.": 6921,
      "##wards": 6922,
      "##paragraph": 6923,
      "##keyhashmap": 6924,
      "##ators": 6925,
      "##handler>": 6926,
      "eventtype": 6927,
      "never": 6928,
      "##protocolredirects": 6929,
      "##expression>": 6930,
      "getstartdate": 6931,
      "course": 6932,
      "detachedcriteria": 6933,
      "##timezonelist": 6934,
      "pad": 6935,
      "tex": 6936,
      "##kit": 6937,
      "##defaul": 6938,
      "##require": 6939,
      "stringto": 6940,
      "##adwords": 6941,
      "##mode_": 6942,
      "##quip": 6943,
      "##context>": 6944,
      "preference": 6945,
      "##boundary": 6946,
      "function<": 6947,
      "##plica": 6948,
      "privateinitialize": 6949,
      "sysproperty": 6950,
      "jnig": 6951,
      "##scriptive": 6952,
      "ideal": 6953,
      "getservletcontext": 6954,
      "credit": 6955,
      "many": 6956,
      "##sur": 6957,
      "##sence": 6958,
      "##tero": 6959,
      "gettest": 6960,
      "setdi": 6961,
      "##ationtype": 6962,
      "##pology": 6963,
      "comments": 6964,
      "##lerror": 6965,
      "means": 6966,
      "updatet": 6967,
      "java.util.list<string>": 6968,
      "##s.adwords": 6969,
      "loads": 6970,
      "getmaximum": 6971,
      "##eresolver": 6972,
      "com.google.api.ads.adwords": 6973,
      "pixel": 6974,
      "increase": 6975,
      "mobile": 6976,
      "com.google.api.ads.adwords.axis.v2": 6977,
      "##_ms": 6978,
      "##coord": 6979,
      "##trange": 6980,
      "getscript": 6981,
      "getcircle": 6982,
      "setcircle": 6983,
      "##riction": 6984,
      "##simpl": 6985,
      "##mock": 6986,
      "ison": 6987,
      "valueof": 6988,
      "##reground": 6989,
      "union": 6990,
      "httpsession": 6991,
      "webelement": 6992,
      "effects": 6993,
      "##interceptors": 6994,
      "setshort": 6995,
      "##delta": 6996,
      "##_char": 6997,
      "##_sett": 6998,
      "getscreen": 6999,
      "loader": 7000,
      "##set>": 7001,
      "##strok": 7002,
      "##mapped": 7003,
      "respon": 7004,
      "##mitiv": 7005,
      "##buffered": 7006,
      "##visit": 7007,
      "##waiting": 7008,
      "##barcode": 7009,
      "##aggregate": 7010,
      "witho": 7011,
      "##lsyncevent": 7012,
      "##.uhh.l2g.plugins.migration.model.legacy": 7013,
      "##ient": 7014,
      "##vportal": 7015,
      "##help": 7016,
      "##<object>": 7017,
      "##dend": 7018,
      "getpart": 7019,
      "##elig": 7020,
      "##elimit": 7021,
      "setquery": 7022,
      "##ookeeper": 7023,
      "##outer": 7024,
      "##verification": 7025,
      "##sclient": 7026,
      "statistics": 7027,
      "##outcome": 7028,
      "##qualified": 7029,
      "##sha": 7030,
      "regular": 7031,
      "directly": 7032,
      "##kaleonotificationrecipient": 7033,
      "##variant": 7034,
      "x509certificate": 7035,
      "##vportal.portlet.": 7036,
      "mb": 7037,
      "stre": 7038,
      "##una": 7039,
      "##vt.": 7040,
      "getroute": 7041,
      "##ordered": 7042,
      "setactive": 7043,
      "list<list<": 7044,
      "comma": 7045,
      "ans": 7046,
      "compiled": 7047,
      "##readable": 7048,
      "findby": 7049,
      "##initializer": 7050,
      "cordovaresource": 7051,
      "setcontenttype": 7052,
      "getdatasource": 7053,
      "mutablecounter": 7054,
      "##andidate": 7055,
      "pipeline_fi": 7056,
      "takes": 7057,
      "bridge": 7058,
      "utility": 7059,
      "##sfrom": 7060,
      "##vation": 7061,
      "##trender": 7062,
      "getunit": 7063,
      "##livery": 7064,
      "isstate": 7065,
      "createfromparcel": 7066,
      "##trevision": 7067,
      "##so.model.": 7068,
      "startdate": 7069,
      "setcallback": 7070,
      "##responseverb": 7071,
      "state_": 7072,
      "weak": 7073,
      "##sentries": 7074,
      "getjsf": 7075,
      "##jsonobject": 7076,
      "##gradle": 7077,
      "jniget": 7078,
      "gate": 7079,
      "##cab": 7080,
      "##split": 7081,
      "##_source": 7082,
      "##etwork": 7083,
      "getused": 7084,
      "##always": 7085,
      "##ouser": 7086,
      "isdefault": 7087,
      "##tob": 7088,
      "##lerance": 7089,
      "##workspace": 7090,
      "##eref": 7091,
      "setdelay": 7092,
      "literal": 7093,
      "##etrans": 7094,
      "phase": 7095,
      "truncate": 7096,
      "##tempty": 7097,
      "setargs": 7098,
      "##acc": 7099,
      "##like": 7100,
      "##amt": 7101,
      "list<i": 7102,
      "##ustify": 7103,
      "##does": 7104,
      "##scheduled": 7105,
      "##descriptor>": 7106,
      "##pluginsetting": 7107,
      "okauthenticator": 7108,
      "money": 7109,
      "##ibli": 7110,
      "hsqlsocketfactory": 7111,
      "choose": 7112,
      "getjsfel": 7113,
      "camer": 7114,
      "dra": 7115,
      "material": 7116,
      "##plain": 7117,
      "##c>": 7118,
      "##gp": 7119,
      "##effect": 7120,
      "##_status": 7121,
      "##_for": 7122,
      "##_content": 7123,
      "##received": 7124,
      "##alk": 7125,
      "setpa": 7126,
      "intern": 7127,
      "##ddo": 7128,
      "##key>": 7129,
      "resolver": 7130,
      "##classpath": 7131,
      "##comb": 7132,
      "##lished": 7133,
      "timeunit": 7134,
      "##scheduling": 7135,
      "getjava": 7136,
      "provides": 7137,
      "##quietly": 7138,
      "rgb": 7139,
      "##glyph": 7140,
      "##flight": 7141,
      "getper": 7142,
      "readd": 7143,
      "##string[]>": 7144,
      "##ternative": 7145,
      "##user>": 7146,
      "trusted": 7147,
      "array<": 7148,
      "indexed": 7149,
      "##registers": 7150,
      "getprogress": 7151,
      "##visioner": 7152,
      "##grant": 7153,
      "mybatis": 7154,
      "getmode": 7155,
      "##trim": 7156,
      "seque": 7157,
      "getrender": 7158,
      "setcanc": 7159,
      "##locations": 7160,
      "written": 7161,
      "failures": 7162,
      "##coordinate": 7163,
      "donothing": 7164,
      "ear": 7165,
      "uid": 7166,
      "##pin": 7167,
      "##snapshot": 7168,
      "##.list": 7169,
      "##_w": 7170,
      "getbean": 7171,
      "getworkflow": 7172,
      "##sts": 7173,
      "resize": 7174,
      "is_": 7175,
      "list<address>": 7176,
      "communic": 7177,
      "##dot": 7178,
      "java.util.collection": 7179,
      "disabled": 7180,
      "putint": 7181,
      "##cluding": 7182,
      "documentation": 7183,
      "modifi": 7184,
      "backup": 7185,
      "immutablelist<": 7186,
      "##ighlighting": 7187,
      "##edge>": 7188,
      "getpayload": 7189,
      "map<class<?>,": 7190,
      "crc": 7191,
      "mmax": 7192,
      "##_none": 7193,
      "getip": 7194,
      "getstore": 7195,
      "##tare": 7196,
      "##descriptions": 7197,
      "##aved": 7198,
      "getopen": 7199,
      "point2d": 7200,
      "##socialactivity": 7201,
      "##quoted": 7202,
      "ioexception": 7203,
      "##launcher": 7204,
      "--": 7205,
      "##.ws": 7206,
      "getdoc": 7207,
      "setbean": 7208,
      "##notex": 7209,
      "ids": 7210,
      "##backoff": 7211,
      "myhost": 7212,
      "##templatelink": 7213,
      "bufferedreader": 7214,
      "cancelop": 7215,
      "canceloperation": 7216,
      "tls_": 7217,
      "whenever": 7218,
      "bytesizevalue": 7219,
      "amiactive": 7220,
      "##iber": 7221,
      "##_chart": 7222,
      "##onic": 7223,
      "##devic": 7224,
      "getorigin": 7225,
      "##elink": 7226,
      "settable": 7227,
      "setthread": 7228,
      "reply": 7229,
      "##bugenabled": 7230,
      "##faile": 7231,
      "##until": 7232,
      "##action>": 7233,
      "getrepository": 7234,
      "divide": 7235,
      "generates": 7236,
      "authenticate": 7237,
      "spdyconnection": 7238,
      "paste": 7239,
      "##monthly": 7240,
      "sharedpreferences": 7241,
      "##analyzer": 7242,
      "##categories": 7243,
      "##scriptivename": 7244,
      "##gay": 7245,
      "##und": 7246,
      "##_control": 7247,
      "getvariable": 7248,
      "setlevel": 7249,
      "##ough": 7250,
      "##valuepair": 7251,
      "##interrup": 7252,
      "class<t>": 7253,
      "unsafe": 7254,
      "##streamreader": 7255,
      "minute": 7256,
      "serialized": 7257,
      "##ynchronousworker": 7258,
      "##degree": 7259,
      "##liding": 7260,
      "sip": 7261,
      "strip": 7262,
      "##ppr": 7263,
      "##_min": 7264,
      "##b>": 7265,
      "##56": 7266,
      "confi": 7267,
      "##erature": 7268,
      "setlanguage": 7269,
      "setfilename": 7270,
      "##rier": 7271,
      "##setid": 7272,
      "##times": 7273,
      "##useruuid": 7274,
      "oncall": 7275,
      "##geto": 7276,
      "removeattribute": 7277,
      "resetnext": 7278,
      "##datamap": 7279,
      "weather": 7280,
      "connectionfactory": 7281,
      "sessionbuilder": 7282,
      "com.liferay.portal.kernel.model.cachemodel<com.liferay.": 7283,
      "getcontact": 7284,
      "assertion": 7285,
      "##attached": 7286,
      "getrequestparameter": 7287,
      "##lng": 7288,
      "java.util.list<com.liferay.portal.workflow.kaleo.model.": 7289,
      "##dimensions": 7290,
      "testremove": 7291,
      "tls_mode_": 7292,
      "##ja": 7293,
      "##jiraproject": 7294,
      "##88": 7295,
      "setproduct": 7296,
      "##laps": 7297,
      "shift": 7298,
      "remover": 7299,
      "defaultmutable": 7300,
      "what": 7301,
      "##cesses": 7302,
      "##sures": 7303,
      "##phrase": 7304,
      "getmulti": 7305,
      "getselection": 7306,
      "##set<string>>": 7307,
      "reload": 7308,
      "defaultmutabletreenode": 7309,
      "ca": 7310,
      "plus": 7311,
      "##gion": 7312,
      "setlayout": 7313,
      "setentity": 7314,
      "isf": 7315,
      "##ddat": 7316,
      "##ables": 7317,
      "getscope": 7318,
      "##dataservice": 7319,
      "##persistent": 7320,
      "expanded": 7321,
      "##counters": 7322,
      "getdb": 7323,
      "setmy": 7324,
      "getenddate": 7325,
      "uuidref": 7326,
      "lines": 7327,
      "##protected": 7328,
      "##attemptid": 7329,
      "##detector": 7330,
      "iproject": 7331,
      "vtype": 7332,
      "##pm": 7333,
      "##pent": 7334,
      "##buff": 7335,
      "##ports": 7336,
      "shuffle": 7337,
      "##manufacturer": 7338,
      "##locks": 7339,
      "eobject": 7340,
      "pvector": 7341,
      "##don": 7342,
      "conten": 7343,
      "getprice": 7344,
      "##oret": 7345,
      "##robject": 7346,
      "isauto": 7347,
      "##processed": 7348,
      "##privile": 7349,
      "httpresponse": 7350,
      "codec": 7351,
      "refres": 7352,
      "gettimezone": 7353,
      "##patial": 7354,
      "messageconsole": 7355,
      "mutablecounterlong": 7356,
      "isstateactive": 7357,
      "aw": 7358,
      "kb": 7359,
      "rank": 7360,
      "##mvc": 7361,
      "##orlimit": 7362,
      "##append": 7363,
      "onconfiguration": 7364,
      "##config>": 7365,
      "specifies": 7366,
      "##strument": 7367,
      "##vocab": 7368,
      "default_max_": 7369,
      "##clusion": 7370,
      "##certrequest": 7371,
      "##timage": 7372,
      "getclasspk": 7373,
      "##httpauth": 7374,
      "setclasspk": 7375,
      "camel": 7376,
      "##srequest": 7377,
      "getpost": 7378,
      "getpercent": 7379,
      "setnum": 7380,
      "setcustom": 7381,
      "setcity": 7382,
      "compares": 7383,
      "map<string,list<string>>": 7384,
      "getdescriptivename": 7385,
      "##long,": 7386,
      "##neg": 7387,
      "interpret": 7388,
      "##clientrequestid": 7389,
      "getlogger": 7390,
      "##committed": 7391,
      "##conversation": 7392,
      "##blockingqueue": 7393,
      "##echanged": 7394,
      "setmanagedbeaninsession": 7395,
      "##onymous": 7396,
      "jnd": 7397,
      "might": 7398,
      "##_map": 7399,
      "##fg": 7400,
      "getapi": 7401,
      "setmo": 7402,
      "##amanager": 7403,
      "##should": 7404,
      "##numbers": 7405,
      "getpr": 7406,
      "clearall": 7407,
      "subscriber": 7408,
      "minor": 7409,
      "##kaleotask": 7410,
      "typeliteral": 7411,
      "rand": 7412,
      "##ni": 7413,
      "##wire": 7414,
      "getmarker": 7415,
      "##mean": 7416,
      "##ssh": 7417,
      "##apply": 7418,
      "##quad": 7419,
      "mapped": 7420,
      "setsystem": 7421,
      "##ncer": 7422,
      "##subtype": 7423,
      "##gran": 7424,
      "java.util.list<com.liferay.social": 7425,
      "observer": 7426,
      "entersequence_main_region": 7427,
      "sethighligh": 7428,
      "boundingbox": 7429,
      "rotation": 7430,
      "##cookies": 7431,
      "##ascade": 7432,
      "setdisplayname": 7433,
      "returndata": 7434,
      "cr": 7435,
      "t>": 7436,
      "##css": 7437,
      "##vol": 7438,
      "##vtype>": 7439,
      "##xpression": 7440,
      "##textobject": 7441,
      "##tributor": 7442,
      "hashset<": 7443,
      "##stored": 7444,
      "##sonly": 7445,
      "##number>": 7446,
      "##sugges": 7447,
      "eventlistener": 7448,
      "rules": 7449,
      "##httprequest": 7450,
      "##veloper": 7451,
      "##identification": 7452,
      "adapter": 7453,
      "##iodic": 7454,
      "border": 7455,
      "cv": 7456,
      "##mul": 7457,
      "##n1": 7458,
      "getfolder": 7459,
      "seturi": 7460,
      "##acteri": 7461,
      "locate": 7462,
      "##offer": 7463,
      "##base64": 7464,
      "##withauto": 7465,
      "##negoti": 7466,
      "generation": 7467,
      "##pies": 7468,
      "##storetype": 7469,
      "fetchbyprimarykey": 7470,
      "com.amazonaws.internal.list": 7471,
      "##constructflag": 7472,
      "##withautoconstructflag": 7473,
      "com.amazonaws.internal.listwithautoconstructflag": 7474,
      "##pid": 7475,
      "##sof": 7476,
      "##horizontal": 7477,
      "##_port": 7478,
      "##_len": 7479,
      "##_order": 7480,
      "##bag": 7481,
      "##basic": 7482,
      "getmanagedbean": 7483,
      "setlink": 7484,
      "setoperation": 7485,
      "setssl": 7486,
      "setalign": 7487,
      "##nameto": 7488,
      "restart": 7489,
      "##terms": 7490,
      "##endi": 7491,
      "##ummy": 7492,
      "list<extension": 7493,
      "##versions": 7494,
      "unlock": 7495,
      "unwrap": 7496,
      "##arraylist<": 7497,
      "exitsequence_main_region": 7498,
      "##ossturbonet": 7499,
      "plugins": 7500,
      "iteration": 7501,
      "##termination": 7502,
      "##sequent": 7503,
      "datet": 7504,
      "family": 7505,
      "func": 7506,
      "poo": 7507,
      "##k>": 7508,
      "##_max": 7509,
      "##tice": 7510,
      "setconfig": 7511,
      "setdomain": 7512,
      "##uman": 7513,
      "##facade": 7514,
      "##datum": 7515,
      "##senger": 7516,
      "createtime": 7517,
      "##lasstype": 7518,
      "negative": 7519,
      "tasks": 7520,
      "counters": 7521,
      "##successful": 7522,
      "##jirachangegroup": 7523,
      "decision": 7524,
      "cst": 7525,
      "##_uri": 7526,
      "getup": 7527,
      "##conten": 7528,
      "isr": 7529,
      "prob": 7530,
      "##ourcer": 7531,
      "##parated": 7532,
      "##pref": 7533,
      "##buffer_size": 7534,
      "div": 7535,
      "##clientcertrequest": 7536,
      "closequietly": 7537,
      "##registr": 7538,
      "setreference": 7539,
      "##httpservletrequest": 7540,
      "objec": 7541,
      "queued": 7542,
      "getminimum": 7543,
      "##nano": 7544,
      "onreceivedclientcertrequest": 7545,
      "##ffic": 7546,
      "##tram": 7547,
      "gettemp": 7548,
      "##recovery": 7549,
      "##relative": 7550,
      "setvalid": 7551,
      "##atter": 7552,
      "exact": 7553,
      "##fold": 7554,
      "##doperation": 7555,
      "##try>": 7556,
      "share": 7557,
      "readchar": 7558,
      "##itemfield": 7559,
      "major": 7560,
      "descriptions": 7561,
      "##overlay": 7562,
      "##dependent": 7563,
      "estimate": 7564,
      "##presented": 7565,
      "##ibernate": 7566,
      "break": 7567,
      "illegal": 7568,
      "loop": 7569,
      "getscheme": 7570,
      "setcountry": 7571,
      "##lier": 7572,
      "##silon": 7573,
      "##quant": 7574,
      "retain": 7575,
      "##igin": 7576,
      "##paralle": 7577,
      "##docs": 7578,
      "##elow": 7579,
      "interrup": 7580,
      "##checkout": 7581,
      "decrypt": 7582,
      "getnon": 7583,
      "getcost": 7584,
      "gettoolbox": 7585,
      "##serialnumber": 7586,
      "##nullable": 7587,
      "csv": 7588,
      "##_int": 7589,
      "##_node": 7590,
      "##statet": 7591,
      "##allocation": 7592,
      "##encode": 7593,
      "bytevector": 7594,
      "##formatstring": 7595,
      "##feder": 7596,
      "getbinary": 7597,
      "formatter": 7598,
      "sessiondescriptor": 7599,
      "##pectr": 7600,
      "holder": 7601,
      "getconf": 7602,
      "setmulti": 7603,
      "entitymanager": 7604,
      "##meetupsregistration": 7605,
      "gettooldescription": 7606,
      "combine": 7607,
      "ns": 7608,
      "##org.": 7609,
      "setvisible": 7610,
      "explicit": 7611,
      "getcluster": 7612,
      "seed": 7613,
      "ready": 7614,
      "arrays": 7615,
      "##linear": 7616,
      "resetmanagedbean": 7617,
      "parses": 7618,
      "##elop": 7619,
      "serversocket": 7620,
      "clazz": 7621,
      "##_in_bytes": 7622,
      "onreceivedhttpauth": 7623,
      "setcancelop": 7624,
      "onreceivedhttpauthrequest": 7625,
      "ack": 7626,
      "##spaces": 7627,
      "##.logger": 7628,
      "##>,": 7629,
      "getinternal": 7630,
      "seti": 7631,
      "setmarker": 7632,
      "##mpp": 7633,
      "list<notification": 7634,
      "##passwordtracker": 7635,
      "interpo": 7636,
      "##modifiedby": 7637,
      "##general": 7638,
      "showfeedback": 7639,
      "##portlet.s": 7640,
      "curveto": 7641,
      "temporary": 7642,
      "##versal": 7643,
      "eviction": 7644,
      "##matches": 7645,
      "##_n": 7646,
      "##outh": 7647,
      "isallow": 7648,
      "##persist": 7649,
      "##esolver": 7650,
      "createdefault": 7651,
      "##ourl": 7652,
      "algorith": 7653,
      "##cussion": 7654,
      "getdeclared": 7655,
      "made": 7656,
      "##transformation": 7657,
      "##s_key": 7658,
      "##pied": 7659,
      "##ched": 7660,
      "##filespec": 7661,
      "##patterns": 7662,
      "removet": 7663,
      "##large": 7664,
      "vn.dtt.sol.ns.": 7665,
      "##publickey": 7666,
      "##_code": 7667,
      "##_image": 7668,
      "getoriginal": 7669,
      "##tified": 7670,
      "toplugin": 7671,
      "##ilar": 7672,
      "##keystore": 7673,
      "##estyle": 7674,
      "##ternate": 7675,
      "##corner": 7676,
      "getref": 7677,
      "stores": 7678,
      "getflag": 7679,
      "##configurations": 7680,
      "##configuration>": 7681,
      "interceptor": 7682,
      "getrange": 7683,
      "handleopenforread": 7684,
      "##hape": 7685,
      "num_": 7686,
      "beanfactory": 7687,
      "rendermanager": 7688,
      "##api.openforread": 7689,
      "sender": 7690,
      "automatically": 7691,
      "##01502.": 7692,
      "answer": 7693,
      "cordovaresourceapi.openforread": 7694,
      "topluginuri": 7695,
      "##<a": 7696,
      "##_param": 7697,
      "getidentifier": 7698,
      "getsecond": 7699,
      "getpartition": 7700,
      "setfill": 7701,
      "##sib": 7702,
      "##itable": 7703,
      "isinfo": 7704,
      "##vict": 7705,
      "##export": 7706,
      "withid": 7707,
      "##statuscode": 7708,
      "time_": 7709,
      "##serialized": 7710,
      "##instancestate": 7711,
      "printf": 7712,
      "resourceadaptor": 7713,
      "##luginuri": 7714,
      "setdevice": 7715,
      "##wsrp": 7716,
      "setstartdate": 7717,
      "parcelable": 7718,
      "setpluginhost": 7719,
      "overridden": 7720,
      "average": 7721,
      "sobject": 7722,
      "##photo": 7723,
      "##canc": 7724,
      "##sti": 7725,
      "##opt": 7726,
      "##vy": 7727,
      "##broker": 7728,
      "represented": 7729,
      "##encoder": 7730,
      "##chant": 7731,
      "##utter": 7732,
      "withnext": 7733,
      "##alentry": 7734,
      "##itemid": 7735,
      "##accessible": 7736,
      "class<?>[]": 7737,
      "##trole": 7738,
      "##ethread": 7739,
      "##choice": 7740,
      "kill": 7741,
      "ubl": 7742,
      "##_on": 7743,
      "##_interval": 7744,
      "##24": 7745,
      "##heade": 7746,
      "getsync": 7747,
      "##ctx": 7748,
      "getreport": 7749,
      "##request>": 7750,
      "##tific": 7751,
      "##filter>": 7752,
      "getfamily": 7753,
      "##clr": 7754,
      "##bindings": 7755,
      "##systemevent": 7756,
      "getmean": 7757,
      "shouldoverride": 7758,
      "previousprogresslabel": 7759,
      "frompluginuri": 7760,
      "nul": 7761,
      "##trel": 7762,
      "getprimary": 7763,
      "##alo": 7764,
      "setinitial": 7765,
      "##oup": 7766,
      "##vien": 7767,
      "subsubcategory": 7768,
      "direc": 7769,
      "##kaleocondition": 7770,
      "websocket": 7771,
      "##jsonobject>": 7772,
      "##graphics": 7773,
      "##sexception": 7774,
      "##lipse": 7775,
      "organ": 7776,
      "declaration": 7777,
      "gue": 7778,
      "setvolume": 7779,
      "isse": 7780,
      "##chil": 7781,
      "##settype": 7782,
      "enqueue": 7783,
      "##translation": 7784,
      "enddate": 7785,
      "##cesstype": 7786,
      "##voice": 7787,
      "##gradient": 7788,
      "phon": 7789,
      "##transformer": 7790,
      "assigned": 7791,
      "##minutes": 7792,
      "scala.collection.": 7793,
      "daemon": 7794,
      "##llij": 7795,
      "glyph": 7796,
      "jvm": 7797,
      "oper": 7798,
      "##s[]": 7799,
      "##_cache": 7800,
      "##idx": 7801,
      "##oid>": 7802,
      "getamount": 7803,
      "getcenter": 7804,
      "setnumberof": 7805,
      "##ddi": 7806,
      "list<node>": 7807,
      "##compet": 7808,
      "testhashcode": 7809,
      "clearservice": 7810,
      "sugges": 7811,
      "getdistance": 7812,
      "##contacts.model.": 7813,
      "##delements": 7814,
      "isexpired": 7815,
      "org.talend.mdm.webservice.ws": 7816,
      "asci": 7817,
      "ubl20": 7818,
      "confirm": 7819,
      "##fice": 7820,
      "##typeid": 7821,
      "createin": 7822,
      "##thrift": 7823,
      "decor": 7824,
      "##ically": 7825,
      "##ithread": 7826,
      "compiler": 7827,
      "##indexed": 7828,
      "precision": 7829,
      "##streaming": 7830,
      "##parametervalue": 7831,
      "##property>": 7832,
      "getbinding": 7833,
      "threadpool": 7834,
      "converter": 7835,
      "getrule": 7836,
      "blocking": 7837,
      "##later": 7838,
      "mockhttpservletrequest": 7839,
      "##timezonename": 7840,
      "##rottled": 7841,
      "cosdictionary": 7842,
      "##p2p": 7843,
      "##conciler": 7844,
      "em": 7845,
      "flip": 7846,
      "##zel": 7847,
      "##v6": 7848,
      "##.task": 7849,
      "##<integer>": 7850,
      "getoption": 7851,
      "getany": 7852,
      "##ecute": 7853,
      "##nap": 7854,
      "incr": 7855,
      "##ene": 7856,
      "isorig": 7857,
      "##izard": 7858,
      "test_": 7859,
      "##communic": 7860,
      "maxsize": 7861,
      "expiration": 7862,
      "sessionfactory": 7863,
      "webdavprops": 7864,
      "includes": 7865,
      "isdebugenabled": 7866,
      "##bucketname": 7867,
      "##dlfilerank": 7868,
      "similar": 7869,
      "##properti": 7870,
      "cordovaresourceapi.openforreadresult": 7871,
      "campaign": 7872,
      "jsp": 7873,
      "sparse": 7874,
      "##span": 7875,
      "##hour": 7876,
      "##ino": 7877,
      "getleft": 7878,
      "getvolume": 7879,
      "getreturn": 7880,
      "##tier": 7881,
      "##pear": 7882,
      "##advance": 7883,
      "isg": 7884,
      "isnull": 7885,
      "now": 7886,
      "##formula": 7887,
      "##actiontype": 7888,
      "##agree": 7889,
      "##culation": 7890,
      "##soap": 7891,
      "heap": 7892,
      "services": 7893,
      "calculates": 7894,
      "##timetolive": 7895,
      "stext": 7896,
      "still": 7897,
      "vend": 7898,
      "##pd": 7899,
      "getchannel": 7900,
      "getdownload": 7901,
      "setapp": 7902,
      "##mend": 7903,
      "##configured": 7904,
      "##integer>>": 7905,
      "##neww": 7906,
      "clearoute": 7907,
      "##columnname": 7908,
      "##submit": 7909,
      "##role>": 7910,
      "minus": 7911,
      "##sources": 7912,
      "##childpaste": 7913,
      "##functions": 7914,
      "##templateversion": 7915,
      "getencryption": 7916,
      "##deliver": 7917,
      "setuuidref": 7918,
      "##cancelled": 7919,
      "shouldallownavigation": 7920,
      "onconfigurationchanged": 7921,
      "clearoutevents": 7922,
      "##childpasteoperation": 7923,
      "dst": 7924,
      "pie": 7925,
      "publickey": 7926,
      "ss": 7927,
      "zoom": 7928,
      "##_height": 7929,
      "##eting": 7930,
      "gettax": 7931,
      "##std": 7932,
      "issecure": 7933,
      "createresource": 7934,
      "list<e>": 7935,
      "addheader": 7936,
      "design": 7937,
      "##parsed": 7938,
      "putlong": 7939,
      "localdate": 7940,
      "##jobs": 7941,
      "setenable": 7942,
      "##deventattributes": 7943,
      "##coordinator": 7944,
      "getuuidref": 7945,
      "##aprovider": 7946,
      "##====": 7947,
      "##prepared": 7948,
      "##microblogsentry": 7949,
      "1.": 7950,
      "did": 7951,
      "hig": 7952,
      "high": 7953,
      "##press": 7954,
      "##dra": 7955,
      "##drop": 7956,
      "##.ossturbonet": 7957,
      "##whe": 7958,
      "##wap": 7959,
      "getpri": 7960,
      "getitems": 7961,
      "##nto": 7962,
      "recom": 7963,
      "##mos": 7964,
      "low": 7965,
      "combin": 7966,
      "##compare": 7967,
      "fileaccess": 7968,
      "pref": 7969,
      "##formp": 7970,
      "##minator": 7971,
      "##retty": 7972,
      "##grp": 7973,
      "##posit": 7974,
      "intersection": 7975,
      "##ickstart": 7976,
      "##where": 7977,
      "##library.model.": 7978,
      "##dto>": 7979,
      "##bedpane": 7980,
      "##vidual": 7981,
      "##_control_": 7982,
      "black": 7983,
      "plain": 7984,
      "ve": 7985,
      "##mto": 7986,
      "##kent": 7987,
      "##b_": 7988,
      "##bench": 7989,
      "getbackground": 7990,
      "##reques": 7991,
      "setresults": 7992,
      "com.inte": 7993,
      "com.liferay.lms.model.": 7994,
      "nameaddress": 7995,
      "##lds": 7996,
      "finds": 7997,
      "##gui": 7998,
      "##csv": 7999
    }
  }
}